{
  "version": "1.0",
  "truncation": null,
  "padding": null,
  "added_tokens": [
    {
      "id": 0,
      "content": "<unk>",
      "single_word": false,
      "lstrip": false,
      "rstrip": false,
      "normalized": false,
      "special": true
    },
    {
      "id": 1,
      "content": "<pad>",
      "single_word": false,
      "lstrip": false,
      "rstrip": false,
      "normalized": false,
      "special": true
    },
    {
      "id": 2,
      "content": "<bos>",
      "single_word": false,
      "lstrip": false,
      "rstrip": false,
      "normalized": false,
      "special": true
    },
    {
      "id": 3,
      "content": "<eos>",
      "single_word": false,
      "lstrip": false,
      "rstrip": false,
      "normalized": false,
      "special": true
    }
  ],
  "normalizer": {
    "type": "NFC"
  },
  "pre_tokenizer": {
    "type": "ByteLevel",
    "add_prefix_space": false,
    "trim_offsets": true,
    "use_regex": true
  },
  "post_processor": null,
  "decoder": {
    "type": "ByteLevel",
    "add_prefix_space": true,
    "trim_offsets": true,
    "use_regex": true
  },
  "model": {
    "type": "BPE",
    "dropout": null,
    "unk_token": "<unk>",
    "continuing_subword_prefix": null,
    "end_of_word_suffix": null,
    "fuse_unk": false,
    "byte_fallback": false,
    "ignore_merges": false,
    "vocab": {
      "<unk>": 0,
      "<pad>": 1,
      "<bos>": 2,
      "<eos>": 3,
      "!": 4,
      "\"": 5,
      "#": 6,
      "$": 7,
      "%": 8,
      "&": 9,
      "'": 10,
      "(": 11,
      ")": 12,
      "*": 13,
      "+": 14,
      ",": 15,
      "-": 16,
      ".": 17,
      "/": 18,
      "0": 19,
      "1": 20,
      "2": 21,
      "3": 22,
      "4": 23,
      "5": 24,
      "6": 25,
      "7": 26,
      "8": 27,
      "9": 28,
      ":": 29,
      ";": 30,
      "<": 31,
      "=": 32,
      ">": 33,
      "?": 34,
      "@": 35,
      "A": 36,
      "B": 37,
      "C": 38,
      "D": 39,
      "E": 40,
      "F": 41,
      "G": 42,
      "H": 43,
      "I": 44,
      "J": 45,
      "K": 46,
      "L": 47,
      "M": 48,
      "N": 49,
      "O": 50,
      "P": 51,
      "Q": 52,
      "R": 53,
      "S": 54,
      "T": 55,
      "U": 56,
      "V": 57,
      "W": 58,
      "X": 59,
      "Y": 60,
      "Z": 61,
      "[": 62,
      "\\": 63,
      "]": 64,
      "^": 65,
      "_": 66,
      "`": 67,
      "a": 68,
      "b": 69,
      "c": 70,
      "d": 71,
      "e": 72,
      "f": 73,
      "g": 74,
      "h": 75,
      "i": 76,
      "j": 77,
      "k": 78,
      "l": 79,
      "m": 80,
      "n": 81,
      "o": 82,
      "p": 83,
      "q": 84,
      "r": 85,
      "s": 86,
      "t": 87,
      "u": 88,
      "v": 89,
      "w": 90,
      "x": 91,
      "y": 92,
      "z": 93,
      "{": 94,
      "|": 95,
      "}": 96,
      "~": 97,
      "¡": 98,
      "¢": 99,
      "£": 100,
      "¤": 101,
      "¥": 102,
      "¦": 103,
      "§": 104,
      "¨": 105,
      "©": 106,
      "ª": 107,
      "«": 108,
      "¬": 109,
      "®": 110,
      "¯": 111,
      "°": 112,
      "±": 113,
      "²": 114,
      "³": 115,
      "´": 116,
      "µ": 117,
      "¶": 118,
      "·": 119,
      "¸": 120,
      "¹": 121,
      "º": 122,
      "»": 123,
      "¼": 124,
      "½": 125,
      "¾": 126,
      "¿": 127,
      "À": 128,
      "Á": 129,
      "Â": 130,
      "Ã": 131,
      "Ä": 132,
      "Å": 133,
      "Æ": 134,
      "Ç": 135,
      "È": 136,
      "É": 137,
      "Ê": 138,
      "Ë": 139,
      "Ì": 140,
      "Í": 141,
      "Î": 142,
      "Ï": 143,
      "Ð": 144,
      "Ñ": 145,
      "Ò": 146,
      "Ó": 147,
      "Ô": 148,
      "Õ": 149,
      "Ö": 150,
      "×": 151,
      "Ø": 152,
      "Ù": 153,
      "Ú": 154,
      "Û": 155,
      "Ü": 156,
      "Ý": 157,
      "Þ": 158,
      "ß": 159,
      "à": 160,
      "á": 161,
      "â": 162,
      "ã": 163,
      "ä": 164,
      "å": 165,
      "æ": 166,
      "ç": 167,
      "è": 168,
      "é": 169,
      "ê": 170,
      "ë": 171,
      "ì": 172,
      "í": 173,
      "î": 174,
      "ï": 175,
      "ð": 176,
      "ñ": 177,
      "ò": 178,
      "ó": 179,
      "ô": 180,
      "õ": 181,
      "ö": 182,
      "÷": 183,
      "ø": 184,
      "ù": 185,
      "ú": 186,
      "û": 187,
      "ü": 188,
      "ý": 189,
      "þ": 190,
      "ÿ": 191,
      "Ā": 192,
      "ā": 193,
      "Ă": 194,
      "ă": 195,
      "Ą": 196,
      "ą": 197,
      "Ć": 198,
      "ć": 199,
      "Ĉ": 200,
      "ĉ": 201,
      "Ċ": 202,
      "ċ": 203,
      "Č": 204,
      "č": 205,
      "Ď": 206,
      "ď": 207,
      "Đ": 208,
      "đ": 209,
      "Ē": 210,
      "ē": 211,
      "Ĕ": 212,
      "ĕ": 213,
      "Ė": 214,
      "ė": 215,
      "Ę": 216,
      "ę": 217,
      "Ě": 218,
      "ě": 219,
      "Ĝ": 220,
      "ĝ": 221,
      "Ğ": 222,
      "ğ": 223,
      "Ġ": 224,
      "ġ": 225,
      "Ģ": 226,
      "ģ": 227,
      "Ĥ": 228,
      "ĥ": 229,
      "Ħ": 230,
      "ħ": 231,
      "Ĩ": 232,
      "ĩ": 233,
      "Ī": 234,
      "ī": 235,
      "Ĭ": 236,
      "ĭ": 237,
      "Į": 238,
      "į": 239,
      "İ": 240,
      "ı": 241,
      "Ĳ": 242,
      "ĳ": 243,
      "Ĵ": 244,
      "ĵ": 245,
      "Ķ": 246,
      "ķ": 247,
      "ĸ": 248,
      "Ĺ": 249,
      "ĺ": 250,
      "Ļ": 251,
      "ļ": 252,
      "Ľ": 253,
      "ľ": 254,
      "Ŀ": 255,
      "ŀ": 256,
      "Ł": 257,
      "ł": 258,
      "Ń": 259,
      "Ø§": 260,
      "ÙĦ": 261,
      "ÙĬ": 262,
      "Ø§ÙĦ": 263,
      "Ùħ": 264,
      "ĠØ": 265,
      "ĠØ§ÙĦ": 266,
      "ÙĪ": 267,
      "ÙĨ": 268,
      "Ø§Ø": 269,
      "Ø±": 270,
      "Ø©": 271,
      "Øª": 272,
      "Ùģ": 273,
      "ĠØ§ÙĦØ": 274,
      "Ø¯": 275,
      "ÙĤ": 276,
      "Ùĩ": 277,
      "Ùĥ": 278,
      "ĠÙħ": 279,
      "Ø¨": 280,
      "Ø¹": 281,
      "Ø³": 282,
      "ĠÙĪ": 283,
      "Ùī": 284,
      "ÙĬØ©": 285,
      "ĠØ¨": 286,
      "Ø§ÙĨ": 287,
      "ĠÙģ": 288,
      "ØŃ": 289,
      "ĠØ§ÙĦÙħ": 290,
      "Ø§Øª": 291,
      "ĠÙĦ": 292,
      "Ø§Ø±": 293,
      "ĠØ¹": 294,
      "Ø¬": 295,
      "ĠØª": 296,
      "ÙĬÙĨ": 297,
      "ĠÙģÙĬ": 298,
      "Øµ": 299,
      "ĠØ£": 300,
      "Ø·": 301,
      "ĠÙħÙĨ": 302,
      "Ø§Ùħ": 303,
      "Ø´": 304,
      "ÙĪÙĦ": 305,
      "Ø²": 306,
      "Ø¶": 307,
      "ÙĦÙī": 308,
      "ÙĬØ±": 309,
      "ØĮ": 310,
      "ĠÙĬ": 311,
      "Ø§Ø³": 312,
      "Ø§Ø¯": 313,
      "ÙĪÙĨ": 314,
      "ĠØ§ÙĦØª": 315,
      "ÙĩØ§": 316,
      "ĠØ¥": 317,
      "Ø±ÙĬ": 318,
      "Ø®": 319,
      "Ø£": 320,
      "Ø«": 321,
      "ĠØ³": 322,
      "ĠØ§ÙĦØ¹": 323,
      "Ø§Ø¹": 324,
      "ĠØŃ": 325,
      "ĠÙĪØ§ÙĦ": 326,
      "Ø°": 327,
      "ĠÙĥ": 328,
      "Ø§Ø¡": 329,
      "Ø§Ø¨": 330,
      "ĠØ¹ÙĦÙī": 331,
      "Ø§Ø¦": 332,
      "ĠÙĤ": 333,
      "Ø§ÙĤ": 334,
      "ÙĦÙĬ": 335,
      "ÙĪØ±": 336,
      "ĠØ§ÙĦØ£": 337,
      "Ùĭ": 338,
      "ÙĪÙħ": 339,
      "Øº": 340,
      "ĠÙĩ": 341,
      "ĠÙĦÙĦ": 342,
      "ĠØ§ÙĨ": 343,
      "ĠÙĨ": 344,
      "ĠØ§ÙĦØ³": 345,
      "ĠØ¬": 346,
      "Ø§Ùģ": 347,
      "ĠØ¯": 348,
      "ĠØ£ÙĨ": 349,
      "ÙĬØ¯": 350,
      "ĠØ§ÙĦØŃ": 351,
      "ÙĬÙĦ": 352,
      "ĠØ±": 353,
      "ÙĪÙĤ": 354,
      "ĠØ®": 355,
      "ĠØ´": 356,
      "ÙħØ§": 357,
      "Ø§ØŃ": 358,
      "Ġ\"": 359,
      "Ø¦": 360,
      "ĠØ§ÙĦØ¯": 361,
      "ĠØ§ÙĦØ¨": 362,
      "ÙĬØ§": 363,
      "Ø±Ùĥ": 364,
      "ĠØ§ÙĦÙĤ": 365,
      "Ø§Ø³Øª": 366,
      "Ø§Ø¬": 367,
      "Ø³Øª": 368,
      "ÙĪØ¯": 369,
      "ĠØ§ÙĦØ¬": 370,
      "Ø±Ø¨": 371,
      "ÙĩÙħ": 372,
      "ÙĬØ³": 373,
      "ĠØ¥ÙĦÙī": 374,
      "ĠÙħØ¹": 375,
      "Ø¸": 376,
      "ØªÙħ": 377,
      "Ø±Ø©": 378,
      "Ġ1": 379,
      "Ø¹Ø¯": 380,
      "ĠØ¨Ø§ÙĦ": 381,
      "ĠØ§ÙĦØ´": 382,
      "ØµØ±": 383,
      "ĠØ¹ÙĨ": 384,
      "ĠØ§ÙĦÙĨ": 385,
      "ĠØ§ÙĦÙģ": 386,
      "ÙĪØ¨": 387,
      "Ø§Ùĥ": 388,
      "ÙħÙĨ": 389,
      "Ø¯Ø©": 390,
      "Ø§ÙĬ": 391,
      "ĠØ§ÙĦÙī": 392,
      "ÙħØ©": 393,
      "Ø¤": 394,
      "ĠØ§ÙĦØªÙĬ": 395,
      "Ø±ÙĪ": 396,
      "ĠÙĩØ°": 397,
      "ĠØ§ÙĦØµ": 398,
      "ÙħÙĦ": 399,
      "ÙĤØ¯": 400,
      "ĠØ§ÙĦØ®": 401,
      "Ø¨Ø±": 402,
      "Ø§Ø¶": 403,
      "Ø§Ø·": 404,
      "Ø§Øµ": 405,
      "ÙĦÙĥ": 406,
      "ĠØµ": 407,
      "ØªØŃ": 408,
      "ÙĦØ³": 409,
      "Ø¹Ø©": 410,
      "ĠØ§ÙĦØ¥": 411,
      "ĠØ§ÙĦØ±": 412,
      "ĠØ§ÙĦØ°": 413,
      "ÙĢ": 414,
      "ÙģÙĬ": 415,
      "Ø¨ÙĦ": 416,
      "Ø¥": 417,
      "ĠØ§ÙĦÙĪ": 418,
      "Ø§Ø±Ø©": 419,
      "ÙĨÙĬ": 420,
      "ÙĤØ©": 421,
      "ĠØº": 422,
      "ĠÙģÙī": 423,
      "ĠØ·": 424,
      "Ġ(": 425,
      "ÙĬÙħ": 426,
      "ĠØ¨ÙĬÙĨ": 427,
      "Ø¦ÙĬØ³": 428,
      "ØªØ±": 429,
      "ÙĦØ©": 430,
      "Ġ2": 431,
      "Ø³Ø¨": 432,
      "ĠØ§ÙĦÙĥ": 433,
      "Ø§ÙĪ": 434,
      "Ø§Ø®": 435,
      "ÙĦØ§ÙĦ": 436,
      "Ø¯ÙĬØ¯": 437,
      "ĠÙĦÙħ": 438,
      "Ø±Ø§Ø¦": 439,
      "ÙĪØ³": 440,
      "ĠØ§ÙĦÙħÙĨ": 441,
      "Ø§Ùĩ": 442,
      "Ø¹ÙĦ": 443,
      "ÙħØ§ÙĦ": 444,
      "ÙĪÙĬ": 445,
      "ÙĥÙĨ": 446,
      "ØªÙĬ": 447,
      "Ø§Ø²": 448,
      "Ø±Ø§ÙĤ": 449,
      "ÙħÙĪ": 450,
      "ĠØ§Ø³Øª": 451,
      "Ø§ÙĨØª": 452,
      "ĠØ§ÙĦØ¯ÙĪÙĦ": 453,
      "ÙĬØ¹": 454,
      "ĠØ§ÙĦÙĬ": 455,
      "ĠØ§ÙĦØ·": 456,
      "Ø§Ø«": 457,
      "ÙħØ±": 458,
      "ØªÙĩ": 459,
      "Ø§Ø¯Ø©": 460,
      "00": 461,
      "ĠØ¯ÙĪÙĦ": 462,
      "Ø§Ø´": 463,
      "ĠØ°": 464,
      "ĠØ§ÙĦØ°ÙĬ": 465,
      "ĠÙħÙĦÙĬ": 466,
      "ÙĬÙĬÙĨ": 467,
      "ĠØ³ÙĬ": 468,
      "ĠÙħØŃ": 469,
      "ÙĥÙĪÙħ": 470,
      "ĠÙħØ§": 471,
      "ÙĦÙħ": 472,
      "Ø±Ø§Ø¡": 473,
      "ĠÙħØ¬": 474,
      "ØµÙĦ": 475,
      "Ø£ÙĨ": 476,
      "ĠÙĪØª": 477,
      "ĠØ¹Ø§Ùħ": 478,
      "ĠØªØŃ": 479,
      "ÙĦØ¨": 480,
      "ÙĤØ±": 481,
      "ĠÙĩØ°Ùĩ": 482,
      "ÙĦÙģ": 483,
      "ÙĪÙĥ": 484,
      "ÙĪØ§": 485,
      "Ø³ÙĬ": 486,
      "ÙĦØ§": 487,
      "Ø¯Ø±": 488,
      "ĠÙħØµØ±": 489,
      "Ø§ÙĪÙĦ": 490,
      "\".": 491,
      "ÙĤÙĬ": 492,
      "ĠØ®ÙĦØ§ÙĦ": 493,
      "ĠØ§ÙĦØ§Ùħ": 494,
      "Ø¯ÙĬ": 495,
      "ÙĪØ¬": 496,
      "ĠØ§ÙĦØ«": 497,
      "ĠØ¨Ø¹Ø¯": 498,
      "ÙĩØ±": 499,
      "ĠØ§ÙĦÙħØµ": 500,
      "Ø§ÙĨÙĬ": 501,
      "ĠØ¶": 502,
      "Ø§ÙĦÙĬ": 503,
      "Ø´Ø§Ø±": 504,
      "ĠÙĩØ°Ø§": 505,
      "Ø§ÙĦÙħ": 506,
      "ĠÙĪØ²": 507,
      "Ø±ÙĥØ©": 508,
      "Ø¯Ø¯": 509,
      "Ø±Ùģ": 510,
      "Ø§ÙĨÙĬØ©": 511,
      "ÙĨØ©": 512,
      "ØªØ¨": 513,
      "ÙĥØ±": 514,
      "Ø±ÙĬÙĥ": 515,
      "ÙĦØ§Ùħ": 516,
      "ÙħØ§Ø±": 517,
      "ĠÙħØ³": 518,
      "Ø·ÙĬÙĨ": 519,
      "Â»": 520,
      "ĠØ²": 521,
      "ØªØµ": 522,
      "Ø±Ø¶": 523,
      "Â«": 524,
      "ĠØ§ÙĦÙħØŃ": 525,
      "ĠØ§ÙĦØ¹Ø§Ùħ": 526,
      "ĠØ§ÙĦØ¹Ø±Ø§ÙĤ": 527,
      "ĠØ§Ø¹": 528,
      "Ø¨ÙĬ": 529,
      "ÙĬÙģ": 530,
      "ĠØ¥ÙĨ": 531,
      "ĠÙĦØ§": 532,
      "Ø´Ø±": 533,
      "ÙĦØ³Ø·ÙĬÙĨ": 534,
      "ÙĨØ¯": 535,
      "ÙĬØ±Ø©": 536,
      "ĠØªØ¹": 537,
      "ÙĪØª": 538,
      "Ø·Ø©": 539,
      "Ø®Ø±": 540,
      "ÙĩØ¯": 541,
      "ĠØ¨ÙĨ": 542,
      "ÙĪØ¹": 543,
      "ĠÙĥØ§ÙĨ": 544,
      "ĠÙĪÙĤ": 545,
      "Ġ.": 546,
      "ĠØ§ÙĦÙĦ": 547,
      "ĠÙħÙĦÙĬÙĪÙĨ": 548,
      "Ø³Ùħ": 549,
      "ĠÂ»": 550,
      "ĠØ«": 551,
      "ØªØ¬": 552,
      "Ø±Ø§Ø¦ÙĬÙĦ": 553,
      "ÙĥÙĪÙħØ©": 554,
      "ĠÙħØ´": 555,
      "Ø¯ÙĬÙĨ": 556,
      "ĠØ§ÙĦØ§Ø³": 557,
      "ÙĨØ§": 558,
      "ÙĪÙģ": 559,
      "ÙĥÙĦ": 560,
      "ĠØ§ÙĦØ§Ø³Øª": 561,
      "ÙĪØ§Øª": 562,
      "ØªÙĩØ§": 563,
      "ĠÙĪÙħ": 564,
      "ĠØ§ÙĦÙĬÙĪÙħ": 565,
      "ĠØ§ÙĦÙħØªØŃ": 566,
      "ÙĥÙĪÙĨ": 567,
      "ØªØ¹": 568,
      "ÙĤÙĦ": 569,
      "ĠØ§ÙĦÙħØ³": 570,
      "Ø±ÙĬÙĤ": 571,
      "ØŃØ©": 572,
      "Ø§Ø±ÙĬ": 573,
      "Ġ3": 574,
      "Ø¨Ø¯": 575,
      "ĠØªÙħ": 576,
      "ØªÙģ": 577,
      "Ø§Ø¯Ø±": 578,
      "ĠØ£ÙĪ": 579,
      "ĠØ§Ø³": 580,
      "Ø±ÙĤ": 581,
      "Ø±ÙĨ": 582,
      "Ø«Ø±": 583,
      "ĠØ§ÙĦÙħØµØ±": 584,
      "Ø§Ø±Ø¬": 585,
      "ĠØ§Ùħ": 586,
      "ĠØ¯ÙĪÙĦØ§Ø±": 587,
      "ĠØ§ÙĦØº": 588,
      "Ø§ÙĦØ©": 589,
      "ÙĥØ§ÙĨ": 590,
      "ÙĪØ£": 591,
      "Ø²ÙĬ": 592,
      "ĠØ§ÙĦÙħØªØŃØ¯Ø©": 593,
      "ÙĪØ±ÙĬ": 594,
      "Ø¯Ùħ": 595,
      "ĠÙĪÙĩ": 596,
      "ÙĪÙĤØ§ÙĦ": 597,
      "ĠØ±Ø¦ÙĬØ³": 598,
      "ĠØ§ÙĦØ£Ùħ": 599,
      "ÙĢÙĢ": 600,
      "ĠØ£ÙĬ": 601,
      "Ø¹Ø¶": 602,
      "Ø·ÙĤØ©": 603,
      "ĠÙĥÙĦ": 604,
      "ĠÙĪØ§ÙĦÙħ": 605,
      "Ġ19": 606,
      "ĠÙħÙĪ": 607,
      "ĠØ§ÙĦÙħØ³Øª": 608,
      "ĠØ°ÙĦÙĥ": 609,
      "Ø§Ø°": 610,
      "ĠØ¨Ø¯": 611,
      "Ø¨Ø©": 612,
      "Ø«ÙĦ": 613,
      "Ø§Ø±Ø§Øª": 614,
      "ĠÙħØµ": 615,
      "ĠØ§Øª": 616,
      "ĠÙĪØ£": 617,
      "ĠØ§ÙĦÙħÙĤ": 618,
      "ĠØ§ÙĦÙħØ¹": 619,
      "ĠØ§ÙĦÙħØµØ±ÙĬØ©": 620,
      "ĠØ§ÙĦØ³ÙĬ": 621,
      "ĠØ¨ÙĦ": 622,
      "ĠØ§ÙĦØ§Øª": 623,
      "Ø¬Ùħ": 624,
      "ĠØ§ÙĦØ±Ø¦ÙĬØ³": 625,
      "ØŃØ¯": 626,
      "Ø§Ø¶ÙĬ": 627,
      "Ø§ØµØ©": 628,
      "Ø§Ø©": 629,
      "ĠÙĪØ¨": 630,
      "ĠØ£Ùĥ": 631,
      "ÙĪØ±Ø©": 632,
      "ĠØªÙĨ": 633,
      "Ø§Ø¹Ø©": 634,
      "ĠØ§ØŃ": 635,
      "ÙĦØ§ÙĤ": 636,
      "Ø±ÙĥØ§Øª": 637,
      "ØªÙĨ": 638,
      "Ø±ÙĪØ¹": 639,
      "ĠÙĬØ¹": 640,
      "ÙģØ§ÙĤ": 641,
      "ØŃÙĪ": 642,
      "ÙĬØ§Øª": 643,
      "ĠØ§ÙĦØªØ¬": 644,
      "ĠØ¢": 645,
      "ÙĪØ§ÙĨ": 646,
      "ĠØ§ÙĦÙħØª": 647,
      "ÙĬØ«": 648,
      "ĠØ§ÙĦØ¥Ø³": 649,
      "ĠØ§ÙĦÙħØµØ±ÙĬ": 650,
      "ĠÙĪØ¬": 651,
      "ĠØ§ÙĦØ¹Ø±Ø¨": 652,
      "ĠØ§ÙĦØŃÙĥÙĪÙħØ©": 653,
      "ÙĨØª": 654,
      "ĠØ§ÙĦÙħØ¬": 655,
      "ĠÙĤØ¯": 656,
      "Ø§ÙĤØªØµ": 657,
      "ĠØ§Ø±": 658,
      "Ø§ÙĤØªØµØ§Ø¯": 659,
      "Ø¨ÙĬØ©": 660,
      "ĠØ¨Ùħ": 661,
      "ĠØ§ÙĦÙģÙĦØ³Ø·ÙĬÙĨ": 662,
      "ĠÙĪØ²ÙĬØ±": 663,
      "ØªÙī": 664,
      "ĠØ§ÙĦÙĩ": 665,
      "Ø¨ÙĨ": 666,
      "ÙĪÙī": 667,
      "ÙĥØª": 668,
      "Ø®Øµ": 669,
      "ĠÙħØ³Øª": 670,
      "Ø¶Ø¹": 671,
      "ĠÙĬÙĪÙħ": 672,
      "ÙĪÙĬØ©": 673,
      "ĠØ§ÙĦÙħØ´": 674,
      "Ø§ÙĨØ¨": 675,
      "ÙĬÙĦÙĬ": 676,
      "ĠÙħÙĤ": 677,
      "ĠØ¹ÙĦÙĬ": 678,
      "Ø³Ø¹": 679,
      "ĠØ§Ø¬": 680,
      "ĠØ§ÙĦØ¨ÙĦ": 681,
      "ĠØ§ÙĦØ¹Ø§ÙĦÙħ": 682,
      "ÙĦØ§Ø«": 683,
      "Ø°Ø§": 684,
      "ÙģØ¶": 685,
      "Ø¡": 686,
      "ÙĨÙĬÙĩ": 687,
      "ÙħØ¯": 688,
      "ÙĪØ²": 689,
      "Ø«ÙħØ§Ø±": 690,
      "Ø¯ÙĬØ¯Ø©": 691,
      "ĠÙĦØª": 692,
      "Ø¦Ø©": 693,
      "ÙĨÙĬØ©": 694,
      "ĠØªØ´": 695,
      "ÙĦÙĤ": 696,
      "ÙĬØ§ÙĨ": 697,
      "Ø¶Ø§": 698,
      "Ø§ÙĬØ§Øª": 699,
      "ĠØ£Ùħ": 700,
      "ĠÙĦÙĦÙħ": 701,
      "ĠÙħØ±": 702,
      "ĠØºÙĬØ±": 703,
      "ĠÙĤØ¨ÙĦ": 704,
      "ĠØ§": 705,
      "Ø²Ø¨": 706,
      "ĠØ§ÙĦÙħÙĪ": 707,
      "Ø¹Ø¨": 708,
      "ĠØ³Øª": 709,
      "ÙĬØ´": 710,
      "Ø§ÙģØ©": 711,
      "ĠØ§ÙĦØ®Ø§Ø±Ø¬": 712,
      "Ø¯Ø§": 713,
      "ÙģØ³": 714,
      "ĠØ§ÙĬ": 715,
      "Ø¨ØŃ": 716,
      "ÙĨÙĪØ¨": 717,
      "ĠÙĩÙĪ": 718,
      "Ø£Ø³": 719,
      "Ùĳ": 720,
      "ĠÙĬÙħ": 721,
      "ÙĦÙĬØ©": 722,
      "ÙĬØ±Ùĥ": 723,
      "ĠÙĪÙģ": 724,
      "ÙĪÙĦØ§ÙĬØ§Øª": 725,
      "ĠØ¨ØŃ": 726,
      "ĠØĮ": 727,
      "ĠØ¨Ø±": 728,
      "ÙĪØ±ÙĬØ©": 729,
      "ĠÙĪÙĥ": 730,
      "ĠØ¨Ø´": 731,
      "ĠØ§ÙĦØ¬Ùħ": 732,
      "ĠÙĥØ¨": 733,
      "Ø§ÙĦÙĬØ©": 734,
      "Ġ200": 735,
      "Ø¹Ø§": 736,
      "Ø¹Ùħ": 737,
      "ĠØ¹Ø¯Ø¯": 738,
      "Ø¤ÙĪÙĦ": 739,
      "ĠØ§ÙĦØ¨ÙĨ": 740,
      "ØŃØ§Ø¯": 741,
      "ÙĬØ±Ø§": 742,
      "ĠÙħØª": 743,
      "ĠØªØ±": 744,
      "Ø°ÙĦÙĥ": 745,
      "Ġ15": 746,
      "Ø¥ÙĨ": 747,
      "ĠØªÙĤ": 748,
      "ÙĪØ±ÙĪØ¨": 749,
      "ĠØ§ÙĦØ§ÙĨ": 750,
      "ĠÙĩÙĬ": 751,
      "ĠØ§ÙĦÙĪØ²": 752,
      "ÙĪÙĤØ¹": 753,
      "ĠÙĬØª": 754,
      "Ø¯Ùī": 755,
      "ĠÙĪÙĬ": 756,
      "Ġ-": 757,
      "ÙĥØ©": 758,
      "Ø¹ÙĪØ¯": 759,
      "Ø·Ø±": 760,
      "Ø¸Ø±": 761,
      "Ø§Ø³ÙĬØ©": 762,
      "ĠØ£ÙĨÙĩ": 763,
      "Ø²Ø©": 764,
      "ĠØŃÙĬØ«": 765,
      "ĠØ¹ÙħÙĦ": 766,
      "Ø§Ø³Ø©": 767,
      "ĠØ§ÙĦØ²": 768,
      "ØŃÙĬ": 769,
      "Ø³Ø©": 770,
      "ĠÙĥØ§ÙĨØª": 771,
      "ĠÙħØ¨": 772,
      "Ø·Ø§Ø¹": 773,
      "ĠÙħØ¤": 774,
      "Ø§ÙħÙĦ": 775,
      "ĠØ§ÙĦÙħØ§Ø¶ÙĬ": 776,
      "ÙģØ·": 777,
      "Ø§Ø¦Ø±": 778,
      "ĠØŃØªÙī": 779,
      "ĠØ§ÙĦØ§ÙĤØªØµØ§Ø¯": 780,
      "ØªÙĬÙĨ": 781,
      "ĠÙħÙĨØ°": 782,
      "ÙĬÙĪÙĨ": 783,
      "ĠØªØµ": 784,
      "Ø§Ø±ÙĬØ©": 785,
      "ÙĪØ©": 786,
      "ÙĪØµ": 787,
      "ÙĨØ§Ùĥ": 788,
      "Ø§Ø±Ø³": 789,
      "Ø³Ø¨Ø©": 790,
      "Ùį": 791,
      "ĠØ§Ø®": 792,
      "ĠØªØ¬": 793,
      "ĠØ§ÙĦØ®Ø§Ø±Ø¬ÙĬØ©": 794,
      "..": 795,
      "ĠØ§ÙĦØ§Ø±": 796,
      "ĠØ¬Ùħ": 797,
      "ÙĬÙĪ": 798,
      "ĠØ¨Ø¹Ø¶": 799,
      "ĠÙħØ¬ÙĦØ³": 800,
      "ĠØ§ÙĦÙħØ±": 801,
      "ĠØ¬ÙĨÙĬÙĩ": 802,
      "ÙĪØ·": 803,
      "ĠÙĥÙħØ§": 804,
      "ØªÙħØ§Ø¹": 805,
      "Ø§ÙĦØ§Øª": 806,
      "ĠÙĦÙĩ": 807,
      "Ø¬ÙĦ": 808,
      "ĠØ¥Ø³": 809,
      "Ø§ÙĨÙĪÙĨ": 810,
      "Ø¯Ø§Ø¯": 811,
      "Ø±Ø§Ø¦ÙĬÙĦÙĬ": 812,
      "ĠØ§Ùĥ": 813,
      "ÙĪØ¶": 814,
      "Ø¹Øª": 815,
      "Ø§Ø¨Ø©": 816,
      "Ø§Ø¦ÙĬØ©": 817,
      "ØªÙĦ": 818,
      "Ø¹Ø±": 819,
      "Ø¨Øª": 820,
      "ĠÙĪØŃ": 821,
      "ĠØ²ÙĬ": 822,
      "Ø±Ø§Ø±": 823,
      "ÙĬØ¨": 824,
      "ĠØ§ÙĨÙĩ": 825,
      "Ø§ÙĪØ¶": 826,
      "ĠØ§ÙĦØ£ÙħØ±ÙĬÙĥ": 827,
      "ÙĨØ§Ø¹": 828,
      "ĠØ§ÙĦÙĪÙĦØ§ÙĬØ§Øª": 829,
      "ÙĤØ§": 830,
      "ĠØ§ÙĦØ¹ÙħÙĦ": 831,
      "ÙħØ§ÙĨ": 832,
      "ÙĬØ±Ø§ÙĨ": 833,
      "ÙĪÙĤÙģ": 834,
      "Ø³ÙĬØ©": 835,
      "ĠØªØª": 836,
      "Ø¯ÙĬÙĨØ©": 837,
      "Ġ4": 838,
      "ÙĥØ¯": 839,
      "Ø®ÙĦ": 840,
      "Ø§ÙĨÙĬØ§": 841,
      "ĠØ£Ø³": 842,
      "ĠØ§ÙĦÙħØ¯": 843,
      "ĠØªØ·": 844,
      "ĠÙĬÙĤ": 845,
      "ĠØŃÙĪÙĦ": 846,
      "ĠÙĬÙĨ": 847,
      "ÙģØ±": 848,
      "Ġ6": 849,
      "ĠØ§ÙĦØ¢": 850,
      "ĠØ§ÙĦØ¹Ø±Ø¨ÙĬØ©": 851,
      "ĠØ§ÙĦØ§": 852,
      "ĠÙĪØ³": 853,
      "Ø¹ÙħØ§ÙĦ": 854,
      "ĠØ§ÙĦØ¶": 855,
      "Ġ5": 856,
      "ØªØ±Ø©": 857,
      "Ø±ÙĥØ²": 858,
      "ĠØ§ÙĦØ§Ø¹": 859,
      "ÙģØ¹": 860,
      "ÙĤØ¨": 861,
      "ĠÙĪÙħÙĨ": 862,
      "ĠÙĩÙĨØ§Ùĥ": 863,
      "ÙĩØ©": 864,
      "ĠØ®Ø·": 865,
      "Ø§ÙĦØ¨": 866,
      "ĠØ§ÙĦØ³ÙĦ": 867,
      "ØªÙħØ±": 868,
      "Ø¨Ø¹": 869,
      "ĠØ§ÙĦØ£Ø³": 870,
      "Ø¯Ø§Ùħ": 871,
      "Ø´Ùģ": 872,
      "ĠØ§ÙĦÙĪØ·": 873,
      "Ø®Ø±Ùī": 874,
      "ÙĬØ¬": 875,
      "ÙĬØ²": 876,
      "ĠØ§ÙĦØµÙĬÙĨ": 877,
      "ĠÙĬÙħÙĥÙĨ": 878,
      "ĠÙħØ¯": 879,
      "ÙĬØª": 880,
      "ÙĤÙĬÙĤ": 881,
      "ĠÙĪØ¹": 882,
      "Ø§Ø¨Ø§Øª": 883,
      "Ø¸Ùħ": 884,
      "ØµØ©": 885,
      "ĠÙĬØŃ": 886,
      "Ø®Øª": 887,
      "Ø¸Ø§Ùħ": 888,
      "ÙĤØ¯Ùħ": 889,
      "ĠØ§ÙĦÙħÙĨØ·ÙĤØ©": 890,
      "ÙĥØªÙĪØ±": 891,
      "Ø§ÙĦØª": 892,
      "ĠØ§ÙĦØ§ÙĨØª": 893,
      "ÙĤØ·": 894,
      "ĠÙħØ§ÙĬ": 895,
      "ĠØ§ÙĦØ°ÙĬÙĨ": 896,
      "ĠØ§Ùģ": 897,
      "Ø§Øº": 898,
      "ĠÙĦÙĥÙĨ": 899,
      "ĠØ§ÙĦÙħÙĤØ¨ÙĦ": 900,
      "ĠØ§ÙĪ": 901,
      "ĠØªØ³": 902,
      "ĠØ§ÙĦØ§Ø¬": 903,
      "ĠØ§ÙĦØ§ØŃ": 904,
      "Â«.": 905,
      "Ø±ÙĬØ·": 906,
      "ĠØ§ÙĦÙħØ¤": 907,
      "Ø¬Ø©": 908,
      "ĠØ³ÙĨ": 909,
      "ØºÙħ": 910,
      "ĠØ¨Ø£ÙĨ": 911,
      "ÙĪÙĦØ©": 912,
      "ÙħÙĬØ©": 913,
      "ĠØ³Ø¨": 914,
      "Ġ/": 915,
      "Ø§ÙĦÙĬØ§": 916,
      "ĠØ¨Øª": 917,
      "Ø§Ø¦ÙĦ": 918,
      "Ø§ÙħØ©": 919,
      "ĠØ§ÙĦØ¨Ø±": 920,
      "ĠÙģÙĬÙĩØ§": 921,
      "ĠØ§ÙĤ": 922,
      "ĠØªØ¯": 923,
      "ØµÙĪÙĦ": 924,
      "ĠØ§ÙĦØ§ÙĪÙĦ": 925,
      "Ø±Ùī": 926,
      "ÙĩÙħØ§": 927,
      "ÙĥÙħ": 928,
      "Ø§Ø³ÙĬ": 929,
      "ĠØ§ÙĦØ£ÙĪÙĦ": 930,
      "ĠØªØ£": 931,
      "Ø«ÙĬØ±": 932,
      "ĠÙģØ±": 933,
      "Ø§ÙħØ¬": 934,
      "ĠØ§ÙĦØ§Ø³ØªØ«ÙħØ§Ø±": 935,
      "ĠØ§ÙĦØªØŃ": 936,
      "ĠÙħØ«ÙĦ": 937,
      "Ø§Ø¨ÙĦ": 938,
      "ĠØ¯ÙĪÙĨ": 939,
      "ĠØ´Ø±ÙĥØ©": 940,
      "ĠÙħØ§ÙĬÙĪ": 941,
      "ĠÙĦÙĨ": 942,
      "Ø§Ø¹Ø¯": 943,
      "ĠÙĪÙĨ": 944,
      "ĠÙĬØªÙħ": 945,
      "ĠØ§ÙĦØ³Ø¹ÙĪØ¯": 946,
      "ĠØ§ÙĦØ³ÙĪÙĤ": 947,
      "Ø¹ÙĬØ©": 948,
      "ÙģÙĬØ°": 949,
      "ĠØ§ÙĦØ«ÙĦØ§Ø«": 950,
      "ØªØ¨Ø±": 951,
      "Ø·ÙĦ": 952,
      "ÙĦÙĨ": 953,
      "ĠÙĤÙĬ": 954,
      "ĠØ§ÙĦØ¯ÙĥØªÙĪØ±": 955,
      "Ø±Ø§Ø¦ÙĬÙĦÙĬØ©": 956,
      "ÙĩÙĪØ¯": 957,
      "ĠÙĦØ¨ÙĨ": 958,
      "ĠÙĨÙģØ³": 959,
      "Ø§Ø±Ùĥ": 960,
      "ĠÙĬØ±": 961,
      "ĠØ§Ø¨": 962,
      "ĠØŃØ³": 963,
      "Ø³Ø¨Ø¨": 964,
      "ÙĦØª": 965,
      "ÙĬÙĥ": 966,
      "ØºÙĬØ±": 967,
      "Ø§ÙĩØ±Ø©": 968,
      "ĠÙĪØ¥": 969,
      "ĠØ§ÙĦØ§ØªØŃØ§Ø¯": 970,
      "ÙģØ©": 971,
      "ĠØ§ÙĨØª": 972,
      "ĠÙĨØŃÙĪ": 973,
      "ĠÙħÙĦÙĬØ§Ø±": 974,
      "ĠÙĪÙĩÙĪ": 975,
      "ĠØ§ÙĦØªÙĨ": 976,
      "ĠØ¹ÙĨØ¯": 977,
      "ÙĨÙĬÙĨ": 978,
      "Ø±ÙĬØ¨": 979,
      "ĠØ§ÙĦØŃØ§ÙĦÙĬ": 980,
      "Ø¨ÙĦØº": 981,
      "ÙĦØ¨ÙĨ": 982,
      "Ø¯ÙĪØ¯": 983,
      "Ø§Ø±Ø¶": 984,
      "Ø¬ÙĨ": 985,
      "ĠÙĢ": 986,
      "ĠØ¨Ùĩ": 987,
      "ĠØ¬Ø¯ÙĬØ¯Ø©": 988,
      "Ø¸ÙħØ©": 989,
      "ĠØ§ÙĦØµØŃ": 990,
      "ÙĦØ§Øª": 991,
      "Ø¶Ø§Ùģ": 992,
      "Ø§Ø·ÙĤ": 993,
      "ĠØ¸": 994,
      "Ø¬ÙĨØ©": 995,
      "Ø§ØŃØ©": 996,
      "ĠØ§ÙĦÙħØ¨": 997,
      "Ġ20": 998,
      "Ø¢": 999,
      "ÙĪØ§Ø±": 1000,
      "ĠÙĪØ§ÙĦØª": 1001,
      "Ø°ÙĥØ±": 1002,
      "ÙĤØ±ÙĬØ±": 1003,
      "ÙĦÙĬØ§Øª": 1004,
      "ĠØ§ÙĦØ´Ø±ÙĤ": 1005,
      "ĠØµØŃ": 1006,
      "ÙħÙĪØ¹Ø©": 1007,
      "Ø³Ø¹Ø§Ø±": 1008,
      "ĠØ§ÙĦØ´Ø±ÙĥØ§Øª": 1009,
      "ÙĪØ³Ø·": 1010,
      "Ø§Ø¯Ø±Ø§Øª": 1011,
      "Ø¶Ùħ": 1012,
      "ÙĦÙĥÙĨ": 1013,
      "ĠÙħØ´Ø±ÙĪØ¹": 1014,
      "ÙĪØŃ": 1015,
      "ÙĪÙĬÙĦ": 1016,
      "Ø±ÙĬØ©": 1017,
      "ĠØ£ÙĥØ«Ø±": 1018,
      "ÙĦÙĬÙħ": 1019,
      "ĠØ§ÙĦÙĪØ²Ø±Ø§Ø¡": 1020,
      "ÙĪÙģÙĬ": 1021,
      "Ø¯Ø«": 1022,
      "ĠÙħÙĨØ·ÙĤØ©": 1023,
      "ĠØ§ÙĦØ¨ØŃ": 1024,
      "ÙĥÙħØ§": 1025,
      "ĠØ§ÙĦÙĨÙģØ·": 1026,
      "ĠÙĪØ±": 1027,
      "ĠÙĦØŃ": 1028,
      "Ø§Ø¨ÙĤ": 1029,
      "ĠØ¶Ø¯": 1030,
      "ØµÙģ": 1031,
      "ĠØ£ÙĦÙģ": 1032,
      "ĠØŃÙĤ": 1033,
      "Ø§ÙĤØ©": 1034,
      "ÙĩØ¯Ùģ": 1035,
      "Ġ9": 1036,
      "ØµØ¯": 1037,
      "ĠÙħÙĦ": 1038,
      "ĠÙĬØ¬": 1039,
      "Ø§Ø¦Ø¨": 1040,
      "Ø§Ø¶Ø§Ùģ": 1041,
      "ĠØ§ØªÙģØ§ÙĤ": 1042,
      "ÙĦØ§ÙĤØ§Øª": 1043,
      ")-": 1044,
      "ĠØ¹Ø¨Ø¯": 1045,
      "ĠØ§ÙĦÙĪÙĤ": 1046,
      "Ø±ØŃ": 1047,
      "ĠÙĪÙĦ": 1048,
      "ĠÙĦØ¥": 1049,
      "Ø§Ø±Ø¯": 1050,
      "ØªÙģØ§Ø¹": 1051,
      "ĠÙĦØ¨ÙĨØ§ÙĨ": 1052,
      "ĠØªØ³Øª": 1053,
      "ĠØ§ÙĦØ¹ÙĤ": 1054,
      "ĠØ§ÙĦØ¯ÙĪÙĦØ©": 1055,
      "ĠØ«ÙĦØ§Ø«": 1056,
      "Ġ7": 1057,
      "ĠÙĪØ£ÙĨ": 1058,
      "ĠÙĦÙĬ": 1059,
      "Ø·ÙĨ": 1060,
      "ÙĪØ±ÙĬØ§": 1061,
      "Ġ199": 1062,
      "Ø§ÙĦØŃ": 1063,
      "Ø±Øª": 1064,
      "ĠØ¨ÙĩØ§": 1065,
      "ĠÙĬÙĥÙĪÙĨ": 1066,
      "ĠØ§ÙĦØ¯ÙĪÙĦÙĬØ©": 1067,
      "ĠØ§ÙĦØ§ÙħØ±ÙĬÙĥ": 1068,
      "ĠØ§ÙĦØªØ¬Ø§Ø±Ø©": 1069,
      "Ø®ØªÙĦÙģ": 1070,
      "ÙĩØ§Ø¨": 1071,
      "ĠØ§Ø¯": 1072,
      "ĠØ¹Ùħ": 1073,
      "ĠØ§ÙĦØªØ¹": 1074,
      "ĠØ§ÙĦØ§Ø®": 1075,
      "ÙģØ§Ø¹": 1076,
      "ÙģØ±ÙĬÙĤ": 1077,
      "ĠØ£Ø®Ø±Ùī": 1078,
      "ĠØ§ÙĦØ£ÙĪØ±ÙĪØ¨": 1079,
      "ÙĪÙħØ§Øª": 1080,
      "ÙĪÙĬØª": 1081,
      "Ùı": 1082,
      "ĠÙħÙħØ§": 1083,
      "ĠÙĦØ£": 1084,
      "Ø·Ø§Ø±": 1085,
      "ĠØ¬ÙĨÙĪØ¨": 1086,
      "ĠØ§Ø´": 1087,
      "ĠØ§ÙĦØªÙī": 1088,
      "Ø§Ø®ÙĦ": 1089,
      "Ø§ÙĬØ©": 1090,
      "ÙĪÙĬØ±": 1091,
      "ĠÙģÙĬÙĩ": 1092,
      "Ø±ÙĬØŃ": 1093,
      "ĠØ§ÙĦØµÙĨØ§Ø¹": 1094,
      "Ġ8": 1095,
      "ÙĪØ§Ø¬": 1096,
      "ĠÙĪØ§ÙĨ": 1097,
      "ĠØªÙģ": 1098,
      "ĠÙĬØ³Øª": 1099,
      "Ø®Ø·": 1100,
      "Ø°Ùĩ": 1101,
      "ĠØ¥Ø³Ø±Ø§Ø¦ÙĬÙĦ": 1102,
      "ÙĦÙĬÙĨ": 1103,
      "ÙĤØ§ÙĦ": 1104,
      "ĠÙħÙĥ": 1105,
      "ĠÙĪØ§ØŃ": 1106,
      "Ø¹ÙĦÙĨ": 1107,
      "ÙĬÙģØ©": 1108,
      "ÙħÙĬÙĨ": 1109,
      "ĠØ§ÙĦÙĦØ¨ÙĨ": 1110,
      "ÙĪØ§ÙĦ": 1111,
      "Ø¨ÙĬÙĨ": 1112,
      "ĠØ§ÙĦÙħÙģ": 1113,
      "ĠØ£ÙĪÙĦ": 1114,
      "ĠØ§ÙĦØ§ÙħÙĬØ±Ùĥ": 1115,
      "ĠØ§ÙĦÙģÙĦØ³Ø·ÙĬÙĨÙĬØ©": 1116,
      "Ø¯ÙĬØ©": 1117,
      "ĠØ®Ø§ØµØ©": 1118,
      "ÙĤØ§Ø¡": 1119,
      "Ø¹Ø§Øª": 1120,
      "ĠØ§ÙĦØ¥Ø³ÙĦØ§Ùħ": 1121,
      "ĠØ³Ø¹Ø±": 1122,
      "ĠÙĪØ§ÙĦØ£": 1123,
      "ĠÙĪØ§ÙĦØªÙĬ": 1124,
      "ÙĪØ§Ø¨": 1125,
      "Ø²ÙĬØ¯": 1126,
      "ĠÙħØŃÙħØ¯": 1127,
      "ÙĬÙĩ": 1128,
      "Ø±Ø§Øª": 1129,
      "Ø¯ÙĪÙĦ": 1130,
      "ĠØ¨Øº": 1131,
      "ĠØ¨ÙħØ§": 1132,
      "ĠÙĦÙĩØ§": 1133,
      "ÙĬØ·": 1134,
      "ĠØ§ÙĦØ±ÙĪ": 1135,
      "ĠØ¹ÙĤØ¯": 1136,
      "ĠØ§ÙĦÙħØ´Ø±ÙĪØ¹": 1137,
      "ĠØ²ÙĬØ§Ø¯Ø©": 1138,
      "ÙĨØ§Ø¹Ø©": 1139,
      "Ø¯Ø§Ø±Ø©": 1140,
      "ĠÙĪÙĦØ§": 1141,
      "ĠØ¨ÙĪ": 1142,
      "Ø¬Ø§ÙĦ": 1143,
      "Ø§ÙħØ¹Ø©": 1144,
      "Ùĭ.": 1145,
      "ĠÙĦÙĦØŃ": 1146,
      "ĠÙħÙģ": 1147,
      "ĠØ§ÙĦØŃØ±Ø¨": 1148,
      "ĠØ§ÙĦØ£ÙħØ±ÙĬÙĥÙĬØ©": 1149,
      "Ø§Ø¹Ø¯Ø©": 1150,
      "ĠÙħØ³Ø¤ÙĪÙĦ": 1151,
      "ĠØ¹ÙħÙĦÙĬØ©": 1152,
      "Ø³Ùĥ": 1153,
      "ØµÙĪØµ": 1154,
      "ĠØ³ÙĨØ©": 1155,
      "ĠÙĪØ§ÙĦØ¹": 1156,
      "ØºÙĬ": 1157,
      "ÙĪØ¯Ø©": 1158,
      "ĠØ§ÙĦØ´Ø±": 1159,
      "ĠØ£ÙĬØ¶Ø§": 1160,
      "Ø¹ÙĬØ¯": 1161,
      "ĠÙĬØ´": 1162,
      "Ø§Ø³Ùħ": 1163,
      "Ø±Ø§Ø¡Ø§Øª": 1164,
      ").": 1165,
      "ÙĪØ§Ø¡": 1166,
      "Ø³ÙĥØ±": 1167,
      "ØªØ´": 1168,
      "ÙĤØ¨ÙĦ": 1169,
      "Ø¨Ø·": 1170,
      "Ø³ÙĦ": 1171,
      "ĠØ¨Ø³Ø¨Ø¨": 1172,
      "ĠÙħÙĨÙĩØ§": 1173,
      "Ø§Ø¦Ø¯": 1174,
      "Ø¹Ø¯Ø§Ø¯": 1175,
      "ĠØ§ÙĦØ®Ø§ØµØ©": 1176,
      "ĠØ¨Ø´ÙĥÙĦ": 1177,
      "ĠØ§ÙĦØ³Ø¨Øª": 1178,
      "ĠØ§ÙĦÙĪÙĤØª": 1179,
      "ÙĤØª": 1180,
      "Ø³Ø§": 1181,
      "ĠØ¨Ø§Ø±": 1182,
      "Ø§ØªÙĩØ§": 1183,
      "ÙĩØ§ÙĬØ©": 1184,
      "ĠØªØŃØª": 1185,
      "Ø¨Ø¯Ø£": 1186,
      "Ø§ÙĪÙĨ": 1187,
      "Ø±Ø¯": 1188,
      "Ø¨ÙĬØ¹": 1189,
      "Ø§Ø¯Ø«": 1190,
      "ĠØ¯Ø±": 1191,
      "ĠØ¯Ø§Ø®ÙĦ": 1192,
      "ĠØ¨Ø§ÙĦÙħ": 1193,
      "ĠØ§ÙĦÙħØ³Ø¤ÙĪÙĦ": 1194,
      "Ø±ÙĨØ§ÙħØ¬": 1195,
      "ĠØ§ÙĦÙħØ±Ùĥ": 1196,
      "Ø¶ÙĬØ©": 1197,
      "ĠÙħØ¬Ø§ÙĦ": 1198,
      "Ø´Ø§Ø±ÙĥØ©": 1199,
      "\"ØĮ": 1200,
      "ĠØ§Ø°": 1201,
      "ÙĪÙĩ": 1202,
      "Ø³Ø·": 1203,
      "ĠÙĪØ´": 1204,
      "ĠÙĪØ¶Ø¹": 1205,
      "Ø§Ø¨Ø¹": 1206,
      "ĠØ§ÙĦØ¹Ø§ÙħØ©": 1207,
      "Ø¨Ùĩ": 1208,
      "Ø§Ø¯ÙĬ": 1209,
      "ÙĪÙĥØ§ÙĨ": 1210,
      "ĠÙĪØ¬ÙĪØ¯": 1211,
      "ĠÙħÙĤØ§Ø¨ÙĦ": 1212,
      "ĠØ§ÙĦØ¨ÙĦØ¯ÙĬÙĨ": 1213,
      "ĠÙĪÙģÙĬ": 1214,
      "ĠØ¹Ø¨": 1215,
      "ĠØ£Øµ": 1216,
      "ĠØ¥Ø¬": 1217,
      "Ø®Ø¨": 1218,
      "ĠÙĪÙĩÙĬ": 1219,
      "Ø·ÙĦØ¨": 1220,
      "Ø¶Ø±": 1221,
      "Ø§Ø¦Ø±Ø©": 1222,
      "ĠÙĤØ§ÙĦ": 1223,
      "ÙĦÙħØ§ÙĨ": 1224,
      "ĠØ¹ÙĦÙĬÙĩØ§": 1225,
      "ĠØ§ÙĪÙĦ": 1226,
      "ÙħÙĬ": 1227,
      "ĠØ¹Ø¯Ùħ": 1228,
      "Ø´Ø§Ø¡": 1229,
      "Ø§Ø¯ÙĦ": 1230,
      "ĠØ§ÙĦØ¬Ø¯ÙĬØ¯Ø©": 1231,
      "Ġ10": 1232,
      "ĠØ§ÙĦØ¹Ø§ÙĦÙħÙĬØ©": 1233,
      "ĠØ§Ø·": 1234,
      "ÙĪØ§Ø¹": 1235,
      "ÙĪØ§Ø¶Ø§Ùģ": 1236,
      "ĠØ§ÙĦØ£Ø¹ÙħØ§ÙĦ": 1237,
      "ÙĨÙī": 1238,
      "ĠÙĪÙĤØ¯": 1239,
      "ĠØ£ØŃØ¯": 1240,
      "Ø§Ø¦ÙĬ": 1241,
      "Ø§ÙģØ¸": 1242,
      "ĠØ±Ø³Ùħ": 1243,
      "ĠÙĪØ²Ø§Ø±Ø©": 1244,
      "ĠØ§ÙĦØ§ØªÙģØ§ÙĤ": 1245,
      "ĠØ§ÙĦØ¨ÙĨÙĥ": 1246,
      "ĠØ§Ø«": 1247,
      "ÙĦØ§Ùģ": 1248,
      "Ø¶Ø§Ø¡": 1249,
      "ĠØ«Ùħ": 1250,
      "ĠØ¨ÙĦØº": 1251,
      "Ø¨ØŃØ«": 1252,
      "ĠØ§ÙĦØ³Ø¹ÙĪØ¯ÙĬØ©": 1253,
      "ØªØ¯": 1254,
      "ÙĥØ³": 1255,
      "ĠÙĦØ¯Ùī": 1256,
      "Ø¬Ø²": 1257,
      "Ø¶ÙħÙĨ": 1258,
      "ĠØŃØ§ÙĦÙĬØ§": 1259,
      "ÙĤØ±Ø§Ø±": 1260,
      "ĠØ§ÙĦÙĦÙĩ": 1261,
      "ØªØ¬Ø§Øª": 1262,
      "ĠØ§Ø³Ø±Ø§Ø¦ÙĬÙĦ": 1263,
      "ĠØ§Øµ": 1264,
      "ĠÙģØ¥ÙĨ": 1265,
      "ĠÙĤØ±": 1266,
      "ĠØ§ÙĦØŃØ²Ø¨": 1267,
      "ĠØ§ÙĦØ¯ÙĬÙĨ": 1268,
      "ĠÙĪÙĤØ§ÙĦ": 1269,
      "ÙĨØ§Ø¡": 1270,
      "ĠØ¨ÙĬ": 1271,
      "ĠÙģÙĦØ³Ø·ÙĬÙĨ": 1272,
      "Ø®Ø§Ø¨Ø§Øª": 1273,
      "ÙĬÙĦØ©": 1274,
      "ĠØ§ÙĦÙĤÙĬ": 1275,
      "ĠØ§ÙĦÙģØ±ÙĨ": 1276,
      "ĠØ§ÙĦØ¯ÙĪÙĦÙĬ": 1277,
      "Ø¯ÙĬØ«": 1278,
      "ĠØ¨Ø£": 1279,
      "ĠØŃÙĬÙĨ": 1280,
      "ĠØ§ÙĦÙģØªØ±Ø©": 1281,
      "ÙĢÙĢÙĢ": 1282,
      "ÙĦØ§ØŃ": 1283,
      "ÙĪØ§ÙĤ": 1284,
      "ĠÙģÙĤØ·": 1285,
      "ĠÙĬØ¯": 1286,
      "Ø®Ùģ": 1287,
      "ĠØ¬Ø§ÙĨØ¨": 1288,
      "ĠØ¢Ø®Ø±": 1289,
      "ĠØ¬ÙħÙĬØ¹": 1290,
      "Ø§Ø¨Ø¹Ø©": 1291,
      "ĠØ§ÙĦØ¬Ø²": 1292,
      "ĠØ§Ø¬ØªÙħØ§Ø¹": 1293,
      "ĠØ§ÙĦÙĪØ·ÙĨÙĬ": 1294,
      "ĠØ§ÙĦØ«ÙĦØ§Ø«Ø§Ø¡": 1295,
      "ØŁ": 1296,
      "ØªÙĩÙħ": 1297,
      "Ø²Ø§": 1298,
      "Ø®Ø¯Ø§Ùħ": 1299,
      "ĠØ´Ø±ÙĥØ§Øª": 1300,
      "ĠØ§ÙħØ³": 1301,
      "ĠØ§ÙĦÙħØ±ÙĥØ²ÙĬ": 1302,
      "ÙĥÙĬÙĨ": 1303,
      "ĠÙħØ¯ÙĬÙĨØ©": 1304,
      "Ø¹Ø§Ø¯Ø©": 1305,
      "Ø§Ø¯Ø±Ø©": 1306,
      "ĠÙĦÙĦØ¹": 1307,
      "ĠØ¯ÙĪØ±": 1308,
      "Ø±ÙĪØ¶": 1309,
      "Ø¨Ø§Øª": 1310,
      "ĠØ¨Ø§ÙĨ": 1311,
      "ĠØªÙĦÙĥ": 1312,
      "Ø·Ø§Øª": 1313,
      "Ø®Ø¯Ùħ": 1314,
      "ĠØ§ÙĦØ³Ø§Ø¨ÙĤ": 1315,
      "ĠØ¨Ø¯Ø£": 1316,
      "ĠØ¨ØºØ¯Ø§Ø¯": 1317,
      "ÙĮ": 1318,
      "Ø§ÙĦØ«": 1319,
      "ÙĥÙĪ": 1320,
      "ĠÙĦØ£ÙĨ": 1321,
      "ĠØ¹Ø¯Ø©": 1322,
      "ĠÙĤØ·Ø§Ø¹": 1323,
      "ĠØ§ÙĦØŃØ±": 1324,
      "Ø§ÙĬÙĬÙĨ": 1325,
      "ĠÙħØµØ§Ø¯Ø±": 1326,
      "ĠØ¹ÙĦÙĬÙĩ": 1327,
      "ÙħØ³": 1328,
      "Ø¨Ø§Ø¨": 1329,
      "Ø³Ø§Øª": 1330,
      "ĠÙĪØ§Ø³Øª": 1331,
      "ĠØ§ÙĦÙħØ§Ø¶": 1332,
      "ĠØ£Ø¨": 1333,
      "Ø¶Ø§ÙģØ©": 1334,
      "ĠØ§ÙĦØ¹ÙĦØ§ÙĤØ§Øª": 1335,
      "ÙĥÙħØ©": 1336,
      "ĠÙħÙħ": 1337,
      "Ø²Ùħ": 1338,
      "ÙĪÙĨØº": 1339,
      "ĠØŃØ²Ø¨": 1340,
      "ĠØ§ÙĦØ³ÙĪØ¯": 1341,
      "ÙħØ§ÙĦÙĬ": 1342,
      "ÙĪØ¬Ùĩ": 1343,
      "ĠØ§ÙĦØ§Ø¬ØªÙħØ§Ø¹": 1344,
      "ÙĥØ±Ø©": 1345,
      "ØŃØª": 1346,
      "ĠØªÙĥÙĪÙĨ": 1347,
      "ĠØ£Ø¹": 1348,
      "ÙĬØ¯Ø©": 1349,
      "ĠØ§ÙĦØ´Ø±ÙĥØ©": 1350,
      "Ø´Ø±ÙĬÙĨ": 1351,
      "ĠØ£ÙħØ§Ùħ": 1352,
      "ĠØ§ÙĦØ£Ø®": 1353,
      "ĠØ§ÙĦØ¬Ø§ÙĨØ¨": 1354,
      "ĠØ§ÙĦØ´Ø¹Ø¨": 1355,
      "ĠØ¨ÙĨØ§Ø¡": 1356,
      "Ø§Ø±ÙĬØ®": 1357,
      "ØŃÙĦØ©": 1358,
      "ĠØ§ÙĦØ³ÙĦØ§Ùħ": 1359,
      "ĠØ¬Ø²": 1360,
      "ĠØ±ØºÙħ": 1361,
      "ĠØ§ÙĦÙĤØ§ÙĩØ±Ø©": 1362,
      "Ø±Ø¨ÙĬØ©": 1363,
      "Ø§Ø´ÙĨ": 1364,
      "ÙĪØ£Ø¶Ø§Ùģ": 1365,
      "Ø¹Ø§ÙĪÙĨ": 1366,
      "Ø§ØªÙĩ": 1367,
      "ÙĬÙĨØ§": 1368,
      "ĠÙĪØ§ÙĦÙĨ": 1369,
      "ĠØ§ÙĦØ£ÙħÙĨ": 1370,
      "ÙĪÙĤØ¯": 1371,
      "ĠØ§ÙĦØ¯Ø§Ø®": 1372,
      "Ġ18": 1373,
      "ÙĩÙĦ": 1374,
      "ÙĩØ±Ø¨": 1375,
      "ĠÙĬØ¤": 1376,
      "Ġ12": 1377,
      "Ø§ÙĥÙħ": 1378,
      "ĠØ§ÙĦØ¥ÙĨ": 1379,
      "Ø¯ÙĦ": 1380,
      "Ø¯Øª": 1381,
      "ĠÙĦÙĢ": 1382,
      "Ø§Ø¯Ø§Øª": 1383,
      "ĠÙĤØ±Ø§Ø±": 1384,
      "Ø§ÙģÙĬ": 1385,
      "Ġ11": 1386,
      "ĠÙĪÙĤØª": 1387,
      "ĠØ§Ø±ØªÙģØ§Ø¹": 1388,
      "ĠØ§ÙĦØªØ¹Ø§ÙĪÙĨ": 1389,
      "Ø«ÙħØ±": 1390,
      "ÙĪÙħÙĨ": 1391,
      "ÙħØ±Ø§Ø±": 1392,
      "ĠÙħØ¬ÙħÙĪØ¹Ø©": 1393,
      "Ùİ": 1394,
      "ÙĬÙĤ": 1395,
      "ÙĪØº": 1396,
      "ØŃØ§": 1397,
      "ĠØ£ØŃ": 1398,
      "Ø§Ø¦Ø¯Ø©": 1399,
      "ĠÙĦÙĦØª": 1400,
      "ĠØ¬Ø¯ÙĬØ¯": 1401,
      "ĠØ§ÙĦÙĤØ¯": 1402,
      "ĠØ·ÙĦØ¨": 1403,
      "ĠÙĥØ¨ÙĬØ±": 1404,
      "ĠØ¹ÙĨØ¯ÙħØ§": 1405,
      "Ø§Ø´ÙĨØ·ÙĨ": 1406,
      "ÙĬØ§Ø±": 1407,
      "ĠØ§ÙĦØªÙĤ": 1408,
      "ØºØ·": 1409,
      "ĠØ§ÙĦØŃÙĥÙĪÙħ": 1410,
      "ĠØ§ÙĦØ¬ÙĨÙĪØ¨": 1411,
      "ĠØ§ÙĦØ§ÙĤØªØµØ§Ø¯ÙĬØ©": 1412,
      "ĠØ«ÙĦØ§Ø«Ø©": 1413,
      "ĠØ¨Ø¹": 1414,
      "ĠÙĨÙĩØ§ÙĬØ©": 1415,
      "ĠØ§ÙĦÙĤØ§ÙĨÙĪÙĨ": 1416,
      "ÙĩÙħØ©": 1417,
      "ĠØ¨Ø§ÙĦÙĤ": 1418,
      "ÙĨØªØ§Ø¬": 1419,
      "ĠØ§ÙĦØ¨ÙĦØ§Ø¯": 1420,
      "Ø¹ÙĬ": 1421,
      "ĠØ¨Ø¬": 1422,
      "Ø§Ø¹Ø§Øª": 1423,
      "ĠÙĪØ§ÙĦØ¯": 1424,
      "ÙĪØ£Ø´Ø§Ø±": 1425,
      "ĠØ£ÙĥØ¨Ø±": 1426,
      "ĠØªÙĨÙģÙĬØ°": 1427,
      "ĠØ§ÙĦØ¥Ø³Ø±Ø§Ø¦ÙĬÙĦÙĬ": 1428,
      "ĠØ³ÙĨÙĪØ§Øª": 1429,
      "Ø¯ÙĬØ±": 1430,
      "Ø¨Ø¹Ø¯": 1431,
      "ĠØ´Ø®Øµ": 1432,
      "ĠØ§ÙĦØ¹Ø±Ø§ÙĤÙĬØ©": 1433,
      "ĠØ§ÙĦÙħØ¹Ø§Ø±Ø¶": 1434,
      "ĠØ§ÙĦØ¢ÙĨ": 1435,
      "ÙģØª": 1436,
      "Ø³ÙĬÙĨ": 1437,
      "Ø³Ø§Ø¡": 1438,
      "ĠÙĪÙĦÙĥÙĨ": 1439,
      "Ø§Ø³Ø§Øª": 1440,
      "ĠØŃØ¬Ùħ": 1441,
      "ĠÙĤØ§Ø¦": 1442,
      "ĠØ´ÙħØ§ÙĦ": 1443,
      "ĠØ´ÙĩØ±": 1444,
      "ĠØ§ÙĦØ¯Ø±": 1445,
      "ĠØ¨Ø§ÙĦÙĨ": 1446,
      "ĠØ§ÙĦÙħÙĨØ§Ø·ÙĤ": 1447,
      "ØªØ¨Ø§Ø±": 1448,
      "ÙģØ±ÙĬÙĤÙĬØ§": 1449,
      "ĠØ¨ÙĬØ§ÙĨ": 1450,
      "ĠÙĦØ´": 1451,
      "ĠØ¹Ø¨Ø±": 1452,
      "ĠØ£Ø³Ø¹Ø§Ø±": 1453,
      "ĠØ§ÙĦØ£Ø³Ø¨": 1454,
      "ÙĤØ¯ÙĬÙħ": 1455,
      "ĠØ¨ÙĤ": 1456,
      "ĠØ§ÙĦØªØ´": 1457,
      "ĠØ¥ÙĦØ§": 1458,
      "ĠØ´Ø§Ø±": 1459,
      "ĠØ§ÙĦØ´ÙĩØ±": 1460,
      "ĠØ§ÙĦØ¨ÙĨÙĪÙĥ": 1461,
      "ÙħØ¨Ø±": 1462,
      "Ø¯ÙĪ": 1463,
      "ĠØ¨Ø§Ø³Ùħ": 1464,
      "ĠÙĦØ¹": 1465,
      "ĠÙģÙĬÙħØ§": 1466,
      "Ø¨Ø±Ø§Ø¡": 1467,
      "ĠØ¹Ø§ÙħØ§": 1468,
      "ÙĤØ±Ø±": 1469,
      "Ø³ÙĥØ±ÙĬØ©": 1470,
      "Ø®ÙģØ§Ø¶": 1471,
      "Ø±ÙĬÙĨ": 1472,
      "ĠÙħØ®ØªÙĦÙģ": 1473,
      "ĠÙĪØµÙĦ": 1474,
      "ĠÙĦØ§ÙĨ": 1475,
      "ĠØªØ®": 1476,
      "Ø·Ø§ÙĦØ¨": 1477,
      "ĠØ®Ø§Ø±Ø¬": 1478,
      "ĠØ§ÙĦØ¨Ø±ÙĬØ·": 1479,
      "Ø¸ÙĬÙħ": 1480,
      "ĠØ§ÙĦØ¯ÙĪÙĦØ§Ø±": 1481,
      "ĠÙħØ´ÙĬØ±Ø§": 1482,
      "ĠÙĥØ¨ÙĬØ±Ø©": 1483,
      "ĠØ§ÙĦØ§ÙĤ": 1484,
      "Ø±Ø¦ÙĬØ³": 1485,
      "ĠØ¨Ø¥": 1486,
      "ĠØªÙĥ": 1487,
      "ĠØ§ÙĦØªÙĪ": 1488,
      "ĠØ³ÙĪÙĤ": 1489,
      "ÙĦÙĬÙĪÙĨ": 1490,
      "ĠÙĦÙĦØ´": 1491,
      "ĠÙĨÙĤ": 1492,
      "ĠÙĨØ¸Ø§Ùħ": 1493,
      "Ġ16": 1494,
      "Ø¹ÙĦÙĪÙħØ§Øª": 1495,
      "ØªØ¹Ø§ÙĪÙĨ": 1496,
      "ĠØ§ÙĦØ£ÙĪØ±ÙĪØ¨ÙĬ": 1497,
      "ÙĦØ§ÙĨ": 1498,
      "ĠØ§ÙĦØ§Ùģ": 1499,
      "ĠÙĪØªØŃ": 1500,
      "ĠØ¨Ø§Ø³Øª": 1501,
      "ĠÙĦÙħÙĨ": 1502,
      "ÙĬÙĨØ©": 1503,
      "ĠØ§ÙĦØ¹Ø¯ÙĬØ¯": 1504,
      "ĠÙĪØ§ÙĦØµ": 1505,
      "ĠÙĤØ§ÙĨÙĪÙĨ": 1506,
      "ĠØ¯ÙĪÙĦØ©": 1507,
      "ĠÙħØ¨Ø§Ø±Ùĥ": 1508,
      "ĠÙĨÙģØ³Ùĩ": 1509,
      "ĠØ¨Ø·": 1510,
      "Ø§ÙħØ§": 1511,
      "Ø³ØªØ§ÙĨ": 1512,
      "ĠØ§ÙĦØ«Ø§ÙĨÙĬ": 1513,
      "Ø¹Ø¶Ø§Ø¡": 1514,
      "ĠØ§ÙĦÙģÙĦØ³Ø·ÙĬÙĨÙĬ": 1515,
      "ĠØ§ÙĥØ«Ø±": 1516,
      "ÙĬØ®": 1517,
      "ÙģÙĤ": 1518,
      "Ø¨ÙĬØ±": 1519,
      "ĠØ¨ÙĬØ±": 1520,
      "ĠÙĦÙĪ": 1521,
      "ĠÙĦÙĬØ³": 1522,
      "Ø®Ø°": 1523,
      "ĠØ§ÙĦØ¬ÙĬØ´": 1524,
      "ĠØ§ÙĦØ®Ø·": 1525,
      "ĠØ°ÙĥØ±": 1526,
      "ĠØ§ÙĦØ§ÙħÙĨ": 1527,
      "Ø¨ÙĬÙĤ": 1528,
      "ĠØ§ÙĦÙħØ¬ÙĦØ³": 1529,
      "ĠØ§ÙĦÙĩÙĨØ¯": 1530,
      "50": 1531,
      "ĠÙĪØ°ÙĦÙĥ": 1532,
      "ĠØ§ÙĦØ±Ø³Ùħ": 1533,
      "ĠØ§ÙĦÙĦÙĬ": 1534,
      "Ø¨Ø§ØŃ": 1535,
      "ĠÙĪØ®": 1536,
      "ĠØ¥Ø°Ø§": 1537,
      "ĠØ§ÙĦØ¬ÙĨ": 1538,
      "ØªÙħØ¹": 1539,
      "ÙħÙĦØ©": 1540,
      "ĠØ°Ø§Øª": 1541,
      "ĠØ§ÙĦØªØ¬Ø§Ø±ÙĬ": 1542,
      "ĠØ§ÙĦØ¨Ø±ÙĦÙħØ§ÙĨ": 1543,
      "ÙĨØ¹": 1544,
      "Ø±Ø§Ùģ": 1545,
      "ØªÙĦØ§ÙĦ": 1546,
      "ĠÙģØ±ÙĨ": 1547,
      "ĠØ§ÙĦÙħØ±ÙĥØ²": 1548,
      "ĠØªÙħÙĪ": 1549,
      "Ø´ÙĤ": 1550,
      "Ø®ÙĪÙĦ": 1551,
      "Ø§ÙĤØ´": 1552,
      "Ø²ÙĬØ²": 1553,
      "Ø§ÙĪØ¶Ø§Øª": 1554,
      "ÙħØ¹": 1555,
      "ÙĪØ§ØµØ©": 1556,
      "ĠÙĦØªØŃ": 1557,
      "Ø¬Ùĩ": 1558,
      "ĠØŃÙĪ": 1559,
      "ĠÙĦÙĦØ£": 1560,
      "ĠØ±ÙģØ¶": 1561,
      "ØªØ±Ùĥ": 1562,
      "ØªØ§Ø¬": 1563,
      "ÙģÙĬØ©": 1564,
      "ĠØ¨Ø±ÙĨØ§ÙħØ¬": 1565,
      "Ø¬Ø±": 1566,
      "ĠØªØ±Ùĥ": 1567,
      "Ø²Ø§ÙĦ": 1568,
      "Ø²Ø§Ùħ": 1569,
      "ĠÙĪØ§ÙĦØŃ": 1570,
      "ĠØ§ÙĦØ£ÙĪØ³Ø·": 1571,
      "ĠØ§ÙĦØ³Ùģ": 1572,
      "ĠØ±Ø¬Ø§ÙĦ": 1573,
      "ĠØ§ÙĦÙĪØ¶Ø¹": 1574,
      "Ø§ÙĪØ²": 1575,
      "Ø¹ÙĦÙĤ": 1576,
      "ÙĥÙĬ": 1577,
      "ĠØ§ÙĦÙħÙĩ": 1578,
      "Ø·ÙĦÙĤ": 1579,
      "ĠØŃØ§ÙĦØ©": 1580,
      "ĠÙĤØ§Ùħ": 1581,
      "ÙĦÙĬØ³": 1582,
      "ĠØ§ÙĦØ¯ÙĬÙħ": 1583,
      "ĠØ§ÙĦØ¯ÙģØ§Ø¹": 1584,
      "ĠØ§ÙĦÙĤØ·Ø§Ø¹": 1585,
      "ĠØ§ÙĦØµØ§Ø¯Ø±Ø§Øª": 1586,
      "ĠØ§ÙĦØ®Ø§Øµ": 1587,
      "ĠØ§ÙĦØ±ÙĬ": 1588,
      "Ø¨Ø§Ø¡": 1589,
      "Ø³ÙĨ": 1590,
      "ĠÙĪØ§Ø³": 1591,
      "ÙĬØ±ÙĬ": 1592,
      "ĠØ§ÙĦØªØ±Ùĥ": 1593,
      "Ø±ÙĬØ¯": 1594,
      "ĠØ§ÙĦØ£Ø¬ÙĨ": 1595,
      "ÙĭØĮ": 1596,
      "ĠØ®ØµÙĪØµ": 1597,
      "ÙĬØ§Ùĩ": 1598,
      "ĠØ§ÙĦÙĤÙĪØ§Øª": 1599,
      "ĠØ§ÙĦØ¬ÙħØ¹Ø©": 1600,
      "ĠÙħÙĦØ§ÙĬÙĬÙĨ": 1601,
      "Ø³Ø±": 1602,
      "ĠÙģØªØ±Ø©": 1603,
      "ĠØªØ¨": 1604,
      "Ø´ÙĬ": 1605,
      "Ø§Ø¯Øª": 1606,
      "ĠØ§ÙĦØ³ÙĨ": 1607,
      "ĠØ¨Ø§ÙĦØ¥": 1608,
      "ÙĪØ¨Ø§Øª": 1609,
      "ĠØ¨ÙĨØ³Ø¨Ø©": 1610,
      "ĠØ§ÙĦÙģÙĦØ³Ø·ÙĬÙĨÙĬÙĬÙĨ": 1611,
      "19": 1612,
      "ÙĦØ§Ø¡": 1613,
      "ØªÙĪÙĨ": 1614,
      "ĠÙĪØ¯": 1615,
      "Ø§ÙħØ¨": 1616,
      "Ø§ÙĤØ¹": 1617,
      "ÙĪÙħØ©": 1618,
      "ĠÙĨØ§Ø¦Ø¨": 1619,
      "ÙĪØ¨Ùĥ": 1620,
      "ÙĬØ¦Ø©": 1621,
      "ÙħØŃ": 1622,
      "ÙĪØ¡": 1623,
      "ĠÙĦØ§Ø³Øª": 1624,
      "ĠØ¹Ø´Ø±": 1625,
      "ĠØªØªÙħ": 1626,
      "ĠÙĪØ§ÙĦÙģ": 1627,
      "ĠÙĦÙĦÙĨ": 1628,
      "Ø§ØŃÙĬØ©": 1629,
      "Ø¦ÙĪÙĦ": 1630,
      "ĠØ§ÙĦØ¨ÙĬØ§ÙĨ": 1631,
      "ĠØ§ÙĦØ¹Ø±Ø§ÙĤÙĬ": 1632,
      "ĠØ¥ÙĨÙĩ": 1633,
      "ĠØ§ÙĦÙĦØ¬ÙĨØ©": 1634,
      "ÙĪØ£ÙĥØ¯": 1635,
      "ĠÙĪÙĥØ§ÙĦØ©": 1636,
      "ĠØ§ÙĦØ§ÙħÙĬØ±ÙĥÙĬØ©": 1637,
      "ÙĥÙĦØ©": 1638,
      "ØŃÙĨ": 1639,
      "ĠØ§ÙĦÙħØ¯ÙĬÙĨØ©": 1640,
      "ĠÙĦÙĤ": 1641,
      "Ø¬ÙĦØ³": 1642,
      "ØµØ§Ø±": 1643,
      "Ø´Ø§Ø·": 1644,
      "Ø²ÙħØ©": 1645,
      "ĠØ¥ÙĤ": 1646,
      "ĠÙĪØ§ÙĦØ°": 1647,
      "ÙĦÙĬØ§": 1648,
      "ĠÙĨØ¸Ø±": 1649,
      "ĠØ§ÙĦØ§Ø³Ø±Ø§Ø¦ÙĬÙĦÙĬ": 1650,
      "ĠÙĪÙĥØ°ÙĦÙĥ": 1651,
      "ĠØªØµØ±ÙĬØŃ": 1652,
      "ÙĪØ¶ØŃ": 1653,
      "ĠØ§ÙĦØ§Ø³ØªØ«ÙħØ§Ø±Ø§Øª": 1654,
      "ĠÙĦØ¯ÙĬ": 1655,
      "Ø¬Ø§Ùĩ": 1656,
      "ÙĪÙĦÙĪØ¬": 1657,
      "Ø§Ø¯Ùĩ": 1658,
      "ĠØŃÙĥÙĪÙħØ©": 1659,
      "Ø§Ø¨ÙĬØ©": 1660,
      "ÙĦÙĬÙĦ": 1661,
      "ØºØ©": 1662,
      "ĠØ§ÙĦØ¬Ø¯ÙĬØ¯": 1663,
      "Ġ13": 1664,
      "ĠØ§ÙĦØ«Ø§ÙĨÙĬØ©": 1665,
      "ĠØ§ØŃØ¯": 1666,
      "Ġ2002": 1667,
      "ĠÙħØ¤ØªÙħØ±": 1668,
      "ĠØ§ÙĦØ§ÙĪÙĦÙī": 1669,
      "ĠØ§ÙĦØ§Ø¯": 1670,
      "Ø¶ÙĪØ¹": 1671,
      "ĠØ§ÙĦØªÙĤØ±ÙĬØ±": 1672,
      "ĠØ§ÙĦØ£ÙħØ±": 1673,
      "ĠØ¯Ùħ": 1674,
      "ÙĪÙĤØ±": 1675,
      "Ø§Ø¬Ø¹": 1676,
      "Ø±ÙĪÙģ": 1677,
      "ØªØ±ÙĪÙĦ": 1678,
      "ĠÙħØ³Ø§Ø¡": 1679,
      "ĠØ§ÙĦØ£ÙħØ±ÙĬÙĥÙĬ": 1680,
      "ĠØ§ÙĦØ¯Ø§Ø®ÙĦÙĬØ©": 1681,
      "ĠØ®ØµÙĪØµØ§": 1682,
      "ÙĪØ§Ùģ": 1683,
      "Ø³Ø§ÙĨ": 1684,
      "ĠØ¨Ø§Øª": 1685,
      "ÙĪØ±Ø§Øª": 1686,
      "ĠØ§ÙĦØ³ÙĪØ±ÙĬ": 1687,
      "Ø¸ÙĩØ±": 1688,
      "ĠØ·Ø±ÙĬÙĤ": 1689,
      "Ø§ÙĪÙĬ": 1690,
      "ØŃÙĬØ§Ø©": 1691,
      "ĠØ§ÙĦÙĪØ·ÙĨÙĬØ©": 1692,
      "ĠØ§ÙĦÙħØ¤ØªÙħØ±": 1693,
      "Ġ,": 1694,
      "ÙĪØ§Øµ": 1695,
      "Ø³ÙĪÙĨ": 1696,
      "ĠØ¹ÙĤ": 1697,
      "ĠØ£ÙģØ±ÙĬÙĤÙĬØ§": 1698,
      "ĠØŃØ§ÙĦ": 1699,
      "ĠØ§ÙĦØŃÙĬ": 1700,
      "ĠØ±Ø³": 1701,
      "ĠØ´Ø±": 1702,
      "ÙĪØ¨Ø©": 1703,
      "ĠØ§ÙĦØ·Ø±ÙĬÙĤ": 1704,
      "ĠØ§ÙĦØ·Ø§ÙĤØ©": 1705,
      "ØµÙĦØ§ØŃ": 1706,
      "ĠØ§ÙĦØ«Ø§ÙĦØ«": 1707,
      "ĠØ§ÙĦØ³ÙĬØ§Ø³ÙĬØ©": 1708,
      "ĠØ§Ø®Ø±Ùī": 1709,
      "ĠØ§ÙĦØ³ÙĦØ·Ø©": 1710,
      "Ø±ÙĬØ¨Ø§": 1711,
      "ØºÙĬÙĬØ±": 1712,
      "ÙħÙĬÙĦ": 1713,
      "Ø¶ÙĬ": 1714,
      "ĠØ§ÙĦØªØ±": 1715,
      "ĠØ¬ÙĨ": 1716,
      "Ø±Ø¨Ø¹": 1717,
      "ĠØ§ÙĦØ®Ø§Ùħ": 1718,
      "ÙħØ§ÙĦÙĬØ©": 1719,
      "ÙĪÙĥØ§ÙĨØª": 1720,
      "ĠÙħØµØ¯Ø±": 1721,
      "ĠØ§ÙĦØ¥Ø³Ø±Ø§Ø¦ÙĬÙĦÙĬØ©": 1722,
      "Ø±Ø§Ø¹": 1723,
      "ØªØ±ÙĥØ©": 1724,
      "ĠØ¨Øµ": 1725,
      "Ø§ÙĨÙī": 1726,
      "ĠØ§ÙĦÙħÙĦ": 1727,
      "ĠØ§ÙĦÙħÙĥ": 1728,
      "ĠÙĦØ¬": 1729,
      "ĠÙĬØµ": 1730,
      "ĠØ§ÙĦØªØµ": 1731,
      "ĠØ³ÙĦ": 1732,
      "ÙĪØ±ÙĪ": 1733,
      "ØªÙħØ¨Ø±": 1734,
      "Ġ17": 1735,
      "ĠØ§ÙĦÙĨÙĤØ¯": 1736,
      "ĠÙĥØ§ÙĨÙĪØ§": 1737,
      "Ġ30": 1738,
      "Ø¬ÙħØ¹": 1739,
      "ĠØ§ÙĬØ¶Ø§": 1740,
      "ĠØ§ÙĦÙħÙĤØ¨ÙĦØ©": 1741,
      "ĠØ§ÙĦØ£ÙĪÙĦÙī": 1742,
      "ĠØ§ÙĦØ£Ø³Ø¨ÙĪØ¹": 1743,
      "ÙĪÙĤØ±Ø§Ø·": 1744,
      "Ø±Ø§Ø¶ÙĬ": 1745,
      "ÙģÙī": 1746,
      "ÙĩÙĪØ±": 1747,
      "ĠÙħÙĪØ³": 1748,
      "Ø§ÙĨØ³": 1749,
      "ĠØ§ÙĦÙħØ®": 1750,
      "Ø§Ø±Ø¨": 1751,
      "ĠØ£Ø¬ÙĦ": 1752,
      "Ø²ÙĦ": 1753,
      "ĠØ¥Ø¯Ø§Ø±Ø©": 1754,
      "ĠÙĨÙĬ": 1755,
      "ĠØ§ÙĦØŃØ¯ÙĪØ¯": 1756,
      "ĠØ§ÙĦÙĤØ§Ø¯": 1757,
      "ĠØ§ÙĦÙĤØ±Ø§Ø±": 1758,
      "Ġ25": 1759,
      "ĠØ§Ø³ØªØ®Ø¯Ø§Ùħ": 1760,
      "ĠØªØŃÙĤÙĬÙĤ": 1761,
      "ĠØ§ÙĦØ´Ø±Ø·Ø©": 1762,
      "ÙħØª": 1763,
      "Ø¯Ø§ÙĨ": 1764,
      "ĠÙĪØ§ÙĦØ§Ø³Øª": 1765,
      "Ø§Ø¦Ø¹": 1766,
      "ĠÙĤÙĪØ§Øª": 1767,
      "Ø§ÙĪÙĦØ©": 1768,
      "ĠØ¶Ø±": 1769,
      "ØªÙģØ¹": 1770,
      "ĠØ¨Ø´Ø£ÙĨ": 1771,
      "ĠØ´Ø§Ø±ÙĪÙĨ": 1772,
      "Ø§ÙĩÙħ": 1773,
      "Ø¯ÙĪÙĨ": 1774,
      "ĠÙĪØ¹Ø¯": 1775,
      "ĠÙĪØºÙĬØ±": 1776,
      "ĠØªØ¹Ø¯": 1777,
      "Ø°Ø±": 1778,
      "ĠÙĨØ¬": 1779,
      "ĠØ£ÙĨÙĩØ§": 1780,
      "ĠØ§ÙĦØ°Ùī": 1781,
      "ÙĦÙģØ©": 1782,
      "ÙĨØ¯Ø§": 1783,
      "ĠØ§ÙĦØ§Ø³Ø±Ø§Ø¦ÙĬÙĦÙĬØ©": 1784,
      "ĠØ§ÙĦØºÙĪØ§ØµØ©": 1785,
      "ĠÙĤÙĬÙħØ©": 1786,
      "Ø§ÙĦÙģ": 1787,
      "Ø§ÙĦØ¹": 1788,
      "Ø§Ø¤": 1789,
      "ØªØ§Ø¨": 1790,
      "ÙĤÙĤ": 1791,
      "ÙĩØ§Øª": 1792,
      "ÙĩØ§Ø¦": 1793,
      "ÙĥÙĬÙĦ": 1794,
      "ĠÙħØ®": 1795,
      "ĠÙħØ±ÙĥØ²": 1796,
      "Ø¹ÙĬÙħ": 1797,
      "ĠÙĦØ¬ÙĨØ©": 1798,
      "ĠØ£Ø¹ÙħØ§ÙĦ": 1799,
      "Ø·Ø¹": 1800,
      "ĠÙħÙĨØ¸ÙħØ©": 1801,
      "Ø§ÙħÙĦØ©": 1802,
      "Ø´ØŃ": 1803,
      "ĠÙĪØ§ÙĦØ¨": 1804,
      "ĠÙĨØ³Ø¨Ø©": 1805,
      "Ø±ÙĪØ³": 1806,
      "Ø§ØµØ±": 1807,
      "ĠØ§ÙĦÙĪØŃ": 1808,
      "ĠØ§ÙĦÙħØµØ¯Ø±": 1809,
      "ĠØ§Ø³Ùħ": 1810,
      "ĠØ§ÙĦÙħØ³ØªØ«ÙħØ±": 1811,
      "ĠØ§ÙĦØ¹Ø±Ø¨ÙĬ": 1812,
      "ĠØ²ÙĬØ§Ø±Ø©": 1813,
      "ĠØ¹ÙħÙĦÙĬØ§Øª": 1814,
      "ĠØ§ÙĦØµÙĨØ§Ø¹ÙĬØ©": 1815,
      "ĠØ§ÙĦØ¥Ø³ÙĦØ§ÙħÙĬØ©": 1816,
      "Ø§ÙĦØŃÙĬØ§Ø©": 1817,
      "Ø§Ø¸": 1818,
      "ÙģÙĦ": 1819,
      "ĠÙĪØªÙħ": 1820,
      "Ø§ÙħÙĬ": 1821,
      "Ø´ÙĦ": 1822,
      "ĠØ§ÙĦØªØ£": 1823,
      "Ø±ÙĬÙģ": 1824,
      "ĠØ¬Ø§Ø¡": 1825,
      "Ø§ÙģÙĬØ©": 1826,
      "ĠØ´Ø±ÙĤ": 1827,
      "ĠØ§ÙĦÙĥÙĩØ±Ø¨": 1828,
      "ØªÙĬØ¬Ø©": 1829,
      "Ø§Ø´Ø±Ø©": 1830,
      "ĠØ§ÙĦØ§ÙħÙħ": 1831,
      "ĠØ§Ø¹ÙĦÙĨ": 1832,
      "ÙĦØŃØ©": 1833,
      "ÙĪÙĬØ§": 1834,
      "Ø¬Ø§Ø±": 1835,
      "ĠÙĪØ§ÙĦØ¥": 1836,
      "ĠØ¯Ø¹": 1837,
      "Ø¦Ø§Ø³Ø©": 1838,
      "Ġ14": 1839,
      "Ø§ØµÙħØ©": 1840,
      "ÙģÙĬØ§Øª": 1841,
      "ĠØ§ÙĦÙĥÙĪÙĬØª": 1842,
      "ĠÙħØ³ØªÙĪÙī": 1843,
      "ĠØ§ÙĦØ±ÙĪØ³ÙĬØ©": 1844,
      ")ØĮ": 1845,
      "Ø§ÙĬØ±": 1846,
      "ØªÙĤØ¯": 1847,
      "ÙĩÙĪØ±ÙĬØ©": 1848,
      "ĠØ¹Ø±Ùģ": 1849,
      "ÙĪÙĦØ§": 1850,
      "Ø¶ÙĬÙģ": 1851,
      "ĠÙĬØ³": 1852,
      "Ø«ÙĨØ§Ø¡": 1853,
      "ĠÙĪØ§ÙĦÙĤ": 1854,
      "ĠÙĥÙĪÙĨ": 1855,
      "ÙĦÙĬØ¬": 1856,
      "ÙĪØ±Ø¯": 1857,
      "ĠÙĦÙĦÙĤ": 1858,
      "ĠÙĨÙĤÙĦ": 1859,
      "ĠØ±Ø£Ø³": 1860,
      "ĠØ§ÙĦÙĨÙĤ": 1861,
      "ÙĦÙħÙĬÙĨ": 1862,
      "ÙĪØ¬Ø¯": 1863,
      "ĠØ§ÙĦØªØ¬Ø§Ø±ÙĬØ©": 1864,
      "ĠØ§ÙĦØ§ÙĤØªØµØ§Ø¯ÙĬ": 1865,
      "Ġ201": 1866,
      "ĠØ§ÙĦØ§ÙħØ±ÙĬÙĥÙĬØ©": 1867,
      "ĠØ§ÙĦØ§Øµ": 1868,
      "ĠÙĪØ·": 1869,
      "ĠÙĪØ§Ø¹": 1870,
      "ĠÙĪØ§Ø´ÙĨØ·ÙĨ": 1871,
      "ĠØ¨ÙĤÙĬ": 1872,
      "ĠØ§ÙĦÙħØ¹ÙĦÙĪÙħØ§Øª": 1873,
      "ĠØ¹Ø´": 1874,
      "ØµØ§ÙĦØ§Øª": 1875,
      "ĠØ£Ø´": 1876,
      "ĠØ§ÙĦØ¹Ùħ": 1877,
      "ÙĪÙħÙĬ": 1878,
      "ĠØ¯Ø¹Ùħ": 1879,
      "ĠØ§ÙĦÙħØŃÙĦÙĬ": 1880,
      "ĠÙĩÙĬØ¦Ø©": 1881,
      "Ġ:": 1882,
      "ÙĬØµ": 1883,
      "ÙħØ¶": 1884,
      "ĠÙģØªØŃ": 1885,
      "ĠØ§ÙĦÙħØº": 1886,
      "ĠÙĦØ§ØŃ": 1887,
      "ĠØªÙĤØ¯Ùħ": 1888,
      "ÙĬÙĨØº": 1889,
      "ĠØ§ÙĦØ´Ø¹": 1890,
      "ÙĩØ±Ø§ÙĨ": 1891,
      "ĠØ§ÙĦÙħØ§Ø¶ÙĬØ©": 1892,
      "Ø±ÙĬØ±": 1893,
      "Ø³Ø³Ø§Øª": 1894,
      "ØŃØ§Ø¨": 1895,
      "ĠÙĦØµ": 1896,
      "ĠØ¹Ø±Ø§ÙĤ": 1897,
      "ĠØ¹Ø±Ø¶": 1898,
      "ĠØ£Ø¯": 1899,
      "ĠØ§ÙĨÙĩØ§": 1900,
      "ĠØ¬Ø¯Ø§": 1901,
      "ĠØ·ÙĨ": 1902,
      "ÙħÙĪØ§ÙĦ": 1903,
      "ĠØ§ÙĦÙħØŃÙĦÙĬØ©": 1904,
      "ÙĪØ±ÙĪØ¨Ø§": 1905,
      "ĠØµØŃÙĬÙģØ©": 1906,
      "ĠØ§ÙĦÙħØ¹Ø§Ø±Ø¶Ø©": 1907,
      "ĠØ¶Ø±ÙĪØ±Ø©": 1908,
      "ÙĦØŃ": 1909,
      "ÙĦØº": 1910,
      "ÙĪØ´": 1911,
      "ÙĨÙģ": 1912,
      "ÙĤØ§Ø°": 1913,
      "ĠØ¨ÙħÙĨ": 1914,
      "ĠØ§ÙĦØªØ¯": 1915,
      "Ø®ÙģØ¶": 1916,
      "Ø§Ø¦ÙĤ": 1917,
      "ĠØ§ÙĦØ£ÙĨ": 1918,
      "Ø§ÙģØŃØ©": 1919,
      "Ø´Ø§Ø±Ùĥ": 1920,
      "ÙģØ¶ÙĦ": 1921,
      "ĠØ£ÙħØ±ÙĬÙĥ": 1922,
      "ĠØ§ÙĬØ±Ø§ÙĨ": 1923,
      "Ø±ÙĬØ·Ø§ÙĨÙĬØ§": 1924,
      "ĠØ§ÙĦØ£Ø®ÙĬØ±Ø©": 1925,
      "ĠÙģØ±ÙĨØ³Ø§": 1926,
      "ĠÙħÙĩ": 1927,
      "ĠÙĪØ³ÙĬ": 1928,
      "ĠØ¨ÙĦÙĬÙĪÙĨ": 1929,
      "ĠÙĦØ§Ø¹": 1930,
      "ÙĬÙĨÙĬØ©": 1931,
      "ĠÙĪØ§ÙĦØ³": 1932,
      "ĠÙĥÙħ": 1933,
      "ĠØ±ÙģØ¹": 1934,
      "Ø³ØªØ±": 1935,
      "ĠØ³ÙĬØªÙħ": 1936,
      "ĠØ§ÙħØ§Ùħ": 1937,
      "ĠØ§ÙĦØ³ÙĬØ§Ø³ÙĬ": 1938,
      "ÙĤÙī": 1939,
      "ØŃØµ": 1940,
      "ĠØªÙĤØ¯ÙĬÙħ": 1941,
      "Ø¶Ø©": 1942,
      "ĠÙĪØ§ÙĦØ´": 1943,
      "ĠÙĨØ´Ø±": 1944,
      "ĠØ±ÙĪØ³": 1945,
      "ÙĩÙħÙĬØ©": 1946,
      "ĠØ§ÙĦØ¥ÙĨØªØ§Ø¬": 1947,
      "ĠØ·Ø±ØŃ": 1948,
      "Ø¶Ø§ÙĬØ§": 1949,
      "Ø¸ÙħØ§Øª": 1950,
      "ĠØ§ÙĦÙĦØ¨ÙĨØ§ÙĨÙĬ": 1951,
      "Ø±Ø§ØªÙĬØ¬": 1952,
      "ĠØ§ÙĤØªØµØ§Ø¯": 1953,
      "ĠØ§ÙĦØ§ÙĬ": 1954,
      "ĠØ§ÙĦØ§Ø·": 1955,
      "Ø¨ÙĥØ©": 1956,
      "ØŃØ¨": 1957,
      "ĠØªÙĤØ±ÙĬØ±": 1958,
      "ÙĪÙĦÙĬÙĪ": 1959,
      "ĠØ¥ÙĦÙĬ": 1960,
      "ĠØŃØ±": 1961,
      "ĠØŃØ±ÙĥØ©": 1962,
      "Ø§Ø¦Ø©": 1963,
      "ĠØ§ÙĦØ£Ø®Ø±Ùī": 1964,
      "ĠÙĦÙĦÙħÙĨ": 1965,
      "ĠÙĨÙĪØ¹": 1966,
      "ĠØ§ÙĦØ³Ø§Ø±Ø³": 1967,
      "ĠØ¯ÙĬ": 1968,
      "ĠØ´Ø¹": 1969,
      "ĠØ§ÙĦÙģØ±": 1970,
      "ÙĪØ¨Ø±": 1971,
      "ĠÙħØµØ±ÙĬ": 1972,
      "Ø³ÙĥØ±ÙĬ": 1973,
      "ĠØ¨Ø§ÙĦÙĨØ³Ø¨Ø©": 1974,
      "ĠØŃÙĪØ§ÙĦÙĬ": 1975,
      "ĠÙĪØ§ÙĦØ°ÙĬ": 1976,
      "11": 1977,
      "ĠØ§ÙĦØ§Ø«": 1978,
      "ĠØ§ÙĦØ§Ø´": 1979,
      "Ø¯ÙħØ©": 1980,
      "ĠØ¹ÙĦ": 1981,
      "ĠØªØ¤": 1982,
      "ØµØ§ÙĦ": 1983,
      "Ø·ÙĬØ¹": 1984,
      "Ø®Ø§Øµ": 1985,
      "ĠØ³ÙĪØ±ÙĬØ©": 1986,
      "ĠØŃØ¯": 1987,
      "ĠØŃÙĥÙĪÙħ": 1988,
      "ĠÙĤØ¨": 1989,
      "ĠØ§ÙĦØ£Ø²": 1990,
      "ĠÙĦÙĦØµ": 1991,
      "ĠØ§ÙĦØŃØ¯ÙĬØ¯": 1992,
      "Ø¦Ø§Øª": 1993,
      "ĠØ§ÙĦÙĤØ±ÙĨ": 1994,
      "ĠØ¨Ø§ÙĦØª": 1995,
      "ĠØ§ÙĦÙĨØ¸Ø§Ùħ": 1996,
      "ĠØ§ÙĦØ®Ùħ": 1997,
      "ĠØ§ÙĦØ¥Ø¬": 1998,
      "ØªØ±Ø§": 1999,
      "ĠØ§ÙĦÙĥØ«ÙĬØ±": 2000,
      "ÙĪØ¬ÙĪØ¯": 2001,
      "ĠØ¶ÙħÙĨ": 2002,
      "Ø±ÙģØ©": 2003,
      "ĠØ§ÙĦØ²ÙĬ": 2004,
      "ĠØ¨Ø¯Ø£Øª": 2005,
      "ĠØ§Ø¶": 2006,
      "Ø§ÙĦÙĤ": 2007,
      "ÙĪØ§ÙĪØ¶": 2008,
      "ØªÙĥ": 2009,
      "ØªØ®Ø¨": 2010,
      "ĠÙħÙĪÙĤÙģ": 2011,
      "ĠÙĪÙĦÙħ": 2012,
      "ĠÙĪÙĥØ§ÙĨ": 2013,
      "ĠØ¨Ø§Ø¹": 2014,
      "ĠØ£ÙĤ": 2015,
      "ĠÙħÙĨØŃ": 2016,
      "Ø´Ø±ÙĪØ¹": 2017,
      "ĠØ³ÙĪØ±ÙĬØ§": 2018,
      "ĠØŃÙĦ": 2019,
      "ĠØŃØ±Ø¨": 2020,
      "ĠØ¯ÙĬÙģ": 2021,
      "ĠØ§ÙĦØŃØ±Ø©": 2022,
      "Ø§Ø¬Ø§Øª": 2023,
      "ÙĨØ¯ÙĪÙĤ": 2024,
      "Ġ197": 2025,
      "Ø§Ø¦Ø±Ø§Øª": 2026,
      "ĠØ§ÙĦØ§ÙĨØªØ®Ø§Ø¨Ø§Øª": 2027,
      "ĠÙĪØ§ØŃØ¯": 2028,
      "200": 2029,
      "ÙĦÙĩ": 2030,
      "ĠØ¨ÙĢ": 2031,
      "ĠØ¨Ø§ÙĪÙĦ": 2032,
      "Ø§ÙĨØ¹": 2033,
      "ĠÙģÙĤØ¯": 2034,
      "ĠØ§ÙĦÙħØ§ÙĦ": 2035,
      "ÙĬØ±Ø§Ø¯": 2036,
      "ĠØ§ÙĦØªÙģ": 2037,
      "Ø®Ø§Ø°": 2038,
      "Ø§Ø¦Ø¬": 2039,
      "ĠÙĤÙĨ": 2040,
      "ĠÙĤØ¯Ø±": 2041,
      "ÙĪØ±Ø¬": 2042,
      "ĠØ§ÙĦØ£Ùĥ": 2043,
      "Ø¨Ø±Ùī": 2044,
      "Ø¨ÙĦÙĪÙħ": 2045,
      "ĠØºØ±Ø¨": 2046,
      "ĠØ§ÙĦØ·ÙĦØ¨": 2047,
      "ÙĤÙĬÙĤØ©": 2048,
      "ÙĦØ§ÙħÙĬØ©": 2049,
      "ĠØ§ÙĦØ³ÙĪØ¯Ø§ÙĨ": 2050,
      "ĠØ§ÙĦØ±Ø³ÙħÙĬØ©": 2051,
      "ÙĪØ°ÙĥØ±": 2052,
      "Ø¨Ø§ÙĦ": 2053,
      "ĠÙģØ§ÙĨ": 2054,
      "ĠØ§ÙĦÙħØ·": 2055,
      "ĠÙĦØ³": 2056,
      "ĠØ§ÙĦØªØ³": 2057,
      "ĠØŃØ³Ø¨": 2058,
      "Ø§Ø¦Ùħ": 2059,
      "ĠÙĤØ¯Ùħ": 2060,
      "ĠÙĨØªÙĬØ¬Ø©": 2061,
      "ÙĬÙĦØ§": 2062,
      "ĠÙħØ¹Ø¸Ùħ": 2063,
      "ĠØ¨Ø§ÙĦÙģ": 2064,
      "ĠØ§ÙĦÙĨØ¸Ø±": 2065,
      "Ø³ÙĬØŃ": 2066,
      "ĠØ¨ÙĦØ§Ø¯Ùĩ": 2067,
      "ĠØ§ÙĦÙħØ¯Ø§Ø±Ø³": 2068,
      "ĠØŃØ³ÙĬÙĨ": 2069,
      "ĠØ§Ø°Ø§": 2070,
      "ĠØ£Ø¨ÙĪ": 2071,
      "ØªØ§": 2072,
      "Ø§ÙĨØ©": 2073,
      "Ø·ÙĦØ§ÙĤ": 2074,
      "ĠÙĬÙģ": 2075,
      "Ø§Ø³Ø¨Ø©": 2076,
      "Ø±ÙĬÙĦ": 2077,
      "ĠÙĥØ«": 2078,
      "Ø§ÙĩØ±": 2079,
      "ĠØ£ÙĥØ¯": 2080,
      "ĠÙĪÙģÙĤØ§": 2081,
      "ĠÙĥØ¨ÙĬØ±Ø§": 2082,
      "ĠÙĬØ¬Ø¨": 2083,
      "ĠØ¨ÙĪØ´": 2084,
      "ĠØ¨ÙĦØºØª": 2085,
      "ĠØ§ÙĦØŃÙĥÙĪÙħÙĬØ©": 2086,
      "ĠØ¯ÙħØ´ÙĤ": 2087,
      "âĢ": 2088,
      "ÙĩØ¨": 2089,
      "ĠØ§ÙĦÙħØ§ÙĦÙĬØ©": 2090,
      "ĠÙĦÙĥÙĦ": 2091,
      "ĠØ¹Ø¶": 2092,
      "Ø¬ÙĬÙĦ": 2093,
      "Ø§Ø¨ÙĤØ©": 2094,
      "ÙĪØ±Ùĥ": 2095,
      "ØºÙĦ": 2096,
      "ĠÙĦÙĦØ¯": 2097,
      "ĠÙĨØª": 2098,
      "ĠØ§ÙĦØŃÙĥÙħ": 2099,
      "ĠØ´Ø£ÙĨ": 2100,
      "ÙħÙĦÙĥ": 2101,
      "ĠØµØ¯Ø§Ùħ": 2102,
      "ĠØ§ÙĦÙħØŃÙĥÙħØ©": 2103,
      "ĠØ§ÙĦØ§Ø³Ø¨": 2104,
      "ÙĪÙĤØ§ÙĦØª": 2105,
      "ÙĪØ²ÙĬØ±": 2106,
      "ÙĬØ±ÙĥÙĬØ©": 2107,
      "ĠØªØ·ÙĪÙĬØ±": 2108,
      "ĠØ§ÙĦÙħØ³Ø¤ÙĪÙĦÙĬÙĨ": 2109,
      "20": 2110,
      "ÙģØ§Ø¡": 2111,
      "Ø³Ø§Ùħ": 2112,
      "ĠÙĪØ¥ÙĨ": 2113,
      "ĠØ§ÙĦÙħØ¦Ø©": 2114,
      "Ø¶ÙĪØ±": 2115,
      "ĠØ¥Ø°": 2116,
      "ĠØ¥ØŃØ¯": 2117,
      "ĠØŃÙĬ": 2118,
      "Ø§Ø¨ÙĬ": 2119,
      "ĠØ§ÙĦØ£ØŃ": 2120,
      "ÙĪÙħØ§": 2121,
      "ĠÙĦÙĦØ¬": 2122,
      "ĠÙĦÙĦØ§Ø³Øª": 2123,
      "ĠÙĨØ³": 2124,
      "ÙĬØ¯ÙĬ": 2125,
      "ÙħØ§ÙĬØ©": 2126,
      "ĠØ§ÙĦÙģØ§Ø¦Ø¯Ø©": 2127,
      "ĠØ¨ÙĬÙĨÙħØ§": 2128,
      "ÙĪØ³Ø¹": 2129,
      "ĠØ§Ø³ØªØ«ÙħØ§Ø±": 2130,
      "ÙĪÙģÙĬØ±": 2131,
      "ĠØ§ÙĦØºØ§Ø²": 2132,
      "ĠØ§ÙĦØ¹Ø§ÙĦÙħÙĬ": 2133,
      "ĠØªØ·Ø¨ÙĬÙĤ": 2134,
      "ĠØ§ÙĦØ³ÙĦØ·Ø§Øª": 2135,
      "ĠØ§ÙĦÙĦØ¨ÙĨØ§ÙĨÙĬØ©": 2136,
      "ĠØ¥Ø¬ÙħØ§ÙĦÙĬ": 2137,
      "ÙħØ¶Ø§ÙĨ": 2138,
      "ĠØ§ÙĦØ£Ø²ÙĩØ±": 2139,
      "ÙĩÙĬÙĦ": 2140,
      "ĠÙħØªÙĨ": 2141,
      "ĠÙĪØ§Ø¶": 2142,
      "ĠÙħÙĨÙĩÙħ": 2143,
      "ÙĪÙĦÙĩ": 2144,
      "Ø®ÙĪØ§ÙĨ": 2145,
      "ĠÙĥØ§Ø±": 2146,
      "ĠÙĤÙħØ©": 2147,
      "ĠØ§ÙĦØ³ÙĬØ¯": 2148,
      "ĠØ§ÙĦØŃÙĪØ§Ø±": 2149,
      "ÙĬÙĦÙĪÙĦ": 2150,
      "Ø±Ø¨Ø©": 2151,
      "ĠØ¨Ø§ÙĦØ³": 2152,
      "ĠØ§ÙĦØ±ÙĤ": 2153,
      "ÙĥÙĨÙĪÙĦÙĪØ¬": 2154,
      "Ø§ÙĪÙĦØ§Øª": 2155,
      "Ø´Ø§Ø±ÙĬØ¹": 2156,
      "ĠØ£ÙĬØ§Ùħ": 2157,
      "ĠØ§ÙĦØ§ÙĬØ±": 2158,
      "ÙĤØ¨Ø§ÙĦ": 2159,
      "ĠÙĪØ¹ÙĦÙī": 2160,
      "ÙĪØ§Ø´": 2161,
      "ÙĩØ§Ø²": 2162,
      "ĠÙħØ±Ø©": 2163,
      "Ø¬Ø¨": 2164,
      "Ø·Ø¨": 2165,
      "ĠÙħÙĨÙĩ": 2166,
      "Ø§Ø¯ÙĬØ©": 2167,
      "Ø£Ø©": 2168,
      "Ø£ÙĥØ¯": 2169,
      "ĠØ§ÙĦØ¹Ø³ÙĥØ±ÙĬØ©": 2170,
      "Ø§ÙģØ³Ø©": 2171,
      "ĠØ§ÙĦØ¨ØªØ±ÙĪÙĦ": 2172,
      "Ø§ÙĥØ¯": 2173,
      "Ø±ÙĪØ§": 2174,
      "ÙĪÙĥØ§ÙĦØ©": 2175,
      "ØªØ¬Ø§ÙĪØ²": 2176,
      "ĠÙĬØ¹ÙĨÙĬ": 2177,
      "Ø³Ø¹Ùī": 2178,
      "ĠØ§ÙĦÙĪØ²ÙĬØ±": 2179,
      "Ø´ÙģÙī": 2180,
      "ĠØ§ÙĦÙħØ³ØªØ«ÙħØ±ÙĬÙĨ": 2181,
      "ĠØ¹Ø±ÙģØ§Øª": 2182,
      "ĠØ¯ÙĬÙģÙĬØ¯": 2183,
      "Ø§ÙĦØ¯": 2184,
      "ÙĪÙĬØ³": 2185,
      "ÙģØ§ÙĦ": 2186,
      "ÙĥØ§Ùħ": 2187,
      "ĠØ¨Ùĥ": 2188,
      "ĠØªÙĪ": 2189,
      "ÙĪÙĨØ©": 2190,
      "Ø±ÙĬÙĤØ©": 2191,
      "ĠÙĤØªÙĦ": 2192,
      "ĠÙĤØ¶ÙĬØ©": 2193,
      "ĠÙĦÙĦÙģ": 2194,
      "ĠØ§ÙĨØªÙĩ": 2195,
      "ĠØ§ÙĦØŃØ§ÙĥÙħ": 2196,
      "ĠØ´ÙĬ": 2197,
      "Ġ100": 2198,
      "ĠØ§ÙĦÙĨÙĩ": 2199,
      "ĠØµØ¨Ø§ØŃ": 2200,
      "ĠØ§ÙĦÙħÙĨØªØ¬Ø§Øª": 2201,
      "ÙĪÙĬÙĤ": 2202,
      "ĠØ§ÙĦÙħØµØ§Ø¯Ø±": 2203,
      "ÙĪØ£ÙĪØ¶ØŃ": 2204,
      "Ø²ÙĬÙĪÙĨ": 2205,
      "Ø²ÙĬØ§Ø¯Ø©": 2206,
      "ĠØ§ÙĦÙħØ¬Ø§ÙĦ": 2207,
      "ĠØ³ÙĨÙĪÙĬØ§": 2208,
      "ĠØ¸ÙĦ": 2209,
      "ĠØŃÙĤÙĪÙĤ": 2210,
      "ÙĪØ§Ø¬Ùĩ": 2211,
      "ĠØ§ÙĦØ¨Ø±ÙĬØ·Ø§ÙĨÙĬØ©": 2212,
      "ĠØ§ÙĦØ®ÙħÙĬØ³": 2213,
      "ÙĬØº": 2214,
      "ĠØ§ÙĦØ§ÙĪ": 2215,
      "ØªÙĤ": 2216,
      "ÙģØ§Øª": 2217,
      "ĠÙĪØµ": 2218,
      "ĠØ§ÙĦÙħØ¶": 2219,
      "ĠØªÙĦ": 2220,
      "Ø·Ø±Ø©": 2221,
      "ĠØ§ÙĦØªØ·": 2222,
      "Ø£ØªÙĬ": 2223,
      "Ø«Ø§Ø±": 2224,
      "ĠÙĪØ§ÙĦÙħÙĨ": 2225,
      "Ø§Ø¨Ø³": 2226,
      "ĠØ§ÙĨØ®ÙģØ§Ø¶": 2227,
      "ĠØ±ÙħØ¶Ø§ÙĨ": 2228,
      "ĠØ®Ø³": 2229,
      "ĠØ¨Ø§ÙĦØ¹": 2230,
      "Ø¤ÙĪÙĨ": 2231,
      "ØªØŃØ¯Ø«": 2232,
      "ĠØ¨ÙĨÙĥ": 2233,
      "ĠØ¨Ø¯Ø§ÙĬØ©": 2234,
      "ĠØ§ÙĦÙħØ¬ØªÙħØ¹": 2235,
      "ĠØ£ÙħØ³": 2236,
      "ĠØ§ÙĦØ³Ø¹ÙĪØ¯ÙĬ": 2237,
      "ĠØ§ÙĦÙħØ´Ø±ÙĪØ¹Ø§Øª": 2238,
      "ĠØ§ÙĦØ¯ÙĬÙħÙĪÙĤØ±Ø§Ø·": 2239,
      "ÙĨØ§Ùģ": 2240,
      "ÙĩØ°Ø§": 2241,
      "ĠÙħØ·ÙĦ": 2242,
      "Ø¨Ø§Ø±": 2243,
      "Ø¹ÙĪ": 2244,
      "Ø§ÙħÙĬØ©": 2245,
      "Ø²ÙĪ": 2246,
      "Ø§Ø³Ø¨": 2247,
      "ĠØ¥Ø·Ø§Ø±": 2248,
      "ØºÙĬØ±Ø©": 2249,
      "ĠÙĩÙĨØ§": 2250,
      "Ø§Ø¬Ø©": 2251,
      "Ø§ÙĥÙĦ": 2252,
      "ĠØ§ÙĦØµØ±Ùģ": 2253,
      "Ø§Ø´Ø±": 2254,
      "Ø¨Ø¯ÙĪ": 2255,
      "ĠÙħØ¤Ùĥ": 2256,
      "ĠØ§ÙĦØ§Ø±ÙĩØ§Ø¨": 2257,
      "Ø§Ø±Ø¯Ø§Øª": 2258,
      "ĠØ£ØŃÙħØ¯": 2259,
      "ĠØ§ÙĦÙĤØ¯Ø³": 2260,
      "ÙĲ": 2261,
      "Ø¯ÙĨ": 2262,
      "ĠÙĦÙģ": 2263,
      "Ø¬Ø¹": 2264,
      "ĠØ£Ø¹Ø¶Ø§Ø¡": 2265,
      "ÙĪÙĦÙī": 2266,
      "ĠÙĬÙĥÙĨ": 2267,
      "Ø£ÙĦØ©": 2268,
      "ĠØŃØ¯ÙĬØ«": 2269,
      "ĠÙĥÙĬÙĦ": 2270,
      "ĠÙĦÙĦØ³": 2271,
      "ĠÙĦÙĦØ¥": 2272,
      "Ø§Ø·Ø¹Ø©": 2273,
      "ĠØµØ§Ø¯Ø±Ø§Øª": 2274,
      "Ø¹ÙĦØ§ÙĨ": 2275,
      "ÙĪØ§ÙĨÙĬÙĨ": 2276,
      "ĠØ¨Ø±Ø³": 2277,
      "ĠØ§ÙĦØ§Ø±Ø¨Ø¹": 2278,
      "ĠØ§ÙĦØ§ØŃØªÙĦØ§ÙĦ": 2279,
      "ĠØ§ÙĦØ¨ØŃØ±": 2280,
      "Ø§ÙĬÙĨ": 2281,
      "ØªØª": 2282,
      "ĠÙĪÙħØ§": 2283,
      "ĠØ§ÙĦÙħØ´Ø§Ø±ÙĥØ©": 2284,
      "ÙĪÙĦÙĬ": 2285,
      "ĠØ§ÙĦØ¹Ø§ØµÙħØ©": 2286,
      "ĠØŃÙħ": 2287,
      "ĠÙĪØ§ÙĦØ¬": 2288,
      "ĠÙĥØ§ÙħØ¨": 2289,
      "ĠØ§ÙĦÙĨÙĪ": 2290,
      "ĠØ§ÙĦÙĨØ§Ø±": 2291,
      "ĠØ§ÙĦØµÙĨØ§Ø¹Ø©": 2292,
      "ĠØºØ²Ø©": 2293,
      "ĠÙĦÙħØ¯Ø©": 2294,
      "ĠØ§ÙĦÙĬØ§Ø¨": 2295,
      "ĠØ§ÙĦØ·Ø¨ÙĬØ¹": 2296,
      "ĠÙħØµØ±ÙĬØ©": 2297,
      "ĠØ¥ÙĨØªØ§Ø¬": 2298,
      "Ø´Ø±ÙĤ": 2299,
      "ĠÙĪÙĤÙģ": 2300,
      "ĠØªØµØ±ÙĬØŃØ§Øª": 2301,
      "ĠØ¹Ø´Ø±Ø©": 2302,
      "Ø§ÙĦØ¥": 2303,
      "Ø±Ø§Ø¯": 2304,
      "ÙĩØ§Ùħ": 2305,
      "ĠÙĪØº": 2306,
      "ĠÙģØ¹ÙĦ": 2307,
      "ĠØ§ÙĦÙħÙĦÙĥ": 2308,
      "ĠÙĦÙĩÙħ": 2309,
      "ĠØ¹ÙĦÙħ": 2310,
      "ĠØªÙĩ": 2311,
      "Ø±ÙĬØ¹": 2312,
      "Ø«Ø©": 2313,
      "ĠØ§ÙĦØ¹ÙħØ§ÙĦ": 2314,
      "ĠÙĪØ§ÙĦØ«": 2315,
      "Ø°Ø¨": 2316,
      "ĠØ§ÙĦØ£Ø±Ø¶": 2317,
      "ĠÙĨØ¸": 2318,
      "ÙĬØ¯Ø§": 2319,
      "ÙĪØ¯ÙĬØ©": 2320,
      "ĠØ§ÙĦÙĨÙħÙĪ": 2321,
      "Ø¤ÙĦØ§Ø¡": 2322,
      "ĠØµÙģ": 2323,
      "ĠØ§ÙĦÙĪÙģ": 2324,
      "ÙĪÙĬØ§Øª": 2325,
      "ĠØ§Ø³ØªÙħØ±Ø§Ø±": 2326,
      "ĠÙĪØªÙĨ": 2327,
      "ĠÙģØ±Ø§ÙĨØ³": 2328,
      "ĠØ¸ÙĩØ±": 2329,
      "ĠØ§ÙĦØ§ÙħÙĬØ±ÙĥÙĬ": 2330,
      "ĠØ§ÙĦØ¬ÙĨÙĪØ¨ÙĬØ©": 2331,
      "ĠØ§ÙĦØ£Ø¬ÙĨØ¨ÙĬØ©": 2332,
      "ĠØ§ÙĦØ§Ø«ÙĨÙĬÙĨ": 2333,
      "ĠØ§Ø²": 2334,
      "ÙĨØ¯ÙĬ": 2335,
      "ÙģØ¬Ø§Ø±": 2336,
      "ÙĥØ§Ø±": 2337,
      "Ø¨Ø§Ø·": 2338,
      "Ø³Ø³Ø©": 2339,
      "ĠÙĦÙĬØ¨": 2340,
      "Ø§ÙħÙĨ": 2341,
      "Ø§ÙĤÙħ": 2342,
      "ÙĪØ±ØµØ©": 2343,
      "ĠÙĦÙĦØº": 2344,
      "ĠØ¬ÙĩØ©": 2345,
      "Ø§Ø¬ÙĩØ©": 2346,
      "ÙĬØ³Ø©": 2347,
      "ÙħÙĨØª": 2348,
      "ĠØ§ÙĦØ±Ø³": 2349,
      "ĠØ·ÙĪÙĬÙĦ": 2350,
      "ØªØ±ØŃ": 2351,
      "ÙĪØ¬ÙĬÙĩ": 2352,
      "ĠØ¨Ø¹Ø¯ÙħØ§": 2353,
      "Â«ØĮ": 2354,
      "ĠØªØ¹Ø±Ø¶": 2355,
      "ĠØ§ÙĦØºØ°": 2356,
      "Ġ198": 2357,
      "ØªÙĨÙħÙĬØ©": 2358,
      "ĠÙĬØ¹ÙħÙĦ": 2359,
      "Ø®ØµØµ": 2360,
      "ĠØ§ÙĦÙħØ±ØŃÙĦØ©": 2361,
      "ĠØ§ÙĦØ¢Ø®Ø±": 2362,
      "ĠØªÙħÙĪØ²": 2363,
      "Ġ0": 2364,
      "Ø§ÙĦØ£": 2365,
      "ĠØ§ÙĦØ§ÙĨØ¨": 2366,
      "ĠØ¨Ùģ": 2367,
      "ĠÙĦØ¯": 2368,
      "Ø²ÙĬÙĨ": 2369,
      "ĠÙĬØªØ¹": 2370,
      "Ø±ÙĬØ§Øª": 2371,
      "Ø«Ø§Øª": 2372,
      "ĠØ³ÙĥØ§ÙĨ": 2373,
      "ĠØ³ÙĪØ§Ø¡": 2374,
      "ĠØŃØµÙĦ": 2375,
      "Ø§ÙĤØ§Øª": 2376,
      "ĠØ§ÙĦØ£Ø±Ø§Ø¶ÙĬ": 2377,
      "Ø§ÙģÙĤ": 2378,
      "ĠÙħØ¹ÙĦ": 2379,
      "ĠØ§ÙĦØ´ÙĬØ®": 2380,
      "Ø³ÙħØŃ": 2381,
      "Ġ2003": 2382,
      "ĠØªÙĤÙĪÙħ": 2383,
      "Ġ40": 2384,
      "ĠÙħØ¯ÙĬØ±": 2385,
      "ĠØŃØ³ÙĨ": 2386,
      "ĠØ§ÙĦØªÙĨÙģÙĬØ°": 2387,
      "ĠØ§Ø¯Ø§Ø±Ø©": 2388,
      "ĠØ§ÙĦØ£ÙĪØ±ÙĪØ¨ÙĬØ©": 2389,
      "ĠØ§ÙĦÙģØ±ÙĨØ³ÙĬØ©": 2390,
      "ĠÙĤØ§Ø¦ÙħØ©": 2391,
      "ĠØ§ÙĦØ§Ø±Ø¨Ø¹Ø§Ø¡": 2392,
      "12": 2393,
      "ÙĦÙĪÙĦ": 2394,
      "ÙģÙĬÙĦ": 2395,
      "ĠØ§ÙĦØ¸": 2396,
      "Ø¬ÙĪÙħ": 2397,
      "Ø·ÙĬ": 2398,
      "Ø²Ø±": 2399,
      "ÙĬØ±Ùĩ": 2400,
      "ÙĬØ±ÙĬØ§": 2401,
      "ĠÙĬÙĥ": 2402,
      "ÙĪÙĨØ³": 2403,
      "ĠØ³Ø±": 2404,
      "ĠØ³ÙĪÙģ": 2405,
      "Ø§Ø¦ÙĦØ©": 2406,
      "ĠÙĩØ¯": 2407,
      "ĠØ¬Ø§ÙħØ¹Ø©": 2408,
      "ÙĪÙĤÙĬØ¹": 2409,
      "ĠØ§ÙĦØ¬ÙĪÙĬØ©": 2410,
      "ØªÙħØ§Ùħ": 2411,
      "ÙħÙĦÙĥØ©": 2412,
      "ĠØ§ÙĦØ®ÙĦÙĬØ¬": 2413,
      "Ø§Ø·ÙĨ": 2414,
      "ĠØ§ÙĦÙĬÙĪÙĨ": 2415,
      "ÙĦÙħØ§ÙĨÙĬØ©": 2416,
      "ÙĦÙģØ²ÙĬÙĪÙĨ": 2417,
      "ĠÙĪØ²Ø±Ø§Ø¡": 2418,
      "Ø±ÙģØ¶": 2419,
      "ÙħØ§Ø±Ùĥ": 2420,
      "ÙĨØ¯ÙĨ": 2421,
      "ĠÙĪÙħØ¹": 2422,
      "ĠØ§ÙĦÙħØ³ÙĦÙħÙĬÙĨ": 2423,
      "ĠØ§ÙĦØ³ÙĬØ§Ø±Ø§Øª": 2424,
      "ĠØ§ØŃØªÙĬ": 2425,
      "ĠÙĦÙĩØ°Ùĩ": 2426,
      "ĠØ§ÙĦØµÙĨØ§Ø¹Ø§Øª": 2427,
      "ÙĪØ§ÙĪØ¶ØŃ": 2428,
      "ĠØ¥ØŃØ¯Ùī": 2429,
      "Ø§ÙĦÙĨ": 2430,
      "Ø±Ø³": 2431,
      "ĠÙħØ§Ø±": 2432,
      "ĠØ§ÙĦÙħÙħ": 2433,
      "ĠØ§ÙĦÙħØ²ÙĬØ¯": 2434,
      "Ø¬ÙĬÙĨ": 2435,
      "ĠØ£Ø±Ø¨": 2436,
      "Ø²Ø§Ø¨": 2437,
      "ĠØ§ÙĦØªØ¨": 2438,
      "Ø«Ùħ": 2439,
      "ĠÙĥÙĪØ±": 2440,
      "ĠØ§ÙĦØ£Ø¯": 2441,
      "ĠØ§ÙĦÙĨÙĪØ§Ø¨": 2442,
      "Ø§ÙĥØ²": 2443,
      "ÙĤØ¯ÙħØ©": 2444,
      "Ġ24": 2445,
      "Ġ28": 2446,
      "ĠØ§ÙĦÙĥØ¨Ø±Ùī": 2447,
      "ĠÙĦÙħØµØ±": 2448,
      "ĠØ§ÙĦÙĬÙĩÙĪØ¯": 2449,
      "ĠÙħØ¬ÙħÙĪ": 2450,
      "ĠØ§Ø¹Ø§Ø¯Ø©": 2451,
      "ĠØ§ÙĦÙħØµØ±ÙĬÙĬÙĨ": 2452,
      "ĠØªØ´ÙĥÙĬÙĦ": 2453,
      "ĠÙĬÙħØ«ÙĦ": 2454,
      "ĠØ¨Ø±ÙħÙĬÙĦ": 2455,
      "ĠÙĪØ±Ø¦ÙĬØ³": 2456,
      "ĠÙĪØ§ØŃØ¯Ø©": 2457,
      "Ø§Ø¯Ø«Ø§Øª": 2458,
      "ĠØ¹Ø¨ÙĬØ¯": 2459,
      "ĠØ¬Ø²Ø¡": 2460,
      "ÙĪØ§Ø´Ø§Ø±": 2461,
      "ÙĦÙĨØª": 2462,
      "ØªØ§ÙĨ": 2463,
      "ØªÙĪØ¨Ø±": 2464,
      "Ø§ÙĨØ¯": 2465,
      "ĠÙģØ±ÙĬÙĤ": 2466,
      "ĠÙĦÙħØ§": 2467,
      "ĠØ¹ÙĦØ§ÙĤØ§Øª": 2468,
      "ÙĬÙĨØ§Øª": 2469,
      "ĠØ£Ø¹ÙĦÙĨ": 2470,
      "ĠØ§ÙĦØªÙħÙĪ": 2471,
      "ĠÙĩØ¤ÙĦØ§Ø¡": 2472,
      "ĠØ¬ÙĪÙĨ": 2473,
      "ĠØ¬ÙĪØ±Ø¬": 2474,
      "ĠØ¯Ø®ÙĪÙĦ": 2475,
      "ĠØ§ÙĦØŃÙĤ": 2476,
      "ĠØ±ÙĤ": 2477,
      "ĠØ§ÙĦÙĤØ±": 2478,
      "ĠØ§ÙĦØ¬Ø§ÙħØ¹Ø©": 2479,
      "Ø§ÙĥØ³ØªØ§ÙĨ": 2480,
      "Ø§Ø·ÙĨÙĬÙĨ": 2481,
      "Ø§Ø²ÙĦ": 2482,
      "Ø§Ø²ÙĬ": 2483,
      "ĠØªØ¹ÙħÙĦ": 2484,
      "ÙĤÙĦØª": 2485,
      "Ø§Ø°Ø§": 2486,
      "ĠÙĪØ³Ø·": 2487,
      "ĠØ®Ø·Ø§Ø¨": 2488,
      "ĠØ§ÙĦØ§ØŃØ¯": 2489,
      "ĠØ§ÙĦÙģØ±ÙĨØ³ÙĬ": 2490,
      "ĠØ§ÙĦØ¬Ø²Ø§Ø¦Ø±": 2491,
      "ĠÙħØ®ØªÙĦÙģØ©": 2492,
      "Ø¬ÙĩØ²Ø©": 2493,
      "ĠÙĦÙĬØ¨ÙĬØ§": 2494,
      "ÙĬÙĪÙĦÙĬÙĪ": 2495,
      "Ø¯Ø§Ø±": 2496,
      "Ø¹Ø§Ø±": 2497,
      "ĠÙģÙĩ": 2498,
      "Ø¬Ø§Ø¨": 2499,
      "ĠØ£Ø®": 2500,
      "ĠØ£Øº": 2501,
      "ĠØ³ÙĬØ¯": 2502,
      "ĠÙĪØ§ÙĦÙĥ": 2503,
      "ĠÙĤØµ": 2504,
      "ĠÙĨØ´Ø§Ø·": 2505,
      "ĠØ®Ø·Ø©": 2506,
      "ĠØ§ÙĦÙĤØ¶ÙĬØ©": 2507,
      "ĠØ§ÙĦØ¬ÙĨÙĬÙĩ": 2508,
      "ĠØ¨Ø§ÙĦØ£": 2509,
      "ØªØ±Ùģ": 2510,
      "ĠØ¥ÙĨØ´Ø§Ø¡": 2511,
      "ĠÙĬØªØ¹ÙĦÙĤ": 2512,
      "Ġ50": 2513,
      "ĠÙĦÙĥÙĨÙĩ": 2514,
      "ĠØ§ÙĦØ§Ø®ÙĬØ±Ø©": 2515,
      "ĠØ¨Ø§Ø±ÙĬØ³": 2516,
      "Ø³Ø·Ø³": 2517,
      "ĠØ§Ø·Ø§Ø±": 2518,
      "Ø²Ø§ÙĬØ¯": 2519,
      "ĠØ¨ÙĬØ±ÙĪØª": 2520,
      "ĠØ±ÙĪØ³ÙĬØ§": 2521,
      "Ø§ÙĦØº": 2522,
      "ÙĪØ®": 2523,
      "ĠÙĪØ§Øµ": 2524,
      "Ø§ÙĨÙĬÙĬÙĨ": 2525,
      "ĠÙģØ¹": 2526,
      "ĠØ§ÙĦÙħØ¹Ø¯": 2527,
      "ĠØ§ÙĦÙħØ§Ø¦Ø©": 2528,
      "ĠØ¹ÙħØ±": 2529,
      "ĠØªÙĦÙĤ": 2530,
      "Ø§ÙħÙĬÙĨ": 2531,
      "Ø²ÙĪØ±": 2532,
      "Ø£ÙĬ": 2533,
      "Ø«Ø§ÙĦ": 2534,
      "ĠÙĥÙĪÙĦ": 2535,
      "ĠÙĥØ§ÙģØ©": 2536,
      "Ø§Ø¦Ùĩ": 2537,
      "ĠÙĤÙĬÙħ": 2538,
      "ĠØ¯ÙģØ¹": 2539,
      "ĠØ§ÙĦØŃØ¯ÙĬØ«": 2540,
      "ĠØ±Ø¤": 2541,
      "ĠØ´Ùĩ": 2542,
      "ĠØ´ÙĩØ¯": 2543,
      "ĠØ§ÙĦØ´ÙħØ§ÙĦÙĬØ©": 2544,
      "ĠØ·Ø¨": 2545,
      "Ø³Ø¨ØªÙħØ¨Ø±": 2546,
      "ÙĪÙĬÙĪØ±Ùĥ": 2547,
      "000": 2548,
      "ĠØ³ÙĬÙĥÙĪÙĨ": 2549,
      "ĠÙħØŃØ§ÙģØ¸": 2550,
      "Ø±ÙģØ¹": 2551,
      "ĠØ§Ø¹Øª": 2552,
      "ĠÙĪÙħØŃ": 2553,
      "ÙĢÙĢÙĢÙĢ": 2554,
      "ÙĦØ§ÙĤØ©": 2555,
      "Ø®ØµÙĬØµ": 2556,
      "ØŃÙĬØŃ": 2557,
      "ĠØªØ¬Ø§Ùĩ": 2558,
      "ĠØ§ÙĦØµÙĬÙĨÙĬØ©": 2559,
      "ĠØ§ÙĦØ¯Ø±Ø§Ø³Ø©": 2560,
      "10": 2561,
      "ÙĪØµÙĦ": 2562,
      "ĠØ¨ÙĩØ¯Ùģ": 2563,
      "Ø§Ø±Ùģ": 2564,
      "Ø§Ø±ÙĨØ©": 2565,
      "ØµØ¯Ø±": 2566,
      "ĠØ£Ùģ": 2567,
      "ĠØ£ÙħÙĨ": 2568,
      "ĠÙĪØ§ÙĦØº": 2569,
      "Ø§Ø¡Ø§Øª": 2570,
      "Ø§Ø¨Øª": 2571,
      "ĠØ§ÙĦØ³ÙĥØ§ÙĨ": 2572,
      "ĠØ®ÙģØ¶": 2573,
      "Ø¦ÙĨØ§Ùģ": 2574,
      "ĠØ§ÙĦØ¬Ø§Ø±ÙĬ": 2575,
      "Ø±ÙĪØ¬": 2576,
      "Ø¨Ø±Øµ": 2577,
      "ĠØ·Ø§Ø¦Ø±Ø©": 2578,
      "Ġ23": 2579,
      "ÙĤØ±Ø§Ø·": 2580,
      "ĠÙĪÙĤØ¹": 2581,
      "ĠÙħØ´ØªØ±Ùĥ": 2582,
      "ĠØ§ÙĦÙħØ³ØªÙĤØ¨ÙĦ": 2583,
      "ĠØ¨Ø¯Ø¡": 2584,
      "Ø£Ø³ÙĬØ³": 2585,
      "ĠØ¨ØŃØ«": 2586,
      "ĠÙĬÙĤÙĪÙĦ": 2587,
      "ĠÙĬÙĤÙĪÙħ": 2588,
      "ĠÙĤÙĬØ§Ùħ": 2589,
      "ĠØ¨Ø§ÙĦØ¥Ø¶Ø§ÙģØ©": 2590,
      "Ø§ÙĪØ±": 2591,
      "ÙħÙĬØ±": 2592,
      "ÙħØ³Ø©": 2593,
      "ÙĤØ§Ùħ": 2594,
      "ÙĥÙĬØ¯": 2595,
      "ĠÙĪØ«": 2596,
      "ĠÙĪÙĦÙĬØ³": 2597,
      "ĠØ¨Ø³": 2598,
      "ĠØ¨Ø§Ø¨": 2599,
      "ĠØ§ÙĦÙħÙĤØ±Ø±": 2600,
      "ĠØ¹ÙĤØ¨": 2601,
      "ĠØ§ÙĦØªÙĥ": 2602,
      "Ø±ÙĬØ¨Ø©": 2603,
      "ĠØŃØ¯ÙĪØ¯": 2604,
      "ĠÙĪØ§ÙĦØªØ¬": 2605,
      "Ø§ÙĤÙģ": 2606,
      "ĠØ§ÙĦØ³ÙĨØ©": 2607,
      "ĠØ´ÙĥÙĦ": 2608,
      "ĠØ§ÙĦÙĤÙĪÙħÙĬ": 2609,
      "Ø§Ø¬Ø¦": 2610,
      "ĠÙħØ¹Ø¯": 2611,
      "Ø¤Ø§ÙĦ": 2612,
      "Ø±ÙĪØŃ": 2613,
      "ĠØµÙĨØ§Ø¹Ø©": 2614,
      "Ø§Ø²ÙĨ": 2615,
      "ĠØªØŃØ¯ÙĬØ¯": 2616,
      "Ø³ÙĬÙĤ": 2617,
      "ÙĨØ¯ÙĬØ©": 2618,
      "ÙĪÙģØ±": 2619,
      "ĠÙĪÙĩØ°Ø§": 2620,
      "ĠØ§ÙĦÙħØ¬ÙħÙĪØ¹Ø©": 2621,
      "Ø¨ÙĨÙĥ": 2622,
      "ĠØ§ÙĦÙħØ´ØªØ±ÙĥØ©": 2623,
      "ĠØ§Ø¬ÙĦ": 2624,
      "ĠÙħØ¨Ø§Ø´Ø±Ø©": 2625,
      "ĠØ§ÙĦØ§ÙĪØ±ÙĪØ¨": 2626,
      "ĠÙĦÙĬØ³Øª": 2627,
      "ĠØ§ÙĦØ§ÙħØ±ÙĬÙĥÙī": 2628,
      "ĠØ§ÙĦÙĥÙĩØ±Ø¨Ø§Ø¡": 2629,
      "ÙĦØºØ§Ø¡": 2630,
      "Ø§ÙĪÙħØ©": 2631,
      "ÙĦÙĦ": 2632,
      "Ø±Ø§Ø¶": 2633,
      "ÙģØ°": 2634,
      "ĠØ§ÙĦÙħÙĪÙĤÙģ": 2635,
      "ĠØ§ÙĦÙħÙĬØ§Ùĩ": 2636,
      "ĠÙĦÙĤØ§Ø¡": 2637,
      "Ø§Ø±Ø§": 2638,
      "ĠØªØ§Ø±ÙĬØ®": 2639,
      "ĠØ£Ø¬": 2640,
      "Ø¶Ø§Ø¦ÙĬØ©": 2641,
      "Ø¶ÙħØ§ÙĨ": 2642,
      "ĠÙĬØµÙĦ": 2643,
      "ÙĪÙĨÙĬ": 2644,
      "ĠØ¥Ø¹Ø§Ø¯Ø©": 2645,
      "ĠØŃØµ": 2646,
      "ĠØŃÙĥÙħ": 2647,
      "ĠÙĥØ´Ùģ": 2648,
      "Ø§Ø¦ÙħØ©": 2649,
      "ÙĪØ±Ø§": 2650,
      "ØºØ¨": 2651,
      "ĠÙĨØ³Ø¨": 2652,
      "ĠÙĨØµÙģ": 2653,
      "Ø§ÙģÙĤØ©": 2654,
      "ĠØ§ÙĦØ¯ÙĪØ±": 2655,
      "ĠØ§ÙĦØ¨Ø±ÙĨØ§ÙħØ¬": 2656,
      "Ø±Ø¨ÙĬ": 2657,
      "ĠØ§ÙĦØ®Ø¨Ø±Ø§Ø¡": 2658,
      "Ø§ÙĪØŃ": 2659,
      "ĠØ§ÙĦØ·Ø§Ø¦Ø±Ø©": 2660,
      "Ø¯Ø¯Ø§": 2661,
      "ĠØ§ÙĦÙħØŃØ§ÙģØ¸": 2662,
      "ĠØªØ¹ØªØ¨Ø±": 2663,
      "ÙĩØ¯Ø§Ùģ": 2664,
      "ĠØªÙħØ«ÙĦ": 2665,
      "ĠØ§ÙħØ±ÙĬÙĥ": 2666,
      "Ġ196": 2667,
      "ĠØ§ÙĦÙĩÙĬØ¦Ø©": 2668,
      "Ø®ØµØµØ©": 2669,
      "ĠØ§ÙĦØ³ÙĦØ¹": 2670,
      "ĠØ§ÙĦØŃÙĬØ§Ø©": 2671,
      "ĠØ§ÙĦÙĪÙģØ¯": 2672,
      "30": 2673,
      "ĠØ§Ùĩ": 2674,
      "Ø§ÙĦØ§": 2675,
      "Ø§ÙĦÙĥ": 2676,
      "ĠÙħØªØ±": 2677,
      "ĠÙħÙĤØ±": 2678,
      "Ø³Ø§Ø¹Ø¯Ø©": 2679,
      "ĠÙĪØ§Øª": 2680,
      "ĠØ§ÙĦÙħØ³ÙĬØŃ": 2681,
      "ĠÙĦÙĥ": 2682,
      "ĠØ¹Ø§ÙĦÙħ": 2683,
      "ĠØªØºÙĬÙĬØ±": 2684,
      "ÙĬÙĨÙĬ": 2685,
      "ÙĬÙĨØªÙĪÙĨ": 2686,
      "Ø§Ø³Ø±": 2687,
      "Ø±ÙĬØª": 2688,
      "Ø°ÙĦ": 2689,
      "ĠÙĨÙħÙĪ": 2690,
      "ĠØ§ÙĦØŃØ§ÙĦÙĬØ©": 2691,
      "Ø§Ø¬Ø¨": 2692,
      "ĠØ§ÙĦØµØŃØ©": 2693,
      "ĠØ·Ø±": 2694,
      "ĠØ¨ÙĬÙĨÙĩÙħ": 2695,
      "ØªØ±Ø§Ùĥ": 2696,
      "Ø§Ø²ÙĨØ©": 2697,
      "ØµÙĦØŃØ©": 2698,
      "ĠØ¨ÙĨØŃÙĪ": 2699,
      "ĠØ§ÙĦÙħØ³ØªÙĪÙī": 2700,
      "ĠØ§ÙĦÙħØªÙĪÙĤØ¹": 2701,
      "ĠØ§ÙĦÙħÙĪØ¶ÙĪØ¹": 2702,
      "ĠØ§ÙĦØ¬ÙħØ¹ÙĬØ©": 2703,
      "ĠØªØ±Ø§Ø¬Ø¹": 2704,
      "ĠØ§ÙĥØ¯": 2705,
      "ĠØ§ØªÙģØ§ÙĤÙĬØ©": 2706,
      "ĠØ§ÙĦØªØ¹Ø§ÙħÙĦ": 2707,
      "ĠÙħÙĥØªØ¨": 2708,
      "ĠØ§ÙĦÙħÙģØ§ÙĪØ¶Ø§Øª": 2709,
      "ĠØ§ÙĦØ³ÙĨÙĪØ§Øª": 2710,
      "ĠØ¥ÙĤØ§ÙħØ©": 2711,
      "Ø±Ø§ØªÙĬØ¬ÙĬØ©": 2712,
      "Ø¨ÙĦÙĪÙħØ§Ø³ÙĬØ©": 2713,
      "ĠÙħØ¤ÙĥØ¯Ø§": 2714,
      "ĠØ§ÙĦØ§ÙĨØ¨Ø§Ø¡": 2715,
      "25": 2716,
      "ÙħÙĪØ¯": 2717,
      "ÙħÙĬÙħ": 2718,
      "ÙĨÙĬØ³Ø©": 2719,
      "Ø¯Ø¯Ø©": 2720,
      "ÙĩÙĨ": 2721,
      "ĠÙĪØ±Ø§Ø¡": 2722,
      "ĠÙģÙĦ": 2723,
      "ĠÙģØ¶": 2724,
      "ØŃÙĤ": 2725,
      "ĠØ§ÙĦÙħØ¯Ø±": 2726,
      "ĠØ§ÙĦÙħØ§ÙĦÙĬ": 2727,
      "ĠØ§ÙĦÙħØ±Ø¶": 2728,
      "ĠÙĦØ¨": 2729,
      "Ø´Ø·Ø©": 2730,
      "ÙĬØ±Ø§Øª": 2731,
      "ĠÙĬÙĪØ³": 2732,
      "ĠØ¥Ø¶Ø§ÙģØ©": 2733,
      "ĠØ³ÙĬØ±": 2734,
      "ĠØ§ÙĦØ¹Ø¯": 2735,
      "Ø§Ø¹ÙĬØ©": 2736,
      "ĠØ§ÙĦØ£Ø³Ø¹Ø§Ø±": 2737,
      "ĠØ§ÙĦØ³ÙĪØ±ÙĬØ©": 2738,
      "ĠØ¬Ø§Ùĥ": 2739,
      "Ø§ØŃÙĦ": 2740,
      "ĠØ§ÙĦØ¬ÙĩÙĪØ¯": 2741,
      "Ø¨Ø±Ø²": 2742,
      "ĠØºØ§ÙĦÙĬ": 2743,
      "ĠØ·ÙĩØ±Ø§ÙĨ": 2744,
      "ØªØ±Ø¶": 2745,
      "Ø§ÙĩØ¯Ø©": 2746,
      "Ø¹ÙĦÙĤØ©": 2747,
      "ÙĪÙĬØ¶": 2748,
      "ĠØ§ÙĦØ·Ø¨": 2749,
      "ĠÙħØŃØ§ÙĪÙĦØ©": 2750,
      "ÙĦØ¨ÙĬØ©": 2751,
      "ĠØ§ÙĦØ«ÙĤ": 2752,
      "ĠØ§ÙĦØ±Ø¦ÙĬØ³ÙĬØ©": 2753,
      "ØŃØ¯Ø§Øª": 2754,
      "ĠØ§ÙĬÙĦÙĪÙĦ": 2755,
      "Ø·Ø±ØŃ": 2756,
      "Ø¨Ø¹Ø§Ø¯": 2757,
      "ĠØ§ÙĦØªØ´Ø±ÙĬ": 2758,
      "ĠØªØ±ÙĥÙĬØ§": 2759,
      "ĠÙĨØ¸Ø±Ø§": 2760,
      "ĠÙĨØªØ§Ø¦Ø¬": 2761,
      "Ø§ÙĬÙĦ": 2762,
      "ĠÙħÙĥØ§ÙĨ": 2763,
      "ĠØ¨ÙĪÙĦ": 2764,
      "Ø§ÙĨØº": 2765,
      "ĠØ§ÙĦÙħÙĪØ³": 2766,
      "Ø¬ØŃ": 2767,
      "ĠØªØ´Ø±ÙĬÙĨ": 2768,
      "ĠØ§ÙĦØªÙħ": 2769,
      "Ø®ÙħØ©": 2770,
      "ĠØ§ÙĦØ¹ÙĦÙħ": 2771,
      "ĠÙĤØª": 2772,
      "ĠØ§ÙĦØ£ÙħÙĪØ§ÙĦ": 2773,
      "ĠØ§ÙĦØ³Ø§Ø¹Ø©": 2774,
      "ĠØ®Ø¨Ø±Ø§Ø¡": 2775,
      "ĠØ¨Ø§ÙĦØ¬": 2776,
      "ĠØ§ÙĦÙĨØ§Ø¦Ø¨": 2777,
      "ĠØ§ÙĦÙģØ±ÙĬÙĤ": 2778,
      "Ø§Ø·Ùģ": 2779,
      "ØªØ±ÙĨØª": 2780,
      "ØªÙĬØ§Ø±": 2781,
      "ĠØ³ÙĬØ§Ø³ÙĬØ©": 2782,
      "ĠÙĪØªØ´": 2783,
      "Ø³ÙĬØ¬": 2784,
      "ÙĨØ¯Ø³": 2785,
      "ĠØ³ØªÙĥÙĪÙĨ": 2786,
      "ĠØ§ÙĦØ²Ø±Ø§Ø¹": 2787,
      "ĠÙĦÙĩØ°Ø§": 2788,
      "ĠØ³Ø¨ÙĬÙĦ": 2789,
      "ĠÙħÙģØ§ÙĪØ¶Ø§Øª": 2790,
      "ĠØ£ØµØ¨ØŃ": 2791,
      "Ø¶Ø±ÙĪØ±Ø©": 2792,
      "Ø§ÙĤØ´Ø©": 2793,
      "ĠÙħØ¹ÙĦÙĪÙħØ§Øª": 2794,
      "Ø§ÙĦØ¬": 2795,
      "ĠØ§ÙĦØ§Ùĩ": 2796,
      "ÙĪØ«": 2797,
      "ÙĩØ§Ø¡": 2798,
      "ÙĩÙĬÙĪÙĨ": 2799,
      "ĠÙħØ¯Ùī": 2800,
      "Ø¹Ùī": 2801,
      "ĠÙĪÙĦÙĬ": 2802,
      "ĠÙĪØ³Øª": 2803,
      "ĠÙĪØµÙĪÙĦ": 2804,
      "ĠØ§ÙĦÙħØ·ÙĦ": 2805,
      "ĠÙĦØªÙĨ": 2806,
      "ĠØªØ¶Ùħ": 2807,
      "ĠØ£ÙĤÙĦ": 2808,
      "Ø²Ø¹": 2809,
      "ÙĪÙĨÙĬÙĪ": 2810,
      "ĠØ³ÙĦØ§Ùħ": 2811,
      "ĠØ³ÙĪÙī": 2812,
      "ĠØ§ÙĦØ¹ÙĨ": 2813,
      "Ø§Ø¹ÙĬ": 2814,
      "ĠÙĤÙĪØ©": 2815,
      "ĠÙĤØ±ÙĬØ¨Ø§": 2816,
      "ĠØ¬ÙħØ§ÙĦ": 2817,
      "Ø§ÙģÙĬÙĬÙĨ": 2818,
      "ØªÙħØ§Ø¯": 2819,
      "ĠØ¹ÙĨØ§ØµØ±": 2820,
      "ÙĤØ¯Ø±": 2821,
      "ÙĦØ³Ø©": 2822,
      "ÙĬÙħÙĥÙĨ": 2823,
      "Ø¯ÙħØ§Øª": 2824,
      "ĠÙĥÙĦÙĬÙĨØªÙĪÙĨ": 2825,
      "ÙĬØ±ÙĥÙĬ": 2826,
      "ĠØ§ÙĦØ¨ÙĨØ§Ø¡": 2827,
      "ĠØ§ÙĦØ£Ø³Ø§Ø³ÙĬØ©": 2828,
      "ĠÙģØ±Øµ": 2829,
      "ĠÙĨÙģØ³ÙĩØ§": 2830,
      "ĠØ§ÙĦØµØŃÙĬÙģØ©": 2831,
      "ĠÙħÙĥØ§ÙģØŃØ©": 2832,
      "ĠØ±Ø³ÙħÙĬ": 2833,
      "ĠØ§ÙĦØªÙĪØµÙĦ": 2834,
      "ĠØ¨ÙĤÙĬÙħØ©": 2835,
      "ÙĬØ°ÙĥØ±": 2836,
      "Ø§ÙĦØ¨ÙĬØ©": 2837,
      "ÙĪØ³Øª": 2838,
      "ÙĨØ²": 2839,
      "Ø±Ø§": 2840,
      "ÙĤØ±Ø©": 2841,
      "ÙĤÙĦØ§ÙĦ": 2842,
      "Ø¨Ø§ÙĨ": 2843,
      "Ø¹ÙĦÙī": 2844,
      "ĠØ¨ÙĬØ¹": 2845,
      "ĠØ¨Ø§ÙĥØ³ØªØ§ÙĨ": 2846,
      "Ø§Ø±Ø§Ø©": 2847,
      "ĠØªØµÙĦ": 2848,
      "ĠØªØ¨ÙĦØº": 2849,
      "Ø·Ø§ÙĦ": 2850,
      "ĠÙħÙĨØµ": 2851,
      "ĠÙħÙĨØ§Ø·ÙĤ": 2852,
      "ĠØ¥Ùħ": 2853,
      "ÙĦÙĬÙģ": 2854,
      "ØºÙĪØ·": 2855,
      "ĠÙĦÙĦØ¨": 2856,
      "ĠÙĦÙĦØ§Øª": 2857,
      "ĠØ§ÙĦØ³Ø¹Ø±": 2858,
      "ĠØ§ÙĦØŃØ±ÙĥØ©": 2859,
      "ĠØ´ÙĬÙĨ": 2860,
      "ĠØ§ÙĦÙĤÙħØ©": 2861,
      "ÙĬØ³ÙħØ¨Ø±": 2862,
      "ĠÙħØ¹Ø¯ÙĦ": 2863,
      "ØªÙħØ¯": 2864,
      "ĠØ§ÙĦÙĨØ§Ø³": 2865,
      "ĠØ¨ÙĬÙĨÙĩÙħØ§": 2866,
      "ØªØ±Ø§ØŃ": 2867,
      "Ø¹ÙĦÙħ": 2868,
      "ĠØ§ÙĦØ·Ø±Ùģ": 2869,
      "ĠÙħØŃÙĥÙħØ©": 2870,
      "ĠØ§ÙĦÙħØ³Ø¦ÙĪÙĦ": 2871,
      "ĠÙħÙĪØ¶": 2872,
      "ĠØ§ØªØ®Ø§Ø°": 2873,
      "ØŃØ¯Ø«": 2874,
      "ĠØ§ØŃØªÙħ": 2875,
      "ĠÙĪØ¬Ùĩ": 2876,
      "Ø¨ÙĨØ§Ø¡": 2877,
      "ĠØªØ´ÙĥÙĦ": 2878,
      "ĠØ³ØªØ©": 2879,
      "ĠØ¹Ø¯Ø¯Ø§": 2880,
      "ĠØªØµØ¯ÙĬØ±": 2881,
      "ĠØ£Ø³Ø§Ø³": 2882,
      "ĠØ§ÙĦØ£Ø³ÙĪØ§ÙĤ": 2883,
      "ĠØ§ÙĨØªØ®Ø§Ø¨Ø§Øª": 2884,
      "ĠØ§ÙĦØªÙĨÙħÙĬØ©": 2885,
      "ØµØ¯Ø§Ø±": 2886,
      "ÙģØ±ÙĬÙĤÙĬØ©": 2887,
      "ĠØ§Ø·ÙĦØ§ÙĤ": 2888,
      "ĠØ§ÙĦØ¯ÙĬÙĨÙĬØ©": 2889,
      "ĠØªÙħÙĪÙĬÙĦ": 2890,
      "ĠØ§ÙĦØ±ÙĬØ§Ø¶": 2891,
      "ĠØ§ÙĦÙĤØ§Ø¯Ùħ": 2892,
      "ÙħØµØ±": 2893,
      "ÙĪØŃØ©": 2894,
      "Ø±Ø§ÙĦ": 2895,
      "ÙĤØ§Ø¨": 2896,
      "ĠÙħØ«": 2897,
      "ĠÙĪØ§Ø±": 2898,
      "ĠÙĪØ§ÙĨØª": 2899,
      "ĠØ¨Ø°ÙĦÙĥ": 2900,
      "ĠØ§ÙĦÙħÙħÙĦÙĥØ©": 2901,
      "Ø§ØªØ¨": 2902,
      "ĠÙĦÙĨØ¯ÙĨ": 2903,
      "ĠØ£ÙĪØ±ÙĪØ¨Ø§": 2904,
      "ÙĪÙĦÙħ": 2905,
      "Ø¶Ùī": 2906,
      "ĠØ¥Ø¹": 2907,
      "ĠØ³ÙĬÙĨ": 2908,
      "ĠÙĪØ§ÙĦØ³ÙĬ": 2909,
      "Ø§Ø¨ÙĬØ¹": 2910,
      "ÙĪÙħÙĬØ©": 2911,
      "ĠØ§ÙĦØ³ÙĪÙĬØ³": 2912,
      "ĠØ¬Ø¯": 2913,
      "Ġ\".": 2914,
      "ĠØ§ÙĦÙĤÙĪÙī": 2915,
      "Ø±ÙĪØª": 2916,
      "Ø±ÙĪØ·": 2917,
      "ĠØ§ÙĦØ±Ø¦": 2918,
      "ĠØ§ÙĦØ±ØºÙħ": 2919,
      "ÙĨÙĬÙģ": 2920,
      "ĠØ§ÙĦØ§ÙħØ±": 2921,
      "ĠØ§Ø¹ÙħØ§ÙĦ": 2922,
      "ĠØ§Ø¹Ø¶Ø§Ø¡": 2923,
      "ĠØ§Ø¹ÙĦÙĨØª": 2924,
      "ĠØ§ÙĦØºØ±Ø¨ÙĬØ©": 2925,
      "ĠØ¨Ø¯ÙĦØ§": 2926,
      "ĠØ§ÙĦÙħØ¹Ø±Ø¶": 2927,
      "ĠØ§ÙĦØ³ÙĬØ§Ø³Ø©": 2928,
      "ĠØªÙĨØ¸ÙĬÙħ": 2929,
      "ĠØ¢Ø¨": 2930,
      "ÙĪØ²Ø§Ø±Ø©": 2931,
      "ĠØªÙĤØ±ÙĬØ¨Ø§": 2932,
      "...": 2933,
      "Ø§ÙĦØªØ§ÙĦÙĬ": 2934,
      "ĠØ¨Ø£ÙĨÙĩ": 2935,
      "ĠØªØ£Ø«ÙĬØ±": 2936,
      "ĠØ±Ø³ÙħÙĬØ©": 2937,
      "ĠØ§Ø«Ø±": 2938,
      "ĠØ§ÙĦØ¥ÙĨØ³Ø§ÙĨ": 2939,
      "ĠÙĦØ¯ÙĬÙĩØ§": 2940,
      "ĠØ§ÙĦØ§Ø¯Ø§Ø±Ø©": 2941,
      "ĠØ§ÙĦØ§ÙĪØ³Ø·": 2942,
      "ĠØ§ÙĦØªØ¨Ø§Ø¯ÙĦ": 2943,
      "ÙĩØ§Ø±": 2944,
      "ÙĥØ§": 2945,
      "ĠÙħÙĪÙĤØ¹": 2946,
      "ĠØ¨Ø±ÙĬØ·Ø§ÙĨÙĬØ§": 2947,
      "ĠÙģØ±Ø¶": 2948,
      "ĠÙģØ´ÙĦ": 2949,
      "ĠÙĦØªØµ": 2950,
      "ĠÙĦÙĪÙĥØ§ÙĦØ©": 2951,
      "ĠØ¹Ø±Ø¨ÙĬØ©": 2952,
      "ĠÙħÙĨØ¹": 2953,
      "Ø§ÙħÙħ": 2954,
      "ĠÙĬØ¨": 2955,
      "ĠÙĬØ¹Ø¯": 2956,
      "ĠÙĥÙĬ": 2957,
      "ĠÙĥÙĬÙģ": 2958,
      "Ø§Ø¨ÙĦØ©": 2959,
      "ĠÙĤØ·Ø±": 2960,
      "ĠÙĤÙĪÙĦÙĩ": 2961,
      "ĠØ®ÙħØ³Ø©": 2962,
      "ĠØ´Ø±Ø§Ø¡": 2963,
      "ĠØ§ÙĦØ¨Ø¯": 2964,
      "ĠØ§ÙĦØ¨Ø·": 2965,
      "ĠØ§ÙĦØ¬Ø§Ùħ": 2966,
      "ĠØ¹ÙĨÙĩ": 2967,
      "Ø±ÙĪÙĬØ¬": 2968,
      "ÙĤØ¯Ø³": 2969,
      "ĠØµØ¯Ø±": 2970,
      "Ġ21": 2971,
      "Ġ27": 2972,
      "Ø§Ø²ÙħØ©": 2973,
      "Ø±Ø§ÙĤØ¨Ø©": 2974,
      "ĠÙĪØªØ¹": 2975,
      "ĠØ§ÙĦØ¹Ø§ÙħÙĦÙĬÙĨ": 2976,
      "ÙĦØ³Ø·ÙĬÙĨÙĬÙĬÙĨ": 2977,
      "ÙĪØ¹ÙĦÙī": 2978,
      "ĠØ¢ÙĦØ§Ùģ": 2979,
      "ĠØ¹ÙĦÙĬÙĩÙħ": 2980,
      "ĠØªØ¬Ø§Ø±Ø©": 2981,
      "ĠØ§ÙĦØ§Ø¹ÙħØ§ÙĦ": 2982,
      "ĠØ§ÙĦØ§ÙĨØªØ®": 2983,
      "ĠØ§ÙĦØ¹ÙĤÙĪØ¨Ø§Øª": 2984,
      "ĠØ§ÙĦØ¬Ø§ÙĨØ¨ÙĬÙĨ": 2985,
      "ĠØ§ÙĦÙħØ±ÙĥØ²ÙĬØ©": 2986,
      "Ø´ÙĬØŃ": 2987,
      "ÙĪØ§ØµÙĦ": 2988,
      "ĠØ§ÙĦØªÙħÙĪÙĬÙĦ": 2989,
      "15": 2990,
      "ÙĦØ¹": 2991,
      "ÙĨØ§ÙĨ": 2992,
      "Ø±Ø²": 2993,
      "ĠÙħØ²": 2994,
      "ĠÙħÙĩÙħØ©": 2995,
      "Ø¨Ø¹Ø©": 2996,
      "ĠÙĪÙĪ": 2997,
      "ĠÙĪØ§Ø¬": 2998,
      "Ø§ØªÙĬ": 2999,
      "ĠÙĦØ¹Ø¯": 3000,
      "ĠÙĦÙĪØ³": 3001,
      "Ø¬ÙĬØ¹": 3002,
      "Ø´Ø§": 3003,
      "ĠÙĬØ²ÙĬØ¯": 3004,
      "Ø§Ø¯ÙĬÙħ": 3005,
      "ĠØ§ÙĦØªØ¹Ø¯": 3006,
      "ĠØ§ÙĦØªØ§Ø¨Ø¹Ø©": 3007,
      "ĠØ³Ø§Ø¨ÙĤ": 3008,
      "ĠØŃØ¯Ø«": 3009,
      "ĠÙĪØ§ÙĦØ®": 3010,
      "ĠÙĥÙĬÙĨ": 3011,
      "ĠÙĥÙĪØ±ÙĬØ§": 3012,
      "ĠÙĤØ§Ø¯": 3013,
      "ĠÙĤØ³Ùħ": 3014,
      "ĠÙĨØ§ØŃÙĬØ©": 3015,
      "ĠØ§ÙĦØŃØµÙĪÙĦ": 3016,
      "ĠØ±ØŃ": 3017,
      "ÙĪÙĤØ§Øª": 3018,
      "ĠØ®Ø§Øµ": 3019,
      "ØµØ±Ùģ": 3020,
      "ĠØ¹ÙĨÙĩØ§": 3021,
      "ĠØ§ÙĦÙĨØ³Ø§Ø¡": 3022,
      "ĠØºØ¯Ø§": 3023,
      "ĠØ·Ø§ÙĦØ¨": 3024,
      "Ġ22": 3025,
      "ÙħÙĪØ§": 3026,
      "ĠØ§ÙĦØ·ÙĬØ±Ø§ÙĨ": 3027,
      "ĠØ³ÙĬØ§Ø³Ø©": 3028,
      "ĠÙħØ´ÙĥÙĦØ©": 3029,
      "ĠØªÙħØ§ÙħØ§": 3030,
      "ĠÙĪØ¨ÙĬÙĨ": 3031,
      "ĠÙħØ³ØªÙĤØ¨ÙĦ": 3032,
      "Ġ60": 3033,
      "ĠÙģØ±ØµØ©": 3034,
      "Ø§Ø¹Ø¯Ø§Øª": 3035,
      "ĠØ§ÙĦØµØŃÙģ": 3036,
      "ĠØ§ÙĦØ¨ØŃØ±ÙĬØ©": 3037,
      "ØµØ¯ÙĬØ±": 3038,
      "Ø®Ø·Ø·": 3039,
      "ÙĪØ§ÙĦÙī": 3040,
      "ÙģÙĤØ§Øª": 3041,
      "ĠØ§ÙĦØ³ÙģÙĬØ±": 3042,
      "ĠØ§ÙĦÙħÙĥØªØ¨": 3043,
      "ÙĥÙĨÙĪÙĦÙĪØ¬ÙĬØ§": 3044,
      "ĠØ·ÙĪÙĬÙĦØ©": 3045,
      "ĠÙħØ¹Ø¯ÙĦØ§Øª": 3046,
      "Ø§ÙĦØªÙĩ": 3047,
      "ĠØ§ÙĦØ§Ùĥ": 3048,
      "ÙĨØ§Ø¯": 3049,
      "ØªØ¸Ø±": 3050,
      "ÙģØ§Ø¯Ø©": 3051,
      "ÙĥØ´Ùģ": 3052,
      "ĠÙħÙĪÙĨ": 3053,
      "ĠÙħØº": 3054,
      "ĠÙħÙĬÙĦ": 3055,
      "ĠÙħÙĦÙģ": 3056,
      "Ø¨Ø±ÙĬ": 3057,
      "ĠÙĪØ§ÙĤ": 3058,
      "ĠÙĪÙħÙĪ": 3059,
      "ĠÙĦØ§Ùģ": 3060,
      "ĠØ¹Ø§Ø¯Ø©": 3061,
      "ĠØ£ÙħØ±": 3062,
      "ĠØ£Ø¯Ùī": 3063,
      "ĠØ£ÙģØ¶ÙĦ": 3064,
      "Ø·Ø§Ø¡": 3065,
      "Ø´ÙģÙĬØ§Øª": 3066,
      "Ø²ÙĬØ©": 3067,
      "Ø±ÙĬØ³": 3068,
      "ĠØŃØ²": 3069,
      "ĠÙĥØ±": 3070,
      "ĠÙĥØ§ÙħÙĦ": 3071,
      "Ø§Ø¨Ø§": 3072,
      "ÙĪØ±Ùī": 3073,
      "ĠØ¬ÙĩÙĪØ¯": 3074,
      "ÙĬØ¯Ø§Øª": 3075,
      "ĠØ§ÙĦØŃØ§ÙĦ": 3076,
      "ĠØ¨Ø§ÙĦÙĥ": 3077,
      "ĠØ¨Ø§ÙĦØŃ": 3078,
      "ĠØ§ÙĦØ´ÙĬØ´": 3079,
      "ÙģÙĬÙģ": 3080,
      "ØªØ±Ø§Ø¶": 3081,
      "Ø§Ø®Ø±": 3082,
      "ĠØ§ÙĦÙħÙĨØªØ¬": 3083,
      "Ø¹ÙĦØ§Ùħ": 3084,
      "ØªÙĬØŃ": 3085,
      "ĠÙħØŃØ§Ø¯Ø«Ø§Øª": 3086,
      "Ø®Ø±Ø¬": 3087,
      "ĠÙĬØ¹Ø±Ùģ": 3088,
      "ĠÙĬÙĪÙħØ§": 3089,
      "ĠØ¨ØŃØ±": 3090,
      "ÙĪÙĤØ¹Ø§Øª": 3091,
      "ĠØ§ÙĦÙħØ±Ø´ØŃ": 3092,
      "ĠÙĪØŃØ¯Ø©": 3093,
      "Ġ//": 3094,
      "ĠØ§ÙĦØ«ÙĦØ§Ø«Ø©": 3095,
      "ĠÙħØ´Ø±ÙĪØ¹Ø§Øª": 3096,
      "ĠÙģÙĦØ³Ø·ÙĬÙĨÙĬØ©": 3097,
      "ĠÙħÙħÙĥÙĨ": 3098,
      "ĠØ§ÙĦØ§Ø¬ØªÙħØ§Ø¹ÙĬØ©": 3099,
      "ÙħØ¨Ø±Ø§Ø·": 3100,
      "ĠØ§ÙĦÙħÙĩÙĨØ¯Ø³": 3101,
      "ĠØ¨Ø§ÙĦÙģØ¹ÙĦ": 3102,
      "ĠÙĦÙĦØ§Ø³ØªØ«ÙħØ§Ø±": 3103,
      "ĠØ®Ø³Ø§Ø¦Ø±": 3104,
      "ĠÙĥÙĬÙĦÙĪÙħ": 3105,
      "Ø§ÙĦØ¥Ø®ÙĪØ§ÙĨ": 3106,
      "16": 3107,
      "ÙĬØ²Ø©": 3108,
      "ÙĪØ§Ùħ": 3109,
      "ÙĪØ§Ø¦": 3110,
      "ÙĪØ§ÙĥØ¯": 3111,
      "ÙĨØ¨ÙĬØ©": 3112,
      "Ø±Ø¬": 3113,
      "ÙĤØ§ÙħØ©": 3114,
      "Ø³ÙĬÙħ": 3115,
      "ĠØ¨Ø§ÙĤ": 3116,
      "Ø§Ø±ÙĬØ±": 3117,
      "Ø§Ø±ØªÙĩ": 3118,
      "ĠØ¹Ø²": 3119,
      "Ø¬Ø§ØŃ": 3120,
      "Ø¬Ø§Ø²": 3121,
      "ĠØ£ÙħØ§": 3122,
      "Ø·ÙĪÙĬØ±": 3123,
      "Ø¶Ø§Ø¹": 3124,
      "ĠÙĬÙĪØ¬Ø¯": 3125,
      "ÙĪÙĨÙĬØ©": 3126,
      "ĠØ§ÙĦØªÙĩ": 3127,
      "ĠØ§ÙĦØªØ§Ø±ÙĬØ®": 3128,
      "Ø±ÙĬÙĤÙĬ": 3129,
      "ĠØ³Ùģ": 3130,
      "ĠÙĪØ§ÙĦÙĩ": 3131,
      "Ø°ÙĥØ±Ø©": 3132,
      "ĠÙĥØ£Ø³": 3133,
      "ÙĦÙĬÙĤ": 3134,
      "ØºØ±ÙĤ": 3135,
      "ĠÙĦÙĦØ·": 3136,
      "ĠØ®ÙĦÙģ": 3137,
      "ĠØ§ÙĦØ´Ø¨Ø§Ø¨": 3138,
      "ĠØ§ÙĦÙĨÙĬ": 3139,
      "ÙĦØ³ÙĦØ©": 3140,
      "ĠØ§ÙĦØ¥ØµÙĦØ§ØŃ": 3141,
      "ØªØ±Ø§ÙĪØŃ": 3142,
      "ĠØ§ÙĦÙĥØªØ§Ø¨": 3143,
      "ÙĪØ³ÙĬØ¹": 3144,
      "ĠØªØŃÙħÙĦ": 3145,
      "ĠØªØŃØ±ÙĬØ±": 3146,
      "ĠØ®ÙĦØ§ÙĦÙĩØ§": 3147,
      "ÙĪØ¬Ø©": 3148,
      "ÙħØ§Ø±Ø³Ø©": 3149,
      "ĠÙħØ³Ø¦ÙĪÙĦ": 3150,
      "ĠØ§Ø¹ÙĦØ§ÙĨ": 3151,
      "Ø®Ø±Ø§": 3152,
      "ÙĪØ¹ÙĬØ©": 3153,
      "ĠØ§Ø³Ø¨": 3154,
      "ĠØ§ÙĦÙħÙĤØ§ÙĪÙħØ©": 3155,
      "Ø¬ÙħÙĬØ¹": 3156,
      "ĠÙĪØ¨Ø§ÙĦØªØ§ÙĦÙĬ": 3157,
      "ĠØ§ÙĦÙħØªÙĪØ³Ø·": 3158,
      "Ø³Ø¹ÙĪØ¯ÙĬØ©": 3159,
      "ĠØ§Ø¬Ø±Ø§Ø¡Ø§Øª": 3160,
      "ÙĬØ±ÙĥØ§": 3161,
      "ØªÙĦØ§Ùģ": 3162,
      "ĠØ§ÙĦØµÙĬÙĨÙī": 3163,
      "ĠØ§ÙĦØªØŃÙĤÙĬÙĤ": 3164,
      "ĠØ¬Ø²ÙĬØ±Ø©": 3165,
      "ĠØ§ÙĦØªÙĤÙĦÙĬ": 3166,
      "ĠÙĤØ§Ø¦ÙĦØ§": 3167,
      "ĠØ§Ø¶Ø§ÙģØ©": 3168,
      "ØªØªØ§ØŃ": 3169,
      "ĠØ§ÙĦÙĨÙĪÙĪÙĬØ©": 3170,
      "18": 3171,
      "ÙĥØªØ¨": 3172,
      "ĠÙĪÙĥÙĦ": 3173,
      "ĠØ¨ÙħÙĪ": 3174,
      "ĠØ¨ÙĥÙĬÙĨ": 3175,
      "ØŃÙħ": 3176,
      "ĠÙĦØªØ¹": 3177,
      "Ø¬Ø§ÙĨ": 3178,
      "Ø·Ø§ÙĤ": 3179,
      "ĠÙĬÙĪØ±ÙĪ": 3180,
      "Ø§Ø¯ÙĦØ©": 3181,
      "ĠØ§ÙĦØªØµØ¯ÙĬØ±": 3182,
      "ĠØ³Ùħ": 3183,
      "ĠØ³Ø¬ÙĦ": 3184,
      "ĠØ³Ø¤Ø§ÙĦ": 3185,
      "ĠÙĪØ§ÙĦØ·": 3186,
      "Ø§Ø¨ÙĦØ³": 3187,
      "ĠØ§ÙĨÙĩÙħ": 3188,
      "ĠÙĨÙģØ·": 3189,
      "ĠØ§ÙĦØ³Ùĥ": 3190,
      "ĠØ¯Ø®ÙĦ": 3191,
      "ĠØ±ÙĬ": 3192,
      "ĠØ§ÙĦØ¯Ø¹": 3193,
      "ØµØ±ØŃ": 3194,
      "ĠØ§ÙĦÙĨÙĤÙĦ": 3195,
      "ĠØµÙĨØ§Ø¹": 3196,
      "ĠØ¨ÙĬÙĨÙĩØ§": 3197,
      "Ø§ÙĪØ§Ø©": 3198,
      "Ø¹ÙĦÙĨØª": 3199,
      "ĠÙħØ¬Ø§ÙĦØ§Øª": 3200,
      "ÙĦØ§ÙħÙĬ": 3201,
      "ĠÙĪØ§ÙĦÙħØ³Øª": 3202,
      "ĠØ§ØªØ¬Ø§Ùĩ": 3203,
      "ĠØ§ÙĦØ§ØªØµØ§ÙĦØ§Øª": 3204,
      "ĠÙĬØ¹ØªØ¨Ø±": 3205,
      "ĠÙħÙĤØ§Ø±ÙĨØ©": 3206,
      "ĠØªØ´ÙĩØ¯": 3207,
      "ĠÙĪÙģÙĤ": 3208,
      "Ġ2000": 3209,
      "ÙĪØµÙģ": 3210,
      "ĠØ§ÙĥØ¨Ø±": 3211,
      "Ø§ØºØ³Ø·Ø³": 3212,
      "ĠØ¯Ø±Ø¬Ø©": 3213,
      "ĠÙĪØµÙĦØª": 3214,
      "ĠØ°ÙĥØ±Øª": 3215,
      "ĠØ§ÙĦØ£Ø¬ÙĨØ¨ÙĬ": 3216,
      "ĠÙĨÙĬÙĪÙĬÙĪØ±Ùĥ": 3217,
      "ĠØ§ÙĦÙĤØ§Ø¯ÙħØ©": 3218,
      "ĠØ¹Ø¶ÙĪ": 3219,
      "ĠØ§ÙĦØ·Ø¨ÙĬØ¹ÙĬ": 3220,
      "Ø§Ø¬Ø¨Ø§ÙĬ": 3221,
      "ĠÙĬÙĪØ³Ùģ": 3222,
      "Ø¯Ø®ÙĦ": 3223,
      "ĠÙħØ·Ø§Ø±": 3224,
      "ĠÙħØµÙĦØŃØ©": 3225,
      "ĠÙĦØ®": 3226,
      "ĠÙĦØªÙħ": 3227,
      "ĠØ¹Ø³ÙĥØ±ÙĬØ©": 3228,
      "Ø¬Ø§Øª": 3229,
      "Ø·ÙĪÙĦ": 3230,
      "ĠÙĬØ¨ÙĦØº": 3231,
      "ĠØ³ÙĦÙĬ": 3232,
      "ĠØ§ÙĦØ¹ÙĦ": 3233,
      "ĠØ§ÙĦØ¹Ø±Ø¶": 3234,
      "ĠØ§ÙĦØ¹Ø³ÙĥØ±ÙĬ": 3235,
      "ĠÙĪØ§ÙĦØªØ¹": 3236,
      "ĠÙĤØ±Ø¨": 3237,
      "ĠÙĦÙĦØ³ÙĬ": 3238,
      "ĠÙĨØµ": 3239,
      "ĠØ¬ÙĪÙĦ": 3240,
      "ĠØ´Ø¨Ùĩ": 3241,
      "ĠØ´Ø¨ÙĥØ©": 3242,
      "ĠØ§ÙĦØ¨ÙĬ": 3243,
      "ØªÙħÙĦ": 3244,
      "ĠØ§ÙĦØ´Ø±ÙĬÙģ": 3245,
      "ĠØ§ÙĦØ¥Ø¯Ø§Ø±Ø©": 3246,
      "ĠØ§ÙĦÙĪØ§Ø±Ø¯Ø§Øª": 3247,
      "ĠØ§ÙĦÙĥØ¨ÙĬØ±": 3248,
      "ĠØ§Ø³ØªØ¹Ø¯Ø§Ø¯": 3249,
      "ĠØ§Ø³ØªÙĤØ±Ø§Ø±": 3250,
      "ĠØ§ÙĦØ·Ø§Ø¦Ø±Ø§Øª": 3251,
      "ĠØ³ÙĬÙģ": 3252,
      "ÙĪØ¬Ø§Øª": 3253,
      "ĠØ§Ø¹ØªØ¨Ø§Ø±": 3254,
      "ĠÙĥØ§ÙĨÙĪÙĨ": 3255,
      "ĠØ§ÙĦÙĦÙĤØ§Ø¡": 3256,
      "ĠÙħØ´ØªØ±ÙĥØ©": 3257,
      "Ø±ÙĬÙĤÙĬØ§": 3258,
      "ØªÙģØ¹Øª": 3259,
      "ĠØ§ÙĦØ£ÙħÙĬØ±ÙĥÙĬØ©": 3260,
      "ĠØ§ØªØŃØ§Ø¯": 3261,
      "ĠØ§ÙĦÙħØ´ØªØ±Ùĥ": 3262,
      "Ø³Ø¹Ø±": 3263,
      "Ġ2001": 3264,
      "ĠÙħØ¤Ø®Ø±Ø§": 3265,
      "ĠØ§ÙĦØ¹ÙħÙĦÙĬØ©": 3266,
      "ĠØ§ÙĦÙħØ¯ÙĨ": 3267,
      "ĠØ³Ø¨ÙĤ": 3268,
      "ĠØ³Ø¨ØªÙħØ¨Ø±": 3269,
      "ĠØ§ÙĦØ´Ø±ÙĤÙĬØ©": 3270,
      "ÙĪØ§Ø¹ÙĦÙĨ": 3271,
      "ĠØ®Ø§Ø±Ø¬ÙĬØ©": 3272,
      "ĠØ¹ÙĤÙĪØ¯": 3273,
      "ĠØ±Ø³Ø§ÙĦØ©": 3274,
      "ĠØ§ÙĤØªØµØ§Ø¯ÙĬØ©": 3275,
      "ĠØ§ÙĦØ§Ø³Ø¨ÙĪØ¹": 3276,
      "ĠØ§ÙĦØ§ÙĬØ±Ø§ÙĨÙĬ": 3277,
      "%.": 3278,
      "ÙĬØªÙĩØ§": 3279,
      "ÙģØ§Ø¸": 3280,
      "ÙĤÙĪØ·": 3281,
      "ĠØ¨Ø±ÙĬ": 3282,
      "ĠØ¨ÙĬÙĦ": 3283,
      "ĠØ¨ÙĥÙĦ": 3284,
      "Ø§ÙĨØ§": 3285,
      "ĠÙĦØ±": 3286,
      "ĠÙĦØ§Ø¬": 3287,
      "ĠØ£Ø«ÙĨØ§Ø¡": 3288,
      "ĠØ£ÙĩÙħÙĬØ©": 3289,
      "Ø¶Ø§Ø¦Ø¹": 3290,
      "ĠÙĬØªØŃ": 3291,
      "ĠÙĬØ²Ø§ÙĦ": 3292,
      "Ø±ÙĬØ§": 3293,
      "Ø£Øª": 3294,
      "Ø£ÙħØ§": 3295,
      "Ø£Ø¹ÙĦÙĨ": 3296,
      "ĠØ³ØªØ¹": 3297,
      "ĠØŃÙħÙĦ": 3298,
      "ĠÙĥØªØ§Ø¨": 3299,
      "ÙĦÙĬÙħÙĬØ©": 3300,
      "ÙĪØ±Ø¨": 3301,
      "ĠØ§ÙĦØ£Ùģ": 3302,
      "ØºÙĬÙĦ": 3303,
      "ĠÙĩÙħ": 3304,
      "ÙĬØ¯Ø±": 3305,
      "Ø§ØŃÙĬ": 3306,
      "ĠØ§ÙĦÙĤØ¯Ùħ": 3307,
      "Ø¸ÙĦ": 3308,
      "ĠØ§ÙĦØµÙĩÙĬÙĪÙĨ": 3309,
      "ÙĨÙĬØ¹": 3310,
      "Ø§ÙĪÙĬØ©": 3311,
      "ĠØ§ÙĦÙħÙĨØ¸ÙħØ©": 3312,
      "Ø§ÙĩÙĬÙħ": 3313,
      "ĠØ§Ø³ØªÙħØ±": 3314,
      "ĠØ¹Ø§ÙħÙĬ": 3315,
      "ĠØ¶ÙħØ§ÙĨ": 3316,
      "ĠØ²Ø§Ø±": 3317,
      "ĠØ§ÙĦØ¹Ø±Ø§ÙĤÙĬÙĬÙĨ": 3318,
      "ĠØ§Ø¹ØªØ¨Ø±": 3319,
      "ĠÙħÙĦÙĬÙĪÙĨØ§": 3320,
      "ĠØ§ÙĦØ£ÙħÙĬÙĨ": 3321,
      "ĠÙħÙĪØ§Ø¬ÙĩØ©": 3322,
      "ĠØ§ÙĦÙħÙĪØ§Ø¯": 3323,
      "ĠØ¨ØŃÙĬØ«": 3324,
      "ĠØ§ÙĦØ¬ÙħÙĩÙĪØ±ÙĬØ©": 3325,
      "Ø¹Ø§ÙĬØ©": 3326,
      "ĠØ§ÙĦÙĪØ²Ø§Ø±Ø©": 3327,
      "ĠØ¥Ø³Ø±Ø§Ø¦ÙĬÙĦÙĬ": 3328,
      "ĠØ§ÙĦØ¹ÙħÙĦØ§Øª": 3329,
      "ÙģØ±Ø§Ø¯": 3330,
      "ĠØ³Ø¨Ø¨": 3331,
      "ĠØ§ÙĨØªÙĤ": 3332,
      "ĠØ§ÙĦØ±ÙĪØ³ÙĬ": 3333,
      "ĠØ§ÙĦÙħØ§Ø¶Ùī": 3334,
      "ÙĩÙĦØ§Ùĥ": 3335,
      "ĠØ´Ø®ØµØ§": 3336,
      "Ø¯ÙĪÙĨÙĬØ³": 3337,
      "ĠÙĪØ¹Ø¯Ùħ": 3338,
      "ĠÙĪØºÙĬØ±ÙĩØ§": 3339,
      "ĠÙĨØ¬Ø§ØŃ": 3340,
      "ÙĩØ§Ø¦ÙĨ": 3341,
      "ĠØ§ÙĦØ¥Ø¬Ø±Ø§Ø¡Ø§Øª": 3342,
      "ĠØ§ÙĦØ²Ø±Ø§Ø¹ÙĬØ©": 3343,
      "ĠØ§ØŃØªÙħØ§ÙĦ": 3344,
      "ÙĦØ§Ø¨": 3345,
      "ÙĦØ²Ùħ": 3346,
      "ÙĬÙħØ§": 3347,
      "ĠØ§ÙĦØ§ÙĦÙħ": 3348,
      "ÙĪØªÙĬ": 3349,
      "ÙĨØ¨": 3350,
      "ÙĨØ§Ø¦ÙĬØ©": 3351,
      "ÙģÙĪ": 3352,
      "ÙĤÙĬØ©": 3353,
      "ĠÙĪØ§Ùģ": 3354,
      "ĠØ¨Ø´Ø§Ø±": 3355,
      "Ø¬Ø±Ø©": 3356,
      "ĠØªÙĪØ¬ÙĬÙĩ": 3357,
      "ĠØªÙĪÙĤÙĬØ¹": 3358,
      "ĠØªØ£Ø³ÙĬØ³": 3359,
      "ÙĬÙĨÙĬØ§Øª": 3360,
      "ØµÙī": 3361,
      "ØµØµ": 3362,
      "ĠØ£Ø²ÙħØ©": 3363,
      "Ø´Ø±ÙĥØ©": 3364,
      "Ø¶ØŃ": 3365,
      "ĠÙĬØ²ÙĪØ±": 3366,
      "ĠØ§ÙĦØªÙĦÙģØ²ÙĬÙĪÙĨ": 3367,
      "Ø±ÙĬØ¹Ø©": 3368,
      "Ø±ÙĬØ·Ø©": 3369,
      "Ø£Ùī": 3370,
      "ĠØŃØ§ÙĦØ§Øª": 3371,
      "ĠØŃÙĪØ§ÙĦÙī": 3372,
      "ĠÙĪØ§ÙĦØ±": 3373,
      "Ø°Ùĥ": 3374,
      "ĠÙĤØ·Ø¹": 3375,
      "ĠÙĦÙĦØªØ¹Ø§ÙĪÙĨ": 3376,
      "ĠØ§ÙĦØ³Ø§Ø¨ÙĤØ©": 3377,
      "Ø§ÙģØ¹": 3378,
      "ĠØ¯ÙĤÙĬÙĤØ©": 3379,
      "ĠØ§ÙĦØŃØ¶": 3380,
      "ÙĬÙĦØ§Øª": 3381,
      "ĠØ±Ø¨": 3382,
      "ĠØ®ÙħØ³": 3383,
      "ĠØ´Ùĥ": 3384,
      "ĠØ§ÙĦØµÙģ": 3385,
      "Ø§ØµÙĦØ©": 3386,
      "ĠØ§ÙĦÙĪØ§ÙĤ": 3387,
      "ĠØºØ¶": 3388,
      "ĠÙĦÙħØ¬ÙĦØ³": 3389,
      "ĠØ§ÙĦÙħÙĨØ¸ÙħØ§Øª": 3390,
      "ĠØ§ÙĦÙħÙĨØ§ÙģØ³Ø©": 3391,
      "Ø§ÙĩØ¯": 3392,
      "ĠØ§ÙĦØ¯ÙĪÙĦÙī": 3393,
      "Ø¯ÙĬÙħØ©": 3394,
      "ĠØ¶Ø±Ø¨": 3395,
      "ØªØ¨Ø¹": 3396,
      "ØªØµÙģ": 3397,
      "ĠÙĪÙĤØ¹Øª": 3398,
      "ĠØ§ÙĦØ§Ø³ØªÙĤØ±Ø§Ø±": 3399,
      "Ø²ÙĬØ§Ø±Ø©": 3400,
      "ĠÙĪØ£Ø´Ø§Ø±": 3401,
      "ĠØ§ÙĦÙħØªØ¹ÙĦÙĤØ©": 3402,
      "ĠÙĬÙĪÙħÙĬØ§": 3403,
      "ÙĦÙĤÙī": 3404,
      "ĠØ§ÙĦØ¬ÙħØ§Ø¹Ø©": 3405,
      "ĠØ§ÙĦØ§ÙĨØ³": 3406,
      "ÙĦÙĬÙħÙĬ": 3407,
      "ĠØ¨Ø§Ø±Ø§Ùĥ": 3408,
      "ĠØ¯Ø±Ø§Ø³Ø©": 3409,
      "ØªØ¯Ø§Ø¡": 3410,
      "ĠÙĬØ¤ÙĥØ¯": 3411,
      "ØŃØ§ÙĬØ§": 3412,
      "ĠÙĤØ§ÙħØª": 3413,
      "ĠØ§ÙĦØ¯ÙĬÙħÙĤØ±Ø§Ø·": 3414,
      "ĠØ§ÙĦØªØ£ÙħÙĬÙĨ": 3415,
      "ĠØ¥ÙĦÙĬÙĩØ§": 3416,
      "ĠØ¨Ø§Ø¹ØªØ¨Ø§Ø±": 3417,
      "ĠÙĩØ¯Ùģ": 3418,
      "ĠØŃØ²ÙĬØ±Ø§ÙĨ": 3419,
      "ĠÂ«": 3420,
      "Ø§ÙĦØ³": 3421,
      "ÙĨØ§Øª": 3422,
      "ØªÙĦÙĥ": 3423,
      "ØªÙĤÙĦ": 3424,
      "ĠÙħØ±Ø¶": 3425,
      "Ø³Ø§Ø¨": 3426,
      "Ø³Ø±Ø§Ø¦ÙĬÙĦ": 3427,
      "ĠÙĪØªØ±": 3428,
      "ĠØ¨Ø²ÙĬØ§Ø¯Ø©": 3429,
      "ĠÙģÙĪÙĤ": 3430,
      "ØŃØ§Ø¡": 3431,
      "ĠØ§ÙĦÙħØ²": 3432,
      "ĠÙĦØ±Ø¦ÙĬØ³": 3433,
      "Ø§Ø±Ø¨Ø©": 3434,
      "ĠØªØ²Ø§ÙĦ": 3435,
      "Ø·Ø§": 3436,
      "Ø·ÙĬØ§Øª": 3437,
      "Ø´ÙĩØ¯": 3438,
      "ĠÙĬØ§Ø³Ø±": 3439,
      "ĠÙĬÙĪÙĨÙĬÙĪ": 3440,
      "ÙĪÙĨÙĤÙĦØª": 3441,
      "ĠØ§ÙĦØ¹ÙĪØ¯Ø©": 3442,
      "ĠØ§ÙĦØ¹ÙĦÙĬØ§": 3443,
      "ĠÙĪØ§ÙĦØ¯ÙĪÙĦ": 3444,
      "ĠÙĥÙĦÙħ": 3445,
      "Ø§Ø¦ØŃØ©": 3446,
      "ĠØ§ÙĦØ£Ø´": 3447,
      "ĠÙĦÙĦØ®": 3448,
      "ĠÙĦÙĦØªØ¹": 3449,
      "ĠØ¯ÙĪØ±Ø©": 3450,
      "ĠØ§ÙĦØŃØ§Ø¯Ø«": 3451,
      "ĠØ§ÙĦØ¯Ùħ": 3452,
      "ĠØ§ÙĦÙĤØ¶Ø§ÙĬØ§": 3453,
      "ĠØ§ÙĦØ¬ÙĩØ§Ø²": 3454,
      "ĠÙħØ¹Ø±Ø¶": 3455,
      "Ø¸Ø§Ø±": 3456,
      "Ø§Ø·ÙĬ": 3457,
      "ĠØµØ¹": 3458,
      "ĠØ§ÙĦØ¥Ø¯": 3459,
      "ĠØ§ÙĦÙĪØ§ÙĤØ¹": 3460,
      "ØªØ±Ø§Ùģ": 3461,
      "Ġ29": 3462,
      "ĠØ§ÙĦÙĥØ¨": 3463,
      "ĠØ§ÙĦÙħÙĨØªØ®Ø¨": 3464,
      "Ø§ÙĩØ²Ø©": 3465,
      "ĠØ§ÙĦØ·Ø¨ÙĬØ©": 3466,
      "ĠÙħØŃÙħÙĪØ¯": 3467,
      "ĠØ§ÙĦØ§ÙħÙĬØ±": 3468,
      "ØªØ¨Ùĩ": 3469,
      "ØªØµØ¯ÙĬØ±": 3470,
      "ĠØ§ÙĦØ§Ø³ÙĥØ§ÙĨ": 3471,
      "Ġ35": 3472,
      "ĠØ§ÙĦØ£ÙħÙħ": 3473,
      "ĠØ§ÙĦØ³ÙĬØ§Ø³Ø§Øª": 3474,
      "ĠØ§ÙĦØ¨ÙĦØ¯Ø§ÙĨ": 3475,
      "ĠÙĪØŃØªÙī": 3476,
      "ĠÙĬÙĨØ§ÙĬØ±": 3477,
      "ĠØªØ¯Ø®ÙĦ": 3478,
      "ĠØ§Ø¨Ø±ÙĬÙĦ": 3479,
      "ĠØ§ÙĦØ¨ØŃØ«": 3480,
      "ĠÙĪÙĦØ§ÙĬØ©": 3481,
      "Ø®Ø¨Ø§Ø±Ø§Øª": 3482,
      "ĠØ§ÙĦØªØ±ÙĥÙĬ": 3483,
      "ĠØ§ÙĦØªØ±ÙĥÙĬØ©": 3484,
      "ĠØ§ÙĦØ«Ø§ÙĦØ«Ø©": 3485,
      "ĠÙĦØµØ§ÙĦØŃ": 3486,
      "ĠØ§ÙĦØ£ÙĥØ«Ø±": 3487,
      "ĠØ§ÙĦÙĨÙĩØ§Ø¦ÙĬ": 3488,
      "ĠØ§ÙĦØ±Ø³ÙĪÙħ": 3489,
      "ĠØ±ÙĤÙħ": 3490,
      "ĠÙĤÙĬÙħØªÙĩØ§": 3491,
      "Ø§Ø¬Ø¦ÙĬÙĨ": 3492,
      "ÙĬØ§Ùħ": 3493,
      "ÙĪØ§Ø¹Ø¯": 3494,
      "ØªØ²": 3495,
      "ĠÙħØ§ÙĩØ±": 3496,
      "ĠÙĪØ¢": 3497,
      "ĠØ¨ØªØŃ": 3498,
      "ĠÙģØ§Ø¬Ø¨Ø§ÙĬ": 3499,
      "ØŃØ³Ø¨": 3500,
      "ĠØ§ÙĦÙħØ®ØªÙĦÙģ": 3501,
      "ĠÙĦØ§Ø³": 3502,
      "ĠÙĦØ¨ØŃØ«": 3503,
      "Ø§Ø±Ùī": 3504,
      "Ø¬ÙĬ": 3505,
      "ĠØªÙĪÙģÙĬØ±": 3506,
      "ĠØªØ³Ø¹Ùī": 3507,
      "ØµØ§Ø¦ÙĦ": 3508,
      "ĠØ£Ø³Ø¨": 3509,
      "ĠÙħÙĨØªØµÙģ": 3510,
      "Ø§Ø¯Ø¦": 3511,
      "ĠØ¥ÙĬØ¬": 3512,
      "ĠØŃØµÙĪÙĦ": 3513,
      "ĠÙĪØ§ÙĦØ§Ø¬": 3514,
      "Ø§Ø¦ÙĩØ§": 3515,
      "ĠØ§ÙĦØ£ÙģØ±ÙĬÙĤÙĬØ©": 3516,
      "ĠÙĩØ§Ùħ": 3517,
      "ĠÙĨÙĪØ±": 3518,
      "ĠØ®Ø§Øª": 3519,
      "ĠØ®ÙĦØ§Ùģ": 3520,
      "ĠØ§ÙĦÙĤØª": 3521,
      "Ø§Ø¬Ø¹Ø©": 3522,
      "ĠÙħØ¹ÙĩØ§": 3523,
      "ĠØµÙĨØ¯ÙĪÙĤ": 3524,
      "ĠØ§ÙĦØ¥ÙħØ¨Ø±Ø§Ø·": 3525,
      "ĠØ§ÙĦØ±Ùĩ": 3526,
      "Ø¥Ø°Ø§": 3527,
      "ĠØ§ÙĦÙĪÙĥ": 3528,
      "ØªØ±Ø§Øª": 3529,
      "ĠØ§ÙĦÙĥÙĨÙĬØ³Ø©": 3530,
      "Ø±Ø§Ø¦ÙĬ": 3531,
      "Ø±Ø§Ø¦Ø¨": 3532,
      "ĠØ§ÙĦØ·Ø¨ÙĬ": 3533,
      "ĠØ³ÙĬÙħØ§": 3534,
      "ÙĪØ¬Ø§Ø¡": 3535,
      "ÙĪØ¬ÙĪØ¯Ø©": 3536,
      "ĠÙħØ³Ø£ÙĦØ©": 3537,
      "ĠØªØ¹Ø²ÙĬØ²": 3538,
      "ĠØ§ÙĦÙħØªØŃØ¯Ø«": 3539,
      "ĠÙĪØ§ÙĦÙħØ¤": 3540,
      "ĠÙħÙĪØ¶ÙĪØ¹": 3541,
      "ĠØ§ÙĦÙħØ¬Ø§ÙĦØ§Øª": 3542,
      "ĠØ§ÙĪØ¨Ùĥ": 3543,
      "ĠÙĪÙģØ¯": 3544,
      "ĠØ¬ÙħØ¹ÙĬØ©": 3545,
      "ÙĪØ¶Ø§Ø¹": 3546,
      "ĠØªØªØ¶ÙħÙĨ": 3547,
      "ÙĤÙĬÙĤÙĬØ©": 3548,
      "ĠÙĦÙĥÙĨÙĩØ§": 3549,
      "ĠÙĪØ§ÙĦØ¹Ø±Ø§ÙĤ": 3550,
      "ĠØ§Ø«ÙĨÙĬÙĨ": 3551,
      "ĠÙĦÙĦØ¹Ø±Ø§ÙĤ": 3552,
      "ĠØ£Ø¹ÙĦÙī": 3553,
      "ĠÙĬØ¤Ø¯ÙĬ": 3554,
      "ĠØ§ÙĦÙĩÙĨØ¯ÙĬØ©": 3555,
      "ĠÙĦØªØŃÙĤÙĬÙĤ": 3556,
      "ÙĪØ§ÙģÙĤ": 3557,
      "ĠÙħÙĪØ³ÙĥÙĪ": 3558,
      "Ø±ÙĪØ³ÙĬØ§": 3559,
      "ĠØ£Ø´ÙĩØ±": 3560,
      "ĠØ§ÙĦØ´Ø¹Ø¨ÙĬØ©": 3561,
      "ÙĪØ°ÙĥØ±Øª": 3562,
      "ĠØŃØ³Ø¨ÙħØ§": 3563,
      "ĠØ·Ø±Ø§Ø¨ÙĦØ³": 3564,
      "Ø§ÙĪØ±Ø©": 3565,
      "ÙĦÙĪØ¨": 3566,
      "ÙħÙħ": 3567,
      "ĠØ§ÙĦÙĢ": 3568,
      "ÙģØ¸": 3569,
      "ÙĤØ§Ø·": 3570,
      "ÙĩÙĦÙĥ": 3571,
      "ÙĥØ§ÙģØŃØ©": 3572,
      "ĠÙħØ§Ø±Ø³": 3573,
      "Ø³ÙĬØ§": 3574,
      "ĠØ¨ÙĪØ±": 3575,
      "Ø§ÙĨÙĩ": 3576,
      "Ø§ØªÙĩÙħ": 3577,
      "ĠØ¹ÙĬÙĨ": 3578,
      "ĠØ¹Ø³ÙĥØ±ÙĬ": 3579,
      "ĠØ¹Ø§Ø·Ùģ": 3580,
      "Ø¬Ø§ÙĨØ¨": 3581,
      "ĠØªÙĬ": 3582,
      "ĠÙĬÙĦ": 3583,
      "Ø§Ø³Ø§": 3584,
      "Ø§Ø³ÙĦ": 3585,
      "ĠØ¥Ø¯": 3586,
      "ĠØ¥ÙĦØºØ§Ø¡": 3587,
      "Ø®Ø©": 3588,
      "Ø«ÙĬ": 3589,
      "ĠØ³Ø§Ø¹Ø©": 3590,
      "Ø§Ø¹Ø¨": 3591,
      "ĠØŃØ±Ø©": 3592,
      "ĠÙĪØ§ÙĦØ§Øª": 3593,
      "ĠÙĥØ°ÙĦÙĥ": 3594,
      "Ùĭ,": 3595,
      "ĠØ§ÙĨÙģØ¬Ø§Ø±": 3596,
      "ĠÙĨÙĩØ§Ø¦": 3597,
      "ĠØ§ÙĦØŃØ¯": 3598,
      "ĠØ§ÙĦØ¯Ø³Øª": 3599,
      "Ø§Ø¬Ùħ": 3600,
      "Ø¹Ø¯ÙĦ": 3601,
      "ĠØ§ÙĦØ´ÙĬ": 3602,
      "ĠØ§ÙĦÙĨØ§Øª": 3603,
      "ĠØ§ÙĦØµØ¹ÙĬØ¯": 3604,
      "ĠØµØ§Ø±": 3605,
      "ĠØµØ§ØŃ": 3606,
      "ĠØ§ÙĦØ°ÙĩØ¨": 3607,
      "ĠØ§ÙĦÙĥØ±": 3608,
      "ÙĦØ§ÙĦØ©": 3609,
      "ĠØ§ÙĦÙħÙĨØ§Ø®": 3610,
      "ĠØ§Ø³ØªØ¦ÙĨØ§Ùģ": 3611,
      "ĠØ³ÙĬØ§Ø³ÙĬ": 3612,
      "ĠÙħØŃØ¯ÙĪØ¯": 3613,
      "ĠÙħØ¬Ø¯Ø¯Ø§": 3614,
      "ĠÙĪØªØ³": 3615,
      "ØªØ¨Ø§Ùĥ": 3616,
      "ĠØ§ÙĦÙħØŃÙĬØ·": 3617,
      "ĠØ§ÙĦÙħØŃØ§ÙħÙĬÙĨ": 3618,
      "Ġ300": 3619,
      "ĠÙħÙĪØ§ÙĤØ¹": 3620,
      "Ø§Ø°Ø§Ø¹Ø©": 3621,
      "Ø¬ÙħØ§Øª": 3622,
      "ĠØ§ØŃÙħØ¯": 3623,
      "ĠÙħØ³ØªØ¹Ø¯": 3624,
      "ĠÙħØ±Ø§Øª": 3625,
      "ĠØ§ÙĬØ±": 3626,
      "ĠØ§ÙĦÙħÙĪØ§Ø±Ø¯": 3627,
      "ĠØ§ÙĦÙħÙĪØ§Ø·ÙĨÙĬÙĨ": 3628,
      "ĠØ¨Ø±Ø¦Ø§Ø³Ø©": 3629,
      "ĠÙĪÙĥØ§ÙĨØª": 3630,
      "Ø¥ÙĨØ´Ø§Ø¡": 3631,
      "ĠØ§ÙĦØ§ÙĨÙĤØ§Ø°": 3632,
      "Ø¹ÙĪØ¯Ø©": 3633,
      "ĠØ§ÙĦÙħØ±Ø£Ø©": 3634,
      "ĠØ§ÙĦÙħØ¯ÙĨÙĬ": 3635,
      "ĠØ§ÙĦØ¶ØºØ·": 3636,
      "ĠØ§ÙģØ±ÙĬÙĤÙĬØ§": 3637,
      "ĠØ§ÙĦÙħØ¤Ø³Ø³Ø§Øª": 3638,
      "ĠØŃØ³ÙĨÙĬ": 3639,
      "ĠØ§ÙĦØµØŃÙĬØ©": 3640,
      "Ø¢ÙĨ": 3641,
      "Ø±Ø¯ÙĨ": 3642,
      "ĠØ±Ø³ÙħÙĬØ§": 3643,
      "ĠÙĤØ±Ø§Ø±Ø§Øª": 3644,
      "ĠØ§ÙĦÙĤÙĬØ§Ùħ": 3645,
      "ĠØ¯ÙĪØ±Ø§": 3646,
      "ĠØ±Ø³ÙĪÙħ": 3647,
      "ĠØ¬ÙĨÙĪØ¯": 3648,
      "ĠØ§ÙĦÙĪØŃØ¯Ø©": 3649,
      "ĠØ¯Ø¹ÙĪØ©": 3650,
      "ĠØ§ÙĦØ¹ÙħÙĦÙĬØ§Øª": 3651,
      "ĠÙĨØ³ÙħØ©": 3652,
      "ĠØ´ÙĬØ¡": 3653,
      "ĠØ§ÙĦØ¯ÙĬÙħÙĪÙĤØ±Ø§Ø·ÙĬØ©": 3654,
      "ĠØ§ÙĦØºØ°Ø§Ø¦ÙĬØ©": 3655,
      "ĠÙģØ¶ÙĦØ§": 3656,
      "ĠÙħÙĪØ¶ØŃØ§": 3657,
      "ĠØ³ÙĦÙĬÙħØ§ÙĨ": 3658,
      "13": 3659,
      "ĠØ§ÙĦØ±Ø¨": 3660,
      "ÙĪÙĬÙĨ": 3661,
      "ÙĪØ§Ø³Øª": 3662,
      "Ø±ÙĩØ§Ø¨": 3663,
      "ØªØ§Ùħ": 3664,
      "ÙĤÙĪÙĤ": 3665,
      "ÙĩÙĬØ±": 3666,
      "ÙĥÙĬÙħ": 3667,
      "ÙĥØ§ÙĨØª": 3668,
      "ÙĥÙĪÙĥ": 3669,
      "ĠÙħØ´Ø§Ø±ÙĬØ¹": 3670,
      "Ø¨ÙĥÙĬÙĨ": 3671,
      "ĠØ¨ØªØ¹": 3672,
      "ĠØ§ÙĦÙħÙĤØ±": 3673,
      "ĠØ§ÙĦÙħØªØ¹": 3674,
      "ĠØ§ÙĦÙħØ«Ø§ÙĦ": 3675,
      "ĠÙĦÙĥØ±Ø©": 3676,
      "ĠØªØ¶": 3677,
      "ĠØªØªØ¹": 3678,
      "ĠØ£ØµÙĦ": 3679,
      "Ø·ÙĬØ©": 3680,
      "ĠÙħÙĨØªØ®Ø¨": 3681,
      "Ø´ÙĥÙĦ": 3682,
      "ĠÙĬØªØ¬Ø§ÙĪØ²": 3683,
      "ĠÙĬØ¨Ø¯ÙĪ": 3684,
      "Ø§Ø¯ÙĨ": 3685,
      "ĠØ¥Ø¹ÙĦØ§ÙĨ": 3686,
      "ĠØ¥ØµØ¯Ø§Ø±": 3687,
      "Ø±ÙĬÙħ": 3688,
      "Ø®Ø§Ø¨": 3689,
      "Ø«ÙĦØ©": 3690,
      "ĠØ³ÙĬØ¹": 3691,
      "ĠØ§ÙĦØ¹Øµ": 3692,
      "ĠØ§ÙĦØ¹ÙĨÙģ": 3693,
      "Ø°Ø¬": 3694,
      "ĠÙĥØªØ¨": 3695,
      "Ø§Ø¨ÙĤØ§": 3696,
      "ĠÙĤØ§ÙĦØª": 3697,
      "ĠÙĤØ§Ø¦Ø¯": 3698,
      "ĠÙĤØ¨Ø±Øµ": 3699,
      "ÙĦÙĬÙĦØ©": 3700,
      "ĠØ§ÙĦØ£Ø·": 3701,
      "ØºØ¯Ø§Ø¯": 3702,
      "ĠÙĩØ§Øª": 3703,
      "ĠÙĦÙĦØ±Ø¦ÙĬØ³": 3704,
      "ĠÙĨØ¨": 3705,
      "ĠÙĨØ·Ø§ÙĤ": 3706,
      "ĠØ¯ÙĬÙĨ": 3707,
      "ĠØ¯ÙĬØ³ÙħØ¨Ø±": 3708,
      "ĠØ±Ø¬ÙĦ": 3709,
      "ĠØ´Ø¹Ø¨": 3710,
      "ĠØ§ÙĦØ¨Ø¹": 3711,
      "ĠØ§ÙĦÙĤØ°": 3712,
      "ĠØ§ÙĦÙĤÙħØŃ": 3713,
      "ÙĬØ³Ø§ÙĨ": 3714,
      "ĠØ§ÙĦØµØºÙĬØ±Ø©": 3715,
      "ĠØ§ÙĦØ®Ø¶": 3716,
      "Ø§Ø·Ø§Øª": 3717,
      "ĠØµØ±Ùģ": 3718,
      "ĠØ§ÙĦØ±Ø§Ùĩ": 3719,
      "ÙĥÙĨÙĬØ©": 3720,
      "ÙĥÙĨØ¯Ø±": 3721,
      "ĠØªØŃØ¯Ø«": 3722,
      "ÙĪÙĥØ´Ùģ": 3723,
      "Ø§ÙĦÙĬÙģ": 3724,
      "Ø¨ÙĬØª": 3725,
      "Ø³ÙħÙī": 3726,
      "Ø±ÙĬÙĤÙĬØ©": 3727,
      "ĠÙĪØ§ÙĦÙħØ¹": 3728,
      "ĠÙħÙĪØ¹Ø¯": 3729,
      "ĠØ¨Ø¯ÙĪÙĨ": 3730,
      "ÙĨØªÙĬÙĨ": 3731,
      "ĠØ§Ø±Ø¶": 3732,
      "ĠØ§Ø±Ø¨Ø¹Ø©": 3733,
      "ĠÙħØ³ØªØ´ÙģÙī": 3734,
      "ĠÙĦØªØ³": 3735,
      "ĠÙĦØªØµÙĦ": 3736,
      "ĠØªØ´ÙħÙĦ": 3737,
      "Ġ2004": 3738,
      "ÙĬÙĪÙĨÙĬÙĪ": 3739,
      "ÙĬØ²Ø§ÙĨ": 3740,
      "ĠØ¨Ø£ÙĨÙĩØ§": 3741,
      "ĠØ§ÙĤØ§ÙħØ©": 3742,
      "ĠÙĬØ±ÙĬØ¯": 3743,
      "ĠØ¨ÙĩØ°Ø§": 3744,
      "ĠØ¨ÙĩØ°Ùĩ": 3745,
      "Ġ1999": 3746,
      "ĠØ§ÙĦØªØ¹ÙĦÙĬÙħ": 3747,
      "ĠØ§ÙĦØ¥Ø³ÙĦØ§ÙħÙĬ": 3748,
      "ÙĪØ§Ø¹ØªØ¨Ø±": 3749,
      "ĠÙĤØ±Ø´Ø§": 3750,
      "ĠØ¬Ø§ÙĨØ¨Ùĩ": 3751,
      "ĠØ¨Ø§ÙĦÙĤØ±Ø¨": 3752,
      "Ø¯ÙĪØ«": 3753,
      "ĠÙĦÙĦÙĨÙģØ·": 3754,
      "ĠØ£ÙħØ±ÙĬÙĥØ§": 3755,
      "ĠØ§ÙĦØ²ÙĬØ§Ø¯Ø©": 3756,
      "ĠÙĥØ«ÙĬØ±Ø§": 3757,
      "ĠØ§ÙĨØªÙĩØ§Ø¡": 3758,
      "ĠÙħØ·ÙĦØ¹": 3759,
      "ĠØ£Ø®ÙĬØ±Ø§": 3760,
      "ĠØ§ÙħØ±ÙĬÙĥÙī": 3761,
      "ĠØ§ÙĦØ·Ø±ÙģÙĬÙĨ": 3762,
      "ĠØ§ÙĦÙħØ®ØªÙĦÙģØ©": 3763,
      "Ø±Ø§Ø¦ÙĬÙĦÙī": 3764,
      "ĠØ§Øº": 3765,
      "Ø§ÙĩØ§": 3766,
      "ĠØ§ÙĦØ±Ùĥ": 3767,
      "ÙģÙĬÙĨ": 3768,
      "Ø¯Ùĩ": 3769,
      "ÙĤÙĪÙħ": 3770,
      "ÙĥØ§ÙĦ": 3771,
      "ĠÙħØ§ÙĦÙĬ": 3772,
      "Ø¹Ø§Ø¡": 3773,
      "Ø¹Ø±Ùģ": 3774,
      "ĠØ¨ÙĪØª": 3775,
      "ĠØ¨Ø·Ø±": 3776,
      "ĠØ¨Ø¹ÙĬØ¯": 3777,
      "Ø§Ø±Ø¹": 3778,
      "ĠØ¹Ø§Ø¯": 3779,
      "ĠØ¹Ø§Ø¬": 3780,
      "ĠØ¹ÙĩØ¯": 3781,
      "ĠØ¹ÙĪØ¯Ø©": 3782,
      "ĠØªÙĥÙĨ": 3783,
      "ĠØªØ§Ø¨Ø¹Ø©": 3784,
      "Ø·Ùī": 3785,
      "Ø·ÙĪØ±": 3786,
      "Ø·ÙģÙī": 3787,
      "ÙĪÙĦØ§Øª": 3788,
      "Ø¶ÙĦ": 3789,
      "ĠÙĬØ¹ÙĦÙĨ": 3790,
      "ĠØ§ÙĦØªØ²Ø§Ùħ": 3791,
      "ĠØ¥ØŃ": 3792,
      "Ø®ÙĪØ§": 3793,
      "ĠØ³Ùĥ": 3794,
      "ĠØ³ÙĦØ³ÙĦØ©": 3795,
      "ĠØŃØ¯ÙĬØ¯": 3796,
      "ĠØŃÙħÙĦØ©": 3797,
      "ĠØŃØ¯ÙĪØ«": 3798,
      "Ø§Ø¦ÙħØ§": 3799,
      "ĠÙĤØ§Ø¯Ø©": 3800,
      "ĠÙĤØ¶Ø§ÙĬØ§": 3801,
      "ØºØ±": 3802,
      "ĠÙĦÙĦØ¯ÙĪÙĦ": 3803,
      "ĠÙĨÙĩ": 3804,
      "ĠØ§ÙĦØ³Ø¨": 3805,
      "ĠØ§ÙĦØ³Ø¨Ø¹": 3806,
      "ĠØ¬ÙĩØ§Ø²": 3807,
      "ĠØ´ÙĬØ®": 3808,
      "Ø§ØŃØ¯": 3809,
      "Ø§ØŃØ«Ø§Øª": 3810,
      "ĠØ§ÙĦØ¨ÙĪØ±ØµØ©": 3811,
      "ĠØ§ÙĦÙĤØ§Ø¦ÙħØ©": 3812,
      "ĠØ¨Ø§ÙĦÙħÙĨ": 3813,
      "ĠØ§ÙĦØ´ÙħØ§ÙĦ": 3814,
      "ĠØ§ÙĦÙģÙĬ": 3815,
      "ĠØ§ÙĦØ±ÙĪÙħ": 3816,
      "ĠØ§ÙĦØ±ÙĩØ§Ø¦ÙĨ": 3817,
      "ĠØ§ÙĦÙĥÙĪÙĨ": 3818,
      "ØªÙĬØ´": 3819,
      "ÙĪÙĥØ±": 3820,
      "ĠØ§ÙĦÙħØµØ¯": 3821,
      "ĠØ§ÙĦÙħØµØ§ÙĨØ¹": 3822,
      "ØªØ¨Ø·": 3823,
      "ĠØ§ÙĦÙħØŃØª": 3824,
      "Ø´Ø±Ø§Øª": 3825,
      "ĠÙħØ´Ø§ÙĥÙĦ": 3826,
      "ĠØ§ÙĦØ§Ø³ÙĦØ§ÙħÙĬØ©": 3827,
      "ĠÙĪÙħØµØ±": 3828,
      "ĠØ§ÙĦÙħØ³Ø§ÙĪØ§Ø©": 3829,
      "ĠØ§ÙĦØ±Ø¦ÙĬØ³ÙĬ": 3830,
      "ĠÙĦÙĦÙħØ±Ø©": 3831,
      "ĠÙħØ±Ø´": 3832,
      "ĠØ§ÙĬØ¬": 3833,
      "ĠÙĥØ¨Ø§Ø±": 3834,
      "ĠØªØ¬Ø§ÙĪØ²": 3835,
      "ĠØ¬ÙħÙĩÙĪØ±ÙĬØ©": 3836,
      "ĠØ¥Ø³Ø±Ø§Ø¦ÙĬÙĦÙĬØ©": 3837,
      "ĠØ§ÙĦØ§ØŃØªÙĬ": 3838,
      "ĠÙĬØ¬Ø±ÙĬ": 3839,
      "ĠØ§ÙĦØ§Ø®Ø±Ùī": 3840,
      "Ġ80": 3841,
      "Ø®Ø·ÙĬØ·": 3842,
      "ÙĦÙĬÙĨÙĬ": 3843,
      "ĠØ£ØµØ¯Ø±": 3844,
      "ĠÙĤØ·Ø§Ø¹Ø§Øª": 3845,
      "ĠØªÙĥÙĦÙģØ©": 3846,
      "ĠØ¨ØµÙĪØ±Ø©": 3847,
      "ĠØ§ÙĦØ§ØµÙĦØ§ØŃ": 3848,
      "ĠØ§ÙĦØ²ÙĬØ§Ø±Ø©": 3849,
      "ĠØ§ÙĦÙħØ±Ø´ØŃÙĬÙĨ": 3850,
      "ĠØ§ÙĦÙĪØ§ÙĤØ¹Ø©": 3851,
      "ĠØ§ÙĦÙĪÙĥØ§ÙĦØ©": 3852,
      "ÙĥÙĨØ¯Ø±ÙĬØ©": 3853,
      "35": 3854,
      "54": 3855,
      "ĠØ§Ø±ÙĬ": 3856,
      "ÙĦÙĤØ¯": 3857,
      "ÙĬØ§Ø¡": 3858,
      "Ø§ÙĦØµ": 3859,
      "Ø¯Ø§Øª": 3860,
      "ÙĤÙĦØ©": 3861,
      "ÙĩÙĪØ±ÙĬ": 3862,
      "ÙĩØ²Ø©": 3863,
      "Ø¹Ø§Ùħ": 3864,
      "ĠÙĪÙĬØ¹": 3865,
      "ĠÙĪÙĪØ²ÙĬØ±": 3866,
      "ĠØ¨Ø¨": 3867,
      "ĠÙģØª": 3868,
      "ĠØ§ÙĦÙħÙĦÙģ": 3869,
      "ĠØ§ÙĦÙħØ§ÙĨÙĬØ§": 3870,
      "ĠÙĦÙĤØ¯": 3871,
      "Ø¬ÙħØ©": 3872,
      "Ø¬ÙĦØ©": 3873,
      "Ø¬ÙħÙĪØ¹Ø©": 3874,
      "ØµØ±ÙĬ": 3875,
      "ĠØ£ÙĩÙħ": 3876,
      "ĠØ£Ø±Ø¶": 3877,
      "Ø§ÙħØ§Øª": 3878,
      "Ø´Ø§Ø±Ø©": 3879,
      "ĠØ§ÙĦØªÙĪÙĨ": 3880,
      "ĠØ¥ÙĬØ±Ø§ÙĨ": 3881,
      "Ø®Ùħ": 3882,
      "ĠØ³Ø§ÙĨ": 3883,
      "ĠØ³Ø¹ÙĪØ¯": 3884,
      "Ø§Ø¹ÙĬÙĦ": 3885,
      "ĠÙĪØ§ÙĦØ§Ùħ": 3886,
      "ĠÙĪØ§ÙĦØ§Ø³": 3887,
      "ĠÙĥØ´": 3888,
      "ĠØ§ÙĦØ£Ø±Ø¨": 3889,
      "ØºØ§ÙĦ": 3890,
      "ØºØ±Ø¨": 3891,
      "ĠÙĦÙĦÙħÙĪ": 3892,
      "ĠØ¯Ø§Ø¦ÙħØ§": 3893,
      "ĠØ£ÙĨÙĩÙħ": 3894,
      "ĠØ§ÙĦØ¯ÙĪØ±Ø©": 3895,
      "ĠØ§ÙĦØ¯Ø¨ÙĦÙĪÙħØ§Ø³ÙĬØ©": 3896,
      "ÙĪØ¯ÙĬ": 3897,
      "ĠØ§ÙĦØ¬ÙħØ§Ø±Ùĥ": 3898,
      "ĠØ¨Ø§ÙĦØ·": 3899,
      "ĠØ§ÙĦØ´Ø®Øµ": 3900,
      "Ø§ÙĥÙħØ©": 3901,
      "ĠØ§ÙĦØµÙĨØ¯ÙĪÙĤ": 3902,
      "ĠØ§ÙĦØ®Ø¯ÙħØ§Øª": 3903,
      "ĠØµØºÙĬØ±Ø©": 3904,
      "ĠØ§ÙĦØ¥ÙĬØ±": 3905,
      "ĠØ§ÙĦØ±ØŃ": 3906,
      "ĠØ§ÙĦÙĪØ³Ø·": 3907,
      "ĠØ§ÙĦÙĥÙĪÙĬ": 3908,
      "ĠØ§ÙĦÙĥÙĪÙĨØº": 3909,
      "ĠØ§Ø³ØªÙĬØ±Ø§Ø¯": 3910,
      "ÙĦÙħÙĬ": 3911,
      "ĠØ§ÙĦØ§ÙħØ§Ø±Ø§Øª": 3912,
      "Ø¯ÙĬØ§Øª": 3913,
      "ĠÙĪØ²ÙĬ": 3914,
      "ĠØ²Ø¹ÙĬÙħ": 3915,
      "ĠØ§ÙĦØ¹Ø±Ø§ÙĤÙī": 3916,
      "Ġ...": 3917,
      "ĠØ«Ø§ÙĨÙĬØ©": 3918,
      "ĠØ§ÙĦØ§Ø³Ø¯": 3919,
      "ĠÙĪÙħØ³Øª": 3920,
      "Ġ31": 3921,
      "ĠÙĪØ§ÙĦÙħØª": 3922,
      "ĠÙĪØ§ÙĦÙħØ³": 3923,
      "ĠÙĪØ§ÙĦÙħØŃ": 3924,
      "ĠÙħÙĪØ§Ø·ÙĨ": 3925,
      "ĠÙħØµØ·ÙģÙī": 3926,
      "ĠØ§ÙĦØ³ÙĬØ·Ø±Ø©": 3927,
      "Ø¬ÙħØ§Ø¹Ø©": 3928,
      "ØŃØ¯Ø§Ø«": 3929,
      "ĠØ§ÙĦÙħØ´ÙĥÙĦØ©": 3930,
      "ĠÙħÙĤØ§Ø·Ø¹Ø©": 3931,
      "ĠÙħØ±ØŃÙĦØ©": 3932,
      "ĠÙħØ±Ø§ÙĥØ²": 3933,
      "ĠØªØ·ÙĪØ±": 3934,
      "ĠÙĬØŃØªØ§Ø¬": 3935,
      "ĠØ³Ø¨Ø§ÙĤ": 3936,
      "ÙĦØ¨ÙĨØ§ÙĨ": 3937,
      "Ø¶ÙħØ§Ùħ": 3938,
      "ĠØŃÙĤÙĤ": 3939,
      "ĠØ§ÙĦØ§ÙħØ±ÙĬÙĥÙĬ": 3940,
      "ÙĦÙĬÙĨØ§": 3941,
      "ĠØ§ÙĦÙħÙģØ±ÙĪØ¶": 3942,
      "ĠØ¹ÙĤØ¯Ùĩ": 3943,
      "ĠØ§ÙĦØ´Ø±Ø¹ÙĬØ©": 3944,
      "Ø³ÙĦØ·Ø©": 3945,
      "ĠØ§ÙĦØ¯Ø§Ø®ÙĦÙĬ": 3946,
      "ĠØ§ÙĦØŃÙĥÙĪÙħÙĬ": 3947,
      "ĠØ¨Ø¬Ø±ÙĪØŃ": 3948,
      "ĠØ§ÙĦÙĦÙĬØ¨ÙĬØ©": 3949,
      "ĠØ¹Ø±Ø§ÙĤÙĬØ©": 3950,
      "ĠÙĤÙĨØ§Ø©": 3951,
      "ĠØ§ÙĦØ£ÙĥØ¨Ø±": 3952,
      "ĠØ§ÙĦØ¯ÙĬÙħÙĪÙĤØ±Ø§Ø·ÙĬ": 3953,
      "ĠÙĨØ¸ÙĬØ±Ùĩ": 3954,
      "ĠØŃØµÙĦØª": 3955,
      "ĠØ§ØŃØªÙĬØ§Ø¬Ø§Øª": 3956,
      "ĠÙħØ¬ÙħÙĪØ¹": 3957,
      "ĠØ§ÙĦÙĥØ¨ÙĬØ±Ø©": 3958,
      "ÙĬØ§Ø¨": 3959,
      "Ø§ÙĦØ´Ø±ÙĤ": 3960,
      "ÙħØ±ÙĬÙĥ": 3961,
      "ĠØ§ÙĦÙĬÙħ": 3962,
      "ÙĪÙĩØ±": 3963,
      "ØªØ§Ø±": 3964,
      "ØªÙĪÙĤØ¹": 3965,
      "Ø¯ÙĪØ±": 3966,
      "ĠÙħØ´Ø§Ø±ÙĥØ©": 3967,
      "Ø¹ÙħÙĦ": 3968,
      "Ø³ÙĪØ¬Ø§Øª": 3969,
      "ĠÙĪÙĬÙĨ": 3970,
      "ĠÙĪØ§Ùħ": 3971,
      "ĠÙĪÙĬØ±": 3972,
      "ĠÙĪÙĦÙĨ": 3973,
      "ĠÙĪØ¯ÙĪÙĦ": 3974,
      "ĠØ¨Ø®": 3975,
      "ĠÙģÙĩÙħ": 3976,
      "ĠØ§ÙĦÙħØªØ¨": 3977,
      "ĠÙĦØ°ÙĦÙĥ": 3978,
      "ĠØ¹Ø±Ø¨": 3979,
      "Ø¬Ø§Ø¨Ø©": 3980,
      "ĠØªØ²": 3981,
      "ĠØªÙĤÙĦ": 3982,
      "ĠØªÙĪØ§Ø¬Ùĩ": 3983,
      "ĠØªÙĪÙĨØ³": 3984,
      "Ø´Ùī": 3985,
      "Ø´ÙĬØ±": 3986,
      "ÙĪÙĦØª": 3987,
      "Ø²Ø§Ø¹": 3988,
      "ÙĬØ±ÙĩØ§": 3989,
      "ĠÙĬØ®": 3990,
      "ĠÙĬØ£ØªÙĬ": 3991,
      "ĠØ§ÙĦØªÙĪØ¬Ùĩ": 3992,
      "ĠØ³ÙĬÙĦ": 3993,
      "ĠØŃÙĪØ§Ø±": 3994,
      "ĠØŃØ§Ø¬Ø©": 3995,
      "ĠÙĪØ§ÙĦØ§ÙĤØªØµØ§Ø¯": 3996,
      "ĠÙĪØ§ÙĦÙĪÙĦØ§ÙĬØ§Øª": 3997,
      "ĠÙĥÙĦØ§": 3998,
      "ĠÙĤØ·": 3999,
      "ÙĦÙĬØŃ": 4000,
      "ÙĪØ±ÙĨ": 4001,
      "ØºØ§ÙĨ": 4002,
      "ĠÙĩØ¬ÙĪÙħ": 4003,
      "ĠÙĦÙĦØªØŃ": 4004,
      "ĠÙĨÙĪ": 4005,
      "ĠÙĨÙĪØ§Ø¨": 4006,
      "ĠØ¬ÙĪÙĦØ©": 4007,
      "ĠØ¯Ùģ": 4008,
      "ĠØ±ÙģÙĬ": 4009,
      "Ø¦Ø§": 4010,
      "Ø¦ÙĪÙĨ": 4011,
      "ĠØ§ÙĦÙĤÙĪØ©": 4012,
      "ĠØ§ÙĦÙĤØ¯ÙĬÙħØ©": 4013,
      "ĠØ§ÙĦØ¬Ø§ÙĩØ²Ø©": 4014,
      "ĠÙħØ¹Ø±Ø¨": 4015,
      "ĠØ§ÙĦØµØŃÙĬ": 4016,
      "ĠØ§ÙĦØ®ØµÙĪØµ": 4017,
      "Ø¨Ø±Ø§ÙĬØ±": 4018,
      "Ø§Ø¶Ø©": 4019,
      "ÙģÙĬØ¶": 4020,
      "Ġ26": 4021,
      "Ø³Ø¨ÙĤ": 4022,
      "ĠØ§ÙĦÙĥÙĪØ±ÙĬ": 4023,
      "ĠØ§ÙĦÙħÙĨØ´": 4024,
      "ĠØ§ÙĦÙĬÙħÙĨ": 4025,
      "ĠÙħÙĦÙĬØ§Ø±Ø§Øª": 4026,
      "Ø¯Ø±Ø³": 4027,
      "ÙĪØ¬ÙĬÙĨ": 4028,
      "ØªØ¨Ø©": 4029,
      "ÙħØ§Ø±Ø³": 4030,
      "ÙĪØªØ§Ø¨Ø¹": 4031,
      "ÙĪÙģÙī": 4032,
      "ĠÙĪÙħØ³": 4033,
      "Ġ34": 4034,
      "ĠØ§ÙĦØºØ±Ø¨": 4035,
      "ĠØ§ÙĦØ³ÙĬØ§ØŃØ©": 4036,
      "ĠØ§ØŃØªØ¬": 4037,
      "Ø¨ÙĨÙĪÙĥ": 4038,
      "Ø®ØµÙĪØµ": 4039,
      "ÙĪØ²ÙĬØ¹": 4040,
      "ĠÙĦÙĦÙħØ³": 4041,
      "ĠÙĦÙĦÙħØ³Øª": 4042,
      "Ġ2005": 4043,
      "Ø¹ÙħØ§ÙĨ": 4044,
      "ĠØ§Ø®Ø±": 4045,
      "ĠØ§ÙĦØ§Ø±Ø¯": 4046,
      "Ø®ÙĦØ§Ùģ": 4047,
      "ÙĬØªØ´": 4048,
      "ĠØ§ÙģØªØªØ§ØŃ": 4049,
      "ĠØ§Ø¨ÙĪ": 4050,
      "Ġ1998": 4051,
      "ĠÙĦÙĦØŃÙĥÙĪÙħØ©": 4052,
      "ĠØ¥Ø¬Ø±Ø§Ø¡": 4053,
      "Ø¬Ø²Ø§Ø¦Ø±": 4054,
      "ĠØ§ÙĦÙĤÙĬØ§Ø¯Ø©": 4055,
      "ĠØ§ÙĦØ¬Ø²ÙĬØ±Ø©": 4056,
      "ĠØ§ÙĦØ£Ø®ÙĬØ±": 4057,
      "ØºØ·ÙĬØ©": 4058,
      "ĠØ¨Ø·Ø±ÙĬÙĤØ©": 4059,
      "ĠØ§ÙĦØ§Ø³Ø±Ø§Ø¦ÙĬÙĦÙĬÙĬÙĨ": 4060,
      "ĠÙĪØ¹Ø¯Ø¯": 4061,
      "ĠØ§ÙĦÙĪØŃÙĬØ¯Ø©": 4062,
      "ĠØ§ÙĦØ§ÙĬØ§Ùħ": 4063,
      "ĠÙĤØ¨ÙĪÙĦ": 4064,
      "ĠÙĦÙĦØ¯ÙĪÙĦØ©": 4065,
      "ĠÙĪØ§Ø¶ØŃØ©": 4066,
      "ĠØ´ÙĩØ¯Øª": 4067,
      "ĠØ´ÙĬÙĨØ®ÙĪØ§": 4068,
      "ĠØ§ÙĦØ§ÙĨØªØ®Ø§Ø¨ÙĬØ©": 4069,
      "ĠØ®Ø§ØªÙħÙĬ": 4070,
      "ĠØ§ÙĦØ®Ø¶Ø±Ø§Ø¡": 4071,
      "Ø§ÙĦÙħÙĨ": 4072,
      "ÙħÙĪÙĨ": 4073,
      "ÙħÙĥØ§ÙĨ": 4074,
      "ĠØ§ÙĦØ§Ø¨": 4075,
      "ÙĪØ¹Ø©": 4076,
      "ÙĪÙĬÙħ": 4077,
      "ÙĨÙĩ": 4078,
      "ÙģØ²": 4079,
      "ÙĤØ§Øª": 4080,
      "ĠÙħØ·": 4081,
      "ĠÙħØ±Ø¨": 4082,
      "Ø³Ùī": 4083,
      "Ø³Ø§Ø¯": 4084,
      "ĠÙĪÙĬÙĦ": 4085,
      "ĠÙĪÙħØ±": 4086,
      "ĠØ§ÙĦÙħÙĪÙĤØ¹": 4087,
      "ĠØ¹Ø¯ÙĬØ¯Ø©": 4088,
      "ĠØ¹Ø´Ø±ÙĬÙĨ": 4089,
      "ĠØªØªØŃ": 4090,
      "ĠØªØ¨Ø¯Ø£": 4091,
      "ĠØªÙĤØ±Ø±": 4092,
      "ĠØªØ±ÙĬØ¯": 4093,
      "ĠØ£Ø¨Ø±Ø²": 4094,
      "Ø·ÙĩØ±Ø§ÙĨ": 4095,
      "ÙĬØ±ÙĬØ©": 4096,
      "Ø±ÙĬØ¶": 4097,
      "ĠØ³Ø¹ÙĬØ¯": 4098,
      "ĠØ³ÙĤÙĪØ·": 4099,
      "ĠØ³Ø§Ø¨ÙĤØ§": 4100,
      "ĠØ§ÙĦØ¹ÙĤØ¯": 4101,
      "ĠØ§ÙĦØ¹Ø¬Ø²": 4102,
      "ĠØŃØ°Ø±": 4103,
      "ĠØ§ÙĦØ£ÙĤ": 4104,
      "ĠØ§ÙĦØ£ÙĪØ¶Ø§Ø¹": 4105,
      "ĠÙĦÙĦØ§Ø¹": 4106,
      "ĠÙĨØ¯": 4107,
      "ĠÙĨÙĩØ±": 4108,
      "ĠØ§ÙĦØ³Ø§Ø¯": 4109,
      "ĠØ¬Ø¹ÙĦ": 4110,
      "ĠØ¬ÙĦØ³Ø©": 4111,
      "ĠØ§ÙĦØŃÙħÙĦØ©": 4112,
      "ĠØ®Ø±ÙĬØ·Ø©": 4113,
      "ĠØ´Ø±Ùĥ": 4114,
      "ĠØ§ÙĦØ¨ÙĨÙĬØ©": 4115,
      "ĠØ§ÙĦÙĤØ¶Ø§Ø¡": 4116,
      "ĠØ§ÙĦØ´Ø§ÙħÙĦ": 4117,
      "ØµØ±ÙĬØ©": 4118,
      "ÙħÙĨØ©": 4119,
      "Ø±ÙĪØ©": 4120,
      "ĠØ§ÙĦØµÙĬØ¯": 4121,
      "Ø¨Ø±ÙĦÙħØ§ÙĨ": 4122,
      "ĠØµÙĬ": 4123,
      "ĠØµØ§ÙĦØŃ": 4124,
      "ĠØµØŃÙĬØŃ": 4125,
      "ØªØ±Ø§Ø¹": 4126,
      "Ø§ÙĪÙī": 4127,
      "ÙĪØ³ÙĥÙĪ": 4128,
      "ØªÙĩÙħØ§": 4129,
      "ĠÙħØŃØ·Ø©": 4130,
      "ĠØ¹Ø§ÙħÙĦ": 4131,
      "ÙĤÙĬØ¨": 4132,
      "ÙĤÙĬØ§Ùħ": 4133,
      "ĠØ¶Ø¹": 4134,
      "ĠØ¶Ø®ÙħØ©": 4135,
      "ĠØ§ÙĦØ¹Ø§ÙħÙĦØ©": 4136,
      "ÙĨØ¯Ø§Øª": 4137,
      "ĠØªØ¹ÙĬÙĬÙĨ": 4138,
      "ÙĪØªØ§": 4139,
      "ÙĪØ¹ÙĬÙĨ": 4140,
      "ØªØ¬Ùĩ": 4141,
      "ÙĪÙģØ¯": 4142,
      "ĠØ§ÙĦØ§Ø³ØªØ®Ø¨Ø§Ø±Ø§Øª": 4143,
      "Ġ194": 4144,
      "ĠØ§ØªØ®Ø°": 4145,
      "ĠØ§ÙĦØ§ØªØµØ§ÙĦ": 4146,
      "ĠØ§ÙĦØ§ØªÙĩØ§Ùħ": 4147,
      "ĠÙĪØ¨Ø¹Ø¯": 4148,
      "ĠÙĬØ¹ÙĬØ´": 4149,
      "ĠØ§Ø±ØªÙģØ¹Øª": 4150,
      "ĠØ§ÙĦÙģÙĦØ³Ø·ÙĬÙĨÙī": 4151,
      "ĠØ§ÙĦÙħØ´Ø§ÙĥÙĦ": 4152,
      "ĠÙħÙĤØªÙĦ": 4153,
      "ĠØ§ÙĦØ¨ÙĦØ§Ø³Øª": 4154,
      "ĠÙĦØªØ´": 4155,
      "ĠÙĦÙĦÙħØ´Ø±ÙĪØ¹": 4156,
      "ÙģØ³ÙĩÙħ": 4157,
      "Ø£Ø³Ø¹Ø¯": 4158,
      "ĠØ¨Ø±Ø§ÙħØ¬": 4159,
      "ĠØ¨Ø´Ø¯Ø©": 4160,
      "Ġ150": 4161,
      "ĠÙħØ¨Ø§Ø±Ø§Ø©": 4162,
      "ÙĨØ§Ø¹Ø§Øª": 4163,
      "ĠØ£Ø³ÙĪØ§ÙĤ": 4164,
      "Ġ500": 4165,
      "Ø§ÙĦØªØ²Ø§Ùħ": 4166,
      "ĠÙĤÙĬØ§Ø¯Ø©": 4167,
      "Ġ90": 4168,
      "ĠØªØ³ØªØ®Ø¯Ùħ": 4169,
      "ĠØ§ÙĦØ¹ÙĤÙĪØ¯": 4170,
      "ĠÙĬØ³ØªØ·ÙĬØ¹": 4171,
      "ÙĬØ·Ø§ÙĦÙĬØ§": 4172,
      "ĠÙĬØ´ÙĥÙĦ": 4173,
      "ĠÙģÙĦØ³Ø·ÙĬÙĨÙĬ": 4174,
      "ÙĥÙĪÙĬÙĨ": 4175,
      "ĠØ§ÙĦØ§Ø¬ØªÙħØ§Ø¹ÙĬ": 4176,
      "ÙĪØ£Ø´Ø§Ø±Øª": 4177,
      "ĠÙĦØ´Ø±ÙĥØ©": 4178,
      "ÙĪØ´Ø¯Ø¯": 4179,
      "ĠÙĨØ´Ø±Øª": 4180,
      "ĠØ¥ÙĦÙĬÙĩ": 4181,
      "ĠØ§Ø³ØªØ«ÙħØ§Ø±Ø§Øª": 4182,
      "ĠØ£ÙĬØ§ÙħÙĥ": 4183,
      "ĠØ§ÙĦÙĬØ§Ø¨Ø§ÙĨ": 4184,
      "ĠØ§ÙĦØ¸Ø±ÙĪÙģ": 4185,
      "ĠØ§ÙĦÙħÙħÙĥÙĨ": 4186,
      "ĠÙħØ¬ÙħÙĪØ¹Ø§Øª": 4187,
      "ĠÙħØŃØ§ÙģØ¸Ø©": 4188,
      "ĠÙĦØªÙĨÙģÙĬØ°": 4189,
      "ĠÙĥÙĬÙĦÙĪÙħØªØ±Ø§": 4190,
      "ĠØ§ÙĦØªÙĩØ¯ÙĬØ¯": 4191,
      "ĠØ¨Ø·Ø±Ø³": 4192,
      "17": 4193,
      "80": 4194,
      "ÙĦÙĪ": 4195,
      "ÙĦÙħØ©": 4196,
      "ÙĨÙĪÙĨ": 4197,
      "Ø±Øµ": 4198,
      "ØªÙĬØ©": 4199,
      "ØªØ²Ùħ": 4200,
      "ÙĤÙĪÙĦ": 4201,
      "ÙĤØ§ÙĦØª": 4202,
      "ÙĩØ¨ÙĬØ©": 4203,
      "ÙĥØ§Øª": 4204,
      "ÙĥØ§ÙĨÙĬØ©": 4205,
      "ĠÙħÙĬØ¯": 4206,
      "ĠÙħÙĩÙħ": 4207,
      "ĠÙħØ¯Ø±": 4208,
      "ĠÙħØ§ÙĦÙĬØ©": 4209,
      "ĠÙħØ¶ÙĬÙģ": 4210,
      "Ø¨ÙĬØ§": 4211,
      "Ø¹ÙĨ": 4212,
      "ĠÙĪØ¶": 4213,
      "ĠØ¨Ø¶Ø±ÙĪØ±Ø©": 4214,
      "ĠÙģÙĥØ±Ø©": 4215,
      "ĠÙĦÙĥÙĬ": 4216,
      "ĠÙĦØ²ÙĬØ§Ø¯Ø©": 4217,
      "Ø§Ø±ÙĬØ§": 4218,
      "ĠØ¹Ø¬Ø²": 4219,
      "Ø¬Ø¯": 4220,
      "Ø¬Ø±ÙĬ": 4221,
      "Ø¬Ø§Ø¡": 4222,
      "ĠØªÙĪØ¬Ø¯": 4223,
      "ĠØªÙħÙĦÙĥ": 4224,
      "ĠØªØªØ¬Ø§ÙĪØ²": 4225,
      "ĠØªÙĪØ³ÙĬØ¹": 4226,
      "Ø·Ø§ÙĨ": 4227,
      "Ø·Ø§ÙĪÙĬ": 4228,
      "ÙĪÙĦÙĨØ¯Ø§": 4229,
      "ĠÙĬØ¶Ùħ": 4230,
      "ĠÙĬÙħÙĦÙĥ": 4231,
      "ĠÙĬØ³ÙħØŃ": 4232,
      "ĠØ¥Ø·ÙĦØ§ÙĤ": 4233,
      "Ø£ÙħÙĬÙĨ": 4234,
      "ĠØ³ÙĬØ³": 4235,
      "Ø§Ø¹ÙĬØ§Øª": 4236,
      "ĠÙĪØ§ÙĦÙħÙĦ": 4237,
      "ĠÙĪØ§ÙĦÙħÙĪ": 4238,
      "ĠÙĪØ§ÙĦØªÙĨÙħÙĬØ©": 4239,
      "ĠØ§ÙĦØ£Øµ": 4240,
      "ĠÙĩÙĦ": 4241,
      "ĠÙĦÙĦØ§ÙħÙħ": 4242,
      "ĠØ§ÙĨØ¨Ø§Ø¡": 4243,
      "ĠØ±Ùģ": 4244,
      "ĠØ®Ø§ÙĨ": 4245,
      "Ø±ÙĥÙĬØ©": 4246,
      "Ø¸Ø©": 4247,
      "Ø§ÙĬÙĬØ±": 4248,
      "Ø¤Ø¯ÙĬ": 4249,
      "Ø§Ø¶Ø§ÙģØ©": 4250,
      "Ø§Ø·Ø©": 4251,
      "ĠØ§ÙĦØ¥Ø¹ÙĦØ§Ùħ": 4252,
      "ĠØ§ÙĦØ±Ø§Ø¨Ø¹": 4253,
      "ĠØ·Ø§ÙĦ": 4254,
      "ĠØ·Ø±Ùģ": 4255,
      "ĠØ·Ø¨ÙĬØ¹": 4256,
      "ĠØ·Ø§ÙĤÙħ": 4257,
      "ĠÙĦÙħØ³": 4258,
      "ĠÙĦÙħÙĥØ§ÙģØŃØ©": 4259,
      "ĠØ§ÙĦØ·Ø§Ø¹": 4260,
      "ĠØ¯ÙĪÙĦÙĬØ©": 4261,
      "ĠÙħØŃØ¯Ø¯Ø©": 4262,
      "ÙĦÙħØ§ÙĨÙĬ": 4263,
      "ØµÙĦØ¨": 4264,
      "ĠØªØŃÙĪÙĬÙĦ": 4265,
      "ĠØªØŃØ³ÙĬÙĨ": 4266,
      "Ø¯Ø±Ø§Øª": 4267,
      "ĠÙĪÙĤÙĪØ¹": 4268,
      "ĠÙĪÙħØª": 4269,
      "Ø¨Ø¯Ø¡": 4270,
      "ĠØªÙħÙĥÙĨ": 4271,
      "Ø±ÙĨØ³Ø§": 4272,
      "ĠØ§ÙĦÙħØ³ØªØ´Ø§Ø±": 4273,
      "Ø«ÙĦØ§Ø«": 4274,
      "ĠÙĪØ¨Ø±ÙĬØ·Ø§ÙĨÙĬØ§": 4275,
      "ĠÙĪØ²ÙĬØ±Ø§": 4276,
      "Ø¨ÙĨÙī": 4277,
      "ĠØ§Ùī": 4278,
      "ĠØ§ÙĦÙħÙĪØ§Ø²ÙĨØ©": 4279,
      "ĠØ¨ØŃÙĦÙĪÙĦ": 4280,
      "ĠØ§Ø®ØªÙĬØ§Ø±": 4281,
      "Ø¹ØªÙĤØ¯": 4282,
      "Ø¹ØªØ¨Ø±": 4283,
      "ĠØ§ÙĦÙħØ¯ÙĬØ±": 4284,
      "ĠØ§ÙģØ±Ø§Ø¯": 4285,
      "ĠØ§ÙĦÙħØ¤Ø³Ø³Ø©": 4286,
      "ĠØ§ÙĦØ¨Ø±ÙĦÙħØ§ÙĨÙĬØ©": 4287,
      "ÙĦØªÙĤÙĬ": 4288,
      "ĠØ§ÙĦÙĨÙģØ·ÙĬØ©": 4289,
      "ĠØ§Ø´Ø®Ø§Øµ": 4290,
      "ĠØ§ÙĦÙħÙģÙĪØ¶": 4291,
      "ĠÙĦÙĦØŃØ²Ø¨": 4292,
      "ĠÙĪØ§ÙĦØ¹ÙħÙĦ": 4293,
      "ØªØ´Ø§Ùģ": 4294,
      "ĠØ£ØµØŃØ§Ø¨": 4295,
      "ÙĥØ³Ø¬ÙĬÙĨ": 4296,
      "ĠØ§ÙĦØŃØ±ÙĬØ±ÙĬ": 4297,
      "ĠÙĪØ§ÙĦÙĨØ³ÙĬØ¬": 4298,
      "ĠØ¬Ø¯ÙĬØ¯Ø§": 4299,
      "ĠÙĦÙħÙĨØ¹": 4300,
      "ĠØ§ÙĦÙĦÙĬØ¨ÙĬ": 4301,
      "ĠÙĪØ§Ø³Ø¹": 4302,
      "ĠØ§ÙĦÙħÙĦØ§Ø¨Ø³": 4303,
      "ĠØ§ÙĦÙĨÙĤØ¯ÙĬØ©": 4304,
      "ĠØŃÙĥÙĪÙħØªÙĩ": 4305,
      "Ø§ÙĦÙĤØ§ÙĩØ±Ø©": 4306,
      "ĠØ§ÙĦØªØ³ÙĦÙĬØŃ": 4307,
      "ĠØ§ÙĦØªØ·ÙĪØ±Ø§Øª": 4308,
      "ĠØªÙĩØ¯ÙĬØ¯": 4309,
      "ĠÙĦÙĦØºØ§ÙĬØ©": 4310,
      "ĠØ£Ø±Ø¨Ø¹Ø©": 4311,
      "ĠØ§ÙĦØ´ÙĬØ´Ø§ÙĨ": 4312,
      "ĠØ±Ø¨ÙħØ§": 4313,
      "ĠØ§ÙĦÙĨØ§ØªØ¬": 4314,
      "ĠØ§ÙĦÙĤØ°Ø§ÙģÙĬ": 4315,
      "ĠØ§ÙĦÙħØµØ¯Ø±Ø©": 4316,
      "**": 4317,
      ".\"": 4318,
      "ĠÙĩØ§": 4319,
      "Ø§ÙĪØ±Ø§Øª": 4320,
      "ÙħØ±Ø©": 4321,
      "ÙĪØ§Ø¯": 4322,
      "ÙĪØªØ±": 4323,
      "ÙĪØ§ÙħÙĦ": 4324,
      "Ø±Ø¹": 4325,
      "ÙģØ§": 4326,
      "Ø¯Ø§Ø¡": 4327,
      "ĠÙħØªØŃ": 4328,
      "ĠÙħØ±Ø¨Ø¹": 4329,
      "ĠÙĪÙĩÙħ": 4330,
      "ĠÙĪØ§Ø±Ø¯Ø§Øª": 4331,
      "ĠØ¨Ø§Ø´": 4332,
      "ĠØ¨Ø³ÙĬ": 4333,
      "ĠØ¨Ø°ÙĦ": 4334,
      "ĠÙģØ§ÙĦ": 4335,
      "ĠÙģØ§Ø±": 4336,
      "ĠÙģÙĪØ²": 4337,
      "ØŃÙĦ": 4338,
      "ĠÙĦØ¹Ø¨": 4339,
      "ĠØ¹Øµ": 4340,
      "ĠØªÙĪÙĤÙģ": 4341,
      "ĠØªØºÙĬØ±": 4342,
      "ĠØªØ¶ÙħÙĨ": 4343,
      "ĠØªØ²Ø§ÙĬØ¯": 4344,
      "ĠØªØ®ØµÙĬØµ": 4345,
      "ØµÙĬØ¯": 4346,
      "ĠØ£Ø´Ø§Ø±": 4347,
      "ĠØ£ÙĩØ¯Ø§Ùģ": 4348,
      "Ø§ÙħØª": 4349,
      "ĠÙĬÙĩ": 4350,
      "ĠÙĬÙĤÙĦ": 4351,
      "ĠÙĬØ¨ØŃØ«": 4352,
      "Ø«ÙĬÙĦ": 4353,
      "ĠØ³Ø±ÙĬ": 4354,
      "ĠØ³Ø§Ø¹Ø§Øª": 4355,
      "ĠØ§ÙĦØ¹ÙĦØ§ÙĤØ©": 4356,
      "ĠØŃØ¶ÙĪØ±": 4357,
      "ĠØŃÙħØ§ÙĬØ©": 4358,
      "ĠÙĦÙĦØ±": 4359,
      "ĠØ¬Ùĩ": 4360,
      "ĠØ¬Ø§ÙĨ": 4361,
      "ĠØ¯Ø¹Ø§": 4362,
      "ĠØ´ÙĨ": 4363,
      "ĠØ´Ø¨Ø§Ø¨": 4364,
      "ĠØ´Ø±ÙĪØ·": 4365,
      "Ø¦ÙĦØ©": 4366,
      "ĠØ§ÙĦÙĤØ¨": 4367,
      "ĠØ§ÙĦÙĤØ§Ø±Ø©": 4368,
      "ĠØ§ÙĦÙĤÙĪØ§ÙĨÙĬÙĨ": 4369,
      "ĠÙħØ¹Ø§": 4370,
      "ĠÙħØ¹ØªØ¨Ø±": 4371,
      "ĠÙħØ¹Ø§Ø±Ø¶": 4372,
      "Ø¸Ø§Ùĩ": 4373,
      "Ø¸ÙĬÙģ": 4374,
      "ĠØ¨Ø§ÙĦØµ": 4375,
      "Ø§ÙĥØ³Øª": 4376,
      "Ø§ÙĬØª": 4377,
      "Ø¤ÙĥØ¯": 4378,
      "Ø¤ØªÙħØ±": 4379,
      "ĠØ§ÙĦØ®Ø¯ÙħØ©": 4380,
      "ĠØºØ§ÙĦØ¨ÙĬØ©": 4381,
      "ØªÙĬØ¨": 4382,
      "Ø§Ø²Ùħ": 4383,
      "ĠØ§Ø³ØªØ±Ø§ØªÙĬØ¬ÙĬØ©": 4384,
      "ĠØ§Ø³ØªØ¨Ø¹Ø§Ø¯": 4385,
      "ĠØ§ÙĦÙĬÙĩ": 4386,
      "ĠØ¹Ø§ÙħØ©": 4387,
      "ÙĦØ¨ÙĬ": 4388,
      "ĠØ§ÙĦØ«ÙĤØ©": 4389,
      "ĠØ§ÙĦÙħØµØ§Ø±Ùģ": 4390,
      "ĠÙħØ³Ø§ØŃØ©": 4391,
      "ĠÙħØ³Ø§Ø¹Ø¯Ø©": 4392,
      "ĠØ²Ø§Ø¯Øª": 4393,
      "ÙĨØ¯ÙħØ§": 4394,
      "ĠØ§ÙĦÙĦØ§Ø²ÙħØ©": 4395,
      "Ø¯ÙĬÙĨØ§": 4396,
      "ÙĪÙģÙħØ¨Ø±": 4397,
      "ĠØ§ÙĦÙĬÙĪÙħÙĬØ©": 4398,
      "ĠØ§ÙĦÙħØ³ÙĦØŃØ©": 4399,
      "ĠØ§ÙĦÙħØµØ±ÙģÙĬ": 4400,
      "ĠØ¯ÙĪÙĦØ§Ø±Ø§": 4401,
      "ĠØ£ÙĬÙĩ": 4402,
      "ĠÙĥÙĦÙħØ©": 4403,
      "ĠØ§ÙĦÙħØ³ØªØ´ÙģÙī": 4404,
      "ĠØ¨Ø¯ÙĪØ±": 4405,
      "ĠÙĪØ£Ø¶Ø§Ùģ": 4406,
      "ĠØ§ÙĦÙħÙĤØ§Ø¨ÙĦ": 4407,
      "ĠØ§ÙĦÙħØ¹Ø±ÙĪØ¶": 4408,
      "ĠØ£ÙĥØªÙĪØ¨Ø±": 4409,
      "ĠØ§ØŃØªÙĦØ§ÙĦ": 4410,
      "ĠÙĬØ¹ÙĪØ¯": 4411,
      "ØŃÙĪØ§ÙĦ": 4412,
      "ÙĦÙĤØª": 4413,
      "ĠÙĦÙĦÙħØ´Ø§Ø±ÙĥØ©": 4414,
      "ĠØ¨ØŃØ³Ø¨": 4415,
      "Ø¹ÙħÙĦÙĬØ§Øª": 4416,
      "ĠÙħØªØ¹Ø¯": 4417,
      "ĠÙĬØªÙĪÙĤØ¹": 4418,
      "ĠØ§ÙĦØ²ÙħÙĨ": 4419,
      "ÙĪØµÙĪÙĦ": 4420,
      "ĠØ§ÙĦØ§Ø±Ø¯ÙĨ": 4421,
      "Ġ400": 4422,
      "ĠÙĪØ³Ø§Ø¦ÙĦ": 4423,
      "ÙģØ¹ÙĬÙĦ": 4424,
      "ĠØªØ³Ø¬ÙĬÙĦ": 4425,
      "ĠÙĬØ±Ùī": 4426,
      "ĠØ§ÙĦØªÙĨØ¸ÙĬÙħ": 4427,
      "ĠÙĦØŃÙĪØ¯": 4428,
      "ĠØªØ³ØªØ·ÙĬØ¹": 4429,
      "Ġ70": 4430,
      "Ġ1996": 4431,
      "ĠØªØŃØªØ§Ø¬": 4432,
      "Ø¨Ø¯Ø£Øª": 4433,
      "ĠØ¹Ø¨Ø§Ø±Ø©": 4434,
      "ÙĪØ§Ø¶Ø§ÙģØª": 4435,
      "Ø²Ø§ÙĬØ§": 4436,
      "ĠÙĪØ§Ø³Ø¹Ø©": 4437,
      "Ø³Ø±Ø¹Ø©": 4438,
      "ĠØªØ¨Ø§Ø¯ÙĦ": 4439,
      "ĠÙĦØ¯ÙĬÙĩ": 4440,
      "ĠÙĬØµØ¯Ø±": 4441,
      "ĠØ§ÙĦÙĪØŃÙĬØ¯": 4442,
      "ĠÙĦØ§ØŃÙĤØ§": 4443,
      "ĠØ·ÙĨØ·Ø§ÙĪÙĬ": 4444,
      "ĠØ§ÙĦØ±ÙĤÙħ": 4445,
      "ĠØ§ÙĦØºØ°Ø§Ø¡": 4446,
      "ĠÙĬØªØ¹ÙĬÙĨ": 4447,
      "ĠÙĪØ§ÙĦØªØ¬Ø§Ø±Ø©": 4448,
      "ÙĦØ²ÙħØ§Øª": 4449,
      "23": 4450,
      "90": 4451,
      "ÙħÙĤ": 4452,
      "ÙħØ«ÙĦ": 4453,
      "ÙĪØªÙħ": 4454,
      "ÙĪØµØ±ØŃ": 4455,
      "Ø±Ùħ": 4456,
      "Ø±Ø§Ø¬": 4457,
      "ÙĤÙĪØ¯": 4458,
      "ÙĥØ«Ø±": 4459,
      "ĠÙħÙĬ": 4460,
      "ĠÙħÙĤØ¯Ùħ": 4461,
      "ĠÙħØ°ÙĥØ±Ø©": 4462,
      "ĠÙħÙħØ§Ø±Ø³Ø©": 4463,
      "Ø¨ÙĪ": 4464,
      "Ø¨ÙĩØ©": 4465,
      "Ø¹Ø±Ø¨": 4466,
      "ĠÙĪØ§Ø®": 4467,
      "ĠÙĪØ§Ø¶Ø§Ùģ": 4468,
      "ĠØ¨ÙĩÙħ": 4469,
      "ĠØ§ÙĦÙħÙĥØ§ÙĨ": 4470,
      "ĠØ¹ÙĦÙĬÙĨØ§": 4471,
      "ĠØªØ²ÙĬØ¯": 4472,
      "ĠØªØªØ±Ø§ÙĪØŃ": 4473,
      "ØµÙĬÙĦ": 4474,
      "ĠØ£Ø¬ÙĩØ²Ø©": 4475,
      "ĠÙħÙĨØªØ¬": 4476,
      "Ø´ÙĬØ·": 4477,
      "ÙĪÙĦÙĬØ©": 4478,
      "ĠÙĬØ¨Ø¯Ø£": 4479,
      "ĠÙĬØŃØ¯Ø«": 4480,
      "Ø§Ø³ÙĬØ§": 4481,
      "Ø±ÙĬØº": 4482,
      "ĠØ³ÙĦÙħ": 4483,
      "ĠØ³Ø§Ø±Ø³": 4484,
      "ĠØ³ÙĪØ¡": 4485,
      "ĠØ§ÙĦØ¹Ø¨": 4486,
      "ĠØ§ÙĦØ¹Ø´Ø±ÙĬÙĨ": 4487,
      "ĠØ§ÙĦØ¹Ø¯ÙĪ": 4488,
      "ĠÙĪØ§ÙĦØ§ÙĨ": 4489,
      "ĠÙĪØ§ÙĦØ§Ø¹": 4490,
      "ĠÙĪØ§ÙĦÙħØ±": 4491,
      "ĠÙĪØ§ÙĦØµÙĦØ¨": 4492,
      "ĠÙĥØ§ÙĦ": 4493,
      "ĠÙĥØª": 4494,
      "ĠÙĥÙĨØª": 4495,
      "Ø§Ø¨ÙĬÙĨ": 4496,
      "ĠÙĤÙĬØ¯": 4497,
      "ĠÙĤØ§Ø¹Ø¯Ø©": 4498,
      "ØºØ±Ø§Ùģ": 4499,
      "ĠÙĦÙĦØ¨ÙĨÙĥ": 4500,
      "ĠÙĨØ´": 4501,
      "ĠØ¬Ø§Ùħ": 4502,
      "ĠØ¬ÙĬÙħ": 4503,
      "ĠØ¬Ø±Ø§Ø¡": 4504,
      "ĠØ±Ø¯Ø§": 4505,
      "ĠØ®ØªØ§Ùħ": 4506,
      "ĠØ§ÙĦØ¯Ø¹Ùħ": 4507,
      "ĠØ§ÙĦÙĤØ¶": 4508,
      "ĠØ§ÙĦØ¬ÙĪÙĬ": 4509,
      "ĠØ§ÙĦØ¬Ø§Ø±ÙĬØ©": 4510,
      "Ø±Ø¨ÙĪÙĨ": 4511,
      "ĠØ§ÙĦØ´Ø¨ÙĥØ©": 4512,
      "ĠØ§ÙĦØ´Ø¤ÙĪÙĨ": 4513,
      "ĠØ§ÙĦÙĨÙĩØ§ÙĬØ©": 4514,
      "ÙĪØ¨ÙĬÙĨ": 4515,
      "ÙħÙĨØ¹": 4516,
      "ÙħÙĦÙĬØ©": 4517,
      "ÙĤØ¯Ø§Ø±": 4518,
      "Ø§ØµÙĬÙĦ": 4519,
      "ĠØµÙĪØ±": 4520,
      "ĠØµÙĦØ§ØŃ": 4521,
      "ĠØ§ÙĦÙĪØŃØ¯Ø§Øª": 4522,
      "ĠØ·Ø§Ø¦Ø±Ø§Øª": 4523,
      "Ø§ÙĪØ©": 4524,
      "ĠÙĦÙħØ¹": 4525,
      "ØªÙĩÙĬ": 4526,
      "ĠÙħØŃØ·Ø§Øª": 4527,
      "ĠØªØŃÙĤÙĤ": 4528,
      "Ø³ÙĬØ·Ø±": 4529,
      "ÙĤÙĬÙĤÙĬ": 4530,
      "ĠØ§ÙĦØ§ÙħÙĬÙĨ": 4531,
      "ĠØ¶Ùħ": 4532,
      "ĠÙħØ³Ø§Ø¹Ø¯": 4533,
      "ĠØ§Ø¹ÙĤØ§Ø¨": 4534,
      "ĠØ«Ø§ÙĨÙĬ": 4535,
      "ĠØ«Ø§Ø¨Øª": 4536,
      "ĠØ§ÙĦÙħØ³Ø§Ø¹Ø¯Ø§Øª": 4537,
      "ĠØªÙħØª": 4538,
      "ĠØ§Ø³Ø±Ø§Ø¦ÙĬÙĦÙĬ": 4539,
      "ÙĪØ±ÙĬØ¯": 4540,
      "ĠØ§ÙĦÙħØ³ØªÙĪØ·": 4541,
      "ĠØ§ØªØµØ§ÙĦ": 4542,
      "ĠØ§ÙĦÙħÙĤØ§ÙĪÙĦØ§Øª": 4543,
      "ĠØ§ÙĦÙħØ¹ÙĨÙĬØ©": 4544,
      "ĠØ§ÙĦØ§ØªØ¬Ø§Ùĩ": 4545,
      "ØªÙĨØ§ÙĪÙĦ": 4546,
      "ĠÙĬØ¹ØªÙĤØ¯": 4547,
      "ÙĪØ§ÙĨØº": 4548,
      "ĠÙĪØ¬ÙĨÙĪØ¨": 4549,
      "ĠØ§Ø±ØªÙģØ¹": 4550,
      "ĠÙħÙĤØ§Ø¨ÙĦØ©": 4551,
      "Ø«ÙħØ§Ø±Ø§Øª": 4552,
      "ĠØ§ÙĬØ§Ùħ": 4553,
      "ĠØ¬ÙħØ¹": 4554,
      "ÙĪØ·Ø§ÙĦØ¨": 4555,
      "Ø¬ÙĦØªØ±Ø§": 4556,
      "ĠØªØªØ¹ÙĦÙĤ": 4557,
      "ĠØ§ÙĦØ§Ø¹Ø¶Ø§Ø¡": 4558,
      "ĠØ®Ø·ÙĪØ·": 4559,
      "ĠØ³Ø¨Ø¹Ø©": 4560,
      "ĠØ§ÙĦØ¨Ø±Ø§Ø²": 4561,
      "ĠØªØ£ØªÙĬ": 4562,
      "ĠÙĬØªÙħØªØ¹": 4563,
      "Ø·ÙĦØ§Ø¹": 4564,
      "ÙĬÙĥÙĬØ©": 4565,
      "ĠÙĪÙĦÙĪ": 4566,
      "ĠÙĦØ¥ÙĤØ§ÙħØ©": 4567,
      "ĠØ§ÙĦØ¹ÙĤØ§Ø±Ø§Øª": 4568,
      "Ø®Ø·ÙĪØ·": 4569,
      "ĠÙĦÙĦØŃØµÙĪÙĦ": 4570,
      "ĠØ¥Ø¬Ø±Ø§Ø¡Ø§Øª": 4571,
      "ĠØ§ÙĦØ§ØªÙģØ§ÙĤÙĬØ©": 4572,
      "ĠØ§Ø«ÙĨØ§Ø¡": 4573,
      "ĠØ§ÙĦÙĤÙĬÙħØ©": 4574,
      "ĠÙĬØ¯Ø¹ÙĪ": 4575,
      "ĠÙĪØ§ÙĦØ¯Ùĩ": 4576,
      "ĠÙĦØ¹Ø§Ùħ": 4577,
      "ĠÙĨÙĤØ§Ø·": 4578,
      "ĠØ§ÙĦÙĥÙĩØ±Ø¨Ø§Ø¦ÙĬØ©": 4579,
      "ĠØ£Ø¯Ø§Ø¡": 4580,
      "ĠØ¨ÙħÙĨØ§Ø³Ø¨Ø©": 4581,
      "ĠÙĦÙĦØµØŃ": 4582,
      "ĠØ§ÙĦØªÙģØ§ÙĪØ¶": 4583,
      "ĠÙĥØ«ÙĬØ±Ø©": 4584,
      "âĢı": 4585,
      "ĠØ´Ø£ÙĨÙĩØ§": 4586,
      "ĠØ§ÙĦØ§ÙĬØ±Ø§ÙĨÙĬØ©": 4587,
      "ĠÙģÙĩÙĪ": 4588,
      "ĠÙĪØ§ÙĦØºØ§Ø²": 4589,
      "ĠØ§ÙĦØªØ´Ø±ÙĬØ¹ÙĬØ©": 4590,
      "Ø±ÙĪØªÙĪÙĥ": 4591,
      "ĠÙĦØ§ÙģØªØ§": 4592,
      "ĠØ§ÙĦØªÙĤÙĦÙĬØ¯ÙĬØ©": 4593,
      "Ø¯ÙĪÙĨÙĬØ³ÙĬØ§": 4594,
      "ĠØºØ¶ÙĪÙĨ": 4595,
      "ĠÙħØ¹ØªØ¨Ø±Ø§": 4596,
      "26": 4597,
      "28": 4598,
      "ÙĦÙĨØ¯Ø§": 4599,
      "ÙĬØªÙĩ": 4600,
      "Ø§ÙĦØ¬ÙħØ§Ø¹Ø©": 4601,
      "ÙħÙī": 4602,
      "ĠØ§ÙĦØ§Ø¦": 4603,
      "ĠØ§ÙĦÙĩØ¯Ùģ": 4604,
      "ĠØ§ÙĦØ±Ø¨Ø¹": 4605,
      "ÙĪØ§ÙĨØª": 4606,
      "ÙĪØ§Ø¦Ø¯": 4607,
      "Ø±ÙĪØ¨": 4608,
      "Ø±Ø§Ø¹Ø©": 4609,
      "Ø±ØºÙħ": 4610,
      "ÙģÙĨ": 4611,
      "ÙģÙĬØ¯": 4612,
      "ÙģÙĬØ§": 4613,
      "ÙĥÙĬØ©": 4614,
      "ĠÙħØ£": 4615,
      "ĠÙħØ³Ø¨": 4616,
      "ĠÙħØ±Ø§ÙĤ": 4617,
      "Ø¨ÙĪØ¨": 4618,
      "Ø¹ÙħØ§Ø±": 4619,
      "Ø³Ø³": 4620,
      "ĠÙĪØŃØ¯": 4621,
      "ĠØ¨ÙĪÙĤÙģ": 4622,
      "ĠØ¨ÙĪØ±ØµØ©": 4623,
      "ĠÙģØ§Ø²": 4624,
      "ØŃÙĬØ©": 4625,
      "ĠØ§ÙĦÙħØ´Ø§Ø±": 4626,
      "ĠØ§ÙĦÙħØªÙħØ±": 4627,
      "ĠÙĦØ§ÙĬ": 4628,
      "ĠÙĦÙĨØ§": 4629,
      "ĠÙĦØ¶ÙħØ§ÙĨ": 4630,
      "ĠØ¹Ø§ÙĦÙĬØ©": 4631,
      "ĠØ¹ÙĦØ§ÙĤØ©": 4632,
      "Ø¬Ø±Ø§Ø¡": 4633,
      "ĠØªÙĩØ¯Ùģ": 4634,
      "ĠØªØ¨ØŃØ«": 4635,
      "ĠØ£ÙĤØ±": 4636,
      "ĠØ£Ø±Ø§Ø¶ÙĬ": 4637,
      "ĠØ£ÙħÙĪØ§ÙĦ": 4638,
      "ĠÙħÙĨØ¸ÙħØ§Øª": 4639,
      "Ø²ÙĪÙĨ": 4640,
      "ĠÙĬØ£": 4641,
      "Ø§Ø³Ø¹": 4642,
      "ĠØ§ÙĦØªØ®": 4643,
      "Ø®Ø§Ø±ÙĬØ©": 4644,
      "Ø«ÙĦÙĬ": 4645,
      "Ø«Ø§Ø¨Ø©": 4646,
      "Ø«Ø¨Øª": 4647,
      "ĠØ³ØªÙĨ": 4648,
      "ĠØ§ÙĦØ¹ØµØ±": 4649,
      "ĠØ§ÙĦØ¹ÙħØ±": 4650,
      "ĠØ§ÙĦØ¹Ø²ÙĬØ²": 4651,
      "ĠØŃÙĬØ§Øª": 4652,
      "ĠÙĥÙĪÙĨØº": 4653,
      "Ø§Ø¦Ùģ": 4654,
      "Ø§Ø¦Ø±ÙĬ": 4655,
      "ÙĪØ±Ø§ÙĤ": 4656,
      "ĠØ§ÙĦØ£Ø¹Ø¶Ø§Ø¡": 4657,
      "ØºØ±Ø§ÙĤ": 4658,
      "ØºØ¨Ø©": 4659,
      "ĠÙĩÙĨ": 4660,
      "ĠÙĦÙĦØ§ÙĨØª": 4661,
      "ĠÙĦÙĦÙħØ±": 4662,
      "ĠÙĦÙĦÙĪÙĦØ§ÙĬØ§Øª": 4663,
      "ĠØ§ÙĨØ¬": 4664,
      "ĠÙĨÙĬØ¬": 4665,
      "ĠÙĨÙĬØ³Ø§ÙĨ": 4666,
      "ĠØ§ÙĦØ³Ùħ": 4667,
      "ĠØ§ÙĦØ³ÙĬÙĨ": 4668,
      "ĠØ¯ÙĪ": 4669,
      "ĠØ¯Ø§Ø®": 4670,
      "ĠØ§ÙĦØŃØ§ÙĦØ©": 4671,
      "ĠØ±Ùĥ": 4672,
      "ĠØ±ÙĪÙħ": 4673,
      "ĠØ±Ø¦Ø§Ø³Ø©": 4674,
      "ĠØ´Ø§Ø±Ùĥ": 4675,
      "Ø¦ÙĬØ©": 4676,
      "ĠØ§ÙĦØ¯Ø®ÙĦ": 4677,
      "ĠØ§ÙĦØ¨Ø¹Ø¶": 4678,
      "ĠØ§ÙĦÙĤÙĨ": 4679,
      "Ø§Ø¬ÙĬØ©": 4680,
      "ÙĪØ¯Ø§ÙĨ": 4681,
      "ĠØ§ÙĦØ¬ÙĩØ§Øª": 4682,
      "Ø±Ø¨Ø·": 4683,
      "ĠÙħØ¹Ùĩ": 4684,
      "ĠØ¨Ø§ÙĦØº": 4685,
      "ĠØ§ÙĦØ´Ùĩ": 4686,
      "ĠØ§ÙĦÙĨØµØ±": 4687,
      "ĠØ§ÙĦÙģØµØ§Ø¦ÙĦ": 4688,
      "ÙĪØ¨ÙĬ": 4689,
      "Ø§ÙĥØ³": 4690,
      "Ø±ÙĪÙģØ©": 4691,
      "ĠØ§ÙĦØ®ÙĦØ§Ùģ": 4692,
      "ÙĨÙĬÙĩØ§": 4693,
      "ĠØ§ÙĦÙĥÙĬÙħØ§": 4694,
      "ĠÙĦÙħØŃ": 4695,
      "Ø¹ÙĦØ§ÙĤØ§Øª": 4696,
      "ÙħÙĪØ²": 4697,
      "ĠØ§ÙĦØ·Ø±ÙĤ": 4698,
      "ĠØ§ÙĦØ·Ø§ÙĤÙħ": 4699,
      "Ø±Ø§Ø¡Ø©": 4700,
      "ĠÙĪØªØª": 4701,
      "ÙĤØ±Ø§Ø¶": 4702,
      "Ø¯Ø±Ø¬": 4703,
      "Ø¯Ø±Ø§Ø³Ø©": 4704,
      "ĠØ²Ø§ÙĦØª": 4705,
      "Ø¨ÙĬØ¨": 4706,
      "ĠØ§ÙĦÙĦÙĪØ§Ø¡": 4707,
      "ĠÙĪÙħØµ": 4708,
      "ĠÙĪÙħØ¤": 4709,
      "Ø§Ø±ÙĬØ§Øª": 4710,
      "ĠØ§Ø³Ø¹Ø§Ø±": 4711,
      "ĠØ§ÙĦØºØ±Ùģ": 4712,
      "ĠØ§ÙĦØ£ÙħÙĬØ±ÙĥÙĬ": 4713,
      "ĠÙħÙĪØ§ÙĤÙģ": 4714,
      "ĠÙħÙĪØ§ÙģÙĤØ©": 4715,
      "ĠØ§ÙĦÙħØ³ØªØŃ": 4716,
      "ĠØ§ÙĦÙħØ³ØªÙĪØ±": 4717,
      "ĠØ§ÙĦÙħØ³ØªØ´ÙģÙĬØ§Øª": 4718,
      "ĠÙħØµØ§ÙĦØŃ": 4719,
      "ĠØ¨ÙĦØ¯": 4720,
      "ĠÙĪØ¨Ø¹Ø¶": 4721,
      "ĠØªÙĨÙħÙĬØ©": 4722,
      "ĠØ§ØŃØ¯Ùī": 4723,
      "ØªÙĨØ§Ùħ": 4724,
      "ĠØ§ÙĦÙħØªÙĩÙħ": 4725,
      "ĠØ§Ø±ÙĩØ§Ø¨": 4726,
      "ĠØ¨ÙħØ«Ø§Ø¨Ø©": 4727,
      "ĠØ§ÙĦÙĩÙĨØ¯ÙĬ": 4728,
      "Ø®ØµØ©": 4729,
      "ĠÙħØ³ØªØ´Ø§Ø±": 4730,
      "ĠØ§Ø¬Ø±Ø§Ø¡": 4731,
      "ĠÙĦÙĦÙħØŃ": 4732,
      "ĠÙĬØªØ¶ÙħÙĨ": 4733,
      "ĠÙħØ¤Ø³Ø³Ø§Øª": 4734,
      "ĠØ§ÙĦØ§Ø±ØªÙģØ§Ø¹": 4735,
      "Ø§ÙĪØ¶Ø§Ø¹": 4736,
      "ĠØ§ÙĦØ§ÙĨØªÙĤ": 4737,
      "ĠØ§ÙĦØ§Ø¬Ø±Ø§Ø¡Ø§Øª": 4738,
      "ĠØªØ¯Ø±ÙĬØ¨": 4739,
      "ĠØ§ÙĦØ£ÙĪÙĦÙĬØ©": 4740,
      "ĠØ§ÙĦØ§Ø³ØªØ«ÙħØ§Ø±ÙĬØ©": 4741,
      "ĠÙĪÙĨØŃÙĨ": 4742,
      "ĠØ§Ø¨ÙĨ": 4743,
      "ĠØ§Ø¨Ø±": 4744,
      "ĠØŃØ³Ø§Ø¨": 4745,
      "ĠØ§ÙĨØªØ´Ø§Ø±": 4746,
      "Ø¬ÙĨØ¨ÙĬØ©": 4747,
      "Ø¢Øª": 4748,
      "ĠØµØŃØ§ÙģÙĬ": 4749,
      "ĠØ¹Ø¨Ø¯Ø§ÙĦ": 4750,
      "Ġ1997": 4751,
      "ĠØ§Ø¯Ùī": 4752,
      "ÙĪØ§Ø¬Ø¯": 4753,
      "ÙĪØ§Ø¬ÙĩØ©": 4754,
      "ĠØ§Ø¬ØªÙħØ§Ø¹Ø§": 4755,
      "ĠØ§ÙĦØ³ÙĪØ¯Ø§ÙĨÙĬØ©": 4756,
      "ĠÙĦØ´Ø±Ø§Ø¡": 4757,
      "ĠØ§ÙĦØ®Ø·ÙĪØ·": 4758,
      "ĠØ§ÙĦØ¬ÙĨÙĪØ¯": 4759,
      "ĠØ§ÙĦØ¨ÙĬØ§ÙĨØ§Øª": 4760,
      "Ø³ÙĪÙĨÙģÙĬÙĦ": 4761,
      "ĠØ§ÙĦÙħØºØ±Ø¨": 4762,
      "Ø³ØªØ±ÙĦÙĬÙĨÙĬ": 4763,
      "ĠØ§ÙĦØ§ÙĬØ·": 4764,
      "âĢĵ": 4765,
      "ĠÙĤØªÙĦÙĪØ§": 4766,
      "ĠØ§ÙĦÙħÙĦÙĥÙĬØ©": 4767,
      "ĠØµÙģÙĪÙģ": 4768,
      "ĠØ³ÙĬØ¯ÙĨÙĬ": 4769,
      "ĠØ§ÙĦØŃØ¯ÙĬØ«Ø©": 4770,
      "ĠØ·Ø¨ÙĤØ§": 4771,
      "ĠØ¨Ø§ÙĦØ¬ÙĨÙĬÙĩ": 4772,
      "ĠØ§ÙĦØ±ÙĬØ§Ø¶ÙĬØ©": 4773,
      "ĠÙĩØ§ÙħØ´": 4774,
      "ĠØ§Ø±ÙĬÙĬÙĦ": 4775,
      "ĠØ§ÙĦÙĪØ³Ø·Ùī": 4776,
      "ĠÙĪØ²ÙĬØ§Ø¯Ø©": 4777,
      "ĠÙħØ¶ÙĬÙģØ§": 4778,
      "Ø§ÙĬØ³": 4779,
      "Ø§ÙĦÙĩ": 4780,
      "ÙħØ§Ùħ": 4781,
      "ĠØ§ÙĦÙĩØ¯": 4782,
      "ÙĪØ§Ø±ÙĬØ®": 4783,
      "ÙĨØ§ÙħØ¬": 4784,
      "ÙĥÙĪØ±": 4785,
      "ĠÙħØ·Ø§ÙĦØ¨": 4786,
      "ĠÙħÙĬØ§Ùĩ": 4787,
      "Ø¨ÙĪÙĨ": 4788,
      "Ø¨ØºÙĬ": 4789,
      "Ø³ÙĦØ§Ùħ": 4790,
      "ĠÙĪØ¨ÙĦØº": 4791,
      "ĠÙĪØ°ÙĥØ±": 4792,
      "ĠÙĪØµÙģ": 4793,
      "ĠØ¨Ø²ÙĬØ§Ø±Ø©": 4794,
      "Ø§ÙĨØ§Øª": 4795,
      "ĠÙģØ§Ø¹": 4796,
      "ĠØ§ÙĦÙħØªÙħ": 4797,
      "ĠØ§ÙĦÙħØ±Ø©": 4798,
      "ĠØ§ÙĦÙħØ¨ÙĦØº": 4799,
      "ĠØ§ÙĦÙħÙĪØ¬ÙĪØ¯Ø©": 4800,
      "ĠÙĦØ§Øª": 4801,
      "ĠÙĦØ¶": 4802,
      "ĠÙĦÙĦÙĬ": 4803,
      "ĠÙĦØº": 4804,
      "Ø§Ø±ÙĤ": 4805,
      "Ø§Ø±Ø·Ø©": 4806,
      "ĠØ¹Ø§Ø¦ÙĦØ©": 4807,
      "Ø¬ÙĬØ±": 4808,
      "ĠØ£ØµÙĪÙĦ": 4809,
      "ĠØ£Ø¹Ø¯Ø§Ø¯": 4810,
      "ĠÙħÙĨØ§Ø®": 4811,
      "ĠÙħÙĨØªØ¬Ø§Øª": 4812,
      "Ø´ÙĨ": 4813,
      "ÙĪÙĦØ§ÙĬØ©": 4814,
      "ĠÙĬÙĪ": 4815,
      "ĠÙĬØ¶": 4816,
      "Ø§Ø³Ø·Ø©": 4817,
      "ÙĪÙĨØ¬": 4818,
      "ĠØ¥Ø²": 4819,
      "ĠØ¥Ø¨Ø±": 4820,
      "Ø±ÙĬØ¯Ø©": 4821,
      "Ø®ÙĦØ§ÙĦ": 4822,
      "Ø«ÙĤ": 4823,
      "Ø«ÙĪØ±": 4824,
      "ĠØ³Ø§Ùħ": 4825,
      "ĠØ³ØªØ¨": 4826,
      "ĠØ§ÙĦØ¹Ø§Ø¦Ø¯": 4827,
      "ĠÙĪØ§ÙĦØ¨Ø±": 4828,
      "ĠÙĥØ±Ø©": 4829,
      "Ø§Ø¨Ø±": 4830,
      "Ø§Ø¨Ø¶Ø©": 4831,
      "Ø§Ø¦Ø²Ø©": 4832,
      "ĠÙĤØ¶": 4833,
      "ĠÙĤØ§Ø¯Ø±": 4834,
      "ĠÙĤÙĪÙĬØ©": 4835,
      "ĠØ§ÙĦØ£Øº": 4836,
      "ĠØ§ÙĦØ£Ø²ÙħØ©": 4837,
      "ØºÙĦØ§ÙĦ": 4838,
      "ĠÙĩÙħØ§": 4839,
      "ĠÙĦÙĦØ§ÙĨ": 4840,
      "ĠØ§ÙĨØ³": 4841,
      "ĠÙĨÙģ": 4842,
      "ĠØ±Ø¬": 4843,
      "ĠØ±ÙĪØ¯": 4844,
      "ÙĪÙĤØ©": 4845,
      "ÙĪÙĤÙĬØª": 4846,
      "ĠØ®Ø§ÙĦØ¯": 4847,
      "ĠØ´ÙħÙĦ": 4848,
      "Ø§ØŃØ«": 4849,
      "ĠØ§ÙĦØ¨Ø§Ø±": 4850,
      "ĠØ§ÙĦÙĤØµ": 4851,
      "ĠØ§ÙĦÙĤØ·": 4852,
      "ĠØ§ÙĦÙĤØ±ÙĪØ¶": 4853,
      "ĠØ§ÙĦÙĤØ§Ø¦Ùħ": 4854,
      "ÙĬØ³ÙĬ": 4855,
      "ĠÙħØ¹ÙĬÙĨØ©": 4856,
      "ĠÙħØ¹Ø§ÙĩØ¯Ø©": 4857,
      "Ø¹Ø¯ÙĬØ¯": 4858,
      "ĠØ§ÙĦÙĨØµ": 4859,
      "ĠØ§ÙĦÙĨØ´Ø§Ø·": 4860,
      "Ø±ÙĪØŃØ©": 4861,
      "ĠØ§ÙĦØµØ¯Ø¯": 4862,
      "ĠØ§ÙĦØµØ§Ø¯Ø±Ø©": 4863,
      "ĠØ§ÙĦØ®Ø³": 4864,
      "Ø§Ø·Ø±": 4865,
      "ÙĦØ³ÙĬ": 4866,
      "ĠØ§ÙĦØ¥ÙĬØ·": 4867,
      "ĠØ§ÙĦØ¥Ø®ÙĪØ§ÙĨ": 4868,
      "ÙģÙĬÙĬÙĨ": 4869,
      "Ø¨ÙĦØ©": 4870,
      "Ø±Ø§Ø¦Ùħ": 4871,
      "ÙĪØ³ÙĬ": 4872,
      "ĠØ§ÙĦÙħÙĨØª": 4873,
      "ÙħÙĪØ¹Ø§Øª": 4874,
      "ĠØ§ÙĦÙĬÙĪØ±ÙĪ": 4875,
      "ĠØ°Ø§ØªÙĩØ§": 4876,
      "ĠÙħØ¬Ø±Ø¯": 4877,
      "ĠÙĪØªØ¯": 4878,
      "ĠÙĪØªÙĤ": 4879,
      "ÙĪØ¬ÙĩØ©": 4880,
      "ĠØ§ÙĦØ«ÙħØ§ÙĨ": 4881,
      "ĠØ§ÙĦØ«ÙĨØ§Ø¦ÙĬØ©": 4882,
      "ĠØ¨Ø¹Ø¯Ùħ": 4883,
      "ĠØ¶ÙĪØ¡": 4884,
      "Ø¯Ø¯Øª": 4885,
      "ØªØ¨Ø§Ø·": 4886,
      "Ø¨ÙĬØ¹Ø©": 4887,
      "ĠØªØ¹Ø§ÙĪÙĨ": 4888,
      "ĠØ§ÙĦÙĦØ§Ø¦ØŃØ©": 4889,
      "ĠØ§ÙĦÙĦØ§Ø¬Ø¦ÙĬÙĨ": 4890,
      "ĠØ«ÙĤ": 4891,
      "ĠØ«Ø§ÙĦØ«": 4892,
      "Ø§Ø±ÙĬÙĪ": 4893,
      "Ġ33": 4894,
      "ĠØ±Ø¦ÙĬØ³Ø§": 4895,
      "ĠÙħØµÙĨØ¹": 4896,
      "ĠØ¨ÙĦØ§Ø¯": 4897,
      "ĠØ¨ÙĦØ¯Ø©": 4898,
      "ĠØ£ÙĥØ¯Øª": 4899,
      "ĠØ§ÙĦØ¥Ø³Ø±Ø§Ø¦ÙĬÙĦÙī": 4900,
      "ÙĨØªØ³": 4901,
      "ĠØ¨ÙħØ¹": 4902,
      "ĠØ¨ÙħØ¯ÙĬÙĨØ©": 4903,
      "ĠØ§ÙĦÙĩÙĬ": 4904,
      "ĠØªØ´ØºÙĬÙĦ": 4905,
      "ÙĬØ§ÙĨØ§": 4906,
      "ĠØ§ÙĩÙħÙĬØ©": 4907,
      "ĠØ§ÙĦÙħÙĪØ§ÙĤÙģ": 4908,
      "ĠØ§ÙĦØ¬ÙħÙĩÙĪØ±ÙĬ": 4909,
      "ĠØªØ±Ø§Ø¬": 4910,
      "ĠÙĬØªØ·ÙĦØ¨": 4911,
      "ĠÙħØ¨Ø§Ø´Ø±": 4912,
      "ĠÙħØ¤Ø³Ø³Ø©": 4913,
      "ĠØ§ÙĦØ§Ø±Ø§Ø¶ÙĬ": 4914,
      "ĠØ²ÙĬØ§Ø±ØªÙĩ": 4915,
      "ĠØ§ÙĦØ¹ÙħÙĦØ©": 4916,
      "ĠØ§ÙĦÙħØ¯ÙĨÙĬØ©": 4917,
      "ĠØ§ÙĦØ¶Ø±Ø§Ø¦Ø¨": 4918,
      "ĠØ§ÙĦØ§Ø¹ÙĦØ§Ùħ": 4919,
      "ĠØ§ÙģØ§Ø¯": 4920,
      "Ø§ØºØ©": 4921,
      "ĠØ§ÙĦØ§Ø¬Ø§ÙĨØ¨": 4922,
      "ĠØ§ÙĦØ§Ø¬ÙĨØ¨ÙĬØ©": 4923,
      "ĠØ¨ØªÙĥ": 4924,
      "Ø·ÙĦØ¹": 4925,
      "ĠØ¸Ø§ÙĩØ±Ø©": 4926,
      "ĠØ§ÙĦÙħØ¨Ø§Ø¯Ø±Ø©": 4927,
      "ĠØ§ÙĦÙħØ¨Ø§ØŃØ«Ø§Øª": 4928,
      "ĠÙħØ´Ø±ÙĪØ¹Ø§": 4929,
      "ĠØ£ÙĦÙģØ§": 4930,
      "ĠÙĦØ£ÙĬ": 4931,
      "ĠÙĦØ£ÙĪÙĦ": 4932,
      "ĠØ¨ÙĪØ§Ø³Ø·Ø©": 4933,
      "ĠÙħØ³Ø¤ÙĪÙĦÙĪÙĨ": 4934,
      "ĠÙĤØ±Ø±Øª": 4935,
      "ĠØ§Ø¬ØªÙħØ§Ø¹Ø§Øª": 4936,
      "Ø®Ø¯ÙħØ§Øª": 4937,
      "ĠÙĬØ¤Ø«Ø±": 4938,
      "ĠØ§ÙĦÙĤØ¯Ø±Ø©": 4939,
      "ĠØ¨ÙĤÙĪØ©": 4940,
      "ĠØ§ÙĦØ§ÙģØ±ÙĬÙĤÙĬØ©": 4941,
      "ĠØ§ÙĦØ¬ÙĨØ±Ø§ÙĦ": 4942,
      "ĠØªØªÙħØªØ¹": 4943,
      "ĠÙĦØ¬Ø§ÙĨ": 4944,
      "Ġ2010": 4945,
      "ĠØ§ÙĦØ´Ø¹Ø¨ÙĬ": 4946,
      "ĠØ£ÙħØ±ÙĬÙĥÙĬ": 4947,
      "ĠØ£ÙħØ±ÙĬÙĥÙĬØ©": 4948,
      "ĠÙĦØ§Ø¹Ø¨": 4949,
      "ĠØ§ÙĦØ§Ø·Ø±Ø§Ùģ": 4950,
      "ĠØ§ÙĦØ£ØŃØ²Ø§Ø¨": 4951,
      "ÙĩÙĬÙĦØ§Øª": 4952,
      "ĠÙĪØ§ÙĦÙħÙĨØªØ¬Ø§Øª": 4953,
      "ĠØ§ÙĦØ·Ø¨ÙĬØ¹ÙĬØ©": 4954,
      "ĠÙĦØ¯Ø¹Ùħ": 4955,
      "ĠØ¬Ø§ÙĥØ³ÙĪÙĨÙģÙĬÙĦ": 4956,
      "ĠØ§ÙĦÙħØ·ÙĦÙĪØ¨Ø©": 4957,
      "Ø·Ø§ÙĦØ¨Ø©": 4958,
      "ĠÙĦØ¹Ø¯Ùħ": 4959,
      "ĠØ±ØŃÙĦØ§Øª": 4960,
      "Ø§ÙĦØªÙĩØ§Ø¨": 4961,
      "ĠØ¨Ø§ÙĦÙĥØ§ÙħÙĦ": 4962,
      "ĠÙĦØªÙħÙĪÙĬÙĦ": 4963,
      "ĠÙģØ§Ø¬Ø¨Ø§ÙĬÙī": 4964,
      "ĠØ§ÙĦÙĥÙĪÙĬØªÙĬ": 4965,
      "ĠØ§ÙĦÙĥÙĪÙĨØºÙĪ": 4966,
      "ØºØ§ÙĨØ³ØªØ§ÙĨ": 4967,
      "24": 4968,
      "27": 4969,
      "36": 4970,
      "38": 4971,
      "ĠA": 4972,
      "Ø§ÙĩÙħØ©": 4973,
      "Ø§ÙĦØ¨ÙĬ": 4974,
      "Ø§ÙĦØºØ©": 4975,
      "ĠØ§ÙĦÙĪØ±": 4976,
      "ĠØ§ÙĦØ§Ø¶": 4977,
      "ÙĪØ§Ø´ÙĨØ·ÙĨ": 4978,
      "ØªØªØŃ": 4979,
      "ØªÙĨØ§": 4980,
      "ØªÙĤØ±ÙĬØ±": 4981,
      "Ø¯Ø£": 4982,
      "ĠÙħØ§ÙĨ": 4983,
      "ĠÙħÙĬÙĨ": 4984,
      "ĠÙħÙĬØ´": 4985,
      "ĠÙħØªØŃØ¯Ø«": 4986,
      "Ø¨Ø§": 4987,
      "Ø¹ÙĬÙĨ": 4988,
      "Ø¹ÙĥØ³": 4989,
      "ĠÙĪØ§Ø¯": 4990,
      "ĠØ¨ÙĨÙĬ": 4991,
      "ĠØ¨Ø³Ø¹Ø±": 4992,
      "ĠÙģØ£": 4993,
      "ĠÙģÙĪØ±": 4994,
      "ĠÙģØ±ÙĤ": 4995,
      "ØŃØ²Ø¨": 4996,
      "ĠØ§ÙĦÙħÙĤØ¯": 4997,
      "ĠÙĦØªØ¬": 4998,
      "ĠØ¹ÙħØ§ÙĨ": 4999,
      "Ø¬ÙĪ": 5000,
      "ĠØªÙĪØ¬Ùĩ": 5001,
      "ĠØ£ÙĦ": 5002,
      "ĠØ£Ø¹Ø¯": 5003,
      "ĠØ£ÙĦØ§": 5004,
      "Ø·ÙĤ": 5005,
      "Ø·Ø¨ÙĬÙĤ": 5006,
      "ĠÙħÙĨØ´": 5007,
      "ĠÙħÙĨØ²ÙĦ": 5008,
      "Ø´ÙĬØ¯": 5009,
      "Ø²Øª": 5010,
      "ĠÙĬØ·Ø§ÙĦØ¨": 5011,
      "Ø§Ø³ÙĬÙĬÙĨ": 5012,
      "ĠØ§ÙĦØªÙĤØ¯Ùħ": 5013,
      "ĠØ§ÙĦØªØ§Ø¨Ø¹": 5014,
      "ĠØ¥ÙĬØ±": 5015,
      "Ø£ÙĦ": 5016,
      "Ø«Ø±Ø©": 5017,
      "ĠØ³ØŃØ¨": 5018,
      "ĠØ³ÙĦØ§ÙĦØ©": 5019,
      "ĠØ§ÙĦØ¹Ø¶": 5020,
      "ĠØ§ÙĦØ¹Ø§ÙĦÙĬ": 5021,
      "ĠØ§ÙĦØ¹Ø¯ÙĦ": 5022,
      "ĠØŃØ¸Ø±": 5023,
      "ĠÙĪØ§ÙĦØ¢": 5024,
      "ĠÙĤÙĦ": 5025,
      "ĠÙĤØµØ±": 5026,
      "ĠØ§ÙĦØ£ÙĤÙĦ": 5027,
      "ØºØ§Ø¯Ø±": 5028,
      "ĠÙĩØ§ÙĨ": 5029,
      "ĠØ§ÙĨÙĤØ§Ø°": 5030,
      "ĠØ§ÙĨØ®ÙģØ¶": 5031,
      "ĠÙĨØŃÙĨ": 5032,
      "ĠØ¬ÙĬØ¯Ø©": 5033,
      "ĠØ¬Ø°Ø¨": 5034,
      "ĠØ¯Ø¨": 5035,
      "ĠØ¯Ø§Ø¦Ø±Ø©": 5036,
      "ĠØ±ÙĪØ¨": 5037,
      "ĠØ®Øµ": 5038,
      "ĠØ§ÙĦØ¯ÙħØ§Ø±": 5039,
      "ĠØ§ÙĦØ¨Ø§ÙĥØ³Øª": 5040,
      "Ø±ÙĥÙĬØ§": 5041,
      "ĠØ§ÙĦÙĤØ±ÙĬØ¨Ø©": 5042,
      "ĠØ§ÙĦÙĤÙĦÙĬÙĦØ©": 5043,
      "Ø³ØªÙħØ±": 5044,
      "ÙĪØ¯Ø§Ø¦Ø¹": 5045,
      "ĠØ§ÙĦÙĨÙĬÙĦ": 5046,
      "ĠØ§ÙĦÙģØª": 5047,
      "ĠØ§ÙĦÙģØ¶Ø§Ø¦ÙĬØ©": 5048,
      "Ø§ÙĬÙħ": 5049,
      "ĠØ§ÙĦØµØ¹": 5050,
      "Ø¨Ø±Ø±": 5051,
      "Ø¨Ø±ÙĨØ§ÙħØ¬": 5052,
      "Ø§Ø·ÙĦØ§ÙĤ": 5053,
      "ĠØµÙĪØ±Ø©": 5054,
      "ĠØµÙĨØ¹": 5055,
      "ĠØ§ÙĦØ¥Ø±ÙĩØ§Ø¨": 5056,
      "ĠØ§ÙĦØ±Ø¤": 5057,
      "ĠØ§ÙĦØ±Ø£ÙĬ": 5058,
      "ĠØ§ÙĦÙĪØµÙĪÙĦ": 5059,
      "ĠØºØ±ÙģØ©": 5060,
      "ÙĬÙħÙĪÙĨ": 5061,
      "ÙĬÙħÙĪÙĤØ±Ø§Ø·": 5062,
      "Ø§ÙĪÙģ": 5063,
      "ĠÙĦÙħÙĪØ§Ø¬ÙĩØ©": 5064,
      "Ø¹ÙĦØ§Ø¬": 5065,
      "ĠØ§Ø³ØªÙĤØ¨Ø§ÙĦ": 5066,
      "ĠØ³ÙĬØª": 5067,
      "ĠØ³ÙĬØ¤Ø¯ÙĬ": 5068,
      "ĠÙħØŃÙĦ": 5069,
      "ĠØªØŃØ±Ùĥ": 5070,
      "ÙĪØ¬ÙĩØ§": 5071,
      "ĠØ§ÙĦØ«ÙĪØ±Ø©": 5072,
      "ĠØ§ÙĦØ§Ø³ÙĦØ§Ùħ": 5073,
      "ĠØ§ÙĦØ§Ø³ÙĥØª": 5074,
      "ĠØ§ÙĦØ§Ø³ØªÙĬØ±Ø§Ø¯": 5075,
      "ĠØ§ÙĦØ§Ø³ØªÙģØ§Ø¯Ø©": 5076,
      "ĠØ§ÙĦÙħØ³ÙĦØŃ": 5077,
      "Ġ36": 5078,
      "Ø±ÙĤØ§Ùħ": 5079,
      "ĠØ§ÙĦÙħØµØ±ÙģÙĬØ©": 5080,
      "ĠÙĥÙĦÙĬØ©": 5081,
      "Ġ195": 5082,
      "ĠÙħÙĪØ§Ø¯": 5083,
      "ØŃÙĪØ«": 5084,
      "ĠØ§ÙĦØªØ¬Ø§Ø±": 5085,
      "ĠØ§ÙĦÙħØªØ·": 5086,
      "ĠØ§ÙĦÙħØ¬Ø§ÙĪØ±Ø©": 5087,
      "ĠØ§ÙĦØ¬ÙħÙĬØ¹": 5088,
      "ĠØ§ÙĦØ¨ÙĨØ²ÙĬÙĨ": 5089,
      "ĠØ§ÙĦØ§ÙĨÙģ": 5090,
      "ĠØ§ÙĦØ²Ø¹ÙĬÙħ": 5091,
      "ĠØ¬ÙħØ§Ø¹Ø©": 5092,
      "ÙģØ±Øª": 5093,
      "ÙĤØ¨Ø§Ø·": 5094,
      "ĠØ§ÙĦØ£Ø³Ø¯": 5095,
      "ĠÙĪØ¹ÙĨ": 5096,
      "ÙĤØ·Ø§Ø¨": 5097,
      "ĠØªØ³ÙĦÙĬÙħ": 5098,
      "Ø±ÙĬØ·Ø§ÙĨÙĬØ©": 5099,
      "Ø§Ø¦ÙĦØ§Øª": 5100,
      "ĠØ§ÙĤØªØ±Ø§ØŃ": 5101,
      "ĠØªØ£ÙĥÙĬØ¯": 5102,
      "ĠÙĪÙĨØµÙģ": 5103,
      "ÙĦÙĨØ¯ÙĬ": 5104,
      "ÙĬÙĥÙĬ": 5105,
      "ĠÙĬØ¬Ø¹ÙĦ": 5106,
      "ĠÙĪØ£ÙĨÙĩ": 5107,
      "ĠÙĦÙĬØµÙĦ": 5108,
      "ĠØ§Ø´ÙĩØ±": 5109,
      "Ø±ÙĬØŃØ§Øª": 5110,
      "ĠÙĬØ³ØªØ¨Ø¹Ø¯": 5111,
      "ĠÙħØ³Ø¤ÙĪÙĦÙĬØ©": 5112,
      "ĠÙĤØ±Ø±": 5113,
      "ĠÙĦØ£ÙĨÙĩ": 5114,
      "ĠÙħÙħØ§Ø«": 5115,
      "ĠÙĦØ¹ÙĤØ¯": 5116,
      "ĠÙĦÙħÙĨØ¸ÙħØ©": 5117,
      "ĠØ§ÙĦØ±Ø³ÙħÙĬ": 5118,
      "ĠØ§ÙĦØªØ±Ø´ÙĬØŃ": 5119,
      "ĠØ¨ÙĤÙĬØ§Ø¯Ø©": 5120,
      "ĠØ§ÙĦØ£ÙĨØ´Ø·Ø©": 5121,
      "Ø±Ø§ØªÙĬØ¬ÙĬ": 5122,
      "ĠÙĨØ³Ø®Ø©": 5123,
      "Ø²ÙĪÙĬØ¯": 5124,
      "ĠÙĬØªØ¹Ø±Ø¶": 5125,
      "ĠÙģÙĩÙĬ": 5126,
      "ĠÙĤØµÙĬØ±Ø©": 5127,
      "ĠØ§ÙĦÙħØ¹Ø¯ÙĨÙĬØ©": 5128,
      "Ġ1967": 5129,
      "ĠØ§ÙĦÙħØ±Ø¶Ùī": 5130,
      "ĠØ§ÙĦØ«ÙĤØ§ÙģØ©": 5131,
      "ĠØ§ÙĦØ§ÙĩØªÙħØ§Ùħ": 5132,
      "ĠØ§ÙĦØ¨Ø¯Ø¡": 5133,
      "ĠØ§ÙĦÙĨÙĬØ§Ø¨Ø©": 5134,
      "ÙĬØ¯Ø±Ø§ÙĦÙĬØ©": 5135,
      "ĠØ§ÙĦØµÙģÙĤØ©": 5136,
      "ĠØ§ÙĦØ¥Ø¯Ø§Ø±ÙĬØ©": 5137,
      "ĠØ§ÙĦØ³Ø§Ø¯Ø³": 5138,
      "ĠØ§ÙĨØ¬ÙĦÙĬØ³": 5139,
      "29": 5140,
      "37": 5141,
      "40": 5142,
      "ÙĬÙĤØ©": 5143,
      "ÙħØ§Ø¹": 5144,
      "ÙħÙĬØ¯": 5145,
      "ÙħÙĪØ³ÙĥÙĪ": 5146,
      "ĠØ§ÙĦØ§Ø°Ø§Ø¹Ø©": 5147,
      "ÙĨØŃÙĨ": 5148,
      "ÙģØ§ÙĨ": 5149,
      "ÙĩØ§Ø¯": 5150,
      "ÙĥÙĬØ±": 5151,
      "ÙĥÙĪØ±Ø¯": 5152,
      "ĠÙħØ¯Ø©": 5153,
      "ĠÙħÙĩÙħØ§": 5154,
      "ĠÙħØ§Ø±Ùĥ": 5155,
      "ĠÙħØ²ÙĬØ¯": 5156,
      "ĠÙħØ¨Ø¯Ø£": 5157,
      "Ø¨Ø±Ø©": 5158,
      "ĠÙĪÙĨÙĬ": 5159,
      "ĠÙĪØ·Ø§ÙĦØ¨": 5160,
      "ĠØ¨ÙĬØ¯": 5161,
      "ĠØ¨Ø±ÙĪ": 5162,
      "ĠØ¨ØªÙĨ": 5163,
      "ĠØ¨Ø±ÙĪØªÙĪÙĥ": 5164,
      "ĠÙģØ§Ø¦Ø¯Ø©": 5165,
      "ĠØ§ÙĦÙħØ±Ø§ÙĤ": 5166,
      "ĠØ§ÙĦÙħØ´Ø±": 5167,
      "ĠØ§ÙĦÙħÙĬØ«": 5168,
      "ĠÙĦØªÙģ": 5169,
      "ĠÙĦÙĪÙĤÙģ": 5170,
      "ĠØªÙĪØ±": 5171,
      "ĠØªÙĪÙĤØ¹": 5172,
      "ĠØªÙģØ¹ÙĬÙĦ": 5173,
      "ĠÙģÙĬÙĩÙħ": 5174,
      "ĠØ£ÙĬØ©": 5175,
      "ĠØ£Ø·": 5176,
      "ĠØ£ÙħÙĦ": 5177,
      "ĠÙħÙĨÙģ": 5178,
      "ÙĪÙĦÙĬØ¯": 5179,
      "ÙĪÙĨØª": 5180,
      "ĠØ§ÙĦØªØ§ÙĬ": 5181,
      "ĠØ¥Øµ": 5182,
      "Ø±ÙĬØ¨ÙĬØ©": 5183,
      "Ø®Ø§Ø±": 5184,
      "ĠØ³ØªÙĬ": 5185,
      "ĠØ³Ø¯Ø§Ø¯": 5186,
      "ĠØŃØ§Ø¯Ø«": 5187,
      "ĠÙĪØ§ÙĦØ³Ø¹ÙĪØ¯ÙĬØ©": 5188,
      "Ø°Ø§Ø±": 5189,
      "Ø°ÙĬÙĨ": 5190,
      "ĠÙĥØ£": 5191,
      "Ø§Ø¨Ø·": 5192,
      "Ø§Ø¦ØŃ": 5193,
      "ĠÙĤØ§Ø¯Ø±Ø©": 5194,
      "ĠÙĤÙĪØ§ÙĨÙĬÙĨ": 5195,
      "ĠÙĩÙĪÙĨØº": 5196,
      "ĠÙĦÙĦÙĩ": 5197,
      "ĠÙĦÙĦØ¨ÙĦ": 5198,
      "ĠØ§ÙĦØ³Ø±ÙĬØ¹": 5199,
      "ĠØ¬Ø±": 5200,
      "ĠØ¬ÙĨÙĬÙģ": 5201,
      "ĠØ¯ÙĬØ±": 5202,
      "ĠØ¯ÙĬÙĪÙĨ": 5203,
      "ĠØ¯ÙģØ§Ø¹": 5204,
      "ĠØ§ÙĦØŃØ¸Ø±": 5205,
      "ĠØ§ÙĦØŃØµØ§Ø±": 5206,
      "ĠØ±ÙħÙĪØ²": 5207,
      "ÙĪÙĤØ¹Ø©": 5208,
      "ĠØ®ÙĦ": 5209,
      "ĠØ´ÙĬØ±": 5210,
      "ĠØ§ÙĦØ¯Ø®ÙĪÙĦ": 5211,
      "ĠØ§ÙĦØ¨Ø´Ø±": 5212,
      "ĠØ§ÙĦØ¨ÙĬØ¦Ø©": 5213,
      "ĠØ§ÙĦÙĤÙĪÙĦ": 5214,
      "ÙĪØ¯Ø¹Ø§": 5215,
      "Ø±Ø¨Øª": 5216,
      "ĠÙħØ¹ÙĩÙħ": 5217,
      "ĠØ¨Ø§ÙĦÙħØ±": 5218,
      "ĠØ¨Ø§ÙĦØ§Ø¶Ø§ÙģØ©": 5219,
      "ĠØ§ÙĦØ´ÙĪØ±Ùī": 5220,
      "ĠØ¹ÙĨÙĪØ§ÙĨ": 5221,
      "ĠØ§ÙĦÙĨØµÙģ": 5222,
      "ĠØ§ÙĦÙģÙĦ": 5223,
      "ĠØ§ÙĦÙģÙĪØ±": 5224,
      "ĠØ§ÙĦÙģÙĨÙĬØ©": 5225,
      "ÙĪØ¨Ø§": 5226,
      "Ø§ÙĥÙĨ": 5227,
      "Ø¤Ø§Ø¯": 5228,
      "ĠØ§ÙĦØ®ÙĦ": 5229,
      "ĠØ§ÙĦØ®Ø²": 5230,
      "ĠØ§ÙĦØ®Ø·Ø©": 5231,
      "Ø§ØµØ±ÙĬ": 5232,
      "ĠØ§ÙĦØ¥Ø¹ÙĦØ§ÙĨ": 5233,
      "ĠØ§ÙĦÙĪØ³": 5234,
      "ĠØ§ÙĦÙĪØ¬": 5235,
      "ĠØ·ÙĪÙĦ": 5236,
      "ØªØ±Ø§Ø¬Ø¹": 5237,
      "ĠØ§ÙĦÙĥØ±ÙĬÙħ": 5238,
      "Ø§ÙĩØ¶Ø©": 5239,
      "Ø¹ÙĦÙħØª": 5240,
      "ĠØ§Ø³ØªÙĤÙĦØ§ÙĦ": 5241,
      "ĠØ§ÙĦØ·ÙĦØ§Ø¨": 5242,
      "ĠØ¯ÙĪÙĦÙĬ": 5243,
      "ĠØ°Ø§ØªÙĩ": 5244,
      "ÙĦØ§ÙĬØ§": 5245,
      "Ø§ÙĦÙĬØ¨": 5246,
      "ĠØ²Ø§ÙĦ": 5247,
      "ĠØªØ¹ÙĪØ¯": 5248,
      "ĠØ¨ÙĨÙģØ³": 5249,
      "ĠØ§ÙĦØ§Ø³Ø§Ø³ÙĬØ©": 5250,
      "ĠØ§ÙĦØ§Ø³ÙħÙĨØª": 5251,
      "ĠØ§Ø³ÙĦØ§Ùħ": 5252,
      "Ø¯ÙħÙĬØ±": 5253,
      "ĠÙĪÙĩÙĨØ§Ùĥ": 5254,
      "ĠØ§ÙĦØ£ÙħÙĬØ±": 5255,
      "ĠÙħØµØ§ÙĨØ¹": 5256,
      "ĠÙĪØ£ÙĥØ¯": 5257,
      "ĠØ§ÙĦØ³ÙĬØ§ØŃÙĬØ©": 5258,
      "ØŃÙĪØ§Ø±": 5259,
      "ĠØ¨ÙħÙĤØ¯Ø§Ø±": 5260,
      "ĠØ§ÙĦÙĩÙĪØ§Ø¡": 5261,
      "ĠØªØ´ÙĬØ±": 5262,
      "ĠØªÙĤÙĦÙĬ": 5263,
      "ĠÙĪÙĬØŃ": 5264,
      "ĠØªØµØ¯Ø±": 5265,
      "ĠØªØ¬Ø§Ø±ÙĬØ©": 5266,
      "ÙĬÙĪØ®": 5267,
      "ÙĪØ¶ØŃØª": 5268,
      "ÙĤØ§ÙĪÙħØ©": 5269,
      "ĠØªØªÙĪÙĦÙī": 5270,
      "ĠØ®Ø·ÙĪØ©": 5271,
      "Ø§ÙĦØ¨Ø§": 5272,
      "ĠÙħØ¯Ø§Ø±Ø³": 5273,
      "ĠÙĬØŃÙĤÙĤ": 5274,
      "Ø®ØªØ§Ø±": 5275,
      "ĠØ§ÙĦØ§ÙĨØªÙĩØ§Ø¡": 5276,
      "ĠØªØ¯Ø§Ø¹ÙĬØ§Øª": 5277,
      "ĠØªØ£ÙħÙĬÙĨ": 5278,
      "ĠØ§ÙĨØªØ§Ø¬": 5279,
      "ĠÙĦØŃÙĤÙĪÙĤ": 5280,
      "Ø±ØŃÙī": 5281,
      "Ġ75": 5282,
      "ÙĪÙĬØ±Ùī": 5283,
      "ĠÙħÙģØª": 5284,
      "ĠÙħØ³Ø¤ÙĪÙĦÙĬÙĨ": 5285,
      "Ø³ÙĦØ¹": 5286,
      "ĠØ¨Ø§Ø±ÙĨØªØ³": 5287,
      "ĠØ§ÙĪÙĦÙī": 5288,
      "ĠØ«ÙħØ§ÙĨÙĬØ©": 5289,
      "ĠØ¢Ø®Ø±ÙĬÙĨ": 5290,
      "ĠØ§ÙĦØ¬Ø²Ø¡": 5291,
      "ĠÙĦÙĦØ¹ÙħÙĦ": 5292,
      "ĠÙĦØ£ÙĨÙĩØ§": 5293,
      "ÙĩØ±Ø¨Ø§Ø¡": 5294,
      "ĠØ§ÙĦØ¥ÙĨØªØ±ÙĨØª": 5295,
      "ĠØ·ÙĦØ¨Ø§Øª": 5296,
      "ĠÙĨÙĤØ·Ø©": 5297,
      "ĠÙĪØ§ÙĦØµÙĨØ§Ø¹Ø©": 5298,
      "ĠØ§ÙĦÙĩÙĨØ¯Ùī": 5299,
      "ĠÙĪØ®Ø§ØµØ©": 5300,
      "Ø·ÙĦÙĤØª": 5301,
      "199": 5302,
      "ÙĪØ£ÙĥØ¯Øª": 5303,
      "ĠÙĦØ¯ÙĬÙĩÙħ": 5304,
      "Ø¸ÙĩØ±Øª": 5305,
      "ĠÙĬØµØ¨ØŃ": 5306,
      "ĠÙħÙĪØ³Ùī": 5307,
      "ĠØªØ¹Ø¯ÙĬÙĦ": 5308,
      "ĠØ¨ÙħÙĨØ·ÙĤØ©": 5309,
      "ĠØ§ÙĦØªØ¯Ø®ÙĦ": 5310,
      "ĠØ§ÙĦØ£ÙĨØ¨Ø§Ø¡": 5311,
      "ĠÙĥÙħÙĬØ§Øª": 5312,
      "ÙģØ§Ø¡Ø©": 5313,
      "ĠÙĪØ¥ÙĨÙħØ§": 5314,
      "ĠØŃÙĬØ§ÙĦ": 5315,
      "ĠØŃÙĬØ§Ø©": 5316,
      "ĠÙĦÙĦÙģÙĦØ³Ø·ÙĬÙĨÙĬÙĬÙĨ": 5317,
      "ĠØŃÙħØ§Ø³": 5318,
      "ĠÙĪØ§ÙĦØ«ÙĤ": 5319,
      "ĠØ§ÙĦØ§ÙĪØ±ÙĪØ¨ÙĬØ©": 5320,
      "ĠØ§ÙĦÙħØ³ÙĬØŃÙĬØ©": 5321,
      "ĠÙħÙĨØµØ¨": 5322,
      "ĠÙĪØ§Ø±ØªÙģØ§Ø¹": 5323,
      "ÙĦØ¹Ø§Ø¨": 5324,
      "Ø§Ø¯ÙĬÙħÙĬØ±": 5325,
      "ĠØ±ÙĬØ§ÙĦ": 5326,
      "ĠØ§ÙĦØµÙĩÙĬÙĪÙĨÙĬØ©": 5327,
      "ĠØ§ÙĦØªÙĪÙĨØ³ÙĬ": 5328,
      "ĠØ§ÙĦÙħÙģÙĪØ¶ÙĬØ©": 5329,
      "ĠÙĨÙĬØ¬ÙĬØ±ÙĬØ§": 5330,
      "ØĽ": 5331,
      "ĠØ§Ø¶Ø§Ùģ": 5332,
      "Ø§ÙĪØ¨Ùĥ": 5333,
      "ÙĬÙĬØ¯": 5334,
      "Ø§ÙĦØŃØ©": 5335,
      "Ø§ÙĦØ¬Ø©": 5336,
      "ÙĪÙĩØ§": 5337,
      "ÙĪÙĬØ¯": 5338,
      "ÙĪØ§Ø·": 5339,
      "ØªØµØ±": 5340,
      "ÙģÙĬØ±": 5341,
      "ÙģÙĤØ¯": 5342,
      "ÙĤÙģ": 5343,
      "ÙĤÙĪØ³": 5344,
      "ÙĩÙĦØ©": 5345,
      "ÙĥÙħØ§ÙĦ": 5346,
      "ĠÙħØ¶": 5347,
      "ĠÙħØªÙħ": 5348,
      "ĠÙħÙĦÙĥ": 5349,
      "ĠÙħØ¨ÙĦØº": 5350,
      "ĠÙħÙĪØ¬ÙĪØ¯": 5351,
      "ĠÙħØ±Ø§ÙĤØ¨Ø©": 5352,
      "Ø³ÙĬÙĬÙĨ": 5353,
      "ĠÙĪØ§Ø´": 5354,
      "ĠÙĪØ±ÙĪØ³ÙĬØ§": 5355,
      "ĠØ¨ØªØµ": 5356,
      "ĠØ¨ÙĬØª": 5357,
      "ĠÙģØµÙĦ": 5358,
      "ØŃØ§Øª": 5359,
      "ĠØ§ÙĦÙħØ¯Ùī": 5360,
      "ĠÙĦØ§Ø¨": 5361,
      "ĠÙĦÙĬÙĦ": 5362,
      "ĠÙĦØ§Øµ": 5363,
      "ĠÙĦÙĤÙĬ": 5364,
      "ĠÙĦØ±ÙģØ¹": 5365,
      "ĠÙĦØ¯ÙĬÙĨØ§": 5366,
      "Ø§Ø±ÙĤØ©": 5367,
      "Ø§Ø±Ø¨ÙĬÙĨ": 5368,
      "ĠØ¹Ø§Ø¦Ø¯": 5369,
      "ĠØªÙĤØ¯": 5370,
      "ĠØªÙģØ³": 5371,
      "ĠØªØ¸ÙĩØ±": 5372,
      "ÙĬÙĨØª": 5373,
      "ĠÙģÙĬÙĦÙħ": 5374,
      "ØµØ¨ØŃ": 5375,
      "ĠØ£Ø¹ÙĦÙĨØª": 5376,
      "Ø·ÙĦØ©": 5377,
      "ÙĪÙĦØ¯": 5378,
      "ĠÙĬÙĪØ§Ø¬Ùĩ": 5379,
      "ĠÙĬØªØŃØ¯Ø«": 5380,
      "ÙĪÙĨÙĬØ§": 5381,
      "ĠØ§ÙĦØªØºÙĬÙĬØ±": 5382,
      "ĠØ§ÙĦØªØ¬ÙħØ¹": 5383,
      "ĠØ§ÙĦØªÙĪÙĤØ¹Ø§Øª": 5384,
      "ĠØ¥ÙĬ": 5385,
      "Ø±ÙĬÙħØ©": 5386,
      "Ø±ÙĬØ¨ÙĬ": 5387,
      "Ø®Ø¨Ø©": 5388,
      "ĠØ³Ø¨ÙĦ": 5389,
      "ĠØ§ÙĦØ¹ÙĬÙĪÙĨ": 5390,
      "ĠØŃØ¬": 5391,
      "ĠØŃØ§ÙĪÙĦ": 5392,
      "ĠÙĪØ§ÙĦÙĦ": 5393,
      "ĠÙĪØ§ÙĦØªØŃ": 5394,
      "ĠÙĪØ§ÙĦØªØ¹Ø§ÙĪÙĨ": 5395,
      "Ø°Ø©": 5396,
      "Ø°ÙĬØ¨": 5397,
      "ĠÙĤÙĦÙĤ": 5398,
      "ĠÙĤØ±ÙĬØ©": 5399,
      "Ø§ÙĤÙĬØ©": 5400,
      "ÙĪØ±ØºÙħ": 5401,
      "ĠØ§ÙĦØ£Ø±Ø¨Ø¹": 5402,
      "ĠØ§ÙĦØ£ÙĬØ§Ùħ": 5403,
      "ØºÙĦØ§ÙĤ": 5404,
      "ĠÙĩÙī": 5405,
      "ĠÙĦÙĦÙĥ": 5406,
      "ĠÙĦÙĦØ¨ÙĬØ¹": 5407,
      "ĠÙĦÙĦØªÙĨÙħÙĬØ©": 5408,
      "ĠÙĦÙĦØªØµØ¯ÙĬØ±": 5409,
      "ĠØ§ÙĨÙĨØ§": 5410,
      "ĠØ§ÙĨØ·ÙĦØ§ÙĤ": 5411,
      "ĠÙĨØ³Øª": 5412,
      "ĠÙĨØ¸Ùħ": 5413,
      "ĠØ§ÙĦØ³ÙĥÙĨÙĬØ©": 5414,
      "ĠØ¬ÙĬØ¯Ø§": 5415,
      "Ø§ÙģØ²": 5416,
      "Ø§ÙģÙĬØ§": 5417,
      "ĠØ§ÙĦØŃØ³": 5418,
      "ĠØ§ÙĦØŃÙģØ§Ø¸": 5419,
      "ĠØ§ÙĦØŃÙĤÙĬÙĤÙĬØ©": 5420,
      "ĠØ±Ø¯": 5421,
      "ĠØ®ÙĦÙĬØ¬": 5422,
      "ĠØ®Ø§Ø±Ø·Ø©": 5423,
      "ĠØ´Ø¹Ø±": 5424,
      "ĠØ§ÙĦØ¨Ø¶Ø§Ø¦Ø¹": 5425,
      "ĠØ§ÙĦÙĤØ§Ø¹Ø¯Ø©": 5426,
      "ĠØ§ÙĦÙĤÙĪÙħÙĬØ©": 5427,
      "Ø±Ø¨ÙħØ§": 5428,
      "ĠÙħØ¹Ø±ÙĥØ©": 5429,
      "Ø¸Ø§ÙĩØ±": 5430,
      "ĠØ¨Ø§ÙĦØ¯": 5431,
      "ĠØ¨Ø§ÙĦØªØ¹Ø§ÙĪÙĨ": 5432,
      "ĠØ§ÙĦØ´Ø£ÙĨ": 5433,
      "ĠØ§ÙĦÙĨÙĤØ¨": 5434,
      "ĠØ§ÙĦÙģÙĬÙĦÙĬ": 5435,
      "ĠØ§ÙĦÙģØ³Ø§Ø¯": 5436,
      "ÙħÙĨØ§": 5437,
      "ÙħÙĨØŃ": 5438,
      "ĠØ§ÙĦØ®ÙĬ": 5439,
      "Ø¨Ø±Ø§Øª": 5440,
      "Ø§ØµÙĦ": 5441,
      "Ø§ØµÙģØ©": 5442,
      "Ø§ØµÙĦØ§Øª": 5443,
      "ĠØµØ¯ÙĪØ±": 5444,
      "ÙģÙĬÙĩ": 5445,
      "ĠØ§ÙĦÙĪØ«": 5446,
      "ĠØ§ÙĦÙĪØ§ØŃØ¯": 5447,
      "ĠØºØ§Ø²": 5448,
      "ĠØºØ±ÙĤ": 5449,
      "ĠØ·Ø±ÙĬÙĤØ©": 5450,
      "Ø§ÙĪØ§Øª": 5451,
      "ÙĪÙĬÙĦÙĬ": 5452,
      "Ø§Ø²Ø©": 5453,
      "ÙĬØ¹Ø§Øª": 5454,
      "Ø§Ø´Ø¯": 5455,
      "ÙĦÙħØ§ÙĨÙĬØ§": 5456,
      "ĠÙħØ¬ÙĦØ©": 5457,
      "ĠØªØŃØ¯Ø¯": 5458,
      "ÙĤÙĬÙĬÙħ": 5459,
      "Ø¯ÙĬÙĤ": 5460,
      "ÙĥØ±Øª": 5461,
      "ÙħØ§Ø±Ø³Ø§Øª": 5462,
      "ĠÙħØ³Ø§ØŃ": 5463,
      "ĠØ§ÙĦÙħØŃØªÙħÙĦ": 5464,
      "ĠØªØ¹ÙĦÙĬÙĤ": 5465,
      "ÙĪØªÙĪÙĤØ¹": 5466,
      "ÙĪÙģØ§": 5467,
      "ÙĤÙĦÙĬØ©": 5468,
      "ØªÙģØ§Ø¡": 5469,
      "ĠØ£ÙĪØ§Ø¦ÙĦ": 5470,
      "ĠØ§ÙħØ±": 5471,
      "ĠØ§ÙħÙĬØ±ÙĥØ§": 5472,
      "ĠØ¨ÙĦØ§ÙĬÙĬÙĨ": 5473,
      "ĠØ¢Ø³ÙĬØ§": 5474,
      "ĠÙĪØ¬Ø¯": 5475,
      "ĠÙĪØ¬ÙĩØ©": 5476,
      "ĠØ§ÙĦÙĩØ¬ÙĪÙħ": 5477,
      "ĠØ§ÙĦØ¨ÙĦØ¯": 5478,
      "ĠØªØ´Ø¬ÙĬØ¹": 5479,
      "Ø£Ø³ÙĪØ§ÙĤ": 5480,
      "ĠØªØ±Ø´ÙĬØŃ": 5481,
      "ÙĪØ±ÙĪØ¨ÙĬØ©": 5482,
      "Ø·Ø±Ø§Ùģ": 5483,
      "ØªÙĬÙĨÙĬØº": 5484,
      "ĠØ§ÙĦØ§Ø±Ø¶": 5485,
      "ĠØ§ÙĦÙħØ±ØªØ¨Ø©": 5486,
      "ĠØ¥Ø³ÙĦØ§Ùħ": 5487,
      "ĠØ§ÙĥØª": 5488,
      "ĠØ§ÙĦØ£ÙħØ±ÙĬÙĥÙĬÙĬÙĨ": 5489,
      "ĠØ§ÙĦØ¹ÙħÙĦØ§Ø¡": 5490,
      "ĠÙĬÙĤÙĪØ¯": 5491,
      "ĠÙĬÙĨØ¨ØºÙĬ": 5492,
      "ĠØ§ÙĦØ¶ÙģØ©": 5493,
      "ĠÙĪÙħÙĨÙĩØ§": 5494,
      "ĠÙħØ¯Ø±Ø¨": 5495,
      "ĠÙĬØŃÙħÙĦ": 5496,
      "ĠÙĬØŃØ¯Ø¯": 5497,
      "ĠØ§ÙģØ¶ÙĦ": 5498,
      "ĠØ§ÙĤÙĦ": 5499,
      "ĠØ§ÙĦØªØŃØ§ÙĦÙģ": 5500,
      "ÙĦØªØ§": 5501,
      "ÙĬÙĥØ§": 5502,
      "ĠÙĪØ¥ÙĦÙī": 5503,
      "ĠØ§ÙĨØªØ®Ø§Ø¨": 5504,
      "ĠØ§ÙĦØªÙĨØ³ÙĬÙĤ": 5505,
      "ÙĪØŃØ³Ø¨": 5506,
      "ĠØ§Ø´ØªØ¨Ø§Ùĥ": 5507,
      "Ø±ÙĬØŃØ§": 5508,
      "ĠØ§ÙĦØµÙĨØ§Ø¹ÙĬ": 5509,
      "Ø°ÙĩØ¨": 5510,
      "ĠØ¯Ø±Ø³": 5511,
      "ĠØ¹Ø¨Ø§Ø³": 5512,
      "ĠØ§ÙĦØ§ØªÙģØ§ÙĤÙĬØ§Øª": 5513,
      "ĠØ£Ø¨Ø±ÙĬÙĦ": 5514,
      "ĠÙħÙħØ«ÙĦ": 5515,
      "ĠØ§ÙĦØ£ÙħÙĨÙĬ": 5516,
      "ĠØ§ÙĦØ£ÙħÙĨÙĬØ©": 5517,
      "Ø«ÙħØ±ÙĬÙĨ": 5518,
      "ÙĪÙħÙĨØ°": 5519,
      "ÙİÙĳ": 5520,
      "ÙĬÙĤÙī": 5521,
      "ĠØ§ÙĦÙĤØ¯ÙĬÙħ": 5522,
      "ĠØ§ÙĦØªÙĤØ§Ø±ÙĬØ±": 5523,
      "ĠØ§ÙĦÙĤØ§ÙĨÙĪÙĨÙĬØ©": 5524,
      "ĠØ¨Ø§ÙĦÙĤØ§ÙĩØ±Ø©": 5525,
      "ĠÙĪØ§ÙĦØ¯ÙĥØªÙĪØ±": 5526,
      "ĠØ§ÙĦØ¯Ø±Ø§Ø³Ø§Øª": 5527,
      "ĠÙĪØªØŃØ¯ÙĬØ¯": 5528,
      "ĠØ¨Ø·ÙĪÙĦØ©": 5529,
      "ĠØ§ÙĦØ®Ø·ÙĪØ©": 5530,
      "ĠØ±ÙģØ¶Øª": 5531,
      "ĠØ§ÙĦØ³ÙģØ§Ø±Ø©": 5532,
      "ĠÙĦÙĤØ§Ø¦Ùĩ": 5533,
      "ĠØ¨ØµÙģØ©": 5534,
      "Ø§ÙĦØ¹Ø§ÙĦÙħ": 5535,
      "Ø§Ø¤Ùĩ": 5536,
      "Ø§Ø¤ÙĩØ§": 5537,
      "ĠØ¬Ø§Ø¡Øª": 5538,
      "ĠØ§ÙĦØ§Ø´ØªØ±Ø§Ùĥ": 5539,
      "ĠØ§ÙĦØ¥Ø¬ÙħØ§ÙĦÙĬ": 5540,
      "ÙĥÙĨÙĪÙĦÙĪØ¬ÙĬØ©": 5541,
      "ĠØ§ÙĨØªÙĩØª": 5542,
      "ÙĲÙĳ": 5543,
      "ĠØ§ÙĦÙĨÙĪÙĪÙĬ": 5544,
      "ĠØ¹ÙĦÙħØ§Ø¡": 5545,
      "Ġ09": 5546,
      "ĠØ³ÙĥØ§ÙĨÙĩØ§": 5547,
      "ĠØ§ÙĦØªÙĨÙģÙĬØ°ÙĬ": 5548,
      "ĠØ§ÙĦÙĬÙĪÙĨØ§ÙĨ": 5549,
      "ĠØ£Ø±Ø¨Ø§ØŃ": 5550,
      "ĠÙĥÙĪØ±Ø³Ùĥ": 5551,
      "ĠØ§ÙĦØ£Ø¯ÙĪÙĬØ©": 5552,
      "ĠØ§ÙĦØŃÙĤÙĪÙĤ": 5553,
      "ĠØ±Ø¤Ø³Ø§Ø¡": 5554,
      "ĠØ§ÙĦØ§ÙĪØ±ÙĪØ¨Ùī": 5555,
      "ĠØ¹Ø§ÙĦÙħÙĬØ©": 5556,
      "ĠÙģÙĦØ§Ø¯ÙĬÙħÙĬØ±": 5557,
      "ĠØ§ÙĦÙħØ³Ø¦ÙĪÙĦÙĬÙĨ": 5558,
      "ĠÙĥÙĬÙģÙĬØ©": 5559,
      "ĠØµÙĨØ§Ø¹ÙĬØ©": 5560,
      "ĠØ§Ø¹ØªØ¨Ø§Ø±Ø§": 5561,
      "ĠØ§ÙĦØ§ÙĦÙħØ§ÙĨÙĬØ©": 5562,
      "ĠÙĪØ§ÙĦØ§Ø¬ØªÙħØ§Ø¹": 5563,
      "ĠØ§ÙĦØ¥ÙħØ¨Ø±Ø§Ø·ÙĪØ±ÙĬØ©": 5564,
      "ĠØ§ÙĦØ±ÙĩÙĬÙĨØ©": 5565,
      "ĠÙĨÙĩØ§Ø¦ÙĬØ§Øª": 5566,
      "ĠØµØ§ØŃØ¨": 5567,
      "ĠØ§ÙĦÙħØŃØªÙĦØ©": 5568,
      "ĠÙĥØ´ÙħÙĬØ±": 5569,
      "ĠØ§ÙĦØ·Ø§Ø¹ÙĪÙĨ": 5570,
      "ĠØ§ÙĦÙħØ´Ø§Ø±ÙĥÙĬÙĨ": 5571,
      "ĠØ§ÙĦÙģÙĬÙĦÙĬØ¨ÙĬÙĨ": 5572,
      "ØªÙĬÙĨÙĬØºØ±ÙĪ": 5573,
      "22": 5574,
      "32": 5575,
      "85": 5576,
      "Ø§ÙĦÙī": 5577,
      "Ø§ÙĦØ§Ø®": 5578,
      "Ø§ÙĦÙĪÙĦØ§ÙĬØ§Øª": 5579,
      "Ø§ÙĦÙĤØ¯Ø³": 5580,
      "ĠØ§ÙĦØ§ÙĦØªÙĩØ§Ø¨": 5581,
      "ĠØ§ÙĦÙĪØ¯Ø§Ø¦Ø¹": 5582,
      "ÙģØ§Ø¯": 5583,
      "ÙģØ§Ø¯Øª": 5584,
      "ÙģØ§Ø¶Ø©": 5585,
      "Ø¯Ø±ÙĬ": 5586,
      "ÙĤØ§ÙĦØ©": 5587,
      "ÙĩÙĪÙħ": 5588,
      "ĠÙħØ§Ùĥ": 5589,
      "Ø¨Ø§Ø¯Ø±Ø©": 5590,
      "Ø¨ØºØ¯Ø§Ø¯": 5591,
      "Ø¹ÙĪÙĨ": 5592,
      "Ø¹Ø±Ø¶": 5593,
      "ĠÙĪÙĬØ³": 5594,
      "ĠÙĪØ§ÙĬ": 5595,
      "ĠÙĪÙĦØ¨ÙĨØ§ÙĨ": 5596,
      "ÙīØ¡": 5597,
      "ĠØ¨Ø§Ø®": 5598,
      "ĠØ¨ÙĦØ§": 5599,
      "ĠØ¨Ø´Ø±": 5600,
      "ĠØ¨Ø·ÙĦ": 5601,
      "ĠØ¨ÙĪØ¬ÙĪØ¯": 5602,
      "ĠØ¨ÙĪØ²Ø§Ø±Ø©": 5603,
      "ĠØ§ÙĦÙħÙĬÙĦ": 5604,
      "ĠØ§ÙĦÙħØ§Ø¦ÙĬØ©": 5605,
      "ĠØ§ÙĦÙħØ´Ø§Ø±ÙĬØ¹": 5606,
      "ĠÙĦØ·": 5607,
      "ĠÙĦØ¥ÙĨØ´Ø§Ø¡": 5608,
      "Ø§Ø±Øª": 5609,
      "Ø¬Ø§": 5610,
      "Ø¬ÙĦÙĬ": 5611,
      "ĠØªÙħØ±": 5612,
      "ĠØªÙĪØµ": 5613,
      "ØµØ§Øª": 5614,
      "ĠØ£Ø«Ø±": 5615,
      "ĠØ£ÙĪØ¨Ùĥ": 5616,
      "ĠØ£Ø¨ÙĨØ§Ø¡": 5617,
      "Ø·ØŃ": 5618,
      "Ø·ÙĪÙħ": 5619,
      "ĠÙħÙĨÙĩÙħØ§": 5620,
      "ĠÙħÙĨØ§ÙĤØ´": 5621,
      "Ø§ÙħØ³": 5622,
      "Ø§ÙħÙĥØ§ÙĨ": 5623,
      "Ø´ÙĬØ©": 5624,
      "Ø²Ø¹Ùħ": 5625,
      "Ø¶ÙĬØ±": 5626,
      "ĠÙĬØ§Ø¨": 5627,
      "ĠÙĬÙĪØ§ÙĨ": 5628,
      "Ø§Ø³Ø¹Ø©": 5629,
      "Ø§Ø¯ÙĪ": 5630,
      "ĠØ§ÙĦØªØ¶": 5631,
      "ĠØ¥ÙĬØ·Ø§ÙĦÙĬØ§": 5632,
      "Ø±ÙĬØ§ÙĨ": 5633,
      "Ø®Ø¯ÙħØ©": 5634,
      "Ø£ÙĪ": 5635,
      "ĠØ³ÙĦÙģ": 5636,
      "ĠØ³ÙĤØ·": 5637,
      "ĠØ§ÙĦØ¹Ø±": 5638,
      "ĠØŃØ¶": 5639,
      "ĠØŃØ¯Ø©": 5640,
      "ĠØŃØ±ÙĬØ©": 5641,
      "Ø°ÙĬ": 5642,
      "Ø°Ø§Øª": 5643,
      "ĠÙĥÙĨ": 5644,
      "ĠÙĥØ«ÙĬØ±": 5645,
      "ĠÙĤÙĪÙī": 5646,
      "ÙĪØ±Ø¯Ø§": 5647,
      "ĠØ§ÙĦØ£ØµÙĪÙĦ": 5648,
      "ĠØ§ÙĦØ£ÙĦÙħØ§ÙĨÙĬ": 5649,
      "ĠØ§ÙĦØ£ÙĥØ³Ø¬ÙĬÙĨ": 5650,
      "ĠØ§ÙĦØ£ØŃÙĪØ§ÙĦ": 5651,
      "ØºÙĪÙĦ": 5652,
      "ĠÙĦÙĦØªØ¬": 5653,
      "ĠÙĦÙĦØªÙĨ": 5654,
      "ĠØ§ÙĨØ´Ø§Ø¡": 5655,
      "ĠØ§ÙĦØ³Ø±": 5656,
      "ĠØ¬ÙĬØ´": 5657,
      "ĠØ¬Ø±Ùī": 5658,
      "Ø§ÙģØ³": 5659,
      "Ø§ÙģÙĬØ²": 5660,
      "ĠØ§ÙĦØŃØ§Ø¯": 5661,
      "ĠØ§ÙĦØŃØ§ÙĦØ§Øª": 5662,
      "ÙĬÙĦÙĬØ©": 5663,
      "Ø¦ÙĬ": 5664,
      "ĠØ§ÙĦÙĤØ¨Ø±Øµ": 5665,
      "ÙĪØ¯Ø§": 5666,
      "Ø¸Ùī": 5667,
      "Ø¹Ø¯Ø§Øª": 5668,
      "ĠØ¨Ø§ÙĦØ¯ÙĪÙĦ": 5669,
      "ĠØ§ÙĦÙĨØ³": 5670,
      "ÙĪØ¨Ø¹Ø¯": 5671,
      "Ø§ÙĥØ©": 5672,
      "Ø±ÙĪØ±ÙĬ": 5673,
      "ĠØ§ÙĦØµÙĬ": 5674,
      "ĠØ§ÙĦØµØ¨Ø§ØŃ": 5675,
      "Ø¨Ø±ÙĬØ©": 5676,
      "Ø§Ø¶Ùī": 5677,
      "ÙĦÙĥØªØ±": 5678,
      "ĠØ§ÙĦØ¥ÙĤ": 5679,
      "ĠØ§ÙĦØ±Ø¦Ø§Ø³Ø©": 5680,
      "ĠØºÙĪØ±": 5681,
      "ØªØ±Ø§Ùħ": 5682,
      "ØªØ±Ø§ÙĤ": 5683,
      "ĠØ§ÙĦÙĥØªØ¨": 5684,
      "ĠØ§ÙĦÙĥÙĪØ±ÙĬØ©": 5685,
      "Ø±Ø§Ø¦ÙĤ": 5686,
      "ÙĪØ³ÙĦØ§Ùģ": 5687,
      "ÙħØ§ÙĦÙī": 5688,
      "Ø§Ø²ÙĪÙĨ": 5689,
      "ĠØ§Ø³ØªØ±": 5690,
      "ĠØ§Ø³ØªØ·Ø§Ø¹": 5691,
      "ĠØ§Ø³ØªÙĩÙĦØ§Ùĥ": 5692,
      "ĠØ§ÙĦÙĬÙĩØ§": 5693,
      "ĠØ§ÙĦØ·Ø¹ÙĨ": 5694,
      "ĠØ³ÙĬØŃ": 5695,
      "ĠØ³ÙĬØ§Ø±Ø§Øª": 5696,
      "ÙĤØ±ÙĨØ©": 5697,
      "Ø¯Ø±Ø¬Ø©": 5698,
      "ĠØ§ÙĦØ§ÙħÙĪØ±": 5699,
      "ĠØ¶ØºÙĪØ·": 5700,
      "ÙĥØ±Ø±": 5701,
      "ÙĥØ±ÙĬØ©": 5702,
      "ĠØ¨ÙĨØ¸Ø§Ùħ": 5703,
      "ĠØ§ÙĦÙĦØ§Ø¹": 5704,
      "ĠØ§ÙĦÙĦØºØ©": 5705,
      "ĠØ§ÙĦØ§Ø³ØªÙħØ±Ø§Ø±": 5706,
      "ĠØ§ÙĦØ§Ø³ØªØ±Ø§ØªÙĬØ¬ÙĬØ©": 5707,
      "ĠØ§ÙħÙĬØ±ÙĥÙĬØ©": 5708,
      "ĠØ§ÙĦØºØ²ÙĦ": 5709,
      "ĠØ§ÙĦØ£ÙħÙĪØ±": 5710,
      "ĠÙĪØ§ÙĦÙħÙĤ": 5711,
      "ĠÙĪØ§ÙĦÙħØµ": 5712,
      "ĠÙħÙĪØ¸": 5713,
      "ĠÙĪØ£ÙĬ": 5714,
      "Ø¬ÙħØ¹ÙĬØ©": 5715,
      "ĠØªÙĨØ§ÙĪÙĦ": 5716,
      "ĠÙĤØ¯Ø±Ø©": 5717,
      "ĠØ¨ÙħØ³": 5718,
      "ĠØ¨ÙħØ¹Ø¯ÙĦ": 5719,
      "ĠØ§ÙĦÙģÙĦØ³Ø·ÙĬÙĨÙĬÙĪÙĨ": 5720,
      "ĠÙħØ³ØªÙĪØ·": 5721,
      "ĠÙħÙĤØ¹Ø¯": 5722,
      "ÙĪØ²Ø±Ø§Ø¡": 5723,
      "ĠÙħØ±Ø§Ø¬Ø¹Ø©": 5724,
      "ĠÙĪÙģØ§Ø©": 5725,
      "ĠÙħØªÙĥ": 5726,
      "ĠØªÙĤØ§Ø±ÙĬØ±": 5727,
      "ĠØ§ÙĦÙĪØ²Ø§Ø±Ø§Øª": 5728,
      "ĠØ§ÙĦØ²ÙĪØ§Ø¬": 5729,
      "ĠØ§Ø®Øª": 5730,
      "ĠØªØ¬Ø±ÙĬ": 5731,
      "ĠØ§ÙĥØªØ´Ø§Ùģ": 5732,
      "Ġ45": 5733,
      "ÙģØ±Ø¯": 5734,
      "ĠØ®Ø·ÙĪØ§Øª": 5735,
      "ĠØ§ÙĦÙĪØ·ÙĨÙī": 5736,
      "ĠÙĬØŃÙĤ": 5737,
      "ĠÙĬØŃØ§ÙĪÙĦ": 5738,
      "ĠØ§ÙĦØ§ÙĨØªØ§Ø¬": 5739,
      "ĠÙĦÙĨÙĤÙĦ": 5740,
      "ĠØ§Ø¨Ø±Ø²": 5741,
      "ĠÙħÙĦÙĬØ§Ø±Ø§": 5742,
      "ĠØ§ÙĦØµØŃØ±Ø§Ø¡": 5743,
      "ĠØ§ÙĦÙħØ¨ÙĥØ±": 5744,
      "ĠØ§ÙĦÙħØ¨Ø§Ø´Ø±Ø©": 5745,
      "ĠØµØŃÙģÙī": 5746,
      "ĠÙĦØŃÙħØ§ÙĬØ©": 5747,
      "ĠÙĦØ¥ÙĨØªØ§Ø¬": 5748,
      "ĠØ£ÙĪÙĦÙī": 5749,
      "ĠÙĪØ´Ø±ÙĥØ§Øª": 5750,
      "ĠØ§ØµØ¯Ø±": 5751,
      "ĠØ§ÙĦÙĤÙĬØ§Ø³ÙĬ": 5752,
      "ĠØ¬ÙħÙĬØ¹Ø§": 5753,
      "ĠØ§ÙĦØŃØ±Ø§Ø±Ø©": 5754,
      "ĠØ§ÙĦØ¥Ø³Ø±Ø§Ø¦ÙĬÙĦÙĬÙĬÙĨ": 5755,
      "ĠÙĪÙĦÙĥÙĨÙĩØ§": 5756,
      "ĠØ§ÙĦØ¨Ø±ÙĬØ·Ø§ÙĨÙĬ": 5757,
      "ĠÙĦÙĦØ´Ø±ÙĥØ§Øª": 5758,
      "ĠØ¨Ø§Ø³ØªØ«ÙĨØ§Ø¡": 5759,
      "ĠÙĦÙħÙĨØ§ÙĤØ´Ø©": 5760,
      "Ø¨ÙĬØ±ÙĪØª": 5761,
      "ĠÙĦØªØŃØ¯ÙĬØ¯": 5762,
      "ĠØ¹Ø´Ø±Ø§Øª": 5763,
      "ĠÙĨØ¸Ø±ÙĬØ©": 5764,
      "ĠØ§ØŃØ¯Ø§Ø«": 5765,
      "ĠØ§ÙĦØ®Ø§ÙħØ§Øª": 5766,
      "ĠØ§ÙĦÙħØ®Ø¯Ø±Ø§Øª": 5767,
      "ĠØ§Ø³ÙħÙĩ": 5768,
      "ĠÙĬØ³Ø§Ø¹Ø¯": 5769,
      "ĠÙĪØ§Ø¹ØªØ¨Ø±": 5770,
      "ĠØ§ÙĦÙģØ±Øµ": 5771,
      "ĠØ§ÙĦÙģØ±ØµØ©": 5772,
      "ĠØ¹ÙĦÙħØ§": 5773,
      "ĠØªØ¤Ø«Ø±": 5774,
      "ĠØ¨ÙĥØ«ÙĬØ±": 5775,
      "ĠÙĦÙĦØ³ÙĪÙĤ": 5776,
      "ĠÙģØ¹ÙĦØ§": 5777,
      "ĠØ§ÙĦØ¹ÙħØ§ÙĦØ©": 5778,
      "ĠØ§Ø²Ø§Ø¡": 5779,
      "ĠØ§ÙĦØ¢Ø®Ø±ÙĬÙĨ": 5780,
      "ĠØ§ÙĦØªÙĨÙģÙĬØ°ÙĬØ©": 5781,
      "ĠØ§ÙĩØªÙħØ§Ùħ": 5782,
      "ĠØ§ÙĦÙħÙĪØ³Ùħ": 5783,
      "ĠÙĦÙĦØ§ØªØµØ§ÙĦØ§Øª": 5784,
      "ĠÙĪÙĪØ¶Ø¹": 5785,
      "ÙĪØ±Ø¨Ùī": 5786,
      "ØªÙĤÙĦÙĬÙĨ": 5787,
      "ĠØ§ÙĦÙħÙĤØ±Ø±Ø©": 5788,
      "ĠØ§ÙĦØ³Ø¨Ø¨": 5789,
      "ĠÙħØ±Ø´ØŃÙĬ": 5790,
      "ĠØ§ÙĦØ£Ø±Ø¨Ø¹Ø©": 5791,
      "ĠØ§ÙĦØ¥ÙĬØ±Ø§ÙĨÙĬ": 5792,
      "ÙħØ±ÙĬÙĥØ§": 5793,
      "ĠØ§ÙĦÙĬÙħÙĬÙĨ": 5794,
      "ĠØ§ÙĦØ¨ÙĦØ§Ø³ØªÙĬØ¯Ø§Øª": 5795,
      "ĠØ±ÙģØŃ": 5796,
      "Ø¸Ø§ÙĩØ±Ø§Øª": 5797,
      "ĠÙħØªØ¹Ø¯Ø¯Ø©": 5798,
      "ĠØ§ÙĦÙĤØ¶Ø§Ø©": 5799,
      "ĠØ±ÙĪØ¨Ø±Øª": 5800,
      "!!": 5801,
      "14": 5802,
      "60": 5803,
      "70": 5804,
      "Ġ+": 5805,
      "Ø§ÙĦØªØŃ": 5806,
      "ÙħØ¨ÙĬØ©": 5807,
      "ĠØ§ÙĦØ§ÙĦØªØ²Ø§Ùħ": 5808,
      "ÙĪØ§Ø¦ÙĬØ©": 5809,
      "Ø±Ø§ÙģØ©": 5810,
      "ØªØ©": 5811,
      "ØªØ±ÙĬ": 5812,
      "ØªÙĤÙĬ": 5813,
      "ØªØ§Ø¦Ø¬": 5814,
      "ÙĤØ³": 5815,
      "ÙĤÙĬØ¯": 5816,
      "ÙĤØ§Ø·Ø¹Ø©": 5817,
      "ĠÙħØ±Ùĥ": 5818,
      "ĠÙħÙĬØ²": 5819,
      "Ø¨ÙĪØ·": 5820,
      "Ø¹ÙĤØ¯": 5821,
      "Ø¹ÙħØ±": 5822,
      "ĠÙĪÙĬØ´": 5823,
      "ĠÙĪØŃØ¯Ø§Øª": 5824,
      "ĠØ¨Ø«": 5825,
      "ĠØ¨Ø§Ø¬": 5826,
      "ĠØ¨ÙħØ±": 5827,
      "ĠØ¨Ø§Ø±Ùĥ": 5828,
      "ĠØ¨Ø±ÙģØ¹": 5829,
      "ĠØ¨Ø³Ø±Ø¹Ø©": 5830,
      "ĠÙģØ¬": 5831,
      "ĠÙģÙħÙĨ": 5832,
      "ĠÙģØ¨Ø±Ø§ÙĬØ±": 5833,
      "ĠØ§ÙĦÙħØªØ±": 5834,
      "ĠØ§ÙĦÙħØ°Ùĥ": 5835,
      "ĠØ§ÙĦÙħÙĬØ²Ø§ÙĨ": 5836,
      "ĠÙĦÙĤØ¨": 5837,
      "Ø§Ø±ÙĩØ§Ø¨": 5838,
      "ĠØ¹Ø¯": 5839,
      "ĠØ¹Ø§Ø´": 5840,
      "ĠØ¹ÙĦØ§Ùħ": 5841,
      "ĠØ¹Ø§ØµÙħØ©": 5842,
      "ĠØªØ¬Ùħ": 5843,
      "ĠØªØ³ÙħØŃ": 5844,
      "ĠØªÙĪÙģØ±": 5845,
      "ØµØ±Ø©": 5846,
      "ĠØ£Ø±": 5847,
      "ĠØ£ÙĬÙĦÙĪÙĦ": 5848,
      "ĠØ£ÙģØ±Ø§Ø¯": 5849,
      "Ø´Ø£": 5850,
      "ÙĪÙĦÙĪ": 5851,
      "ÙĪÙĦÙĬÙĨ": 5852,
      "ĠÙĬØªÙģ": 5853,
      "ĠÙĬÙĤØ¯Ùħ": 5854,
      "ĠÙĬÙĩØ¯Ùģ": 5855,
      "ĠÙĬØ®Ø¯Ùħ": 5856,
      "ĠÙĬÙĪÙĦÙĬÙĪ": 5857,
      "ĠØ§ÙĦØªÙĪØ³Ø¹": 5858,
      "ĠØ§ÙĦØªØ®ØµÙĬØµ": 5859,
      "ÙĩØ§Ùī": 5860,
      "ĠØ¥ÙħØ§": 5861,
      "ĠØ¥Ø¶Ø§Ùģ": 5862,
      "Ø®Ø§ÙĦ": 5863,
      "Ø®ÙĪØª": 5864,
      "Ø«ÙħØ§ÙĨ": 5865,
      "ĠØ³ÙĦØ§ØŃ": 5866,
      "ĠØ§ÙĦØ¹Ø´": 5867,
      "ĠØ§ÙĦØ¹Ø§Ø¨": 5868,
      "ĠØ§ÙĦØ¹ÙĩØ¯": 5869,
      "ĠØŃØ§Ùħ": 5870,
      "ĠÙĪØ§ÙĦØ·ÙĦØ¨": 5871,
      "ĠÙĥØ±ÙĬ": 5872,
      "ĠÙĥÙĪØª": 5873,
      "ĠÙĥÙĪÙģÙĬ": 5874,
      "Ø§Ø¨ÙĬØ±": 5875,
      "ĠÙĤÙĪ": 5876,
      "ĠØ§ÙĦØ£Ø¬ÙĦ": 5877,
      "ĠØ§ÙĦØ£Ø±Ø¯ÙĨ": 5878,
      "ØºØ²Ø©": 5879,
      "ĠÙĦÙĦØŃØ¯": 5880,
      "ĠÙĦÙĦØ¨ØŃØ«": 5881,
      "ĠÙĨØ²": 5882,
      "ĠØ¬ÙĬÙĨ": 5883,
      "ĠØ¬ÙĪØ²": 5884,
      "ĠØ¬Ø±Øª": 5885,
      "Ø§ÙģØ±": 5886,
      "Ø§ÙģØ§Øª": 5887,
      "ĠØ¯Ø¨ÙĬ": 5888,
      "ĠØ§ÙĦØŃÙĥÙĬÙħ": 5889,
      "ĠØ±ÙĪÙħØ§": 5890,
      "ÙĪÙĤÙĪÙģ": 5891,
      "ĠØ´Ø¯ÙĬØ¯": 5892,
      "ĠØ´Ø±ÙĬÙĥ": 5893,
      "ĠØ´Ø§ÙħÙĦØ©": 5894,
      "ÙħØ§ÙĬÙĪ": 5895,
      "Ø§ØŃÙĤØ©": 5896,
      "Ø¦Øª": 5897,
      "Ø¦Ùĥ": 5898,
      "ĠØ§ÙĦØ¨Ø§Ø¨Ø§": 5899,
      "ĠØ§ÙĦØ¨ØµØ±Ø©": 5900,
      "ĠØ§ÙĦÙĤØ±ÙĬØ¨": 5901,
      "ĠØ§ÙĦÙĤØµÙģ": 5902,
      "ĠØ§ÙĦÙĤØ¶Ø§Ø¦ÙĬØ©": 5903,
      "ĠÙħØ¹Ø³ÙĥØ±": 5904,
      "ĠØ¨Ø§ÙĦØ´": 5905,
      "ĠØ§ÙĦØ´ÙĬÙĪØ®": 5906,
      "ĠØ§ÙĦÙĨØ³ÙĬØ¬": 5907,
      "ĠØ§ÙĦÙģÙĤØ±": 5908,
      "ÙĪØ¨ÙĦ": 5909,
      "ĠØ§ÙĦØªÙĬØ§Ø±": 5910,
      "ĠØ§ÙĦØµØ§Ø¯Ø±": 5911,
      "ĠØ§ÙĦØ®Ø±": 5912,
      "Ø§Ø¶ÙĬØ¹": 5913,
      "ĠØµØºÙĬØ±": 5914,
      "ĠØµØ¹ÙĬØ¯": 5915,
      "ĠØ§ÙĦØ±Ø¯": 5916,
      "ÙĨÙĬÙĬÙĨ": 5917,
      "ĠÙĦÙħØ³Ø§Ø¹Ø¯Ø©": 5918,
      "ÙĪØ³Ø·Ø©": 5919,
      "Ø¹ÙĦÙĪÙħ": 5920,
      "ØªÙĬØ§ØŃ": 5921,
      "ĠØ§Ø³ØªÙĩØ¯Ùģ": 5922,
      "ØªÙĩØ¯": 5923,
      "ĠÙħØŃØ§ÙĪÙĦØ§Øª": 5924,
      "ĠÙĪØªØµ": 5925,
      "ÙĪÙĥØ³": 5926,
      "ÙĪÙĥØ§Ø³ÙĦ": 5927,
      "Ø³ÙĬØ·": 5928,
      "Ø³ÙĬÙĪÙĬØ©": 5929,
      "ĠØ§ÙĦØ«Ø§ÙħÙĨ": 5930,
      "ĠØ§ÙĦÙħØµØ§ÙĦØŃ": 5931,
      "ĠØ¶ØºØ·": 5932,
      "ĠØ¶ØŃØ§ÙĬØ§": 5933,
      "ÙħØ§Ø±Ø§Øª": 5934,
      "ĠÙħØ³ÙĦØŃ": 5935,
      "ĠØ§ÙĦÙħØŃØ§ÙĥÙħ": 5936,
      "Ø¨ÙĬÙĩ": 5937,
      "ĠØ¥ÙĨØ¬ÙĦØªØ±Ø§": 5938,
      "Ø´Ø±Øª": 5939,
      "ÙĨØ¯ÙĬÙĬÙĨ": 5940,
      "ĠØªØ¹ÙĩØ¯": 5941,
      "ÙĪØªÙĨ": 5942,
      "Ø³ÙħØ§Ø¹ÙĬÙĦ": 5943,
      "ĠØ«ÙħØ©": 5944,
      "ĠØ§ÙĦØ§Ø³Ø¹Ø§Ø±": 5945,
      "ĠØ§ÙĦØ§Ø³ØªÙĤÙĦØ§ÙĦ": 5946,
      "ĠØ§ÙĦÙħØ³Ø£ÙĦØ©": 5947,
      "ØªÙģØ¹Ø©": 5948,
      "ĠØ§Ø³ÙĬØ§": 5949,
      "ĠØ§ÙħØ§": 5950,
      "ĠØ§ÙĦØºØ±Ø¨ÙĬ": 5951,
      "ÙĪØ£Ø¹ÙĦÙĨ": 5952,
      "Ġ190": 5953,
      "ĠÙħÙĪØ§Ø±Ø¯": 5954,
      "ĠÙħÙĪØ§ØµÙĦØ©": 5955,
      "ĠÙĪØ£Ø³": 5956,
      "ĠÙĪØ£Ø¹Ø¶Ø§Ø¡": 5957,
      "ĠØ¨ÙĦØ¯ÙĬØ©": 5958,
      "Ø¬ÙħÙĩÙĪØ±ÙĬØ©": 5959,
      "ĠØ§ÙĦØªØ¬Ø±Ø¨Ø©": 5960,
      "ĠØ¢Ø«Ø§Ø±": 5961,
      "ÙĪØ§ÙĨØ§Øª": 5962,
      "ĠØ§ÙĦÙħØªÙĤØ¯ÙħØ©": 5963,
      "ĠØ§Ø±Ø³": 5964,
      "ĠØ§Ø±Ø¨Ø¹": 5965,
      "ĠØ§Ø±ØªÙĥ": 5966,
      "ĠØ¨ÙħØ´Ø§Ø±ÙĥØ©": 5967,
      "ĠØ¨ÙħØ¬ÙĦØ³": 5968,
      "ĠØ§ÙĦÙħØ´ØªØ¨Ùĩ": 5969,
      "ĠÙĦØªØ·ÙĪÙĬØ±": 5970,
      "ĠÙħØ±ÙĪØ±": 5971,
      "ĠÙħØ±Ø´ØŃ": 5972,
      "Ø¨ØŃØ§Ø«": 5973,
      "ĠÙĪÙĬØª": 5974,
      "ĠÙĪÙĬØ¬Ø¨": 5975,
      "Ø§ÙħÙĦØ§Øª": 5976,
      "ĠØ§ÙĦÙħØ±Ø§ÙĥØ²": 5977,
      "Ø¯Ø§Ø¯Ø§Øª": 5978,
      "ÙĪØ¶Ùī": 5979,
      "ĠØ£Ø³ÙĦØŃØ©": 5980,
      "ĠØ§ÙĦØ¶Ø®ÙħØ©": 5981,
      "ĠØ§ÙĦØ§Ø¹ÙħØ§Ø±": 5982,
      "ĠØ§ÙĦØ§Ø¹ØªØ±Ø§Ùģ": 5983,
      "ĠØ®Ø·ÙĬØ±Ø©": 5984,
      "ĠØ§ÙĦØ³ÙĦØ§ØŃ": 5985,
      "ĠÙħØ¯Ø±ÙĬØ¯": 5986,
      "Ø§ØºÙĪ": 5987,
      "ĠØªØ³ÙĦÙħ": 5988,
      "ĠØ§ÙĦØ§ØŃØªÙģ": 5989,
      "ĠÙģØ±ÙĤØ©": 5990,
      "ĠÙĬØ±ÙģØ¶": 5991,
      "ĠÙĪØ¥Ø¹Ø§Ø¯Ø©": 5992,
      "ĠØ¸Ø±ÙĪÙģ": 5993,
      "ĠØ§ÙĦÙħØ¨Ø§Ø´Ø±": 5994,
      "ĠØ§ÙĦÙħØ¨Ø§Ø±Ø§Ø©": 5995,
      "ÙĪØ§Ø±Ø¹": 5996,
      "ĠÙĪØ±Ø¬Ø§ÙĦ": 5997,
      "ĠØŃÙĤÙĤØª": 5998,
      "ĠÙħÙĦØŃÙĪ": 5999,
      "ĠØ§ÙĦØ¹ÙĤØ§Ø±ÙĬ": 6000,
      "ĠÙĦÙĬÙĥÙĪÙĨ": 6001,
      "Ġ1992": 6002,
      "Ø§ÙĦØŃÙĥÙĪÙħØ©": 6003,
      "Ø±ØªØ§": 6004,
      "ÙģØ§Ø¹ÙĦ": 6005,
      "ĠØ§Ø´ØªØ±": 6006,
      "ĠÙĪØ§ØŃØ¯Ø§": 6007,
      "ĠÙĪØ§ÙĦØ¹Ø´Ø±ÙĬÙĨ": 6008,
      "ÙĤØªØ©": 6009,
      "Ø³Ø§ÙĩÙħ": 6010,
      "ĠØ¯Ø±Ø§Ø³Ø§Øª": 6011,
      "ĠØ§ÙĦÙħØ³Ø¤ÙĪÙĦÙĬØ©": 6012,
      "ĠÙĪØ´ÙħØ§ÙĦ": 6013,
      "ĠÙĪØ´Ø±ÙĥØ©": 6014,
      "Ø·ÙĦØ¨Ø§Øª": 6015,
      "Ø¬Ø²Ø§Ø¡": 6016,
      "ĠÙģÙĦØ³Ø·ÙĬÙĨÙĬÙĬÙĨ": 6017,
      "ĠØ§ÙĦØŃØ±Ø³": 6018,
      "ÙĪØºØ§ÙĨ": 6019,
      "ĠØ§ÙĦØªÙĤÙī": 6020,
      "ØºØ·ÙĬ": 6021,
      "ĠØ¨Ø¹ÙĨ": 6022,
      "ÙģØªØ§ØŃ": 6023,
      "ĠÙĦØ´Ø±ÙĥØ§Øª": 6024,
      "ĠØªØ®Ø¶Ø¹": 6025,
      "ĠØ§ÙĦØªÙĪØ§ÙĦÙĬ": 6026,
      "ĠÙĦÙĦØ´Ø±ÙĥØ©": 6027,
      "ĠØ§ÙĦÙĩÙĨØ¯Ø³ÙĬØ©": 6028,
      "ĠØ§ÙĦØ¬ÙĨØ³ÙĬØ©": 6029,
      "ĠØ§ÙĦØ³ÙģÙĨ": 6030,
      "ĠØ§ÙĦØ±ÙĬØ§ØŃ": 6031,
      "ĠØ§ÙĦØªØ±ÙĥÙĬØ²": 6032,
      "ĠØ§ÙĦØ³ÙĨÙĪÙĬØ©": 6033,
      "ĠÙĪØ§ÙĦÙģÙĦØ³Ø·ÙĬÙĨÙĬÙĬÙĨ": 6034,
      "ÙĪØ§ÙģØ±": 6035,
      "ĠØ¨Ø§ØªØ¬Ø§Ùĩ": 6036,
      "ĠØ§ÙĦØ®Ø§ÙħØ³": 6037,
      "ĠÙĪØ§ÙĦØ§Ø³ØªØ«ÙħØ§Ø±": 6038,
      "ĠØ§ÙĦÙħØµØ¯Ø±ÙĬÙĨ": 6039,
      "ĠÙĦÙĦÙĤØ·Ø§Ø¹": 6040,
      "ĠÙĨÙĤÙĦØª": 6041,
      "ĠÙĪØ·ÙĨÙĬØ©": 6042,
      "Ø®ÙģØ¶Ø©": 6043,
      "ĠÙĦØ§Ø¹Ø§Ø¯Ø©": 6044,
      "ĠØŃØ±Øµ": 6045,
      "ĠÙĨÙĪØ¹Ø§": 6046,
      "ĠØªØ¤ÙĥØ¯": 6047,
      "ĠØŃÙĥÙĪÙħÙĬØ©": 6048,
      "ĠØ§ÙĦØŃØ¯ÙĬØ¯ÙĬØ©": 6049,
      "2002": 6050,
      "ĠØ§ÙĦÙħØ·Ø±ÙĪØŃØ©": 6051,
      "ĠÙĪØ§Ø¶ØŃ": 6052,
      "ĠØ¨Ø§ÙĦØ³Ø§Ø±Ø³": 6053,
      "Ø·Ø¨ÙĤ": 6054,
      "ĠØ§ÙĦØ¨ØªØ±ÙĪÙĦÙĬØ©": 6055,
      "ĠØ´ÙĬØ¦Ø§": 6056,
      "ÙģÙĬÙĦØ¯": 6057,
      "ĠØ§ÙĦÙĤØ±Ø¢ÙĨ": 6058,
      "ĠØ§Ø¹ØªÙĤØ§ÙĦ": 6059,
      "ĠÙĨÙħÙĪØ°Ø¬": 6060,
      "Ø§ÙĨØºÙĩØ§Ùī": 6061,
      "ĠØ§ÙĦØªÙħØ«ÙĬÙĦ": 6062,
      "ĠØ¥ÙħÙĥØ§ÙĨ": 6063,
      "ĠÙĦÙĦØ§ØªØŃØ§Ø¯": 6064,
      "ĠÙĪØ§Ø¬Ùĩ": 6065,
      "ÙĨØ§Ø¯Ø§": 6066,
      "ĠØ®ÙĦÙģÙĬØ©": 6067,
      "ĠÙĦØªØ¹Ø²ÙĬØ²": 6068,
      "ĠØ§ÙĦØ¯Ø¹ÙĪØ©": 6069,
      "ĠØ§ÙĦØ¹ÙĦØ§Ø¬": 6070,
      "ĠØ§Ø³ØªÙħØ±Øª": 6071,
      "ĠØ§ÙĦØ§ÙħÙĬØ±Ø§ÙĦ": 6072,
      "ĠØ£Ø³Ø¨Ø§Ø¨": 6073,
      "ĠØ§ÙĦØ¯Ø³ØªÙĪØ±": 6074,
      "ĠÙħØ³ØªØ¹Ø¯Ø©": 6075,
      "ĠÙĤØ·Ø¹Ø©": 6076,
      "ĠÙĪØ§ÙĦÙħÙĦØ§Ø¨Ø³": 6077,
      "ĠÙĬÙĩØ¯Ø¯": 6078,
      "ĠØ¬ÙĬÙħØ³": 6079,
      "ĠØ§ÙĦØ³ÙħØ§ØŃ": 6080,
      "33": 6081,
      "45": 6082,
      "55": 6083,
      "59": 6084,
      "66": 6085,
      "95": 6086,
      "ÙĦØ§Ø³": 6087,
      "ÙĬØŃ": 6088,
      "ÙĬÙĪÙħ": 6089,
      "ÙĬØ¨Ø©": 6090,
      "Ø§ÙĦØ´": 6091,
      "ÙħØµ": 6092,
      "ÙĪØ§Ø²": 6093,
      "ÙĪÙĬØ¯ÙĬ": 6094,
      "ÙĨØ§Ø¦ÙĬ": 6095,
      "Ø±Ø±": 6096,
      "ĠÙħØ§ÙĦ": 6097,
      "ĠÙħÙħÙĨ": 6098,
      "ĠÙħØªÙģ": 6099,
      "ĠÙħÙĤØ¯ÙħØ©": 6100,
      "Ø¨ÙĪØ±": 6101,
      "Ø¹ÙĦÙĬ": 6102,
      "Ø¹ÙĪØ©": 6103,
      "ĠÙĪØ§": 6104,
      "ĠÙĪØ§Ùĥ": 6105,
      "ĠÙĪÙĤØ±": 6106,
      "ĠÙĪØ¨ÙĬ": 6107,
      "ĠÙĪÙĬÙħÙĥÙĨ": 6108,
      "ĠØ¨Ø¶": 6109,
      "ĠØ¨ÙĪÙĨ": 6110,
      "ĠØ¨Ø§ØŃ": 6111,
      "ĠØ¨Ø®ÙĦØ§Ùģ": 6112,
      "Ø§ÙĨÙĩØ§": 6113,
      "Ø§ÙĨÙĪÙĬØ©": 6114,
      "ĠÙģØ³": 6115,
      "ĠÙģØ±ÙĬ": 6116,
      "ĠÙģÙĦØ§": 6117,
      "ĠÙģØŃØ³Ø¨": 6118,
      "ĠÙģØ¤Ø§Ø¯": 6119,
      "ØŃØ¯Ø©": 6120,
      "ĠØ§ÙĦÙħÙħÙĨ": 6121,
      "ĠØ§ÙĦÙħÙĩÙħØ©": 6122,
      "ĠØ§ÙĦÙħÙĤØ¯ÙħØ©": 6123,
      "ĠØ§ÙĦÙħØ®ØµØµØ©": 6124,
      "ĠÙĦØ§ÙĤ": 6125,
      "ĠÙĦØ§ÙĨØª": 6126,
      "ĠÙĦØ°Ø§": 6127,
      "ĠÙĦØ¯ÙĪÙĦ": 6128,
      "Ø¬Ø§Ùħ": 6129,
      "Ø¬ÙĪÙĨ": 6130,
      "Ø¬ÙĪØ§Ø¨": 6131,
      "Ø¬ØªÙħØ¹": 6132,
      "Ø¬ÙĬØ±ÙĬØ§": 6133,
      "ĠØªØ³Ùħ": 6134,
      "ĠØªØ¹ÙĦÙĨ": 6135,
      "ĠØªØ¬ÙħØ¹": 6136,
      "ĠØªØ§ÙĬÙĦ": 6137,
      "ĠØªÙĪØ²ÙĬØ¹": 6138,
      "ĠØªØªØ¬Ùĩ": 6139,
      "ĠØªÙĥÙĪÙĬÙĨ": 6140,
      "ĠÙģÙĬÙĦÙĬ": 6141,
      "ØµÙģØ±": 6142,
      "ĠØ£Ø°": 6143,
      "ĠØ£ÙĪØ³": 6144,
      "Ø·Øª": 6145,
      "ĠÙħÙĨØ§Ø²ÙĦ": 6146,
      "ĠÙħÙĨØ§ÙĤØ´Ø©": 6147,
      "Ø´Ø§Ø³Ø§": 6148,
      "ĠÙĬØ«ÙĬØ±": 6149,
      "ĠÙĬØ³Ø¹Ùī": 6150,
      "ĠØ§ÙĦØªØ®Ø·ÙĬØ·": 6151,
      "ĠØ§ÙĦØªØ§Ø³Ø¹": 6152,
      "ĠØ¥Ø¹Ø¯Ø§Ø¯": 6153,
      "Ø£Ø´Ø§Ø±": 6154,
      "ĠØ³ØªØŃ": 6155,
      "ĠØ³ÙĬÙħ": 6156,
      "ĠØ³Ø§ÙĩÙħ": 6157,
      "ĠØ³ÙĨØªÙĬÙĨ": 6158,
      "ĠØŃØ°": 6159,
      "ĠØŃØ¯Ø¯": 6160,
      "ĠØŃØµØ©": 6161,
      "ĠÙĪØ§ÙĦØ¨ØŃ": 6162,
      "Ø°ÙĪØ±": 6163,
      "ĠÙĥÙĬØ±": 6164,
      "ĠÙĥØ¨Ø±Ùī": 6165,
      "ĠÙĥÙĪØ³Øª": 6166,
      "ĠÙĤØµÙģ": 6167,
      "ĠÙĤØ±ÙĬØ¨Ø©": 6168,
      "Ø§ÙĤÙĬ": 6169,
      "ÙĦÙĬÙĦØ§": 6170,
      "ĠØ§ÙĦØ£Ø¬ÙĩØ²Ø©": 6171,
      "ĠØ§ÙĦØ£Ø¬Ø§ÙĨØ¨": 6172,
      "ĠÙĦÙĦØ§Ø³": 6173,
      "ĠØ§ÙĨØªÙĩØ§": 6174,
      "ĠØ¬ÙĬ": 6175,
      "ĠØ¬ÙĨÙĬÙĩØ§": 6176,
      "Ø§ÙģØ±ÙĬÙĨ": 6177,
      "ĠØ£ÙĨÙĪØ§Ø¹": 6178,
      "ĠØ£ÙĨØŃØ§Ø¡": 6179,
      "ĠØ§ÙĦØŃÙĪ": 6180,
      "ĠØ§ÙĦØŃÙħØ±": 6181,
      "ĠØ§ÙĦØŃØ§Ø¬Ø©": 6182,
      "ĠØ§ÙĦØŃØ¬Ø§Ø¨": 6183,
      "ĠØ±ØµØ¯": 6184,
      "ĠØ®ÙĦÙĤ": 6185,
      "ĠØ®Ø¯ÙħØ§Øª": 6186,
      "ĠØ´Ø§ÙħÙĦ": 6187,
      "ĠØ´Ø§ÙģÙĬØ²": 6188,
      "Ø§ØŃØ¸": 6189,
      "Ø±ÙĥÙĬ": 6190,
      "ĠØ§ÙĦÙĤÙħØ±": 6191,
      "ĠØ§ÙĦÙĤØ±ÙĬØ©": 6192,
      "Ø§Ø¬Ø¯": 6193,
      "ØªÙħØ«ÙĦ": 6194,
      "ĠØ¨Ø§ÙĦØ§Øª": 6195,
      "ĠØ¨Ø§ÙĦØ®": 6196,
      "ĠØ¨Ø§ÙĦØ§Ø³Øª": 6197,
      "ĠØ§ÙĦØ´Ø±Ùĥ": 6198,
      "ĠØ¹ÙĨØµØ±": 6199,
      "ĠØ§ÙĦÙĨÙĪØ±": 6200,
      "ĠØ§ÙĦÙĨØ¨Ø§Øª": 6201,
      "ĠØ§ÙĦÙĨØ§ØµØ±ÙĬ": 6202,
      "Ø§ÙĥØªÙĪØ¨Ø±": 6203,
      "Ø±ÙĪØ§Øª": 6204,
      "ĠØ§ÙĦØµÙĦØ¨": 6205,
      "ĠØ§ÙĦØ®ÙħØ³": 6206,
      "Ø¨Ø±Øª": 6207,
      "Ø§Ø¶ØŃ": 6208,
      "Ø§ØµÙģØ§Øª": 6209,
      "ĠØµØ±ØŃ": 6210,
      "ĠØ§ÙĦØ¥ØºØ±Ø§ÙĤ": 6211,
      "ĠØ§ÙĦØ±Ø§Ø¯": 6212,
      "ĠØ§ÙĦØ±Ø¬ÙĦ": 6213,
      "ÙĨÙĬØ³Øª": 6214,
      "ĠØ·Ø¨ÙĬØ©": 6215,
      "ĠØ·Ø§ÙĤØ©": 6216,
      "ÙĬÙħØª": 6217,
      "Ġ250": 6218,
      "ĠØ§ÙĦÙĥÙĦ": 6219,
      "ĠØ§ÙĦÙħÙĨØªØ¸Ø±": 6220,
      "ĠØ§ÙĦÙħÙĨØ³ÙĪØ¬Ø§Øª": 6221,
      "Ø§ÙĩÙħØ§": 6222,
      "ØªÙĬØ§ÙĦ": 6223,
      "ĠØ§Ø³ØªØ®Ø¯Ùħ": 6224,
      "ĠØ§ÙĦØ·ÙĪÙĬÙĦ": 6225,
      "Ø§Ø«ÙĪÙĦ": 6226,
      "ĠÙħØŃØ§ÙħÙĬ": 6227,
      "ĠÙĪØªØ£": 6228,
      "ĠØªØŃÙĪÙĦ": 6229,
      "Ø³ÙĬÙĥ": 6230,
      "Ø¯ÙĬÙĤØ©": 6231,
      "ĠØ¶Ø¨Ø·": 6232,
      "ĠØ²ÙĬØ¯": 6233,
      "ĠØ²ÙĪØ¬": 6234,
      "ĠØ§ÙĦÙħØŃØ§Ø¯Ø«Ø§Øª": 6235,
      "ÙĬÙģØ§": 6236,
      "ÙĦØ³Ø·ÙĬÙĨÙĬÙĪÙĨ": 6237,
      "ĠØ§ÙĦÙĦØŃ": 6238,
      "ĠØ§ÙĦÙĦØ¬": 6239,
      "ÙĪÙģØ±Ø©": 6240,
      "ÙĥÙĦØ§Øª": 6241,
      "ĠØ§ÙĦÙħØ³Ø§Ø¹Ø¯Ø©": 6242,
      "Ø¨Ø¯Ø§": 6243,
      "Ø±ÙĨØ³ÙĬØ©": 6244,
      "ĠØ§ÙħÙĬÙĦ": 6245,
      "ÙĪØ£ÙĪØ¶ØŃØª": 6246,
      "ĠØ±Ø¦ÙĬØ³ÙĬ": 6247,
      "ĠØ£ÙĬØ¶": 6248,
      "ĠØ§ØªÙĩÙħ": 6249,
      "ĠØ§ÙĦÙħØ¹ØªÙĤÙĦÙĬÙĨ": 6250,
      "ĠÙĪØ¨ÙĨ": 6251,
      "ĠØ§ØŃØªÙģ": 6252,
      "ĠØ¢ÙĦÙĬØ©": 6253,
      "ĠØ¢ÙĦÙĬØ§Øª": 6254,
      "ĠØ§ÙĦÙħØªØ®ØµØµØ©": 6255,
      "ĠÙĪØ¬ÙĩØ§Øª": 6256,
      "ĠØ§ÙĦÙĩØ¬ÙħØ§Øª": 6257,
      "Ø¨ÙĨÙĬØ©": 6258,
      "ĠØ§ÙĦØ¨ÙĦØ¯ÙĬØ©": 6259,
      "ĠØ§ÙĩÙħ": 6260,
      "ĠØ§ÙĪØ±ÙĪØ¨Ø§": 6261,
      "ĠÙĪÙģØ±ÙĨØ³Ø§": 6262,
      "ĠØ¨ØŃØ¶ÙĪØ±": 6263,
      "ĠØ§ÙĦØ¬ÙħØ¹": 6264,
      "ĠØ§ÙĦØ¬ÙħØ§Ø¹Ø§Øª": 6265,
      "ĠØ§ÙĦØ¬ÙħØ±ÙĥÙĬØ©": 6266,
      "ĠÙħØªØ£": 6267,
      "ĠÙħØªÙĪØ³Ø·": 6268,
      "ĠØªØ±ØªÙģØ¹": 6269,
      "ĠØªÙĤØ¹": 6270,
      "ĠØ§ÙĦØ§ÙĨØ®ÙģØ§Ø¶": 6271,
      "ĠÙĪÙĬØªÙħ": 6272,
      "ĠØ§ÙĦØ²Ø±Ø§Ø¹Ø©": 6273,
      "ØŃÙĬØ§Ø¡": 6274,
      "Ø§ÙħÙĦÙĬÙĨ": 6275,
      "ĠØªØµÙħÙĬÙħ": 6276,
      "ĠØ¨Ø¹Ø¶ÙĩÙħ": 6277,
      "Ø§ÙĪØ¶ØŃ": 6278,
      "ĠÙĬÙĤØ¶ÙĬ": 6279,
      "ĠØ§ÙĦØ§ÙĪØ¨Ùĥ": 6280,
      "ĠÙĪØ³ÙĪÙģ": 6281,
      "ĠÙĪØ³ÙĪØ±ÙĬØ§": 6282,
      "ĠØ§ÙĦØ¶Ø±": 6283,
      "ĠØ§ÙĦØ§Ø¹ØªÙħØ§Ø¯": 6284,
      "ĠÙĦÙĥÙĨÙĩÙħ": 6285,
      "ĠØªØ³Ø¹Ø©": 6286,
      "ĠØªØ³ÙĦØ§": 6287,
      "ĠØ§ÙĤØªØ±ØŃ": 6288,
      "ĠØªØ¯Ø¹ÙĪ": 6289,
      "Ø§Ø³ÙĬÙħØ§": 6290,
      "ĠØ§ÙĦØªØŃØ±Ùĥ": 6291,
      "ĠØ§ÙĦØªØŃØ±ÙĬØ±": 6292,
      "ĠØ§ÙĦØªØŃØªÙĬØ©": 6293,
      "ĠÙĬØªÙħÙĥÙĨ": 6294,
      "ĠØ§ÙĨØªÙĤØ§ÙĦ": 6295,
      "ĠÙĪØ§ÙĦØªØ´": 6296,
      "ÙĪØŃÙĬØ¯": 6297,
      "ĠØªØ³ØªÙĩØ¯Ùģ": 6298,
      "Ġ1990": 6299,
      "ĠØ§ÙĦØ§ÙħØ±ÙĬÙĥÙĬÙĬÙĨ": 6300,
      "ĠØ¹ÙħÙĤ": 6301,
      "ĠØ§ÙĦØ§Ø®ÙĬØ±": 6302,
      "ĠØ§Ø´Ø§Ø±Ø©": 6303,
      "ĠÙĪØ§ÙĦØ¹Ø§ÙĦÙħ": 6304,
      "ĠÙĬØ´ÙĬØ±": 6305,
      "ĠÙĬØ´ÙħÙĦ": 6306,
      "Ø¨Ø·ÙĪÙĦØ©": 6307,
      "ĠØ¯Ø±Ø¬Ø§Øª": 6308,
      "ĠØ§ÙĦÙħØ³Ø¤ÙĪÙĦÙĪÙĨ": 6309,
      "ÙĪÙĩÙĪ": 6310,
      "ĠØ£ØŃØ¯Ø«": 6311,
      "ĠÙħÙħØ«ÙĦÙĬ": 6312,
      "ĠØ§ÙĦØ³ÙĪØ¯Ø§ÙĨÙĬ": 6313,
      "ĠØ§ÙĦØ¥ÙĨÙģØ§ÙĤ": 6314,
      "ĠÙĤØ±Ø§Ø±Ø§": 6315,
      "ĠØ§ÙĦØ¬ÙĨÙĪØ¨ÙĬ": 6316,
      "ĠØ¨Ø¬Ø§ÙħØ¹Ø©": 6317,
      "ĠÙĪØ§ÙĦØ¯ÙģØ§Ø¹": 6318,
      "ĠØ¨ÙĬØ§ÙĨØ§Øª": 6319,
      "ĠØ¨ÙĤÙĬØ©": 6320,
      "ĠÙĦØ§ÙĨÙĤØ§Ø°": 6321,
      "ĠØªØ®ÙģÙĬØ¶": 6322,
      "ĠÙĨÙĤØµ": 6323,
      "ĠÙĨÙĤØ§Ø¨Ø©": 6324,
      "ĠØ¨Ø§Ø³ØªØ®Ø¯Ø§Ùħ": 6325,
      "ĠØ¨Ø§Ø³ØªÙħØ±Ø§Ø±": 6326,
      "ĠÙĪØ§ÙĦØµØŃØ©": 6327,
      "ĠØ¨Ø·Ø§ÙĤØ©": 6328,
      "Ø¬Ø±Ø³": 6329,
      "ĠÙĪØ§ÙĦØŃÙĥÙĪÙħØ©": 6330,
      "ĠØ§ÙĦÙħÙĩØ§Ø¬": 6331,
      "ĠÙĪØ¯Ø¹Ùħ": 6332,
      "ĠØ³ÙĦØ·Ø©": 6333,
      "ĠÙĨÙĬÙĪÙĥØ§Ø³ÙĦ": 6334,
      "ĠÙĪØ§ÙĦØ§Ø³ØªÙĤØ±Ø§Ø±": 6335,
      "ĠØ§ÙĦÙĨÙĤØ§Ø·": 6336,
      "ĠÙĦØ§ØŃÙĤ": 6337,
      "ĠØ§ÙĦØ¥ÙĨØªØ§Ø¬ÙĬØ©": 6338,
      "ĠÙĤØ¨ÙĬÙĦ": 6339,
      "ÙĪØ§ÙĪØ¶ØŃØª": 6340,
      "ĠØ¹Ø¶ÙĪØ§": 6341,
      "ĠØµØ§Ø¯Ø±Ø§ØªÙĩØ§": 6342,
      "ĠÙĬØ¹ÙħÙĦÙĪÙĨ": 6343,
      "ĠØ§ÙĦØ®ÙĦÙĬØ¬ÙĬØ©": 6344,
      "ĠÙĪØ§ÙĦÙĥÙĪÙĬØª": 6345,
      "ĠÙĥÙĪÙĦÙĨ": 6346,
      "ĠØ±Ø¤ÙĪØ³": 6347,
      "ĠØŃØµÙĬÙĦØ©": 6348,
      "ĠØ§ÙĦÙħØ³ÙĬØŃÙĬÙĬÙĨ": 6349,
      "ĠØ§ÙĦÙħØ¯Ø±Ø³Ø©": 6350,
      "ĠÙħÙĨØµØ¨Ùĩ": 6351,
      "ĠØ§ÙĦØ±Ø¦ÙĪÙī": 6352,
      "ĠØ§ÙĦØ±Ø¦Ø§Ø³ÙĬØ©": 6353,
      "ĠØ§ÙĦØ¨Ø·ÙĪÙĦØ©": 6354,
      "ĠØ§ÙĦØ¬Ø§ÙħØ¹ÙĬ": 6355,
      "ĠÙĦÙĦØ·Ø§ÙĤØ©": 6356,
      "ĠØ§Ø³Ø¨ÙĪØ¹ÙĬÙĨ": 6357,
      "ØŃÙħØ§Ø³": 6358,
      "ĠØ§ÙĦØ§ÙĨØ³Ø§ÙĨÙĬØ©": 6359,
      "ĠØ§ÙĦØ¯ÙĬÙħÙĤØ±Ø§Ø·ÙĬØ©": 6360,
      "ĠØ§ÙĦØ¹ØµÙĪØ±": 6361,
      "ĠØ§ÙĦØ¨Ø¹Ø«": 6362,
      "ĠØ¨Ø¹ÙĬØ¯Ø§": 6363,
      "ĠØ³ÙĥØ§ÙĬ": 6364,
      "ĠØ¨Ø§ÙĦÙħÙĨØ·ÙĤØ©": 6365,
      "ĠØ§ÙĦØ±ÙĪÙħØ§ÙĨÙĬ": 6366,
      "ĠÙħØ¹Ø±Ø¨Ø³": 6367,
      "ĠØ§ÙĦØ®ØµÙĪØµÙĬØ©": 6368,
      "ĠÙħØ¯Ø±Ø³Ø©": 6369,
      "ĠØ§ÙĦØ¨Ø±Ø§Ø²ÙĬÙĦ": 6370,
      "ĠÙĦÙĦØµØŃØ§ÙģÙĬÙĬÙĨ": 6371,
      "ĠØ§ÙĦÙĥÙĬÙħØ§ÙĪÙĬØ©": 6372,
      "ĠØ¹Ø¨Ø¯Ø§ÙĦÙĦÙĩ": 6373,
      "ĠØ§ÙĦØ¨Ø§ÙĥØ³ØªØ§ÙĨÙĬØ©": 6374,
      "Ø§ÙĬÙħØ²": 6375,
      "ĠØ§ÙĦØ±Ø¤ÙĬØ©": 6376,
      "%ØĮ": 6377,
      "47": 6378,
      "79": 6379,
      "ĠP": 6380,
      "Ø§ÙĬØ§": 6381,
      "ÙĦØ«": 6382,
      "ÙĦÙĨØ¯ÙĬØ©": 6383,
      "ÙĬØ´Ø§Ø±": 6384,
      "Ø§ÙĦØ±Ø¦ÙĬØ³": 6385,
      "ÙħÙĪÙĦ": 6386,
      "ÙħØ§Ø¦ÙĬØ©": 6387,
      "ĠØ§ÙĦÙĬØ³": 6388,
      "ĠØ§ÙĦÙĪØ¨": 6389,
      "ÙĪØ¥Ø°Ø§": 6390,
      "ÙĨÙĬØ§": 6391,
      "Ø±Ø§Ø²": 6392,
      "ØªÙĪÙĬ": 6393,
      "ØªØ§ØŃØ©": 6394,
      "ÙģÙĪØ±": 6395,
      "ÙģÙĪØ¹": 6396,
      "ÙĤØ³Ø§Ùħ": 6397,
      "ÙĩÙĬ": 6398,
      "ÙĥÙħÙĦ": 6399,
      "ÙĥØ¨Ø±": 6400,
      "ÙĥÙĬÙĦØ©": 6401,
      "ĠÙħØ§Ø²": 6402,
      "ĠÙħØ±Ùģ": 6403,
      "ĠÙħØ¦Ø§Øª": 6404,
      "Ø¨ÙĤØ§Ø¡": 6405,
      "Ø³Ø§Ø·": 6406,
      "ĠÙĪÙĬÙĦÙĬ": 6407,
      "ĠØ¨Ø§ÙĨØª": 6408,
      "ĠØ¨ØªØ¬": 6409,
      "ĠØ¨ÙĪØ³Ø¹": 6410,
      "ĠÙģÙģÙĬ": 6411,
      "ĠÙģÙĩØ¯": 6412,
      "ĠÙģØ¯Ø§ÙĨ": 6413,
      "ØŃØ«": 6414,
      "ĠØ§ÙĦÙħÙĩÙħ": 6415,
      "ĠØ§ÙĦÙħØ®Ø·Ø·": 6416,
      "ĠÙĦÙĪØ²Ø§Ø±Ø©": 6417,
      "ĠÙĦØ¬ÙħÙĬØ¹": 6418,
      "ĠØ¹ÙĪØ¯": 6419,
      "ĠØ¹ØµØ±": 6420,
      "ĠØ¹Ø§Ø¯ÙĦ": 6421,
      "ĠØ¹ÙĥØ³": 6422,
      "ĠØªÙĪÙħ": 6423,
      "ĠØªÙĬÙħ": 6424,
      "ĠØªÙĦØª": 6425,
      "ĠØªØ´Ø§Ø±Ùĥ": 6426,
      "ĠØªØ±ÙģØ¶": 6427,
      "ĠØªÙĥÙĨÙĪÙĦÙĪØ¬ÙĬØ§": 6428,
      "ĠØªØ±Ø¨Ø·": 6429,
      "ĠØªØ§ÙĬÙħØ²": 6430,
      "ĠÙģÙĬØ§Ø¶": 6431,
      "ØµØ¨": 6432,
      "ØµØŃ": 6433,
      "ØµÙĦØ©": 6434,
      "ĠØ£Ø¶": 6435,
      "Ø´Ø§Ø¯": 6436,
      "Ø²ÙĪÙĦ": 6437,
      "Ø²Ø²": 6438,
      "Ø²ÙĦÙĬØ©": 6439,
      "Ø¶Ø¨": 6440,
      "ĠÙĬØªØ±": 6441,
      "ĠÙĬÙĩÙĪØ¯": 6442,
      "ĠÙĬØ³ÙħÙī": 6443,
      "ÙĪÙĨØ§Øª": 6444,
      "ĠØ§ÙĦØªÙĪØ±": 6445,
      "ĠØ§ÙĦØªÙĥÙĨÙĪÙĦÙĪØ¬ÙĬØ©": 6446,
      "ĠØ¥Ø³Ø¨": 6447,
      "ĠØ¥ÙĤØ±Ø§Ø±": 6448,
      "ĠØ¥ØµÙĦØ§ØŃ": 6449,
      "Ø±ÙĬÙĪ": 6450,
      "ĠØ³Ø§ÙĨØª": 6451,
      "ĠØ³ØªØ¬": 6452,
      "ĠØ§ÙĦØ¹Ø¯Ø¯": 6453,
      "ĠØŃÙģ": 6454,
      "ĠØŃØ§Ø¯": 6455,
      "ĠØŃØ§Ø¬": 6456,
      "ĠØŃÙħØ¯": 6457,
      "ĠØŃØ²ÙħØ©": 6458,
      "ĠØŃÙĤÙĬÙĤÙĬØ©": 6459,
      "ĠÙĪØ§ÙĦØ²": 6460,
      "ĠÙĪØ§ÙĦØ¨ÙĦ": 6461,
      "ĠÙĥÙģ": 6462,
      "ĠÙĥÙĨÙĬØ³Ø©": 6463,
      "Ø§Ø¦ÙĬØ§Øª": 6464,
      "Ø§ÙĤØ¯": 6465,
      "ĠØ§ÙĦØ£ÙħØ©": 6466,
      "ĠØ§ÙĦØ£ÙĦÙħØ§ÙĨÙĬØ©": 6467,
      "ĠØ§ÙĦØ£ÙĦØ¹Ø§Ø¨": 6468,
      "ĠØ§ÙĦØ£Ø·Ø±Ø§Ùģ": 6469,
      "ĠÙĩÙĪÙĦÙĨØ¯Ø§": 6470,
      "ĠÙĦÙĦØ¶": 6471,
      "ĠÙĦÙĦØ¨Ø±": 6472,
      "ĠØ§ÙĨÙģ": 6473,
      "ĠØ§ÙĨØ§ÙĨ": 6474,
      "ĠØ§ÙĨØ¯ÙĦ": 6475,
      "ĠØ§ÙĨØ¯ÙĪÙĨÙĬØ³ÙĬØ§": 6476,
      "ĠÙĨØ§Ø·ÙĤ": 6477,
      "ĠÙĨØ§Ø¯ÙĬ": 6478,
      "ĠÙĨØ³Ø§Ø¡": 6479,
      "ĠÙĨÙĪÙģÙħØ¨Ø±": 6480,
      "ĠØ¬ÙħÙĦØ©": 6481,
      "ĠØ¯ÙĬÙĨÙĬØ©": 6482,
      "ĠØ§ÙĦØŃÙĪØ§Ùģ": 6483,
      "ĠØ±Ø¨Ø·": 6484,
      "ĠØ´ÙĬÙĥ": 6485,
      "ĠØ´ÙĩÙĪØ±": 6486,
      "ĠØ´Ø¨Ø§Ø·": 6487,
      "ĠØ§ÙĦØ¯Ø§Ø®ÙĦ": 6488,
      "ĠØ§ÙĦØ¯Ø±ÙĪØ³": 6489,
      "ĠØ§ÙĦØ¨Ø§Ø¨": 6490,
      "ĠØ§ÙĦØ¨Ø¯Ø§": 6491,
      "ĠØ§ÙĦØ¨Ø§ÙĦØº": 6492,
      "ĠØ§ÙĦØ¨ØŃÙĪØ«": 6493,
      "Ø§Ø¬ÙĩØ§Øª": 6494,
      "Ø³ØªÙĪÙĨ": 6495,
      "ĠØ§ÙĦØ¬ÙħØ§": 6496,
      "ĠØ¨Ø§ÙĦÙĦ": 6497,
      "ĠØ§ÙĦÙĨÙħ": 6498,
      "ĠØ§ÙĦÙĨÙģ": 6499,
      "ĠØ§ÙĦÙĨÙģØ³": 6500,
      "ĠØ§ÙĦÙĨØ§Ø·ÙĤ": 6501,
      "ĠØ§ÙĦÙĨØ§ØŃÙĬØ©": 6502,
      "ĠØ§ÙĦÙĨØ²Ø§Ø¹": 6503,
      "ĠØ§ÙĦÙģÙĤ": 6504,
      "ĠØ§ÙĦÙģØ§Ø±": 6505,
      "ĠØ§ÙĦÙģÙĬØ¯Ø±Ø§ÙĦÙĬØ©": 6506,
      "Ø¤Ø³Ø§Ø¡": 6507,
      "ĠØ§ÙĦØµÙĬÙģ": 6508,
      "ĠØ§ÙĦØµØ±Ø§Ø¹": 6509,
      "ĠØ§ÙĦØµØŃÙĬØŃ": 6510,
      "ÙĤØ¯Ø§Ùħ": 6511,
      "ĠØ§ÙĦØ®Ø±ÙĪØ¬": 6512,
      "ĠØµØŃØ©": 6513,
      "ĠØµÙĪØ§Ø±ÙĬØ®": 6514,
      "ĠØ§ÙĦØ¥ÙĬØ¯": 6515,
      "ĠØ§ÙĦØ¥ÙĦÙĥØªØ±": 6516,
      "ĠØ§ÙĦØ±Ø£Ø³": 6517,
      "ĠØ§ÙĦØ±Ø¬Ø§ÙĦ": 6518,
      "ĠØ·Ø±ÙĤ": 6519,
      "ĠØ·Ø§Ø¦Ø±": 6520,
      "ĠØ·ÙĦØ§Ø¨": 6521,
      "ØªØ±Ø²": 6522,
      "ĠØ§ÙĦÙĥØ±Ø©": 6523,
      "ĠØ§ÙĦÙĥØ§ÙħÙĦ": 6524,
      "ĠØ§ÙĦÙĥØ±Ø¨ÙĪÙĨ": 6525,
      "Ø§Ø®Ø±Ø©": 6526,
      "Ø§Ø®Ø§Ø¯ÙĪ": 6527,
      "Ø§ÙĩÙĦ": 6528,
      "ÙĪÙĬÙĬÙĨ": 6529,
      "ØªÙĬØ¨Ø§Øª": 6530,
      "ĠØ§Ø³ØªØ«": 6531,
      "ĠØ§Ø³ØªØºÙĦØ§ÙĦ": 6532,
      "ĠØ§ÙĦØ¯ÙĪÙĦØªÙĬÙĨ": 6533,
      "ĠØ§ÙĦÙĬØ®ÙĪØª": 6534,
      "ĠØ§ÙĦØ·Ø§Ø¦": 6535,
      "ĠØ°ÙĩØ¨": 6536,
      "ĠØ°ÙĩØ¨ÙĬØ©": 6537,
      "ĠØ³ÙĬØ§Ø³Ø§Øª": 6538,
      "ĠØªØŃØµÙĦ": 6539,
      "Ø³ÙĬØŃÙĬ": 6540,
      "ÙĤÙĬØ§Ø³": 6541,
      "ĠØ§ÙĦØ§ÙħÙĨÙĬØ©": 6542,
      "ĠØ§ÙĦÙħØµÙĨØ¹": 6543,
      "Ø´Ø§Ø±Ø¯": 6544,
      "ØªØ¨ÙĨÙī": 6545,
      "ĠØ²ÙħÙĨ": 6546,
      "ĠØ§ÙĦØ¹Ø§ÙħÙĬÙĨ": 6547,
      "ĠØ§Ø¹Ø±Ø¨": 6548,
      "Ø¨ÙĬØ¶": 6549,
      "ĠØ¥ÙĨÙĩØ§": 6550,
      "ĠØªØ¹Ø±Ùģ": 6551,
      "ĠÙĪÙĤØ§ÙĦØª": 6552,
      "ÙĨØ§ÙĬØ©": 6553,
      "ÙĤÙĦØ§Ø¨": 6554,
      "ĠØªÙħÙĩ": 6555,
      "ĠØ§Ø³ÙĦØ§ÙħÙĬØ©": 6556,
      "ĠØ§ÙĦØºØ±Ø¶": 6557,
      "Ø¯ÙħØ´ÙĤ": 6558,
      "ĠÙĪÙĩÙī": 6559,
      "ĠÙĪÙĩØ°Ùĩ": 6560,
      "ĠÙħÙĪØ¶Ø¹": 6561,
      "ĠØ§ÙĦÙħØ³ØªÙĤÙĦØ©": 6562,
      "Ø§Ø°Ø¨ÙĬØ©": 6563,
      "ĠÙĪØ£ØŃ": 6564,
      "ĠÙĬØ¹ÙĤØ¯": 6565,
      "ĠÙĬØ¹ØªÙħØ¯": 6566,
      "ĠØ¢ÙĦ": 6567,
      "ĠØ¢ÙĨ": 6568,
      "ĠØ§ÙĦÙĩÙĪØº": 6569,
      "ĠÙħØ³ØªØŃ": 6570,
      "ĠÙħØ³ØªÙħØ±Ø©": 6571,
      "ĠØ§Ø¬ÙĨØ¨ÙĬØ©": 6572,
      "ĠÙĦØªÙĤØ¯ÙĬÙħ": 6573,
      "ĠÙħØ±Ø§ØŃÙĦ": 6574,
      "ĠØ§ÙĦÙħÙĪØ¸": 6575,
      "ĠØ§ÙĦÙħÙĪØ§ÙģÙĤØ©": 6576,
      "ĠØ§ÙĬÙĩÙĪØ¯": 6577,
      "ĠØ§ÙĦØ¬ÙħÙĩÙĪØ±": 6578,
      "ĠØ¹Ø¯Ø¯ÙĩÙħ": 6579,
      "ĠØªÙĤØ³ÙĬÙħ": 6580,
      "ÙĪÙĤØ¹Øª": 6581,
      "ĠÙħØ¨Ø§Ø¯Ø±Ø©": 6582,
      "ĠØ§Ø®ØªØ¨Ø§Ø±": 6583,
      "ĠØ§ÙĥØªÙĪØ¨Ø±": 6584,
      "ĠØªØªÙĪÙĤØ¹": 6585,
      "ĠØ£Ø³Ø±Ø©": 6586,
      "ĠØªØ·Ø§ÙĦØ¨": 6587,
      "ĠØ§ÙĦØ¢Ø«Ø§Ø±": 6588,
      "ĠØ§ÙĦØ§ÙĬØ±Ø§ÙĨ": 6589,
      "ĠØ§ÙĦØ§Ø¹ØªØ¨Ø§Ø±": 6590,
      "ĠÙĪÙħÙĨØªØ¬Ø§Øª": 6591,
      "ĠØ®Ø·ÙĪØ±Ø©": 6592,
      "ĠÙĪØ¹Ø¨Ø¯": 6593,
      "ĠØ§ÙĦØ§ÙĨØªÙĤØ§ÙĦ": 6594,
      "ĠØ§ÙĦØ§ÙĨØªÙģØ§Ø¶Ø©": 6595,
      "ĠØ¨ØªÙĤØ¯ÙĬÙħ": 6596,
      "ĠØ§ÙĦØ¨Ø±Ø§ÙħØ¬": 6597,
      "ĠØªØ£Ø®Ø°": 6598,
      "ĠØªØ£Ø¬ÙĬÙĦ": 6599,
      "ĠÙĬØ±ØºØ¨": 6600,
      "ĠØ§ÙĦØªÙĨØ§Ùģ": 6601,
      "ĠØ¸ÙĩÙĪØ±": 6602,
      "ĠØµØŃÙģ": 6603,
      "ĠØ§ÙĦØ¨ØŃØ±ÙĬ": 6604,
      "ĠÙĪÙĦÙĦ": 6605,
      "ĠØ§ÙĦØ¹ÙĤØ§Ø±ÙĬØ©": 6606,
      "ĠÙĪØ£ÙĨÙĩØ§": 6607,
      "Ġ800": 6608,
      "ĠØªÙģØ§ÙĩÙħ": 6609,
      "ĠÙĬØ³ØªØ®Ø¯Ùħ": 6610,
      "ĠØ§ÙĦÙĦØ¨ÙĨØ§ÙĨÙĬÙĬÙĨ": 6611,
      "ĠØ¨Ø§ÙĦÙħØ¦Ø©": 6612,
      "ĠÙĪØ¶Ø¹Øª": 6613,
      "Ø¬Ø²Ø¡": 6614,
      "ĠØ§ÙĦØ¯ÙĬÙĨÙĬ": 6615,
      "ĠØ¨Ø§ÙĨÙĩ": 6616,
      "ĠØ£Ø¹ÙĤØ§Ø¨": 6617,
      "ÙĪØ£Ø¶Ø§ÙģØª": 6618,
      "Ġ180": 6619,
      "ĠØ¨Ø¹ÙĬÙĨ": 6620,
      "ÙģØªØ§Ø¡": 6621,
      "ĠØ§ÙĦØ¨Ø±ÙĬØ·Ø§ÙĨÙī": 6622,
      "ĠØ§ÙĦØ§ÙĤØªØ±Ø§ØŃ": 6623,
      "ĠØ§ÙĦØ§ÙĤÙĦÙĬÙħÙĬØ©": 6624,
      "ĠÙĦÙĪØ¶Ø¹": 6625,
      "ĠØ§ÙĦÙĦÙĬÙĦØ©": 6626,
      "ĠØ§ÙĦØ¬ÙĨØ³ÙĬ": 6627,
      "Ø¬ÙĩØ§Ø¯": 6628,
      "ĠÙĦÙĦØ£ÙħÙħ": 6629,
      "ĠØ§ÙĦÙĤØ·Ø§Ø¹Ø§Øª": 6630,
      "ĠØªØ¨ÙĤÙī": 6631,
      "Ø´ÙĬØ§Ø¡": 6632,
      "ĠØ§ÙĦØ³ÙĨÙĪÙĬ": 6633,
      "ĠÙĦØ§Ø³ØªÙĤØ¨Ø§ÙĦ": 6634,
      "ĠØ¥ÙĨÙĩØ§Ø¡": 6635,
      "ĠØ´Ø±Ø·Ø©": 6636,
      "ĠØ´Ø±Ø¹ÙĬØ©": 6637,
      "ĠØ§ÙĦØªØ±Ø§Ø¬Ø¹": 6638,
      "ĠØ¬ÙĨØ¯ÙĬ": 6639,
      "ĠØ³ÙĦØ·Ø§ÙĨ": 6640,
      "Ø¯Ø§ÙĨØ©": 6641,
      "ĠÙĤÙĪØ§ØªÙĩØ§": 6642,
      "ĠØ§ÙĦØªØ£Ø«ÙĬØ±": 6643,
      "Ġ140": 6644,
      "ĠØ±Ø£Ø³ÙħØ§ÙĦ": 6645,
      "ĠÙĪØ§Ø¹Ø§Ø¯Ø©": 6646,
      "ĠØ£Ø´ÙĥØ§ÙĦ": 6647,
      "ØŃØµØ§Ø¡Ø§Øª": 6648,
      "ĠØ·Ø±ØŃØª": 6649,
      "ĠØ§ÙĦØ§Ø´Ø®Ø§Øµ": 6650,
      "ĠØ¹ÙĦØ§ÙĪØ©": 6651,
      "ĠÙĤØ¨Ø§ÙĦØ©": 6652,
      "ĠÙĦÙĦØµÙĨØ§Ø¹Ø§Øª": 6653,
      "Ġ1973": 6654,
      "ĠÙĤÙĨØ¨ÙĦØ©": 6655,
      "ĠØ§ÙĦÙħØ·Ø§Ùģ": 6656,
      "ĠØ§ÙĦÙħØ·Ø§Ø±Ø§Øª": 6657,
      "ĠÙĤØ¯ÙħØª": 6658,
      "ĠØ§ÙĦÙĨØ¸Ø±ÙĬØ©": 6659,
      "ĠØ§ÙĦØ£ØŃÙĥØ§Ùħ": 6660,
      "ĠØ§Ø³ØªØ«ÙħØ§Ø±ÙĬØ©": 6661,
      "ĠÙĥØ§Ø±Ø«Ø©": 6662,
      "ĠØ¨Ø§ÙĦØ³ÙĪÙĤ": 6663,
      "ÙĬØºØ§ÙĨ": 6664,
      "ĠÙĦÙģØªØ±Ø©": 6665,
      "ĠØµÙģÙĤØ©": 6666,
      "ĠØªØ¹Ø±Ø¶Øª": 6667,
      "Ġ08": 6668,
      "Ø²Ø±Ø§Ø¹Ø©": 6669,
      "Ø«ÙħØ§ÙĨÙĬØ©": 6670,
      "ĠØ¬Ø²Ø¡Ø§": 6671,
      "ĠØ¬ÙĪÙĨØ²": 6672,
      "ĠØ§ÙĦÙĤØ±Ø§Ø±Ø§Øª": 6673,
      "ĠØ£ØºÙĦØ¨": 6674,
      "ĠØ£ØºØ³Ø·Ø³": 6675,
      "ĠØªÙĦÙĤÙī": 6676,
      "ĠÙĪÙħØŃÙħØ¯": 6677,
      "ÙģØ°ÙĩØ§": 6678,
      "ĠØ§ÙĦÙħØŃØ§ÙģØ¸Ø§Øª": 6679,
      "ĠÙĦØ¨Ø¹Ø¶": 6680,
      "ĠØ§ÙĦØ¹ÙĦÙħØ§Ø¡": 6681,
      "ĠØ£ØµØ¨ØŃØª": 6682,
      "ĠØ¥ÙħÙĥØ§ÙĨÙĬØ©": 6683,
      "ĠÙĦØªØµØ¨ØŃ": 6684,
      "Ø§Ø¯ÙĬÙħÙĬØ©": 6685,
      "ĠÙĪØ§ÙĦÙĩÙĨØ¯": 6686,
      "ĠØ§Ø³Ø¨Ø§ÙĨÙĬØ§": 6687,
      "ĠØ§ÙĦØ³ÙĥØ§ÙĨÙĬ": 6688,
      "ĠØ¬ÙĪÙĦÙĪ": 6689,
      "ĠÙĦØ§Ø¬Ø±Ø§Ø¡": 6690,
      "ĠØ§ÙĦØ£ÙģØ±ÙĬÙĤÙĬ": 6691,
      "ĠÙĨØ¬Ø§ØŃØ§": 6692,
      "ĠÙħØ±Ø¶Ùī": 6693,
      "ĠØ§ÙĦÙĤØªÙĦÙī": 6694,
      "ĠÙĪØ§ÙĦÙħØ¤Ø³Ø³Ø§Øª": 6695,
      "ĠØ§ÙĦØµØ¹ÙĬØ¯ÙĬ": 6696,
      "ĠØ§ÙĦØ±Ø§ÙĩÙĨØ©": 6697,
      "ĠØ§ÙĦØ±ÙĥØ§Ø¨": 6698,
      "ĠÙħØ§ÙĦÙĬØ²": 6699,
      "ĠÙĨÙĩØ§Ø¦ÙĬ": 6700,
      "ĠØ§ÙĦØ±ØŃÙħÙĨ": 6701,
      "ĠØ§ÙĦÙħÙģØ±ÙĪØ¶Ø©": 6702,
      "ĠØ±ÙģÙĬØ¹": 6703,
      "ĠØ§ÙĦØ§Ø±Ø¯ÙĨÙĬØ©": 6704,
      "ĠØ¶Ø¹Ùģ": 6705,
      "ĠØ·Ø§ÙĦÙħØ§": 6706,
      "ĠØ§ÙĦØ§Ø¦ØªÙħ": 6707,
      "ĠØ§ÙĦÙħØ³ØªÙĪØ±Ø¯Ø©": 6708,
      "ĠØ§Ø¨Ø±Ø§ÙĩÙĬÙħ": 6709,
      "ĠØ§ÙĦØ®Ø³Ø§Ø¦Ø±": 6710,
      "ĠÙħÙĬÙĨØ§Ø¡": 6711,
      "ĠØ§ÙĦØ¨Ø´Ø±ÙĬØ©": 6712,
      "ĠØ§ÙĦÙģÙĦÙĪØ¬Ø©": 6713,
      "ÙĬÙĨØªØ§Ø®Ø§Ø¯ÙĪ": 6714,
      "Ø§ÙĦØ§Ø®ÙĪØ§ÙĨ": 6715,
      "ĠÙĪØ£ÙĬØ¶Ø§": 6716,
      "ĠØ§ÙĦØ¹Ø§Ø¨Ø¯ÙĬÙĨ": 6717,
      "ĠØ¨Ø¹ÙĨÙĪØ§ÙĨ": 6718,
      "ĠØ§ÙĦØŃÙĪØ§ÙģØ²": 6719,
      "ĠØ§ÙĦØ¨Ø¯Ø§ÙĬØ©": 6720,
      "39": 6721,
      "43": 6722,
      "Ġ)": 6723,
      "Ġ[": 6724,
      "ĠÃ": 6725,
      "ÙĦØ²": 6726,
      "ÙĦÙĪØ³": 6727,
      "Ø§ÙĦÙĪÙħ": 6728,
      "Ø§ÙĦÙĬØ¯": 6729,
      "ÙħØ¨ÙĬ": 6730,
      "ÙħÙĬØ§Øª": 6731,
      "ĠØ§ÙĦØ§Ø¨ÙĬ": 6732,
      "ĠØ§ÙĦØ§ÙĪØ¶Ø§Ø¹": 6733,
      "ÙĪØ²ÙĬ": 6734,
      "ÙĪØ¶Ø¹": 6735,
      "ÙĨØ¬": 6736,
      "ØªØ·": 6737,
      "ØªØ§ØŃ": 6738,
      "ØªÙĤØ§ÙĦ": 6739,
      "ÙģÙĪÙĨ": 6740,
      "ÙģØ§Ùģ": 6741,
      "Ø¯Ø¨": 6742,
      "Ø¯Ø±ÙĬØ¨": 6743,
      "Ø¯ÙĬØ³ÙħØ¨Ø±": 6744,
      "ÙĤØµ": 6745,
      "ÙĤØ§Ø¦ÙĤ": 6746,
      "ÙĩÙĦÙĬ": 6747,
      "ÙĩÙĪÙĦØ©": 6748,
      "ĠÙħÙĬØ±": 6749,
      "ĠÙħØ§Ø±ÙĬ": 6750,
      "ĠÙħØªØ±Ø§": 6751,
      "ĠÙħØ®ØµØµ": 6752,
      "Ø¨ÙĩØ§": 6753,
      "Ø¨Ø§Ø¹": 6754,
      "Ø¨Ø¦Ø©": 6755,
      "Ø¹Ø§Ø¯": 6756,
      "Ø³ÙĬÙĦ": 6757,
      "ĠÙĪØ§Ø«": 6758,
      "ĠÙĪØ¹Ø¶": 6759,
      "ĠÙĪØ§ÙĥØ¯": 6760,
      "ĠÙĪØ±ÙģØ¶": 6761,
      "ĠÙĪØ¶ÙħØ§ÙĨ": 6762,
      "ĠÙĪØ®ØµÙĪØµ": 6763,
      "ĠØ¨ØŃÙĪ": 6764,
      "ĠØ¨ÙĤØ±Ø§Ø±": 6765,
      "Ø§ÙĨÙĪ": 6766,
      "ĠÙģØŃØµ": 6767,
      "ØŃØ§Ø«": 6768,
      "ĠØ§ÙĦÙħØªØ¬": 6769,
      "ĠØ§ÙĦÙħØªÙģ": 6770,
      "ĠØ§ÙĦÙħÙĪØ¬ÙĪØ¯": 6771,
      "Ø§ØªÙĦÙĬÙĨ": 6772,
      "ĠÙĦÙĬÙĨ": 6773,
      "ĠÙĦØ§Ø®": 6774,
      "ĠÙĦØ³ÙĬ": 6775,
      "ĠÙĦØ§Øº": 6776,
      "ĠÙĦØ§Ø³ÙĬÙħØ§": 6777,
      "Ø§Ø±Ø¯Ø©": 6778,
      "ĠØ¹ÙĬØ¯": 6779,
      "ĠØ¹ÙħØ§": 6780,
      "ĠØ¹ÙħØ§ÙĦ": 6781,
      "ĠØ¹Ø§Ø±Ø¶": 6782,
      "ĠØ¹Ø±Ø¨ÙĬ": 6783,
      "Ø¬Ø§Ø¹ÙĬØ©": 6784,
      "ĠØªØº": 6785,
      "ĠØªØ¨Ø±": 6786,
      "ĠØªØ´Ø§Ø±": 6787,
      "ĠØªØ±ÙĥØ²": 6788,
      "ĠØªØ¨Ø¹": 6789,
      "ĠØªÙĪÙĤØ¹Ø§Øª": 6790,
      "ĠØªØ¯ÙħÙĬØ±": 6791,
      "ĠÙģÙĬÙĬÙĨØ§": 6792,
      "ĠØ£ÙĪØ±": 6793,
      "ĠØ£Ø±Ø¨Ø¹": 6794,
      "ĠØ£Ø«Ø§Ø±": 6795,
      "ĠØ£ÙĪÙĤØ§Øª": 6796,
      "ĠØ£ÙĦÙħØ§ÙĨÙĬØ§": 6797,
      "ĠÙħÙĨØª": 6798,
      "ĠÙħÙĨØ§ÙģØ³Ø©": 6799,
      "Ø´Ø§ÙĨ": 6800,
      "Ø´ÙĥÙĦØ©": 6801,
      "ÙĪÙĦÙģØª": 6802,
      "Ø²Ø§ÙĦØ©": 6803,
      "ĠÙĬØ§Ø³": 6804,
      "Ø§Ø³Ø±Ø§Ø¦ÙĬÙĦ": 6805,
      "Ø§Ø³ÙĬÙĪÙĨ": 6806,
      "ÙĪÙĨÙģÙī": 6807,
      "ĠØ§ÙĦØªØ³Ø¹": 6808,
      "ĠØ§ÙĦØªØ¹Ø¨": 6809,
      "ĠØ§ÙĦØªÙĥÙĨÙĪÙĦÙĪØ¬ÙĬØ§": 6810,
      "Ø®Ø§Ùħ": 6811,
      "Ø£Ø¹ÙĦÙĨØª": 6812,
      "Ø«ÙĬÙģ": 6813,
      "ĠØ³Ø¹Ø¯": 6814,
      "ĠØ³Ø¨Ø¹": 6815,
      "ĠØ§ÙĦØ¹Ø¸Ùħ": 6816,
      "ĠØ§ÙĦØ¹Ø§Ø¦ÙĦØ©": 6817,
      "ĠØ§ÙĦØ¹Ø§ØµÙģØ©": 6818,
      "ĠØ§ÙĦØ¹Ø¨Ø±ÙĬØ©": 6819,
      "Ø§Ø¹Ø±": 6820,
      "ĠØŃØ§ÙħÙĦØ©": 6821,
      "ĠÙĪØ§ÙĦØ¶": 6822,
      "ĠÙĪØ§ÙĦØ§Ø¯": 6823,
      "ĠÙĥÙħØ§ÙĦ": 6824,
      "Ø§Ø¦ÙĩÙħ": 6825,
      "ĠÙĤØ±ÙĬØ¹": 6826,
      "ĠÙĤÙĪØ§Ø¹Ø¯": 6827,
      "ÙĦÙĬÙĩØ§": 6828,
      "ĠØ§ÙĦØ£ØµÙĦ": 6829,
      "ĠØ§ÙĦØ£Ø¹Ø¯Ø§Ø¯": 6830,
      "ĠØ§ÙĦØ£Ø±Ø¯": 6831,
      "ĠØ§ÙĦØ£ÙĩØ¯Ø§Ùģ": 6832,
      "ĠØ§ÙĦØ£ØªØ±Ø§Ùĥ": 6833,
      "ÙĪÙħØ¨": 6834,
      "ÙĪÙħÙĬÙĨ": 6835,
      "ĠÙĩÙĬÙĦ": 6836,
      "ĠÙĩØ§ÙħØ©": 6837,
      "ĠÙĦÙĦØªØ±": 6838,
      "ĠØ§ÙĨØ·": 6839,
      "ĠØ§ÙĨØŃØ§Ø¡": 6840,
      "ĠÙĨÙħ": 6841,
      "ĠÙĨØ§Ø¬": 6842,
      "ĠØ¬Ø¯ÙĪÙĦ": 6843,
      "ĠØ¬ÙĪØ¯Ø©": 6844,
      "ĠØ£ÙĨØ¬ÙĦØ³": 6845,
      "ĠØ£ÙĨÙģØ³ÙĩÙħ": 6846,
      "ĠØ§ÙĦØŃØ§Ø¶": 6847,
      "ĠØ§ÙĦØŃØµØµ": 6848,
      "ĠØ±Ø£": 6849,
      "ĠØ±ÙĪØ§Øª": 6850,
      "ĠØ®ÙĬØ§Ø±": 6851,
      "ĠØ´ÙĦ": 6852,
      "ĠØ´Ø¤ÙĪÙĨ": 6853,
      "ĠØ´Ø§ÙĦÙĪÙħ": 6854,
      "ĠØ§ÙĦØ¯ÙĬÙĪÙĨ": 6855,
      "ĠØ§ÙĦØ¨ÙĪÙĦ": 6856,
      "ĠØ§ÙĦØ¨Ø§ÙĦØºØ©": 6857,
      "Ø±ÙĥØ§ÙĨ": 6858,
      "ĠØ§ÙĦÙĤØ·Ø¹": 6859,
      "ĠØ§ÙĦÙĤØ¨Ø§Ø±": 6860,
      "Ø³ØªØ±ÙĬ": 6861,
      "ÙĪØ¯ÙĦÙĩ": 6862,
      "ÙĬØ³Ø§": 6863,
      "ĠÙħØ¹Ø§Ø¯": 6864,
      "ĠÙħØ¹Ø±ÙĪÙģ": 6865,
      "ØªÙħÙĥÙĨ": 6866,
      "Ø¹Ø¯Ùħ": 6867,
      "ĠØ¨Ø§ÙĦØªØŃ": 6868,
      "ĠØ¨Ø§ÙĦÙħÙĪ": 6869,
      "ĠØ¨Ø§ÙĦØªØ¹": 6870,
      "ĠØ§ÙĦØ´Ø¬Ø§Ø¹ÙĬØ©": 6871,
      "ĠØ§ÙĦÙĨØ§Ø¬": 6872,
      "ĠØ§ÙĦÙĨØ¸": 6873,
      "ĠØ§ÙĦÙĨØ³Ø¨": 6874,
      "ĠØ§ÙĦÙĨØ§ÙħÙĬØ©": 6875,
      "ĠØ§ÙĦÙĨØªØ§Ø¦Ø¬": 6876,
      "ĠØ§ÙĦÙģØµÙĦ": 6877,
      "ĠØ§ÙĦÙģÙĪØ²": 6878,
      "Ø§ÙĥØ§Ø³": 6879,
      "Ø±ÙĪÙĬ": 6880,
      "ĠØ§ÙĦØ®Øµ": 6881,
      "ĠØ§ÙĦØ®Ø¨Ø±Ø©": 6882,
      "Ø§ØµØ±Ø©": 6883,
      "ĠØµØ§ÙģÙĬ": 6884,
      "ØªØŃØª": 6885,
      "ÙĦØ³Ø§Øª": 6886,
      "ĠØ§ÙĦØ¥Ø·Ø§Ø±": 6887,
      "ĠØ§ÙĦØ±Ø§Ø¨Ø¹Ø©": 6888,
      "ÙģÙĬÙħØ§": 6889,
      "ĠØºØ±": 6890,
      "ĠØºØ§Ø¯Ø±": 6891,
      "ĠØºØ±Ø§Ø±": 6892,
      "ĠØºÙĬØ§Ø¨": 6893,
      "ĠØ·ÙĪØ§ÙĦ": 6894,
      "ĠØ§ÙĦÙĥØ§Ø«ÙĪÙĦ": 6895,
      "ÙĦØ§ÙĦØ§Øª": 6896,
      "ĠÙĦÙħØª": 6897,
      "ÙĪØ³Ø§Ø¦ÙĦ": 6898,
      "ĠØ§ÙĦÙħÙĨØ§Ø³Ø¨": 6899,
      "ÙĪÙĬÙģ": 6900,
      "ÙĪÙĬØ²": 6901,
      "ÙħÙĪØ¹": 6902,
      "ÙħÙĪØ·ÙĬ": 6903,
      "ĠØ§Ø³ØªØ¹Ø§Ø¯Ø©": 6904,
      "ĠØ§ÙĦØ·ÙĨ": 6905,
      "ĠØ§ÙĦØ·ÙĦØ§ÙĤ": 6906,
      "ÙħØ±Øª": 6907,
      "ĠØ³ÙĬØ§Ø¯Ø©": 6908,
      "ĠÙħØŃØ§Ùħ": 6909,
      "ĠÙħØŃØ§ÙĥÙħ": 6910,
      "ĠÙĪØªØ¨": 6911,
      "ĠÙĪØªØ·ÙĪÙĬØ±": 6912,
      "ĠØ¹Ø§ÙħÙĬÙĨ": 6913,
      "ĠØ®ÙĦØ§ÙĦÙĩ": 6914,
      "ÙĪØ¬Ø¨": 6915,
      "ĠØ§ÙĦØ«Ùħ": 6916,
      "ĠØ¶Ø¨Ø§Ø·": 6917,
      "ĠÙĪØ²ÙĬØ±Ø©": 6918,
      "ĠÙħØ³ÙĦØŃØ©": 6919,
      "ĠÙħØ³Ø§Ø¹Ø¯Ø§Øª": 6920,
      "ĠØ²ÙĬÙĨ": 6921,
      "ĠØ²Ø¹Ùħ": 6922,
      "ØªØµØ§Øµ": 6923,
      "ĠØ§ÙĦÙħØŃØªØ¬": 6924,
      "ĠØ§ÙĦÙħØŃÙĦØ§Øª": 6925,
      "ĠØªØ¹Ø§ÙĨÙĬ": 6926,
      "ĠØªØ¹ØªØ²Ùħ": 6927,
      "ĠØ§ÙĦÙĦØ¬Ø§ÙĨ": 6928,
      "Ø³ÙħØ§Ø¡": 6929,
      "ĠØ«ÙĤØ©": 6930,
      "ĠØ§ÙĦÙħØ³ÙĦÙħ": 6931,
      "ĠØªÙħØ¯ÙĬØ¯": 6932,
      "ĠØ£ÙĪØ¶Ø§Ø¹": 6933,
      "Ø±ÙĤÙĬØ©": 6934,
      "Ø«Ø±ÙĬÙĨ": 6935,
      "ĠØ§ÙħÙĬØ±": 6936,
      "ĠÙħÙĪØŃØ¯": 6937,
      "ĠÙħÙĪØ§Ø²ÙĨØ©": 6938,
      "ĠØ§ÙĦÙħØ³ØªÙħØ±": 6939,
      "ĠØ§ÙĦÙħØ³ØªØ®Ø¯ÙħØ©": 6940,
      "ĠØ¨Ø¯Ø§": 6941,
      "ĠÙħØµÙĬØ±": 6942,
      "ĠØ§ÙĦÙħÙĤØ§ÙħØ©": 6943,
      "ĠØ§ÙĦÙħÙĤØ§Ø·Ø¹Ø©": 6944,
      "ĠØ§ÙĦÙħØ¹Ø§ÙĩØ¯Ø©": 6945,
      "ĠØ¨ÙĦØ¯Ø§ÙĨ": 6946,
      "ĠØ§ØŃØªÙĦ": 6947,
      "ØªÙĨØ§Ø¹": 6948,
      "ĠØ§ÙĦÙħØªØ§ØŃØ©": 6949,
      "ĠØ§ÙĦÙħØ¬ÙħÙĪØ¹Ø§Øª": 6950,
      "ĠÙĤØ¯ÙĬÙħ": 6951,
      "ĠØ§ÙĦÙĩÙĪÙĦ": 6952,
      "ÙĥØªÙĪØ±ÙĬØ§": 6953,
      "ĠÙħØ³ØªÙĪÙĬØ§Øª": 6954,
      "ĠÙĬÙĪÙħÙĬÙĨ": 6955,
      "ĠØ§ÙĦÙħØ´Ø·ÙĬØ§Øª": 6956,
      "ĠØ§Ø¬ÙĦØ§Ø¡": 6957,
      "ĠØ§Ø¬ÙĩØ²Ø©": 6958,
      "ĠØ§ÙĦØ¨ÙĦØº": 6959,
      "ĠÙĦØªÙĪÙģÙĬØ±": 6960,
      "ĠÙĦØªØ£ÙħÙĬÙĨ": 6961,
      "ÙĬØ§ÙĨØ©": 6962,
      "ĠØ§ÙĦÙħÙĪØ§Ø·ÙĨ": 6963,
      "ĠØ³ØªØ³": 6964,
      "ĠØ§ÙĬÙģØ§ÙĨ": 6965,
      "ĠØ¨ØŃÙĬØ±Ø©": 6966,
      "ĠÙħØªØ·": 6967,
      "ĠØªÙĤÙĪÙĦ": 6968,
      "ĠØ§ÙĦØ§ÙĨÙģØ¬Ø§Ø±": 6969,
      "ĠØ§ÙĦØ²Ø±ÙĤ": 6970,
      "ĠØ§Ø®ØªÙĦØ§Ùģ": 6971,
      "ĠØ£Ø³Ø³": 6972,
      "ĠÙĬÙĤØ±Ø¨": 6973,
      "ĠÙĬÙĨØªØ¸Ø±": 6974,
      "ĠØ§ÙĦØ¶ØºÙĪØ·": 6975,
      "ĠØ§ÙĦØ¶ØŃØ§ÙĬØ§": 6976,
      "ĠØ§ÙĦØ§Ø¹ÙĦØ§ÙĨ": 6977,
      "ĠÙĪÙħÙĨØ¹": 6978,
      "ĠØ®Ø·Ø·": 6979,
      "ĠØ§ÙĦØ£Ø³ÙĩÙħ": 6980,
      "ĠØ§ÙĦØ£Ø³Ø§Ø³ÙĬ": 6981,
      "ĠÙĬÙħÙĥÙĨÙĩ": 6982,
      "ĠØ§ÙģØªØªØŃ": 6983,
      "ĠØ§ÙģÙĬÙĨØªØ§Ø®Ø§Ø¯ÙĪ": 6984,
      "ĠØ§ÙĪØªÙĬ": 6985,
      "ĠØ§ÙĦØ§ØŃÙĪØ§ÙĦ": 6986,
      "ĠØ§ÙĦÙħØ¤ÙĩÙĦØ©": 6987,
      "ĠØ¨ØªÙĩÙħØ©": 6988,
      "ĠØ§ÙĦØ¨Ø±Øª": 6989,
      "ĠØ§ÙĦØªØŃØ¯ÙĬØ§Øª": 6990,
      "ĠÙĦÙĨØ¸Ø§Ùħ": 6991,
      "ĠÙĪÙĨÙĤÙĦ": 6992,
      "ĠÙĤÙĬØ§Ø¯Ø§Øª": 6993,
      "ĠÙĪØ¥Ø³Ø±Ø§Ø¦ÙĬÙĦ": 6994,
      "ĠØ§ÙĦÙħØ¨Ø§Ø±Ùĥ": 6995,
      "ÙĪÙģÙĬØªØ´": 6996,
      "ĠØ§ÙĦØ¨ØŃØ±ÙĬÙĨ": 6997,
      "Ġ95": 6998,
      "ĠÙĬØ¬Ø¯": 6999,
      "ĠØ¹Ø¨Ø¯Ø§ÙĦØ¹": 7000,
      "Ġ1991": 7001,
      "ĠØªÙģÙĬØ¯": 7002,
      "ĠØªÙģØ§ØµÙĬÙĦ": 7003,
      "ĠÙħÙĥØ§ØªØ¨": 7004,
      "ĠØ¨ÙĪØ§ÙĤØ¹": 7005,
      "ĠÙħÙģØ§ÙĪØ¶": 7006,
      "ĠÙĬØ´ÙĩØ¯": 7007,
      "ĠØ§ØµØ¨ØŃ": 7008,
      "ĠØ§ÙĦÙģØ±ÙĨØ³ÙĬÙĬÙĨ": 7009,
      "ĠØ¨Ø£ÙĬ": 7010,
      "ĠØ¨Ø£Ø³Ø¹Ø§Ø±": 7011,
      "ĠØ§ÙĦØ¬Ø²Ø§Ø¦Ø±ÙĬ": 7012,
      "ĠØ§ÙĦØŃØ±ÙĪØ¨": 7013,
      "ĠØ§ÙĦÙħØ§Ø¶ÙĬÙĬÙĨ": 7014,
      "ĠØ§ÙĦØ³ÙĪØ¯Ø§Ø¡": 7015,
      "ĠØ§ÙĦØ¥ÙĨØ¬ÙĦÙĬ": 7016,
      "ĠØ§Ø±ØªÙģØ§Ø¹Ø§": 7017,
      "ÙĪØºÙĪØ³ÙĦØ§Ùģ": 7018,
      "ĠØ·ÙĦØ¨Øª": 7019,
      "ĠØªÙĨÙģÙĬØ°ÙĩØ§": 7020,
      "ĠØªØ®ÙģÙĬÙģ": 7021,
      "ĠØ§ÙĦØ¨Ø±ÙĬØ·Ø§ÙĨÙĬÙĬÙĨ": 7022,
      "ĠÙĦÙĦØ´Ø¨Ø§Ø¨": 7023,
      "ĠÙĤØ§ÙĨÙĪÙĨÙĬØ©": 7024,
      "ĠØ§ÙĦØ®Ø·Ø§Ø¨": 7025,
      "ĠÙĪØ§Ø³Ø±Ø§Ø¦ÙĬÙĦ": 7026,
      "ÙħØŃÙħØ¯": 7027,
      "ĠØªØªÙħØ«ÙĦ": 7028,
      "ÙĪØ§ØµÙĦØ©": 7029,
      "ĠØ§ÙĦØŃÙĬÙĪØ§ÙĨØ§Øª": 7030,
      "ĠØ³ÙĦÙĪÙĥ": 7031,
      "ĠÙĨØ¬ØŃØª": 7032,
      "ĠÙĪØ§ÙĦØ¨Ø±ÙĬØ·Ø§ÙĨÙĬØ©": 7033,
      "ĠØ§ÙĦØªØ£ÙĥÙĬØ¯": 7034,
      "ĠÙĪØ§ÙĦØ¥Ø³": 7035,
      "ĠØ§ÙĦÙĥÙĪÙĬØªÙĬØ©": 7036,
      "ĠØ±Ø£Ø³ÙĩØ§": 7037,
      "ĠØ§ÙĦÙĨÙĤØ§Ø´": 7038,
      "ĠØ£Ø´Ø®Ø§Øµ": 7039,
      "ĠØ§ÙĦØ¹ÙħÙĪÙħÙĬØ©": 7040,
      "ĠØ¹Ø±Ø§ÙĤÙĬÙĬÙĨ": 7041,
      "ĠÙħÙĩØ§Ùħ": 7042,
      "Ø³ØªØ±Ø§ÙĦÙĬØ§": 7043,
      "ĠØ§ÙĤØªØµØ§Ø¯ÙĬ": 7044,
      "ĠÙħØµØ±ÙĬÙĪÙĨ": 7045,
      "ĠØªØ¤Ø¯ÙĬ": 7046,
      "ĠØ£ÙĤØµÙī": 7047,
      "Ġ1975": 7048,
      "ĠØ§ÙĦØ§Ø³Ø¨Ø§ÙĨÙĬ": 7049,
      "ĠÙħØªÙĨÙĩØ§": 7050,
      "ĠÙĪØ§Ø¶ØŃØ§": 7051,
      "ĠØ§ÙĦØ±ÙĤØ§Ø¨Ø©": 7052,
      "ĠØªÙĦÙĤÙĬ": 7053,
      "ĠØ¨Ø§ÙĦØ¹Ø±Ø§ÙĤ": 7054,
      "ĠÙħØ·ÙĦØ¹Ø©": 7055,
      "ĠÙĦÙĦØ³ÙĦØ§Ùħ": 7056,
      "ĠØ§ÙĦÙĬØ§Ø¨Ø§ÙĨÙĬ": 7057,
      "ĠØ§ÙĦÙĬØ§Ø¨Ø§ÙĨÙĬØ©": 7058,
      "ĠÙĪØªÙĨØ¸ÙĬÙħ": 7059,
      "ĠØ¸ÙĩØ±Øª": 7060,
      "ĠÙĦØ¯ÙģØ¹": 7061,
      "Ø²Ø±Ø¹Ø©": 7062,
      "ĠÙĬÙĥØ´Ùģ": 7063,
      "Ø§ÙĦÙĨÙģØ·": 7064,
      "ÙĪØ§Ø´Ø§Ø±Øª": 7065,
      "ĠØ§ÙĦÙĤØ±ÙħÙĪØ·ÙĬ": 7066,
      "ĠÙĪØ§ØµØ§Ø¨Ø©": 7067,
      "ĠØªÙĦÙĤØª": 7068,
      "ĠÙĤÙĬÙħØªÙĩ": 7069,
      "ĠØ´ÙĩÙĪØ§ÙĨ": 7070,
      "ĠØ¨ØŃØ«Ø§": 7071,
      "ĠØ§ÙĦØªÙĥØ§ÙħÙĦ": 7072,
      "ĠØ§ÙĦØªÙĥÙĦÙģØ©": 7073,
      "ĠÙĥØ´ÙģØª": 7074,
      "ĠØ§ÙĦØ¹Ø¯ÙĪØ§ÙĨ": 7075,
      "ĠØ§ÙĦØªØ´Ø±ÙĬØ¹Ø§Øª": 7076,
      "ĠÙĤØªÙĬÙĦ": 7077,
      "ĠÙĤØªÙĬÙĦØ§": 7078,
      "ĠØ§ÙĦÙħØ·ÙĦÙĪØ¨": 7079,
      "ĠØ¬ÙħØ§ÙĦÙī": 7080,
      "ĠÙħØ«ÙĦØ§": 7081,
      "ĠØ¬Ø¯ÙĪÙī": 7082,
      "ĠÙĬØ¨ÙĤÙī": 7083,
      "ĠØ§ÙĦØ¬Ø§ÙħØ¹Ø§Øª": 7084,
      "ĠØµØ¯Ø±Øª": 7085,
      "ĠØ§ÙĦØªØ¹Ø¯ÙĬÙĦ": 7086,
      "ĠØ§ÙĦØ§ÙĥØ«Ø±": 7087,
      "ÙĥØ´ÙģØª": 7088,
      "ĠÙħÙĪÙĨØªÙĬÙĨÙĬØºØ±ÙĪ": 7089,
      "ÙĪØ§Ø¦Ùģ": 7090,
      "ÙĪØ§Ø¦Ø²": 7091,
      "ĠØ§ÙĦØ³ÙĥÙĥ": 7092,
      "ĠÙĨØµÙĬØ¨": 7093,
      "ĠØ§ÙĦØµÙĩÙĬÙĪÙĨÙĬ": 7094,
      "ĠØ¶ÙħØ§ÙĨØ§Øª": 7095,
      "ĠØ§ÙĨØªÙĤØ§Ø¯Ø§Øª": 7096,
      "ĠÙĪØ§ÙģÙĤØª": 7097,
      "ĠØ§ÙĦØŃØ¶Ø±ÙĬØ©": 7098,
      "ĠÙĬÙĦØ¹Ø¨": 7099,
      "ĠÙĪØ§ÙĦØ§ØªØµØ§ÙĦØ§Øª": 7100,
      "ĠÙħØŃØ¯ÙĪØ¯Ø©": 7101,
      "ĠØ§ÙĦÙħØ¯ÙĨÙĬÙĬÙĨ": 7102,
      "ĠØ¨ÙĪØªÙĬÙĨ": 7103,
      "ĠÙĪØ§ÙĦØ§ÙĤØªØµØ§Ø¯ÙĬØ©": 7104,
      "ĠØ§ØŃØªØ¬Ø§Ø¬": 7105,
      "ĠØ§ØªØ®Ø°Øª": 7106,
      "ĠØ§ÙĦØ§ØªÙĩØ§ÙħØ§Øª": 7107,
      "ĠÙĦÙĦÙħØ´Ø±ÙĪØ¹Ø§Øª": 7108,
      "ĠÙħØ¹Ø§Ø±Ø¶Ø©": 7109,
      "ĠØ§ÙĦÙħØ³ØªØŃÙĤØ©": 7110,
      "ĠØ§ÙĦÙĤØ·Ø±ÙĬ": 7111,
      "ĠØ§ÙĦØ«ÙħØ§ÙĨÙĬÙĨØ§Øª": 7112,
      "ĠØªØ±Ø§Ø¬Ø¹Øª": 7113,
      "ĠÙĪÙĨÙĬØ¬ÙĬØ±ÙĬØ§": 7114,
      "ĠØ´ÙĬØ±Ø§Ùĥ": 7115,
      "ĠØ§ÙĦÙĪØ³Ø§Ø¦ÙĦ": 7116,
      "ĠØ§ÙĦÙħÙĬÙĦØ§Ø¯": 7117,
      "ĠØªØ§ÙĬÙĦØ§ÙĨØ¯": 7118,
      "ĠØ§ÙĦÙĤØ¨Ø§Ø±ØµØ©": 7119,
      "ĠØ¹Ø¨Ø¯Ø§ÙĦØ¹Ø²ÙĬØ²": 7120,
      "21": 7121,
      "56": 7122,
      "97": 7123,
      "Ùª": 7124,
      "âĤ": 7125,
      "ÙĦÙĨØ¯ÙĨ": 7126,
      "ÙĬØ¶": 7127,
      "Ø§ÙĦØ¯ÙĪÙĦ": 7128,
      "Ø§ÙĦØ§ÙħÙħ": 7129,
      "Ø§ÙĦØ¬Ø²Ø§Ø¦Ø±": 7130,
      "ĠØ§ÙĦÙĪÙĦØ§ÙĬØ©": 7131,
      "ÙĪØ§Ùĥ": 7132,
      "ÙĪØ¹ÙĦÙħØª": 7133,
      "Ø±Ø¬Ø¹": 7134,
      "ØªØ³": 7135,
      "Ø¯Ø¹": 7136,
      "ÙĤÙĬÙħ": 7137,
      "ÙĩØ§ÙĨ": 7138,
      "ÙĥÙĦÙĬ": 7139,
      "ĠÙħÙĪÙĦ": 7140,
      "ĠÙħÙĪØ±": 7141,
      "ĠÙħØ§Ø¯Ø©": 7142,
      "ĠÙħÙĬÙĦÙĬ": 7143,
      "ĠÙħØ¨ÙĨÙī": 7144,
      "ĠÙĪØ±Ø¨ÙħØ§": 7145,
      "ĠØ¨Ùī": 7146,
      "ĠØ¨ØªÙģ": 7147,
      "ĠØ¨Ø·ÙĦØ¨": 7148,
      "ĠÙģÙĨÙĬ": 7149,
      "ĠÙģØ§Ø´": 7150,
      "ĠÙģÙĪØ±Ø§": 7151,
      "ØŃØªÙī": 7152,
      "ĠØ§ÙĦÙħØ£": 7153,
      "ĠØ§ÙĦÙħØ§Ø¯Ø©": 7154,
      "ĠØ§ÙĦÙħÙĤØ¯Ùħ": 7155,
      "ĠØ§ÙĦÙħÙĤØ¯Ø³": 7156,
      "ĠØ§ÙĦÙħØ²Ø§ÙĬØ§": 7157,
      "ĠÙĦÙī": 7158,
      "ĠÙĦØªØ±": 7159,
      "ĠÙĦØªÙĨÙħÙĬØ©": 7160,
      "ĠØ¹ÙĬØ§ÙĨ": 7161,
      "ĠØ¹ÙĪØ§ÙħÙĦ": 7162,
      "Ø¬Ø£": 7163,
      "Ø¬Ø±Ø§Øª": 7164,
      "Ø¬ÙĬÙĥØ§": 7165,
      "ĠØªÙĪÙģÙĬ": 7166,
      "ĠØªÙĦÙģØ²ÙĬÙĪÙĨ": 7167,
      "ĠØªÙĪØ§Ø¬Ø¯": 7168,
      "ĠÙģÙĬØªÙĨØ§Ùħ": 7169,
      "ĠØ£Ø³Øª": 7170,
      "ĠØ£ÙĦØ¨": 7171,
      "ĠØ£ÙĪÙĥ": 7172,
      "ĠØ£Ø±Ø¯": 7173,
      "ĠØ£ÙĪØ±ÙĪØ¨ÙĬØ©": 7174,
      "Ø§ÙħÙĨØ©": 7175,
      "Ø´Ø©": 7176,
      "ÙĪÙĦØ§ÙĨ": 7177,
      "Ø²Ø¹Ø©": 7178,
      "Ø¶Ø¨Ø·": 7179,
      "ĠÙĬØ¸ÙĩØ±": 7180,
      "ĠÙĬØªÙĬØŃ": 7181,
      "ĠÙĬÙĦØªÙĤÙĬ": 7182,
      "Ø§Ø³ÙĥÙĪÙħ": 7183,
      "Ø§Ø³Ø¨Ø§Øª": 7184,
      "Ø§Ø¯ØªÙĩ": 7185,
      "ÙĪÙĨØ§": 7186,
      "ĠØ§ÙĦØªØ§ÙĦÙĬØ©": 7187,
      "ĠØ§ÙĦØªÙĪÙĤÙĬØ¹": 7188,
      "ĠØ§ÙĦØªØ§ÙĬÙĦ": 7189,
      "ĠØ§ÙĦØªØ±ÙĪÙĬØ¬": 7190,
      "ĠØ¥ÙģØ±ÙĬÙĤÙĬØ§": 7191,
      "ĠØ¥Ø³ØªØ±ÙĦÙĬÙĨÙĬ": 7192,
      "ĠØ¥ØºÙĦØ§ÙĤ": 7193,
      "ĠØ¥Ø³ÙħØ§Ø¹ÙĬÙĦ": 7194,
      "Ø®ÙĬÙĨ": 7195,
      "Ø£ÙĪØ¨Ùĥ": 7196,
      "Ø£ÙĥÙĬØ¯": 7197,
      "ĠØ³Ø§Ø±": 7198,
      "ĠØ³ØªØ±": 7199,
      "ĠØ³ÙĪÙĬØ³": 7200,
      "ĠØ³ÙĥÙĨÙĬØ©": 7201,
      "ĠØ§ÙĦØ¹Ø§ÙĦÙĬØ©": 7202,
      "ĠØŃØ¨": 7203,
      "ĠØŃØ¸": 7204,
      "ĠØŃØ§Ø¯Ø©": 7205,
      "ĠØŃØ¶Ø±": 7206,
      "ĠØŃÙĤÙĬÙĤÙĬ": 7207,
      "ĠÙĪØ§ÙĦØ¬Ùħ": 7208,
      "ĠÙĪØ§ÙĦØŃØ¯": 7209,
      "ĠÙĪØ§ÙĦØ£Ø³": 7210,
      "ĠÙĪØ§ÙĦØ±Ø¦ÙĬØ³": 7211,
      "ĠÙĪØ§ÙĦÙĬØ§Ø¨": 7212,
      "ĠÙĪØ§ÙĦØ®Ø¯ÙħØ§Øª": 7213,
      "Ø°ÙĬØ©": 7214,
      "Ø°Ø§Ø¨": 7215,
      "ĠÙĥÙĤ": 7216,
      "ĠÙĥÙĦÙĬ": 7217,
      "ĠÙĥØ¬Ùħ": 7218,
      "ĠÙĥÙħÙĬØ©": 7219,
      "ĠÙĥÙģØ§Ø¡Ø©": 7220,
      "Ø§Ø¨Ùĩ": 7221,
      "Ø§Ø¨ÙĬØ¨": 7222,
      "Ø§Ø¨Ø±ÙĬÙĦ": 7223,
      "Ø§Ø¦Ø¹Ø©": 7224,
      "Ùĭ)": 7225,
      "Ùĭ\".": 7226,
      "ÙĪÙħØ¹": 7227,
      "ÙĪÙħØ¨ÙĬ": 7228,
      "ØºÙĪ": 7229,
      "ØºØ§ÙĦÙĬ": 7230,
      "ĠÙĦÙĦØ«": 7231,
      "ĠØ§ÙĨÙĤ": 7232,
      "ĠØ§ÙĨÙĪØ§Ø¹": 7233,
      "ĠÙĨÙĤØ¯": 7234,
      "ĠÙĨØ§Ø®": 7235,
      "ĠÙĨØ§Ø´": 7236,
      "ĠØ§ÙĦØ³Ø§ØŃ": 7237,
      "ĠØ§ÙĦØ³ÙĦÙħ": 7238,
      "ĠØ§ÙĦØ³Ø¬ÙĨ": 7239,
      "ĠØ§ÙĦØ³ÙĪÙģÙĬ": 7240,
      "ĠØ¬ÙĬØ¯": 7241,
      "ĠØ¬ÙĩØ¯": 7242,
      "ĠØ¬ÙĪÙĩ": 7243,
      "ĠØ¬Ø³Ø±": 7244,
      "ĠØ¬ÙĩØ§Øª": 7245,
      "ĠØ¬Ø¨Ø§ÙĦ": 7246,
      "ĠØ¬ÙĪÙĩØ±": 7247,
      "ĠØ¬Ø±ÙĬØŃØ§": 7248,
      "ĠØ¯Ø¹Øª": 7249,
      "ÙĬØ¯ÙĪÙģ": 7250,
      "ĠØ§ÙĦØŃÙĬÙĨ": 7251,
      "ĠØ§ÙĦØŃØ§Ø³": 7252,
      "ĠØ±Ø¶": 7253,
      "ĠØ±ØŃÙĦØ©": 7254,
      "ĠØ±Ø§ÙĬØ³": 7255,
      "ÙĪÙĤØª": 7256,
      "ĠØ®Ø·Ø±": 7257,
      "ĠØ®Ø¯Ø§Ùħ": 7258,
      "ĠØ®Ø¯ÙħØ©": 7259,
      "ĠØ´Ùģ": 7260,
      "ĠØ´Ø§Ø¨": 7261,
      "ĠØ´ÙĨØª": 7262,
      "ĠØ´ÙĤÙĬÙĤ": 7263,
      "ĠØ§ÙĦØ¯Ø¨": 7264,
      "ĠØ§ÙĦØ¯ÙĪØ±ÙĬ": 7265,
      "ĠØ§ÙĦØ¯ÙĤÙĬÙĤØ©": 7266,
      "ĠØ§ÙĦØ¨ÙĬØª": 7267,
      "ĠØ§ÙĦÙĤØ§Ø¶ÙĬ": 7268,
      "Ø§Ø¬Ùĩ": 7269,
      "Ø³ØªÙĪØ±": 7270,
      "Ø³ØªØ§ÙĨØª": 7271,
      "ĠØ§ÙĦØ¬ÙĦØ³Ø©": 7272,
      "ĠØ§ÙĦØ¬ÙĪÙĦØ§ÙĨ": 7273,
      "ĠÙħØ¹ÙħØ±": 7274,
      "ĠÙħØ¹ÙĩØ¯": 7275,
      "ØªÙħÙĬ": 7276,
      "ĠØ§ÙĦØ´Ø±Ø§Ø¡": 7277,
      "ĠØ§ÙĦØ´ÙĥÙĦ": 7278,
      "ĠØ§ÙĦØ´ÙħØ³": 7279,
      "ĠØ§ÙĦØ´ÙħØ§ÙĦÙĬ": 7280,
      "ĠØ§ÙĦØ´Ø¨Ø§ÙĨ": 7281,
      "ĠØ¹ÙĨÙĩÙħ": 7282,
      "ĠØ§ÙĦÙĨÙĬØ¬": 7283,
      "ĠØ§ÙĦÙĨØ¹ÙĬÙħ": 7284,
      "ĠØ§ÙĦÙģÙĨ": 7285,
      "ĠØ§ÙĦÙģÙĬØ¯": 7286,
      "ĠØ§ÙĦÙģØ¶Ø§Ø¡": 7287,
      "ÙĪØ¨ÙĬØ§": 7288,
      "Ø±ÙĪØ²": 7289,
      "ĠØ§ÙĦØ®ÙĦÙĬÙĦ": 7290,
      "ĠØµÙĪØª": 7291,
      "ĠØµØ§Ø¯Ø±": 7292,
      "ØªØŃØ§Ø±ÙĬØ©": 7293,
      "ÙĦØ³ÙĦ": 7294,
      "ĠØ§ÙĦÙĪØ§Ø¶ØŃ": 7295,
      "ÙĨÙĬÙĤÙĪØ³": 7296,
      "ĠØºØ±ÙĬÙĨ": 7297,
      "ĠØºØ§ÙĦØ¨Ø§": 7298,
      "ĠØ·Ø¨ÙĬØ¹Ø©": 7299,
      "ÙĬÙħÙĤØ±Ø§Ø·": 7300,
      "ØªØ±ÙģØª": 7301,
      "ĠØ§ÙĦÙĥØª": 7302,
      "ĠØ§ÙĦÙĥÙĪÙĦ": 7303,
      "ĠØ§ÙĦÙĥØ±Ø¯": 7304,
      "ĠØ§ÙĦÙĥÙĨØ¯ÙĬØ©": 7305,
      "ĠØ§ÙĦÙĥÙĨÙĬØ³Øª": 7306,
      "Ø§Ø®Ø§Ùħ": 7307,
      "ĠÙĦÙħØ±": 7308,
      "ĠÙĦÙħØ±Ø§ÙĤØ¨Ø©": 7309,
      "ØªÙĬØ§Ø²": 7310,
      "Ø§Ø²Ø¯": 7311,
      "ĠØ§Ø³ØªÙĨØ§Ø¯Ø§": 7312,
      "ĠØ§ÙĦØ¯ÙĪÙĦØ§Ø±ÙĬØ©": 7313,
      "ĠØ§ÙĦØ·ÙĬØ§Ø±": 7314,
      "ĠØ°ÙĬ": 7315,
      "ĠØ³ÙĬØ§ÙĤ": 7316,
      "ĠØ³ÙĬØ·Ø±": 7317,
      "ĠÙħØŃØªÙħ": 7318,
      "ĠÙħØŃØ§Ø¶": 7319,
      "ĠÙħØŃÙĦÙĬØ©": 7320,
      "ĠÙĪØªÙģ": 7321,
      "ĠÙĪØªØ¬": 7322,
      "ĠÙĪØªÙĪÙģÙĬØ±": 7323,
      "ĠØªØŃØ·": 7324,
      "ĠØªØŃØ±ÙĬÙĥ": 7325,
      "ÙĦØ¨Øª": 7326,
      "ÙĦÙģØª": 7327,
      "ÙĪØ§ÙĩØ§": 7328,
      "ĠÙħØµØ±Ø¹": 7329,
      "ĠØ§ÙĦØ«Ø§ÙĨÙī": 7330,
      "ĠØ§ÙĦØ«Ø§ÙĨÙĪÙĬØ©": 7331,
      "ĠØ§ÙĦÙħØµØ§Ø¨ÙĬÙĨ": 7332,
      "Ø§ÙĨÙĬÙĪÙĨ": 7333,
      "ĠØ¶ÙħØª": 7334,
      "Ø§ÙĦÙĬØ§Øª": 7335,
      "Ø§ÙĦÙħØ¹": 7336,
      "ÙĦØ§ÙħØŃ": 7337,
      "ĠÙħØ³Ø§Ø±": 7338,
      "ĠÙħØ³Ø§Ø¨ÙĤØ©": 7339,
      "ĠØ²Ø§Ø¯": 7340,
      "ĠØ§Ø¹ØªØ±Ø§Ø¶": 7341,
      "ĠØ¥ÙĨØ´": 7342,
      "Ø´Ø±Ø§Ùģ": 7343,
      "Ø´Ø±Ø·Ø©": 7344,
      "ĠØªØ¹Ø§ÙĤ": 7345,
      "ĠØªØ¹ÙĦÙĬÙħ": 7346,
      "ĠØªØ¹ØªÙħØ¯": 7347,
      "Ø®Ø±Ø§Ø¬": 7348,
      "ĠØ¨ÙĨÙĪØ¯": 7349,
      "ĠÙħÙĦÙĬÙĪÙĨÙĬ": 7350,
      "Ø³ÙħØª": 7351,
      "Ø³ÙħØ¹": 7352,
      "Ø³ÙħØ§ØŃ": 7353,
      "ĠØ«ÙħÙĨ": 7354,
      "ĠÙħØ´Ø§ÙĪØ±Ø§Øª": 7355,
      "Ø¯ÙĬÙĨÙĬØ©": 7356,
      "ĠØ§ÙĦØ§Ø³Ùħ": 7357,
      "ĠØ§ÙĦØ§Ø³ÙĪØ§ÙĤ": 7358,
      "ĠØ§ÙĦØ§Ø³ØªØ¹Ø¯Ø§Ø¯": 7359,
      "ĠØ§ÙĦØ§Ø³ØªØ±Ø§ØªÙĬØ¬ÙĬ": 7360,
      "ĠØ§ÙĦÙħØªØŃÙģ": 7361,
      "Ġ32": 7362,
      "Ġ38": 7363,
      "ĠØ§Ø³Ø§Ø³": 7364,
      "ĠØ§Ø³ÙĤØ§Ø·": 7365,
      "ĠØ§ÙħÙĥØ§ÙĨ": 7366,
      "ĠØ§ÙħÙĬØ±ÙĥÙĬ": 7367,
      "ÙĪØ£Ø¹Ø±Ø¨": 7368,
      "ĠØ±Ø¦ÙĬØ³Ø©": 7369,
      "ÙĢÙĢÙĢÙĢÙĢ": 7370,
      "ĠÙħÙĪØ§Ø·": 7371,
      "ĠØ§ÙĦÙħØ³ØªÙĩØ¯Ùģ": 7372,
      "ĠØ§ÙĦÙħØ³ØªÙĩÙĦÙĥ": 7373,
      "ĠØ§ÙĦÙħØ¹ÙĨÙĬ": 7374,
      "ĠØ§ÙĦØ³ÙĬØ§Ø±Ø©": 7375,
      "ĠÙĪØ¨Ø§ÙĦ": 7376,
      "ĠØ£ÙĥØ³": 7377,
      "ĠØªÙĨÙĪÙĬ": 7378,
      "ĠØ§ØŃÙĬØ§Ø¡": 7379,
      "ĠØ§ÙĦØ¥Ø³ÙĥØ§ÙĨ": 7380,
      "ĠØ§ÙĦØ¥Ø³ÙĥÙĨØ¯Ø±ÙĬØ©": 7381,
      "ĠØ§ÙĦÙĩØ§Øª": 7382,
      "ĠØ§ÙĦÙĩØ¬Ø±Ø©": 7383,
      "ÙĥØªÙĬØ±ÙĬØ§": 7384,
      "ĠØ§ÙĦØ¹Ø§ÙĦÙħÙī": 7385,
      "ĠÙĦØªÙĥÙĪÙĨ": 7386,
      "ÙĦÙĤØ§Ø¡": 7387,
      "ÙĬØ§ÙĨØº": 7388,
      "ĠØ£ÙħÙĬÙĨ": 7389,
      "ĠØ£ÙħÙĬØ±ÙĥØ§": 7390,
      "ĠÙħØ±ØªÙĬÙĨ": 7391,
      "ĠØ§ÙĬØ©": 7392,
      "ĠØ³ØªØ³Øª": 7393,
      "ĠØ³ØªÙĤØ¯Ùħ": 7394,
      "ĠØ§ÙĦØ®Ø§Ø±Ø¬ÙĬ": 7395,
      "ĠØ§ÙĬØ§Ø±": 7396,
      "ĠÙĪÙĥÙĬÙĦ": 7397,
      "ĠØªØ±ØŃÙĬ": 7398,
      "ĠØ§ÙĦØ§ÙĨØªØ±ÙĨØª": 7399,
      "ĠØ¹ÙħÙĦÙĩ": 7400,
      "ĠÙħØ¨Ø§Ø¯Ø¦": 7401,
      "ĠÙħØ¤Ø´Ø±": 7402,
      "ĠØªØµÙĨÙĬØ¹": 7403,
      "ĠØ§ÙĦØ§Ø±Ø§Ø¶Ùī": 7404,
      "ĠØ§ÙĦÙħØ±Ø§ÙģÙĤ": 7405,
      "ÙĪØ¶ÙĪØŃ": 7406,
      "ĠÙĪØŃÙħØ§ÙĬØ©": 7407,
      "ÙĪÙĤÙģØª": 7408,
      "Ø®ÙĦØµ": 7409,
      "ĠØ£Ø³Ø§Ø¨ÙĬØ¹": 7410,
      "ĠØªØ·ÙĦÙĤ": 7411,
      "ĠØªØ·ÙĪØ±Ø§Øª": 7412,
      "ĠÙĬÙĤÙģ": 7413,
      "Ġ65": 7414,
      "Ġ600": 7415,
      "Ġ56": 7416,
      "ĠØ§ÙĦØ§Ø¹ÙĦÙī": 7417,
      "ĠØ§ÙĦØ£Ø³Ø§Ø³": 7418,
      "ĠØ§ÙĦØ£Ø³Ø§Ø¨ÙĬØ¹": 7419,
      "ĠÙħØ¯Ø¹": 7420,
      "ĠÙĬØŃØµÙĦ": 7421,
      "ÙĤØ·Ø¹": 7422,
      "ĠØ§ÙĦØ§ØªØŃØ§Ø¯ÙĬØ©": 7423,
      "Ø¬ÙĨØ±Ø§ÙĦ": 7424,
      "ĠØ§ÙĦØµØŃØ§ÙģÙĬÙĬÙĨ": 7425,
      "Ø°ÙĥØ±Øª": 7426,
      "ĠØ§ÙĦØ´Ø±ÙĤØ§ÙĪÙĬ": 7427,
      "ĠØµØŃÙģÙĬØ©": 7428,
      "Ø¶ÙħÙĪÙĨ": 7429,
      "ÙĪØŃØ°Ø±": 7430,
      "ĠÙĦØŃØ±ÙĥØ©": 7431,
      "Ġ99": 7432,
      "ĠØ§ØªÙģØ§ÙĤØ§": 7433,
      "ĠÙĦØ¥Ø³Ø±Ø§Ø¦ÙĬÙĦ": 7434,
      "ĠØ§ÙĦØ¹ÙĤØ¯Ø©": 7435,
      "ĠØ§ÙĦØªØ¹Ø°ÙĬØ¨": 7436,
      "ĠÙĪØ§ÙĨÙĩ": 7437,
      "ĠÙħÙĥØ«": 7438,
      "ĠØ£ÙĪÙĦØ§": 7439,
      "ĠØ³Ø¹Ø±Ùĩ": 7440,
      "ØªØ´ÙħÙĬ": 7441,
      "ĠØ¨Ø§ÙĦÙħØ¹": 7442,
      "ĠÙĪØ¶Ø¹ÙĩØ§": 7443,
      "ĠØ£ØµÙĬØ¨": 7444,
      "Ø®Ø¨Ø§Ø±": 7445,
      "ĠØ£ØŃØ¯Ø§Ø«": 7446,
      "ĠØ§ØµØ¯Ø§Ø±": 7447,
      "ĠÙĬØ¯ÙģØ¹": 7448,
      "Ø²Ø§ÙĬØ¯Ø©": 7449,
      "ĠÙĦÙĦØ¹Ø§ÙĦÙħ": 7450,
      "ĠØ§ÙĦØŃØ±Ùħ": 7451,
      "ĠÙĪØ§Ø³ØªØ®Ø¯Ø§Ùħ": 7452,
      "Ġ120": 7453,
      "ÙĬÙĤÙĪÙĦ": 7454,
      "ĠØ£ØŃØ²Ø§Ø¨": 7455,
      "ĠØ¨Ø¬ÙĨÙĪØ¨": 7456,
      "ĠØ§ÙĦØ¯Ø±Ø¬Ø©": 7457,
      "ĠØ§ÙĦØ£Ø³Ø¨Ø§Ø¨": 7458,
      "ĠÙĦØ§ÙĨÙĩ": 7459,
      "ĠØ§ÙĦØ§ÙĤÙĦ": 7460,
      "Ġ160": 7461,
      "ĠØ§ÙĦØ§ÙģØ±Ø§Ø¬": 7462,
      "ĠÙĦÙĪØ«Ø±": 7463,
      "ĠØ§ÙĦÙĦÙĬØ¨Ø±": 7464,
      "ĠÙĪØ®Ø§Ø±Ø¬": 7465,
      "ĠÙĨØ§Ø¦Ø¨Ø§": 7466,
      "ĠØ¨Ø§ØªØŃØ§Ø¯": 7467,
      "ĠØ§ÙĦØ®Ø§ÙħØ³Ø©": 7468,
      "ĠØ§ÙĦØªØµÙĪÙĬØª": 7469,
      "ĠØ§ÙĦØªØµØ±ÙĬØŃØ§Øª": 7470,
      "Ø§ÙĦØ¹Ø§Ø¨": 7471,
      "Ø§Ø¤ÙĦØ§Øª": 7472,
      "ĠÙħØ®ÙĬÙħ": 7473,
      "Ġ2014": 7474,
      "ĠÙĪØ·ÙĨÙĬ": 7475,
      "ĠØ§ÙĦÙħØŃÙĦÙĬÙĬÙĨ": 7476,
      "ĠÙĪØ§ÙĦØ´Ø¹": 7477,
      "ĠÙĪØ§ÙĦØ´Ø±ÙĥØ§Øª": 7478,
      "ĠØ·Ø±ØŃÙĩØ§": 7479,
      "ĠØ§ÙĦØ§Ø·Ø§Ø±": 7480,
      "ĠØŃØ±Ø§Ø±Ø©": 7481,
      "ĠÙĦÙĦÙħÙĨØ·ÙĤØ©": 7482,
      "ĠÙĦÙĦÙħÙĨØªØ¬Ø§Øª": 7483,
      "ĠÙĦÙĦÙħÙĨØ§ÙģØ³Ø©": 7484,
      "ĠØ§Ø¶Ø·Ø±": 7485,
      "2003": 7486,
      "ĠØ§ÙĦØªÙģÙĥÙĬØ±": 7487,
      "ĠÙĤØ¯Ø±ÙĩØ§": 7488,
      "ĠÙĦØ³ÙĪØ±ÙĬØ©": 7489,
      "ĠÙĦÙĦØ¬ÙĬØ´": 7490,
      "Ø£ÙĥØ¯Øª": 7491,
      "ĠØ§ÙĦÙĨÙĩØ§Ø¦ÙĬØ©": 7492,
      "ĠØ§ÙĦÙħØ¶Ø§Ø±Ø¨Ø©": 7493,
      "ĠØªÙĦØ¹Ø¨": 7494,
      "ĠØ§ÙĦØªØ·ÙĪØ±": 7495,
      "ĠØ³Ø±Ø¹Ø©": 7496,
      "Ø±Ø³Ø§ÙĦ": 7497,
      "ĠØ§ÙĦÙħØ¹Ø¯Ø§Øª": 7498,
      "ĠØ±Ø¤ÙĬØ©": 7499,
      "ĠØ£ÙħÙĨÙĬØ©": 7500,
      "ĠØ§ÙĦÙħØ³ØªÙĤØ¨ÙĦÙĬØ©": 7501,
      "ĠØŃØµØµ": 7502,
      "ĠØªØºÙĬÙĬØ±Ø§Øª": 7503,
      "ĠØ§ÙĦØ¹Ø¯Ø§ÙĦØ©": 7504,
      "ĠØ§ÙĦØ«ÙĤØ§ÙģÙĬØ©": 7505,
      "ÙĨØ²ÙĪÙĬÙĦÙĬ": 7506,
      "ĠÙĦÙĦØ¨ØªØ±ÙĪÙĦ": 7507,
      "ĠÙĥÙĬÙĨÙĬØ§": 7508,
      "ÙĨØ§Ø¯ÙĤ": 7509,
      "ĠØ£ÙħØ±Ø§": 7510,
      "ĠÙħÙħÙĥÙĨØ©": 7511,
      "ĠØ§ÙĦØ¥ØµÙĦØ§ØŃØ§Øª": 7512,
      "ĠÙĪØ§ÙĦØ·Ø§ÙĤØ©": 7513,
      "ĠØ³ÙĬÙģØ§ÙĨ": 7514,
      "ĠØ§ÙĦØ§ÙĦÙħØ§ÙĨÙĬ": 7515,
      "ÙģÙĪØ°": 7516,
      "ĠØ¨Ø§Ø¹ØªØ¨Ø§Ø±Ùĩ": 7517,
      "ĠØ§ÙĦØ¥ÙħØ¨Ø±Ø§Ø·ÙĪØ±": 7518,
      "ĠØ§ÙĦØ´ÙĬØ¡": 7519,
      "ĠØ§ÙĦÙĥØ±Ø¯ÙĬØ©": 7520,
      "ĠØ§ÙĦØ£Ø·ÙģØ§ÙĦ": 7521,
      "ĠØ§ÙĦØ±Ø§ÙĩÙĨ": 7522,
      "ĠØ§ÙĦÙĥÙĪÙĨØ¬Ø±Ø³": 7523,
      "ÙĪÙĥØ±Ø§ÙĨÙĬØ§": 7524,
      "ĠÙĪØ§ÙĦØ§Ø³Ø±Ø§Ø¦ÙĬÙĦÙĬ": 7525,
      "ĠØ¯ÙģØ¹Ø©": 7526,
      "ĠÙħØ¹Ø±Ø¨Ø§": 7527,
      "ĠÙĨØ¯ÙĪØ©": 7528,
      "ĠÙĬØ¹ÙĬØ´ÙĪÙĨ": 7529,
      "ĠØ§ÙĦØ£ØµÙĦÙĬ": 7530,
      "ĠÙħØªØŃÙģ": 7531,
      "ĠØ¹ØµØ§Ùħ": 7532,
      "ĠØªØ®ØµÙĬØµÙĩØ§": 7533,
      "ĠØ§ÙĦÙĤØ¨Ø¶": 7534,
      "ĠÙĪØŃØ¯ÙĩØ§": 7535,
      "ĠÙģØ§Ø²Øª": 7536,
      "ĠÙĩÙĨØ±ÙĬ": 7537,
      "ĠÙĦÙĦØ§ÙĨØªØ®Ø§Ø¨Ø§Øª": 7538,
      "ĠØ±ÙĪÙħØ§ÙĨÙĬØ§": 7539,
      "ĠØ§ÙĦÙħØªÙĩÙħÙĬÙĨ": 7540,
      "ĠØ§ÙĦØ§ÙĬØ·Ø§ÙĦÙĬ": 7541,
      "ĠØ¥Ø²Ø§Ø¡": 7542,
      "ĠØ§ÙĦÙĩÙĬØ¦Ø§Øª": 7543,
      "ĠØ§ÙĦØ§Ø³ÙĥØªÙĦÙĨØ¯ÙĬ": 7544,
      "ĠÙħÙħØ§Ø«ÙĦØ©": 7545,
      "ĠØ¨Ø±ÙĪØªÙĪÙĥÙĪÙĦ": 7546,
      "ĠØ§ÙĦÙħØ±Ø§ÙĤØ¨ÙĬÙĨ": 7547,
      "ĠØ§ÙĦØ£Ø±Ø¨Ø¹Ø§Ø¡": 7548,
      "ĠØ§ÙĦÙĪØ«Ø§Ø¦ÙĤ": 7549,
      "ĠÙħØ³Ø§ØŃØªÙĩØ§": 7550,
      "ĠØ§ÙĦÙĦØ§Ø¹Ø¨ÙĬÙĨ": 7551,
      "ĠÙħÙĤØ¹Ø¯Ø§": 7552,
      "ĠÙħØªÙĥØ§ÙħÙĦØ©": 7553,
      "ĠÙħÙĦØŃÙĪØ¸": 7554,
      "ĠØ§ÙĦÙħÙħÙĨÙĪØŃØ©": 7555,
      "ĠØ§ÙĦØŃÙĪØ§Ø¯Ø«": 7556,
      "ĠØ§ÙĦÙĦØ¬ÙĪØ¡": 7557,
      "ĠØ§ÙĦØ¬ÙħØ¹ÙĬØ§Øª": 7558,
      "ĠØ§ÙĦØ¶Ø±ÙĪØ±ÙĬØ©": 7559,
      "ĠØ§ÙĦØªÙĪØ±Ø¨ÙĬÙĨ": 7560,
      "ĠØ´ÙĬÙĥØ§ØºÙĪ": 7561,
      "ĠØ§ÙĦØ¥ÙĬØ¯Ø§Ø¹Ø§Øª": 7562,
      "ĠØ§ÙĦÙĩÙĪØºÙĪÙĨ": 7563,
      "ĠØ§ÙĦØªÙĨØ§ÙģØ³ÙĬØ©": 7564,
      "ĠÙħØ§ÙĦÙĬØ²ÙĬØ§": 7565,
      "ĠØ§ÙĦØ§Ø¨ÙĬØ¶": 7566,
      "ĠÙĪØ®ØµÙĪØµØ§": 7567,
      "ĠØ§ÙĦØªØ¹Ø¨ÙĬØ±": 7568,
      "ĠØ±ÙĪØ§ØªØ¨": 7569,
      "âĤ¬": 7570,
      "ĠØ§ÙĦÙĨØ¹ÙĬÙħÙĬ": 7571,
      "ÙĨÙĬÙĤÙĪØ³ÙĬØ§": 7572,
      "\",": 7573,
      "//": 7574,
      "34": 7575,
      "57": 7576,
      "ĠØ§Ø±Ø¬": 7577,
      "ÙĦØ¯": 7578,
      "Ø§ÙĦÙĬÙĨ": 7579,
      "ÙħØ¨": 7580,
      "ĠØ§ÙĦØ§ÙĦ": 7581,
      "ĠØ§ÙĦÙĦÙħ": 7582,
      "ÙĪÙĪØµÙģ": 7583,
      "ÙĪØ³Ø¨ÙĤ": 7584,
      "ÙĨØ¨ÙĬ": 7585,
      "ÙĨØ§Ø¯ÙĬ": 7586,
      "ØªØ¶": 7587,
      "ØªØ¯ÙĬ": 7588,
      "ØªØ¯Ø§Ø¯": 7589,
      "ÙģØ¨Ø±Ø§ÙĬØ±": 7590,
      "Ø¯ÙĪØ±Ø©": 7591,
      "ÙĩÙĬØ¯": 7592,
      "ÙĩØ§Ø¯ÙĬØ©": 7593,
      "ÙĥØ§Ùģ": 7594,
      "ÙĥØ§ÙĨÙĬ": 7595,
      "ĠÙħØ¦": 7596,
      "ĠÙħØ±ÙĪ": 7597,
      "ĠÙħÙĤØ¯": 7598,
      "ĠÙħØªØ¨": 7599,
      "ĠÙħÙĥÙĪÙĨ": 7600,
      "ĠÙħÙĥØª": 7601,
      "ĠÙħÙĬØª": 7602,
      "ĠÙħÙĬÙĦØ§": 7603,
      "ĠÙħÙĪØ¬ÙĪØ¯Ø©": 7604,
      "ĠÙħØ¨Ø±Ø±": 7605,
      "ĠÙħØ®ØªØ§Ø±": 7606,
      "Ø¨ÙĬÙĦ": 7607,
      "Ø¹Ø§Ùģ": 7608,
      "ĠÙĪÙħÙĦ": 7609,
      "ĠÙĪØ¨ÙĦ": 7610,
      "ĠÙĪØ¹ÙĦ": 7611,
      "ĠÙĪÙĪØµÙģ": 7612,
      "ĠØ¨Ø£Ø³": 7613,
      "ĠØ¨Ø±ÙĬØ·": 7614,
      "ĠØ¨ÙĤØ§Ø¡": 7615,
      "ĠØ¨Ø®ØµÙĪØµ": 7616,
      "Ø§ÙĨØ¦": 7617,
      "Ø§ÙĨØ¯ÙĬ": 7618,
      "ĠÙģØ±ÙĪØ¹": 7619,
      "ĠÙģÙĤØ§ÙĦ": 7620,
      "ĠÙģØªØ±Ø§Øª": 7621,
      "ØŃØ±": 7622,
      "ØŃÙģ": 7623,
      "ØŃØµÙĦ": 7624,
      "ØŃØ§ÙĪÙĦ": 7625,
      "ĠØ§ÙĦÙħØ¹ÙĦ": 7626,
      "ĠØ§ÙĦÙħÙĪØ§ÙĨ": 7627,
      "ĠØ§ÙĦÙħØ¨Ø¯Ø£": 7628,
      "ĠØ§ÙĦÙħØ¬ÙħØ¹": 7629,
      "ĠÙĦØ¨ÙĦ": 7630,
      "ĠÙĦÙĥÙĪÙĨ": 7631,
      "ĠÙĦØ¥ÙĨ": 7632,
      "ĠÙĦÙĬÙĦØ©": 7633,
      "ĠÙĦØ¨Ø±ÙĨØ§ÙħØ¬": 7634,
      "Ø§Ø±ÙĨ": 7635,
      "Ø§Ø±ØªÙģØ§Ø¹": 7636,
      "ĠØ¹Ø±ÙĪØ¶": 7637,
      "ĠØ¹Ø§Ø¯Øª": 7638,
      "ĠØ¹Ø·ÙĬØ©": 7639,
      "Ø¬Ø§Ø¯": 7640,
      "Ø¬Ø§Ø±Ø§Øª": 7641,
      "Ø¬ÙĬØ¨": 7642,
      "Ø¬Ø±Ø§Ø¡Ø§Øª": 7643,
      "Ø¬Ø±Ø¯": 7644,
      "Ø¬Ø¨Ùĩ": 7645,
      "ĠØªÙĩÙħ": 7646,
      "ĠØªØ§Ùĥ": 7647,
      "ĠØªÙĪÙĬ": 7648,
      "ĠØªÙĤØ±": 7649,
      "ĠØªØ¶Ø¹": 7650,
      "ĠØªØ³Ø¨Ø¨": 7651,
      "ĠØªØ¨ÙĬÙĨ": 7652,
      "ĠØªØ§Ø¨Ø¹": 7653,
      "ĠØªØªÙĬØŃ": 7654,
      "ĠØªØªØ¨Ø¹": 7655,
      "ĠØªÙħÙĨØ¹": 7656,
      "ÙĬÙĨÙĬØ§": 7657,
      "ĠØ£ÙĪØ¨": 7658,
      "ĠØ£Ø¯Øª": 7659,
      "ĠØ£Ø¬ÙĨØ¨ÙĬØ©": 7660,
      "ĠÙħÙĨØ·": 7661,
      "ĠÙħÙĨØ§Ùģ": 7662,
      "ĠÙħÙĨØ§Ø³Ø¨Ø©": 7663,
      "Ø§ÙħØ±": 7664,
      "Ø´Øª": 7665,
      "Ø´Ø¯": 7666,
      "Ø´ÙĬÙĨ": 7667,
      "ÙĪÙĦÙĩØ§": 7668,
      "ÙĪÙĦÙĥÙĨ": 7669,
      "ÙĪÙĦÙĬÙĨØ§": 7670,
      "ĠÙĬÙħØ±": 7671,
      "ĠÙĬØŃÙĬ": 7672,
      "ĠÙĬÙģØ±": 7673,
      "ĠÙĬØ·ÙĦØ¨": 7674,
      "ĠÙĬØ¶ÙħÙĨ": 7675,
      "ĠØ§ÙĦØªØ§ÙĦÙĬ": 7676,
      "ĠØ¥Ø«": 7677,
      "Ø±ÙĬØ§Ø¶": 7678,
      "Ø±ÙĬØ¶Ø©": 7679,
      "Ø®ÙĬØ±": 7680,
      "ĠØ³ÙĪØ¯": 7681,
      "ĠØ³Ø±ÙĬØ©": 7682,
      "ĠØ³ÙĦÙĬÙħ": 7683,
      "ĠØ³Ø§Ø¨ÙĤØ©": 7684,
      "ĠØ³ÙĥØ±Øª": 7685,
      "ĠØ³Ø·ØŃ": 7686,
      "ĠØ§ÙĦØ¹Ø«ÙĪØ±": 7687,
      "ĠØ§ÙĦØ¹Ø§Ø¦ÙĦØ§Øª": 7688,
      "ĠØŃØ«": 7689,
      "ĠØŃØ±ÙĬÙĤ": 7690,
      "ĠØŃÙģÙĦ": 7691,
      "ĠØŃÙĦÙħÙĬ": 7692,
      "ĠÙĪØ§ÙĦÙĬ": 7693,
      "ĠÙĪØ§ÙĦØ§ØŃ": 7694,
      "ĠÙĪØ§ÙĦØªÙī": 7695,
      "Ø°ÙĬØ±": 7696,
      "ĠÙĥÙĬÙħ": 7697,
      "ĠÙĥÙĨØ¹": 7698,
      "ĠÙĥØ§ÙħÙĦØ©": 7699,
      "ĠÙĤÙĪØ§ÙĨØº": 7700,
      "ÙĦÙĬÙĩ": 7701,
      "ÙĦÙĬØ²": 7702,
      "ÙĪØ±ØªÙĬ": 7703,
      "ĠØ§ÙĦØ£ØŃØ¯Ø§Ø«": 7704,
      "ÙĭÂ«.": 7705,
      "ØºÙĪØ±": 7706,
      "ĠÙĩÙĦØ§ÙĦ": 7707,
      "ĠÙĩÙĪÙĬØ©": 7708,
      "ĠÙĩØ§Ø±Ùģ": 7709,
      "ĠÙĩØ¨ÙĪØ·": 7710,
      "ĠÙĦÙĦØ·ÙĨ": 7711,
      "ĠÙĦÙĦÙĤÙĬØ§Ùħ": 7712,
      "ĠØ§ÙĨØŃ": 7713,
      "ĠÙĨØ¹": 7714,
      "ĠÙĨÙĬÙĥ": 7715,
      "ĠÙĨØ§ÙĤØ´": 7716,
      "ĠØ§ÙĦØ³ØªÙĬÙĨ": 7717,
      "ĠØ§ÙĦØ³Ø§Ø¨Ø¹": 7718,
      "ĠØ§ÙĦØ³Ø§Ø¹Ø§Øª": 7719,
      "ĠØ¬Ø¯ÙĬØ©": 7720,
      "ĠØ¬ÙĪØ§Ø¦Ø²": 7721,
      "ĠØ¯Ø§Ùħ": 7722,
      "ĠØ¯Ø§Ø¹": 7723,
      "ĠØ¯Ø§ÙĬ": 7724,
      "ĠØ¯ÙĪØ±ÙĬ": 7725,
      "ĠØ¯Ø§Ø¦Ùħ": 7726,
      "ĠØ£ÙĨØ§": 7727,
      "ĠØ§ÙĦØŃØ¬": 7728,
      "ĠØ§ÙĦØŃÙħÙĦ": 7729,
      "ĠØ§ÙĦØŃÙĦÙģ": 7730,
      "ĠØ§ÙĦØŃØ±ÙĬØ©": 7731,
      "ĠØ§ÙĦØŃØ¶ÙĪØ±": 7732,
      "ĠØ§ÙĦØŃØ±Ø§Ø¦ÙĤ": 7733,
      "ÙĬÙĦÙħ": 7734,
      "ĠØ±Ø§Ø¯": 7735,
      "ĠØ±Øº": 7736,
      "ĠØ±Ø§Ùģ": 7737,
      "ĠØ±Ø§ÙĬ": 7738,
      "ĠØ±Ø¹Ø§ÙĬØ©": 7739,
      "ĠØ±ØºØ¨Ø©": 7740,
      "ÙĪÙĤØ¹Ø§": 7741,
      "ÙĪÙĤØ§ÙĬØ©": 7742,
      "ĠØ®Ø²": 7743,
      "ĠØ®ÙĦÙĬ": 7744,
      "ĠØ®ÙĪØ±": 7745,
      "ĠØ®Ø¨Ø±": 7746,
      "ĠØ´ØŃÙĨ": 7747,
      "ĠØ´ÙĪØ§Ø±Ø¹": 7748,
      "Ø§ØŃØ¨": 7749,
      "Ø¦ÙĬØ§": 7750,
      "ĠØ§ÙĦØ¯ÙĪ": 7751,
      "ĠØ§ÙĦØ¨Ø¯ÙĪ": 7752,
      "ĠØ§ÙĦÙĤØ³": 7753,
      "ĠØ§ÙĦÙĤØ³Ùħ": 7754,
      "ĠØ§ÙĦÙĤØ·ÙĨ": 7755,
      "ĠØ§ÙĦÙĤØ¨Ø·": 7756,
      "ĠØ§ÙĦÙĤÙĪØ§Ø¹Ø¯": 7757,
      "ĠØ§ÙĦÙĤØ§Ø¨Ø¶Ø©": 7758,
      "Ø±Ø¨Ø§Øª": 7759,
      "Ø±Ø¨ÙĬÙĨ": 7760,
      "Ø¸Ø§Ø¦Ùģ": 7761,
      "ØªÙħÙĪÙĬÙĦ": 7762,
      "ØªÙħØ¹Ø§Øª": 7763,
      "Ø¹Ø¯Ø§Ùħ": 7764,
      "ĠØ¨Ø§ÙĦÙĩ": 7765,
      "ĠØ¨Ø§ÙĦØªÙģ": 7766,
      "ĠØ¨Ø§ÙĦØ¨ÙĨÙĥ": 7767,
      "ĠØ§ÙĦØ´Ø¯ÙĬØ¯": 7768,
      "ØµØ±Ø§Ø±": 7769,
      "ĠØ§ÙĦÙĨØ§Ø®": 7770,
      "ĠØ§ÙĦÙĨÙĪØ¹": 7771,
      "ĠØ§ÙĦÙĨØ¬Ø§ØŃ": 7772,
      "ĠØ§ÙĦÙģØ¬": 7773,
      "ĠØ§ÙĦÙģØ¶": 7774,
      "ĠØ§ÙĦÙģÙĨÙĬ": 7775,
      "ĠØ§ÙĦÙģÙĥØ±Ø©": 7776,
      "ĠØ§ÙĦÙģØŃØµ": 7777,
      "ĠØ§ÙĦÙģÙĪØ¶Ùī": 7778,
      "ĠØ§ÙĦÙģÙĬÙĦÙħ": 7779,
      "ÙĪØ¨ÙĬØ©": 7780,
      "ÙĪØ¨ÙĬÙĦ": 7781,
      "ÙħÙĨØ°": 7782,
      "Ø§ÙĬØªÙĩ": 7783,
      "ĠØ§ÙĦØµÙĪÙħ": 7784,
      "ĠØ§ÙĦØµÙĦØ©": 7785,
      "ĠØ§ÙĦØµØ¹ÙĪØ¯": 7786,
      "ĠØ§ÙĦØ®ÙĦØ§ÙĬØ§": 7787,
      "ĠØµØ¹ÙĪØ¯": 7788,
      "ĠØµØŃÙĬ": 7789,
      "ĠØµØ¯ÙĬÙĤ": 7790,
      "ĠØ§ÙĦØ¥Ø³Ø¨": 7791,
      "ĠØ§ÙĦØ¥Ø¹ÙĦ": 7792,
      "ĠØ§ÙĦØ°Ø§Øª": 7793,
      "ĠØ§ÙĦØ°ÙĩØ¨ÙĬØ©": 7794,
      "ÙģÙĬÙĪÙĨ": 7795,
      "Ø¥ÙĦÙī": 7796,
      "ĠØ§ÙĦÙĪÙģÙĬØ§Øª": 7797,
      "ÙĨÙĬÙĪÙĬÙĪØ±Ùĥ": 7798,
      "ĠØºØ¯": 7799,
      "ĠØºØ§ÙĦØ¨ÙĬ": 7800,
      "ĠØºØ³ÙĬÙĦ": 7801,
      "ĠØ·ÙĨØ§": 7802,
      "Ġ(...": 7803,
      "Ø³Ø¨Ø§Ø¨": 7804,
      "ĠØ§ÙĦÙĥÙĨ": 7805,
      "ĠØ§ÙĦÙĥÙĦØ§Ùħ": 7806,
      "ĠÙĦÙħØ´Ø±ÙĪØ¹": 7807,
      "Ø§ÙĩÙĨ": 7808,
      "Ø§Ø²ÙĬØ©": 7809,
      "ĠØ§Ø³ØªØ¬Ø§Ø¨Ø©": 7810,
      "Ø§ÙĨØªÙĩ": 7811,
      "ĠØ§ÙĦØ·ÙĪØ§Ø±": 7812,
      "Ø§Ø´Ø©": 7813,
      "ĠØ³ÙĬØ§Ø±Ø©": 7814,
      "ĠØ³ÙĬØ§Ø³ÙĬØ§": 7815,
      "ĠÙħØŃØª": 7816,
      "ĠÙħØŃØ§Ø¯Ø«": 7817,
      "ĠÙħØŃØªØ´ÙħÙĬ": 7818,
      "ĠÙĪØªØ®": 7819,
      "ĠÙĪØªØ¨ÙĦØº": 7820,
      "ÙĪØ§ÙĬØ§": 7821,
      "Ø¯ÙĬÙĪÙĨÙĬØ©": 7822,
      "ĠØ¶Ø®": 7823,
      "ĠØ¶Ø±Ø¨Ø©": 7824,
      "Ø§ÙĦÙĬÙĪÙĨ": 7825,
      "ĠÙĪØ²Ø§Ø¯": 7826,
      "ØªØ¨Ø§Ø¹": 7827,
      "ØªØ¨Ø·Ø©": 7828,
      "ÙĥØ±Ø§ÙĨÙĬØ§": 7829,
      "ĠØ²Ø§ÙħØ¨": 7830,
      "ØªØµØ¯Ø±": 7831,
      "Ø±Ø¶Øª": 7832,
      "ĠØ§ÙĦÙħØŃØ§Ùħ": 7833,
      "ĠØ§Ø¹ØªØ±Ùģ": 7834,
      "ĠØ§Ø¹ØªÙħØ§Ø¯": 7835,
      "ÙĬÙģÙĬØ©": 7836,
      "Ø´Ø±ØŃ": 7837,
      "ÙĨØ¯Ùī": 7838,
      "ĠØªØ¹ÙĤØ¯": 7839,
      "ĠØªØ¹ÙĨÙĬ": 7840,
      "ĠØªØ¹Ø±ÙĬÙģ": 7841,
      "ÙĪØªØ£ØªÙĬ": 7842,
      "ĠÙĪÙĤØ¨ÙĦ": 7843,
      "ĠØ§ÙĦÙĦØ§Øª": 7844,
      "ÙĪÙģØ§Ùĥ": 7845,
      "ÙĪÙģØ§Ø²": 7846,
      "ÙĪÙģÙĤØ§": 7847,
      "ĠØ§ÙĦØ§Ø³ØªØ´Ø§Ø±": 7848,
      "ĠØ§ÙĦÙħØ³Ø±ØŃ": 7849,
      "ĠØ§ÙĦÙħØ³Ø§ÙģØ±ÙĬÙĨ": 7850,
      "Ġ37": 7851,
      "Ġ350": 7852,
      "Ø¨Ø¯Ùī": 7853,
      "ĠØ£ÙĪØ¶ØŃ": 7854,
      "Ø«Ø±Øª": 7855,
      "ĠØ§ÙħÙĦÙĩ": 7856,
      "ĠØ§ÙĦØºØ±ÙģØ©": 7857,
      "ĠØ§ÙĦØºØ§ÙĦØ¨ÙĬØ©": 7858,
      "Ø²ÙĬÙħØ©": 7859,
      "Ø²ÙĬØ¦Ø§Øª": 7860,
      "ĠØ§ÙĦØ£ÙħØ§Ø²ÙĪÙĨ": 7861,
      "ĠÙĪØ§ÙĦÙħØ¬": 7862,
      "ĠÙĪØ§ÙĦÙħØ¹ÙĦÙĪÙħØ§Øª": 7863,
      "ĠÙħØµÙĨ": 7864,
      "ĠÙĪØ£ÙĪØ¶ØŃ": 7865,
      "ĠØ§ÙĦÙħÙĤØªØ±ØŃ": 7866,
      "ĠØ§ÙĦÙħØ¹ÙĪÙĨØ©": 7867,
      "ĠØ§ÙĦÙħØ¹Ø§ÙĬÙĬØ±": 7868,
      "ĠØ§ÙĦØ³ÙĬØ§ØŃ": 7869,
      "ĠØ§ÙĦØ³ÙĬÙĪÙĦØ©": 7870,
      "ĠØ§ÙĦØ³ÙĬØ§Ø³ÙĬÙĬÙĨ": 7871,
      "ĠØ¨ÙĦØ¬ÙĬÙĥØ§": 7872,
      "ĠØªÙĨØ´ÙĬØ·": 7873,
      "ØŃÙĪØ§Ø°": 7874,
      "ĠØ¢Ø°Ø§Ø±": 7875,
      "ĠØ§ÙĦÙħØªØ´": 7876,
      "ĠØ§ÙĦÙħØªØ¶Ø±": 7877,
      "ĠØ§ÙĦÙħØµØ±ÙĬÙĪÙĨ": 7878,
      "ĠÙĪØ¬ÙĪÙĨ": 7879,
      "ĠØ¨ÙħØ±ÙĥØ²": 7880,
      "ÙĥØªØ§Ø¨": 7881,
      "ĠÙħØ³ØªÙĤÙĦ": 7882,
      "ĠØªØ´Ø±ÙĬØ¹": 7883,
      "ÙĦÙĤØ§Øª": 7884,
      "ĠÙĦÙĦÙħØ¹": 7885,
      "ĠÙħØ±Ø§Ø¯": 7886,
      "ĠÙħØ±ØªÙģØ¹Ø©": 7887,
      "ĠØ§ÙĦÙħÙĪØ§Ø¶ÙĬØ¹": 7888,
      "ĠØ³ØªØªÙħ": 7889,
      "Ø£Ø³ÙħØ§ÙĦ": 7890,
      "ĠØ¹Ø¯Ø¯ÙĩØ§": 7891,
      "ĠÙħØªÙĪ": 7892,
      "ĠÙħØªØ³": 7893,
      "ĠÙħØªÙĪØ¬ÙĩØ§": 7894,
      "ĠØªØ±Ø¯": 7895,
      "ĠØªØ±Ùī": 7896,
      "ĠØªØ±Ø§ÙĨ": 7897,
      "ĠØªÙĤÙģ": 7898,
      "ĠØªÙĤØ§Ùħ": 7899,
      "ĠÙĬØªÙĪÙĦÙī": 7900,
      "ĠÙĪÙĬØ³Øª": 7901,
      "Ø¸Ø±Ø§": 7902,
      "ÙģØ·Ø§Ø±": 7903,
      "ĠØªØµØ¨ØŃ": 7904,
      "ĠØªØµØ¹ÙĬØ¯": 7905,
      "ĠØªØ¬Ø§Ø±": 7906,
      "ĠØªØ¬Ø§Ø±ÙĬ": 7907,
      "ĠØªØ¬Ø§Ø±Ø¨": 7908,
      "ĠØ§ÙĥØ³ØªØ±ÙĬ": 7909,
      "ĠÙĪØŃØ²Ø¨": 7910,
      "ĠØªØªØ·ÙĦØ¨": 7911,
      "ĠØªØªØ®Ø°": 7912,
      "ĠØ£Ø³Ø§Ø³ÙĬ": 7913,
      "ĠØ§ÙĦÙħØ¯ÙģÙĪØ¹": 7914,
      "Ġ66": 7915,
      "ĠØ§ÙĦØ§ÙĪØ±Ø¨Ùī": 7916,
      "ĠÙĪØ³ÙĬÙĦØ©": 7917,
      "ĠÙĪÙħÙĨØ·ÙĤØ©": 7918,
      "ĠØ§ÙĦÙĪØ·ÙĨ": 7919,
      "ĠÙĬÙħÙĥÙĨÙĩØ§": 7920,
      "ĠÙħØ¯ÙĨÙĬØ©": 7921,
      "ĠØ§ÙģØºØ§ÙĨØ³ØªØ§ÙĨ": 7922,
      "ĠØªØ³ÙĪÙĬØ©": 7923,
      "ĠØªØ³ÙĩÙĬÙĦ": 7924,
      "ĠØ¨Ø£ÙĨÙĩÙħ": 7925,
      "ĠØ¨ØªØ³": 7926,
      "ĠØªØ¯Ø§ÙĪÙĦ": 7927,
      "ĠØ§ÙĦØ³Ø¹ÙĪØ¯ÙĬÙĬÙĨ": 7928,
      "Ø·ÙĦØ§Ø¨": 7929,
      "ĠØ§ÙĦØµØŃØ§ÙģÙĬ": 7930,
      "ĠØ§ÙĦÙħØ¨Ø§ÙĨÙĬ": 7931,
      "ĠÙĪØ§ÙĦØªÙĤ": 7932,
      "ĠØµØŃÙĬØ©": 7933,
      "ÙĪØŃÙĪÙĦ": 7934,
      "ÙĪÙģÙĬÙħØ§": 7935,
      "ĠØ§ÙĦØ¨ØŃØ§Ø±Ø©": 7936,
      "ĠÙĪØ±ÙĤØ©": 7937,
      "ĠÙħÙĦØ§Ø¨Ø³": 7938,
      "ĠÙĦØ¥Ø¹Ø§Ø¯Ø©": 7939,
      "Ġ1993": 7940,
      "ĠØ¹ÙħÙĦÙĬØ§": 7941,
      "ĠØªÙģØ±Ø¶": 7942,
      "ĠØ§ÙĦÙĦØ¨ÙĨØ§ÙĨÙī": 7943,
      "ĠØ¹ÙĤØ¯Ø§": 7944,
      "ĠØ¨ÙĪØ¶Ø¹": 7945,
      "ĠÙħØ³Ø¤ÙĪÙĦÙĬ": 7946,
      "Ø³ÙĥÙĬ": 7947,
      "ĠØ§ÙĦØ´Ø±ÙĤÙĬ": 7948,
      "ĠÙĬØ´Ø¨Ùĩ": 7949,
      "ĠÙĬØ´ØºÙĦ": 7950,
      "Ø³ÙĦØŃ": 7951,
      "ĠØªØŃØªÙĪÙĬ": 7952,
      "ĠØ¨Ø§ÙĦÙħØ§Ø¦Ø©": 7953,
      "ÙĪÙĩØ°Ø§": 7954,
      "ĠØ§ØµØ§Ø¨": 7955,
      "ĠØ§ØµÙĬØ¨": 7956,
      "ĠØ§ØµÙĦØ§ØŃ": 7957,
      "ĠÙĬØ¯Ø±Ùĥ": 7958,
      "ĠÙĬØ¯Ø¹Ùħ": 7959,
      "ĠØ§ÙĦØ¬Ø§ÙĨØ¨Ø§ÙĨ": 7960,
      "ĠÙĪØ§ÙĦÙĨÙĤÙĦ": 7961,
      "ĠÙĦÙĦØªÙĪØµÙĦ": 7962,
      "ĠØ·ÙĦØ¨Ø§": 7963,
      "ĠØ¨Ø¹Ø«": 7964,
      "ĠØ¨Ø¹Ø«Ø©": 7965,
      "ĠØ§ÙĦØªØ´Ø§ÙĪØ±": 7966,
      "ĠØ´Ø§Ø±Ø¹": 7967,
      "ĠÙĦÙĦØ´Ø¹Ø¨": 7968,
      "ÙĦØ§ÙĨØ¯": 7969,
      "ĠÙĪØ§ÙĦØµÙĬÙĨ": 7970,
      "Ø®Ø°Øª": 7971,
      "ĠÙĦØªØŃØ³ÙĬÙĨ": 7972,
      "ĠÙĦØªØŃØ±ÙĬØ±": 7973,
      "ĠØ±ÙģØ¶Ùĩ": 7974,
      "Ø²Ø§ÙħÙĨ": 7975,
      "ĠØ§ÙĦØªØ±ÙĥÙī": 7976,
      "ĠÙĦÙĤØ§ÙĨÙĪÙĨ": 7977,
      "ĠÙĪØ§ÙĦØ°ÙĬÙĨ": 7978,
      "ÙĪÙĦÙĪØ¬ÙĬØ©": 7979,
      "ĠØ§ÙĦØ§Ø¯ÙĨÙī": 7980,
      "ĠÙħØµØ¯Ø±Ø§": 7981,
      "ĠØ§ÙĦÙħØ®ØªØµ": 7982,
      "ØªÙģØ¹ÙĬÙĦ": 7983,
      "ĠÙĪØºÙĬØ±ÙĩÙħ": 7984,
      "Ø§ÙĦÙģØ§Øª": 7985,
      "ÙĩØ§Ø¦ÙĬØ§Øª": 7986,
      "ĠÙħØ®Ø§Ø·Ø±": 7987,
      "ĠØ§Ø³ÙħØ§Ø¹ÙĬÙĦ": 7988,
      "ĠÙĪØªÙħØ«ÙĦ": 7989,
      "ĠØ¯Ø¹ÙĪÙī": 7990,
      "ĠØ§ÙĦÙĨÙĤØ§Ø¨Ø©": 7991,
      "ĠØ§ÙĦØ§Ø·Ø¨Ø§Ø¡": 7992,
      "ĠØ´Ø¹Ø¨Ø©": 7993,
      "ĠØ´Ø¹Ø¨ÙĬØ©": 7994,
      "ĠØŃÙĥÙĪÙħÙĬ": 7995,
      "ØªÙĥØ§Ø±": 7996,
      "ĠØŃØ±Ø¨Ø§": 7997,
      "ĠÙĤÙĨÙĪØ§Øª": 7998,
      "Ø¨ÙĦÙĪÙħØ§Ø³ÙĬ": 7999,
      "ĠÙĦØ³ÙĪØ±ÙĬØ§": 8000,
      "ĠÙĬÙģØªØ±Ø¶": 8001,
      "ĠØ´Ø£ÙĨÙĩ": 8002,
      "ĠØ§ÙĦØ§Ø³Ø¨Ø§ÙĨÙĬØ©": 8003,
      "ĠÙĦÙĦÙģÙĪØ²": 8004,
      "ÙĪÙĬÙĤÙĪÙĦ": 8005,
      "ĠØ¨Ø§ÙĦØ¹ÙħÙĦ": 8006,
      "ĠØ§ÙĦØ§Ø±ÙĩØ§Ø¨ÙĬØ©": 8007,
      "ĠØŃØ¯ÙĬØ«Ø§": 8008,
      "ĠØ§Ø²ÙħØ©": 8009,
      "ĠÙĬÙĥÙģÙĬ": 8010,
      "ĠØ§ØŃØªÙĬØ§Ø·Ø§Øª": 8011,
      "Ø§ÙĦÙĨØ³Ø¨Ø©": 8012,
      "Ø§ÙĨØ¯Ø±ÙĬÙĪ": 8013,
      "ÙĪØµÙĦØª": 8014,
      "ĠØ¨Ø¯Ø¡Ø§": 8015,
[...]
