{
  "version": "1.0",
  "truncation": null,
  "padding": null,
  "added_tokens": [
    {
      "id": 0,
      "content": "<unk>",
      "single_word": false,
      "lstrip": false,
      "rstrip": false,
      "normalized": false,
      "special": true
    },
    {
      "id": 1,
      "content": "<pad>",
      "single_word": false,
      "lstrip": false,
      "rstrip": false,
      "normalized": false,
      "special": true
    },
    {
      "id": 2,
      "content": "<bos>",
      "single_word": false,
      "lstrip": false,
      "rstrip": false,
      "normalized": false,
      "special": true
    },
    {
      "id": 3,
      "content": "<eos>",
      "single_word": false,
      "lstrip": false,
      "rstrip": false,
      "normalized": false,
      "special": true
    }
  ],
  "normalizer": {
    "type": "NFC"
  },
  "pre_tokenizer": {
    "type": "ByteLevel",
    "add_prefix_space": false,
    "trim_offsets": true,
    "use_regex": true
  },
  "post_processor": null,
  "decoder": {
    "type": "ByteLevel",
    "add_prefix_space": true,
    "trim_offsets": true,
    "use_regex": true
  },
  "model": {
    "type": "BPE",
    "dropout": null,
    "unk_token": "<unk>",
    "continuing_subword_prefix": null,
    "end_of_word_suffix": null,
    "fuse_unk": false,
    "byte_fallback": false,
    "ignore_merges": false,
    "vocab": {
      "<unk>": 0,
      "<pad>": 1,
      "<bos>": 2,
      "<eos>": 3,
      "!": 4,
      "\"": 5,
      "#": 6,
      "$": 7,
      "%": 8,
      "&": 9,
      "'": 10,
      "(": 11,
      ")": 12,
      "*": 13,
      "+": 14,
      ",": 15,
      "-": 16,
      ".": 17,
      "/": 18,
      "0": 19,
      "1": 20,
      "2": 21,
      "3": 22,
      "4": 23,
      "5": 24,
      "6": 25,
      "7": 26,
      "8": 27,
      "9": 28,
      ":": 29,
      ";": 30,
      "<": 31,
      "=": 32,
      ">": 33,
      "?": 34,
      "@": 35,
      "A": 36,
      "B": 37,
      "C": 38,
      "D": 39,
      "E": 40,
      "F": 41,
      "G": 42,
      "H": 43,
      "I": 44,
      "J": 45,
      "K": 46,
      "L": 47,
      "M": 48,
      "N": 49,
      "O": 50,
      "P": 51,
      "Q": 52,
      "R": 53,
      "S": 54,
      "T": 55,
      "U": 56,
      "V": 57,
      "W": 58,
      "X": 59,
      "Y": 60,
      "Z": 61,
      "[": 62,
      "\\": 63,
      "]": 64,
      "^": 65,
      "_": 66,
      "`": 67,
      "a": 68,
      "b": 69,
      "c": 70,
      "d": 71,
      "e": 72,
      "f": 73,
      "g": 74,
      "h": 75,
      "i": 76,
      "j": 77,
      "k": 78,
      "l": 79,
      "m": 80,
      "n": 81,
      "o": 82,
      "p": 83,
      "q": 84,
      "r": 85,
      "s": 86,
      "t": 87,
      "u": 88,
      "v": 89,
      "w": 90,
      "x": 91,
      "y": 92,
      "z": 93,
      "{": 94,
      "|": 95,
      "}": 96,
      "~": 97,
      "¡": 98,
      "¢": 99,
      "£": 100,
      "¤": 101,
      "¥": 102,
      "¦": 103,
      "§": 104,
      "¨": 105,
      "©": 106,
      "ª": 107,
      "«": 108,
      "¬": 109,
      "®": 110,
      "¯": 111,
      "°": 112,
      "±": 113,
      "²": 114,
      "³": 115,
      "´": 116,
      "µ": 117,
      "¶": 118,
      "·": 119,
      "¸": 120,
      "¹": 121,
      "º": 122,
      "»": 123,
      "¼": 124,
      "½": 125,
      "¾": 126,
      "¿": 127,
      "À": 128,
      "Á": 129,
      "Â": 130,
      "Ã": 131,
      "Ä": 132,
      "Å": 133,
      "Æ": 134,
      "Ç": 135,
      "È": 136,
      "É": 137,
      "Ê": 138,
      "Ë": 139,
      "Ì": 140,
      "Í": 141,
      "Î": 142,
      "Ï": 143,
      "Ð": 144,
      "Ñ": 145,
      "Ò": 146,
      "Ó": 147,
      "Ô": 148,
      "Õ": 149,
      "Ö": 150,
      "×": 151,
      "Ø": 152,
      "Ù": 153,
      "Ú": 154,
      "Û": 155,
      "Ü": 156,
      "Ý": 157,
      "Þ": 158,
      "ß": 159,
      "à": 160,
      "á": 161,
      "â": 162,
      "ã": 163,
      "ä": 164,
      "å": 165,
      "æ": 166,
      "ç": 167,
      "è": 168,
      "é": 169,
      "ê": 170,
      "ë": 171,
      "ì": 172,
      "í": 173,
      "î": 174,
      "ï": 175,
      "ð": 176,
      "ñ": 177,
      "ò": 178,
      "ó": 179,
      "ô": 180,
      "õ": 181,
      "ö": 182,
      "÷": 183,
      "ø": 184,
      "ù": 185,
      "ú": 186,
      "û": 187,
      "ü": 188,
      "ý": 189,
      "þ": 190,
      "ÿ": 191,
      "Ā": 192,
      "ā": 193,
      "Ă": 194,
      "ă": 195,
      "Ą": 196,
      "ą": 197,
      "Ć": 198,
      "ć": 199,
      "Ĉ": 200,
      "ĉ": 201,
      "Ċ": 202,
      "ċ": 203,
      "Č": 204,
      "č": 205,
      "Ď": 206,
      "ď": 207,
      "Đ": 208,
      "đ": 209,
      "Ē": 210,
      "ē": 211,
      "Ĕ": 212,
      "ĕ": 213,
      "Ė": 214,
      "ė": 215,
      "Ę": 216,
      "ę": 217,
      "Ě": 218,
      "ě": 219,
      "Ĝ": 220,
      "ĝ": 221,
      "Ğ": 222,
      "ğ": 223,
      "Ġ": 224,
      "ġ": 225,
      "Ģ": 226,
      "ģ": 227,
      "Ĥ": 228,
      "ĥ": 229,
      "Ħ": 230,
      "ħ": 231,
      "Ĩ": 232,
      "ĩ": 233,
      "Ī": 234,
      "ī": 235,
      "Ĭ": 236,
      "ĭ": 237,
      "Į": 238,
      "į": 239,
      "İ": 240,
      "ı": 241,
      "Ĳ": 242,
      "ĳ": 243,
      "Ĵ": 244,
      "ĵ": 245,
      "Ķ": 246,
      "ķ": 247,
      "ĸ": 248,
      "Ĺ": 249,
      "ĺ": 250,
      "Ļ": 251,
      "ļ": 252,
      "Ľ": 253,
      "ľ": 254,
      "Ŀ": 255,
      "ŀ": 256,
      "Ł": 257,
      "ł": 258,
      "Ń": 259,
      "Ġt": 260,
      "Ġa": 261,
      "he": 262,
      "in": 263,
      "re": 264,
      "Ġthe": 265,
      "on": 266,
      "Ġw": 267,
      "Ġs": 268,
      "er": 269,
      "at": 270,
      "Ġo": 271,
      "nd": 272,
      "ou": 273,
      "Ġc": 274,
      "it": 275,
      "is": 276,
      "Ġb": 277,
      "or": 278,
      "Ġf": 279,
      "en": 280,
      "an": 281,
      "es": 282,
      "ed": 283,
      "Ġp": 284,
      "Ġm": 285,
      "ing": 286,
      "Ġto": 287,
      "al": 288,
      "Ġand": 289,
      "Ġin": 290,
      "Ġof": 291,
      "ar": 292,
      "Ġd": 293,
      "Ġh": 294,
      "Ġth": 295,
      "as": 296,
      "ic": 297,
      "Ġl": 298,
      "om": 299,
      "ion": 300,
      "ll": 301,
      "Ġn": 302,
      "le": 303,
      "Ġg": 304,
      "ve": 305,
      "Ġy": 306,
      "Ġe": 307,
      "Ġre": 308,
      "st": 309,
      "ent": 310,
      "Ġbe": 311,
      "ly": 312,
      "ot": 313,
      "Ġyou": 314,
      "ĠI": 315,
      "Ġis": 316,
      "ut": 317,
      "ow": 318,
      "et": 319,
      "Ġthat": 320,
      "ac": 321,
      "ay": 322,
      "Ġon": 323,
      "ro": 324,
      "id": 325,
      "Ġfor": 326,
      "se": 327,
      "Ġha": 328,
      "Ġit": 329,
      "im": 330,
      "ver": 331,
      "ld": 332,
      "Ġu": 333,
      "ur": 334,
      "ig": 335,
      "ct": 336,
      "am": 337,
      "Ġwe": 338,
      "ir": 339,
      "ĠS": 340,
      "Ġst": 341,
      "Ġhe": 342,
      "The": 343,
      "ation": 344,
      "ad": 345,
      "Ġwh": 346,
      "ce": 347,
      "ke": 348,
      "ith": 349,
      "ĠC": 350,
      "ĠA": 351,
      "Ġwas": 352,
      "Ġan": 353,
      "Ġwith": 354,
      "Ġas": 355,
      "oo": 356,
      "il": 357,
      "ill": 358,
      "ch": 359,
      "ter": 360,
      "'s": 361,
      "Ġare": 362,
      "if": 363,
      "Ġhave": 364,
      "ĠM": 365,
      "âĢ": 366,
      "Ġat": 367,
      "ra": 368,
      "ĠP": 369,
      "her": 370,
      "est": 371,
      "ge": 372,
      "ht": 373,
      "ul": 374,
      "Ġnot": 375,
      "ould": 376,
      "Ġcon": 377,
      "ol": 378,
      "op": 379,
      "Ġfr": 380,
      "em": 381,
      "Ġor": 382,
      "Ġthis": 383,
      "ant": 384,
      "ist": 385,
      "th": 386,
      "Ġpro": 387,
      "us": 388,
      "Ġse": 389,
      "ate": 390,
      "ers": 391,
      "ore": 392,
      "Ġde": 393,
      "Ġne": 394,
      "Ġ1": 395,
      "Ġex": 396,
      "00": 397,
      "ĠB": 398,
      "--": 399,
      "Ġcom": 400,
      "qu": 401,
      "Ġdo": 402,
      "ust": 403,
      "ri": 404,
      "Ġme": 405,
      "pe": 406,
      "Ġsu": 407,
      "ess": 408,
      "Ġli": 409,
      "Ġ(": 410,
      "Ġk": 411,
      "Ġr": 412,
      "ie": 413,
      "nt": 414,
      "ity": 415,
      "Ġal": 416,
      "ment": 417,
      "ain": 418,
      "ĠT": 419,
      "ight": 420,
      "and": 421,
      "res": 422,
      "ab": 423,
      "Ġfrom": 424,
      "Ġby": 425,
      "Ġthey": 426,
      "ome": 427,
      "Ġj": 428,
      "pp": 429,
      "Ġ2": 430,
      "Ġcan": 431,
      "ally": 432,
      "ort": 433,
      "all": 434,
      "Ġv": 435,
      "Ġsh": 436,
      "ive": 437,
      "Ġso": 438,
      "os": 439,
      "ies": 440,
      "Ġwor": 441,
      "um": 442,
      "ĠN": 443,
      "ĠE": 444,
      "Ġwill": 445,
      "ĠD": 446,
      "Ġmy": 447,
      "el": 448,
      "art": 449,
      "un": 450,
      "..": 451,
      "Ġab": 452,
      "'t": 453,
      "ĠG": 454,
      "ĠF": 455,
      "Ġbut": 456,
      "out": 457,
      "ice": 458,
      "Ġall": 459,
      "Ġyour": 460,
      "ĠL": 461,
      "ĠH": 462,
      "ast": 463,
      "Ġch": 464,
      "ard": 465,
      "Ġgo": 466,
      "ood": 467,
      "red": 468,
      "rou": 469,
      "Ġlike": 470,
      "Th": 471,
      "ack": 472,
      "Ġpl": 473,
      "ĠR": 474,
      "Ġle": 475,
      "ĠW": 476,
      "ud": 477,
      "very": 478,
      "oc": 479,
      "ich": 480,
      "now": 481,
      "ak": 482,
      "Ġwhe": 483,
      "one": 484,
      "our": 485,
      "ost": 486,
      "ect": 487,
      "Ġwould": 488,
      "od": 489,
      "Ġout": 490,
      "Ġhas": 491,
      "Ġ\"": 492,
      "Ġthere": 493,
      "ake": 494,
      "per": 495,
      "ff": 496,
      "pt": 497,
      "ĠU": 498,
      "iv": 499,
      "Ġknow": 500,
      "ry": 501,
      "Ġint": 502,
      "gh": 503,
      "ure": 504,
      "ions": 505,
      "ks": 506,
      "ine": 507,
      "Ġone": 508,
      "ong": 509,
      "ide": 510,
      "ther": 511,
      "ime": 512,
      "au": 513,
      "ind": 514,
      "Ġup": 515,
      "ĠJ": 516,
      "Ġhad": 517,
      "reat": 518,
      "ans": 519,
      "ci": 520,
      "Ġhis": 521,
      "Ġabout": 522,
      "ber": 523,
      "age": 524,
      "ear": 525,
      "ame": 526,
      "Ġtheir": 527,
      "Ġwere": 528,
      "act": 529,
      "Ġad": 530,
      "ag": 531,
      "Ġwhich": 532,
      "ace": 533,
      "Ġus": 534,
      "Ġany": 535,
      "Ġsome": 536,
      "It": 537,
      "Ġget": 538,
      "ous": 539,
      "Ġwho": 540,
      "Ġif": 541,
      "ĠâĢ": 542,
      "Ġwhat": 543,
      "âĢĻ": 544,
      "Ġjust": 545,
      "pl": 546,
      "Ġpe": 547,
      "king": 548,
      "so": 549,
      "We": 550,
      "ere": 551,
      "Ġen": 552,
      "Ġpr": 553,
      "Ġqu": 554,
      "Ġag": 555,
      "ven": 556,
      "Ġour": 557,
      "ite": 558,
      "Ġbeen": 559,
      "og": 560,
      "Ġtime": 561,
      "ia": 562,
      "ated": 563,
      "Ġfe": 564,
      "Ġ-": 565,
      "Ġthem": 566,
      "ays": 567,
      "Ġother": 568,
      "ase": 569,
      "Ġmore": 570,
      "Ġtr": 571,
      "Ġcl": 572,
      "iz": 573,
      "ue": 574,
      "Ġcomp": 575,
      "ary": 576,
      "Ġbec": 577,
      "ib": 578,
      "Ġman": 579,
      "Ġcont": 580,
      "Ġam": 581,
      "Ġim": 582,
      "ĠO": 583,
      "ause": 584,
      "ople": 585,
      "Ġar": 586,
      "Ġsa": 587,
      "ap": 588,
      "cc": 589,
      "Ġres": 590,
      "Ġun": 591,
      "erv": 592,
      "Ġyear": 593,
      "are": 594,
      "ence": 595,
      "able": 596,
      "ount": 597,
      "ail": 598,
      "ose": 599,
      "Ġoff": 600,
      "Ġdis": 601,
      "mer": 602,
      "----": 603,
      "Ġte": 604,
      "ond": 605,
      "Ġwhen": 606,
      "!!": 607,
      "ĠSt": 608,
      "ult": 609,
      "Ġalso": 610,
      "ink": 611,
      "Ġpeople": 612,
      "ĠK": 613,
      "ical": 614,
      "And": 615,
      "ian": 616,
      "oll": 617,
      "Ġdon": 618,
      "cl": 619,
      "Ġover": 620,
      "Ġno": 621,
      "Ġwant": 622,
      "ep": 623,
      "__": 624,
      "itt": 625,
      "In": 626,
      "ire": 627,
      "Ġtw": 628,
      "com": 629,
      "ub": 630,
      "ĠCh": 631,
      "nder": 632,
      "ress": 633,
      "ook": 634,
      "ign": 635,
      "ance": 636,
      "ass": 637,
      "ree": 638,
      "ip": 639,
      "Ġsp": 640,
      "Ġpart": 641,
      "ah": 642,
      "ob": 643,
      "Ġdid": 644,
      "Ġvery": 645,
      "irst": 646,
      "You": 647,
      "ial": 648,
      "hed": 649,
      "Ġper": 650,
      "Ġthan": 651,
      "Ġher": 652,
      "hing": 653,
      "Ġwork": 654,
      "ations": 655,
      "ang": 656,
      "ick": 657,
      "orm": 658,
      "Ġnew": 659,
      "fter": 660,
      "ru": 661,
      "ile": 662,
      "Ġgood": 663,
      "av": 664,
      "Ġinto": 665,
      "own": 666,
      "port": 667,
      "vel": 668,
      "Ġshe": 669,
      "ove": 670,
      "end": 671,
      "ne": 672,
      "Ġatt": 673,
      "Ġneed": 674,
      "Ġthen": 675,
      "Ġcould": 676,
      "Ġro": 677,
      "Ġpre": 678,
      "Ġcall": 679,
      "Ġhim": 680,
      "Ġonly": 681,
      "Ġits": 682,
      "ings": 683,
      "Ġback": 684,
      "Ġ19": 685,
      "Ġhow": 686,
      "Ġact": 687,
      "Ġbecause": 688,
      "Ġfirst": 689,
      "day": 690,
      "uc": 691,
      "ens": 692,
      "This": 693,
      "ish": 694,
      "Ġbet": 695,
      "ory": 696,
      "ach": 697,
      "ough": 698,
      "Ġmay": 699,
      "ĠThe": 700,
      "Ġsee": 701,
      "Ġtwo": 702,
      "'m": 703,
      "ord": 704,
      "Ġspe": 705,
      "ates": 706,
      "wn": 707,
      "Ġ3": 708,
      "Ġapp": 709,
      "round": 710,
      "Ġsaid": 711,
      "ons": 712,
      "ade": 713,
      "Ġnow": 714,
      "ater": 715,
      "iff": 716,
      "He": 717,
      "vers": 718,
      "Ġunder": 719,
      "lic": 720,
      "ited": 721,
      "ors": 722,
      "Ġthink": 723,
      "They": 724,
      "uch": 725,
      "int": 726,
      "ition": 727,
      "Ġshould": 728,
      "Ġ200": 729,
      "Wh": 730,
      "==": 731,
      "...": 732,
      "ound": 733,
      "Ġevery": 734,
      "Ġmake": 735,
      "If": 736,
      "Ġ20": 737,
      "Ġthese": 738,
      "fore": 739,
      "Ġafter": 740,
      "we": 741,
      "igh": 742,
      "tern": 743,
      "ĠUn": 744,
      ").": 745,
      "Ġeven": 746,
      "Ġgu": 747,
      "Ġserv": 748,
      "ning": 749,
      "ple": 750,
      "Ġfl": 751,
      "'re": 752,
      "Ġway": 753,
      "So": 754,
      "ty": 755,
      "ble": 756,
      "ild": 757,
      "Ġrec": 758,
      "li": 759,
      "Ġgreat": 760,
      "**": 761,
      "ction": 762,
      "Ġsc": 763,
      "ious": 764,
      "lp": 765,
      "Ġmost": 766,
      "Ġtoo": 767,
      "ov": 768,
      "ark": 769,
      "Ġwell": 770,
      "Ġbl": 771,
      "aw": 772,
      "ident": 773,
      "ces": 774,
      "Ġ[": 775,
      "other": 776,
      "Ġreg": 777,
      "Ġagain": 778,
      "oy": 779,
      "Ġinf": 780,
      "Ġhelp": 781,
      "Ġright": 782,
      "Ġgoing": 783,
      "ec": 784,
      "Ġdiff": 785,
      "Ġmany": 786,
      "ull": 787,
      "Ġsay": 788,
      "Ġhere": 789,
      "Ġcomm": 790,
      "ities": 791,
      "ments": 792,
      "ject": 793,
      "Ġtake": 794,
      "000": 795,
      "Ġadd": 796,
      "iss": 797,
      "ĠV": 798,
      "Ġuse": 799,
      "Ġmuch": 800,
      "als": 801,
      "meric": 802,
      "Ġacc": 803,
      "ict": 804,
      "hen": 805,
      "Ġreally": 806,
      "iew": 807,
      "Ġyears": 808,
      "ft": 809,
      "land": 810,
      "ath": 811,
      "omet": 812,
      "ents": 813,
      "ational": 814,
      "Ġpos": 815,
      "Ġday": 816,
      "ĠâĢĶ": 817,
      "Ġpo": 818,
      "Ġph": 819,
      "Ġdes": 820,
      "ily": 821,
      "te": 822,
      "But": 823,
      "lease": 824,
      "sel": 825,
      "Ġwhere": 826,
      "ew": 827,
      "Ġplace": 828,
      "ool": 829,
      "Ġlet": 830,
      "Ġrem": 831,
      "urn": 832,
      "Ġsm": 833,
      "ght": 834,
      "ran": 835,
      "ually": 836,
      "Ġlong": 837,
      "ĠIn": 838,
      "ont": 839,
      "Ġbefore": 840,
      "âĢĿ": 841,
      "row": 842,
      "Ġi": 843,
      "Ġem": 844,
      "air": 845,
      "ince": 846,
      "Ġcons": 847,
      "Ġrel": 848,
      "ful": 849,
      "Ġcar": 850,
      "ife": 851,
      "les": 852,
      "ise": 853,
      "pect": 854,
      "Ġind": 855,
      "ific": 856,
      "rough": 857,
      "ĠAmeric": 858,
      "Ġass": 859,
      "ating": 860,
      "ng": 861,
      "Ġtra": 862,
      "Ġbel": 863,
      "ting": 864,
      "ush": 865,
      "Ġown": 866,
      "Ġco": 867,
      "Ġcount": 868,
      "du": 869,
      "xt": 870,
      "ww": 871,
      "Ġev": 872,
      "ell": 873,
      "Ġbu": 874,
      "Ġfind": 875,
      "rit": 876,
      "Ġstud": 877,
      "olog": 878,
      "aking": 879,
      "ys": 880,
      "ving": 881,
      "Ġac": 882,
      "Than": 883,
      "Ġmade": 884,
      "Ġ--": 885,
      "Ġthose": 886,
      "cess": 887,
      "ward": 888,
      "ms": 889,
      "Ġwee": 890,
      "Ġaround": 891,
      "Ġfood": 892,
      "Ġdoes": 893,
      "ave": 894,
      "Ġdown": 895,
      "Ġdef": 896,
      "Ġworld": 897,
      "Ġ5": 898,
      "ener": 899,
      "oth": 900,
      "cial": 901,
      "clud": 902,
      "ever": 903,
      "ative": 904,
      "Ġthrough": 905,
      "ert": 906,
      "Ġnum": 907,
      "Ġgot": 908,
      "ular": 909,
      "Ġinst": 910,
      "Ġche": 911,
      "Ġbest": 912,
      "Ġsomet": 913,
      "Ġdiffere": 914,
      "iend": 915,
      "Ġput": 916,
      "Ġele": 917,
      "Ġfriend": 918,
      "Ġdec": 919,
      "ph": 920,
      "Ġinv": 921,
      "'ve": 922,
      "How": 923,
      "ron": 924,
      "ss": 925,
      "Ġ4": 926,
      "Ġexper": 927,
      "____": 928,
      "ual": 929,
      "'ll": 930,
      ".\"": 931,
      "bs": 932,
      "Ġmon": 933,
      "Ġprov": 934,
      "--------": 935,
      "Ġsuch": 936,
      "Ġsupp": 937,
      "ible": 938,
      "ittle": 939,
      "ĠY": 940,
      "cept": 941,
      "Ġstart": 942,
      "way": 943,
      "Ġke": 944,
      "ution": 945,
      "There": 946,
      "Ġsame": 947,
      "ased": 948,
      "vern": 949,
      "yst": 950,
      "the": 951,
      "Ġlook": 952,
      "erson": 953,
      "ĠUS": 954,
      "Ġsur": 955,
      "Ġpol": 956,
      "Ġinter": 957,
      "Ġ$": 958,
      "man": 959,
      "Ġsec": 960,
      "Ġlittle": 961,
      "thing": 962,
      "eg": 963,
      "und": 964,
      "Ġlast": 965,
      "),": 966,
      "ee": 967,
      "Ġtry": 968,
      "alk": 969,
      "ower": 970,
      "Ġloc": 971,
      "Ġstill": 972,
      "roup": 973,
      "old": 974,
      "arg": 975,
      "ines": 976,
      "Ġend": 977,
      "Ġtrans": 978,
      "Ġdisc": 979,
      "Ġop": 980,
      "Ġservice": 981,
      "Ġquest": 982,
      "gg": 983,
      "ics": 984,
      "Ġbeing": 985,
      "uring": 986,
      "ĠâĢĵ": 987,
      "ublic": 988,
      "eah": 989,
      "Ġinc": 990,
      "Ġmin": 991,
      "ember": 992,
      "Ġsub": 993,
      "Ġhigh": 994,
      "Ġlot": 995,
      "ix": 996,
      "ues": 997,
      "ren": 998,
      "Ġref": 999,
      "imes": 1000,
      "Ġ201": 1001,
      "ivers": 1002,
      "Ġconf": 1003,
      "Ġext": 1004,
      "ex": 1005,
      "ady": 1006,
      "ween": 1007,
      "ied": 1008,
      "Ġra": 1009,
      "Ġter": 1010,
      "Ġexp": 1011,
      "ved": 1012,
      "Ġbus": 1013,
      "Ġinclud": 1014,
      "Ġear": 1015,
      "enc": 1016,
      "Ġeff": 1017,
      "Ġset": 1018,
      "Ġfeel": 1019,
      "oh": 1020,
      "ĠNew": 1021,
      "Ġbetween": 1022,
      "What": 1023,
      "Ġshow": 1024,
      "up": 1025,
      "Ġbr": 1026,
      "Ġrep": 1027,
      "chool": 1028,
      "Ġpres": 1029,
      "ists": 1030,
      "ality": 1031,
      "ways": 1032,
      "Ġhand": 1033,
      "akes": 1034,
      "Ġvis": 1035,
      "That": 1036,
      "ystem": 1037,
      "arch": 1038,
      "ices": 1039,
      "self": 1040,
      "az": 1041,
      "Ġ7": 1042,
      "ather": 1043,
      "Ġfin": 1044,
      "ange": 1045,
      "Ġret": 1046,
      "ope": 1047,
      "ures": 1048,
      "Ġloo": 1049,
      "Ġart": 1050,
      "Ġent": 1051,
      "ought": 1052,
      "Al": 1053,
      "view": 1054,
      "Ġrequ": 1055,
      "Ġused": 1056,
      "erest": 1057,
      "Ġcalled": 1058,
      "ax": 1059,
      "be": 1060,
      "ants": 1061,
      "Ġproble": 1062,
      "Ġfam": 1063,
      "Ġlife": 1064,
      "ĠIs": 1065,
      "Ġfew": 1066,
      "led": 1067,
      "Ġtri": 1068,
      "ility": 1069,
      "Ġhome": 1070,
      "ck": 1071,
      "Ġ'": 1072,
      "ollow": 1073,
      "ĠUnited": 1074,
      "na": 1075,
      "Ġperson": 1076,
      "ars": 1077,
      "ram": 1078,
      "Ġsomething": 1079,
      "oun": 1080,
      "Ġinterest": 1081,
      "velop": 1082,
      "any": 1083,
      "As": 1084,
      "ience": 1085,
      "ric": 1086,
      "Ġgovern": 1087,
      "My": 1088,
      "Ġgroup": 1089,
      "uss": 1090,
      "Ġcoll": 1091,
      "arge": 1092,
      "Ġimp": 1093,
      "Ġ0": 1094,
      "Ġmet": 1095,
      "ves": 1096,
      "ason": 1097,
      "Ġgive": 1098,
      "Ġ6": 1099,
      "ouse": 1100,
      "Ġcle": 1101,
      "ER": 1102,
      "Ġboth": 1103,
      "ĠInd": 1104,
      "amp": 1105,
      "get": 1106,
      "Ġform": 1107,
      "Ġhapp": 1108,
      "Ġwar": 1109,
      "Ġsign": 1110,
      "Ġpoint": 1111,
      "Ġposs": 1112,
      "Ġnumber": 1113,
      "hes": 1114,
      "ner": 1115,
      "here": 1116,
      "Ġfollow": 1117,
      "raq": 1118,
      "ably": 1119,
      "Ġdifferent": 1120,
      "Ġbetter": 1121,
      "Ġwr": 1122,
      "ĠBush": 1123,
      "Ġcome": 1124,
      "Ġlead": 1125,
      "Ġresp": 1126,
      "gan": 1127,
      "ork": 1128,
      "Ġwhile": 1129,
      "Ġanother": 1130,
      "ock": 1131,
      "====": 1132,
      "She": 1133,
      "Ġcour": 1134,
      "Ġmod": 1135,
      "Ġthings": 1136,
      "Ġnever": 1137,
      "Ġleg": 1138,
      "Thanks": 1139,
      "Ġins": 1140,
      "der": 1141,
      "Ġfound": 1142,
      "ute": 1143,
      "Ġexam": 1144,
      "Ġpartic": 1145,
      "con": 1146,
      "min": 1147,
      "ĠIraq": 1148,
      "ĠTh": 1149,
      "ism": 1150,
      "Ġmonth": 1151,
      "iness": 1152,
      "ern": 1153,
      "Ġgener": 1154,
      "Ġsmall": 1155,
      "Ġsystem": 1156,
      "Ġcor": 1157,
      "ention": 1158,
      "ural": 1159,
      "Ġsure": 1160,
      "Ġold": 1161,
      "Ġmean": 1162,
      "ef": 1163,
      "outh": 1164,
      "ets": 1165,
      "Ġbelie": 1166,
      "Ġbo": 1167,
      "Ġfact": 1168,
      "ters": 1169,
      "Ġprocess": 1170,
      "Ġkind": 1171,
      "Ġalways": 1172,
      "aj": 1173,
      "ts": 1174,
      "Ġmor": 1175,
      "Ġmil": 1176,
      "Ġtoday": 1177,
      "Ġthree": 1178,
      "Ġrest": 1179,
      "Ġask": 1180,
      "Ġmem": 1181,
      "rop": 1182,
      "//": 1183,
      "Ġiss": 1184,
      "Ġap": 1185,
      "Ġcur": 1186,
      "Ġthing": 1187,
      "://": 1188,
      "ris": 1189,
      "ract": 1190,
      "tp": 1191,
      "Ġsl": 1192,
      "Ġsince": 1193,
      "Ġdevelop": 1194,
      "Ġdoing": 1195,
      "its": 1196,
      "Ġreal": 1197,
      "ott": 1198,
      "Ġgl": 1199,
      "Ġplay": 1200,
      "ina": 1201,
      "alth": 1202,
      "Ġstr": 1203,
      "Ġinform": 1204,
      "mend": 1205,
      "Ġwa": 1206,
      "Ġdays": 1207,
      "When": 1208,
      "nce": 1209,
      "Ġsim": 1210,
      "Ġschool": 1211,
      "Ġcent": 1212,
      "Ġdist": 1213,
      "Ġopen": 1214,
      "ced": 1215,
      "ik": 1216,
      "stand": 1217,
      "ĠAl": 1218,
      "Ġpublic": 1219,
      "ale": 1220,
      "Ġhead": 1221,
      "Ġ10": 1222,
      "200": 1223,
      "Ġname": 1224,
      "ote": 1225,
      "hip": 1226,
      "ĠCom": 1227,
      "Ġdidn": 1228,
      "ared": 1229,
      "cent": 1230,
      "ense": 1231,
      "Ġmain": 1232,
      "Ġel": 1233,
      "Ġob": 1234,
      "iversity": 1235,
      "An": 1236,
      "Ġval": 1237,
      "irect": 1238,
      "med": 1239,
      "Ġmed": 1240,
      "Ġreport": 1241,
      "ross": 1242,
      "ĠSe": 1243,
      "Ġnext": 1244,
      "Ġmeet": 1245,
      "Yeah": 1246,
      "Ġser": 1247,
      "ement": 1248,
      "ĠâĢľ": 1249,
      "Ġcomple": 1250,
      "bers": 1251,
      "ired": 1252,
      "Ġcity": 1253,
      "ished": 1254,
      "Ġfar": 1255,
      "Ġthought": 1256,
      "Ġlist": 1257,
      "ĠAr": 1258,
      "Please": 1259,
      "aff": 1260,
      "atch": 1261,
      "Ġgr": 1262,
      "ĠSh": 1263,
      "Ġprodu": 1264,
      "rib": 1265,
      "****": 1266,
      "Ġweek": 1267,
      "Ġfun": 1268,
      "Ġtold": 1269,
      "Ġdet": 1270,
      "Ġrece": 1271,
      "Ġexpl": 1272,
      "gy": 1273,
      "Ġmight": 1274,
      "Ġnight": 1275,
      "Ġeach": 1276,
      "osed": 1277,
      "Ġ&": 1278,
      "Ġduring": 1279,
      "ird": 1280,
      "ĠStates": 1281,
      "Ġelect": 1282,
      "Ġgovernment": 1283,
      "eb": 1284,
      "Ġpay": 1285,
      "Ġlaw": 1286,
      "Ġtell": 1287,
      "less": 1288,
      "ined": 1289,
      "Ġwater": 1290,
      "Ġpri": 1291,
      "Ġarea": 1292,
      "commend": 1293,
      "For": 1294,
      "Ġide": 1295,
      "orth": 1296,
      "Ġdone": 1297,
      "ically": 1298,
      "âĢľ": 1299,
      "Ġbas": 1300,
      "Ġimport": 1301,
      "ins": 1302,
      "Ġpop": 1303,
      "Ġhum": 1304,
      "uth": 1305,
      "ately": 1306,
      "Ġword": 1307,
      "Ġcountry": 1308,
      "ten": 1309,
      "ret": 1310,
      "Ġjob": 1311,
      "Ġplan": 1312,
      "ody": 1313,
      "!!!!": 1314,
      "Ġkeep": 1315,
      "ready": 1316,
      "Ġpost": 1317,
      "ash": 1318,
      "ional": 1319,
      "Ġseem": 1320,
      "Ġroom": 1321,
      "ank": 1322,
      "Ġgiv": 1323,
      "Ġread": 1324,
      "Ġagainst": 1325,
      "10": 1326,
      "Ġ8": 1327,
      "ĠQ": 1328,
      "urch": 1329,
      "Ġadv": 1330,
      "ier": 1331,
      "ize": 1332,
      "ology": 1333,
      "Ġbusiness": 1334,
      "bably": 1335,
      "ards": 1336,
      "Ġca": 1337,
      "Ġfree": 1338,
      "Ġrecommend": 1339,
      "Ġtook": 1340,
      "30": 1341,
      "Ġaway": 1342,
      "ital": 1343,
      "ertain": 1344,
      "\".": 1345,
      "Ġair": 1346,
      "Ġalready": 1347,
      "angu": 1348,
      "ient": 1349,
      "ness": 1350,
      "Well": 1351,
      "aim": 1352,
      "io": 1353,
      "ature": 1354,
      "Ġmust": 1355,
      "Ġjo": 1356,
      "ages": 1357,
      "ized": 1358,
      "Ġspec": 1359,
      "Oh": 1360,
      "duc": 1361,
      "Ġest": 1362,
      "Ġcase": 1363,
      "orn": 1364,
      "Ġpower": 1365,
      "Ġlove": 1366,
      "Ġrun": 1367,
      "Ġsecond": 1368,
      "ajor": 1369,
      "At": 1370,
      "uro": 1371,
      "Ġve": 1372,
      "Ġav": 1373,
      "Ġcame": 1374,
      "Ġchild": 1375,
      "oney": 1376,
      "ĠAmerican": 1377,
      "Ġed": 1378,
      "Ġcare": 1379,
      "Ġland": 1380,
      "Ġcontin": 1381,
      "form": 1382,
      "Ġcult": 1383,
      "Ġfull": 1384,
      "Ġdem": 1385,
      "idd": 1386,
      "Ġuh": 1387,
      "resident": 1388,
      "Ġinformation": 1389,
      "Do": 1390,
      "No": 1391,
      "ug": 1392,
      "Ġtest": 1393,
      "Ġsit": 1394,
      "Ġeas": 1395,
      "Ġdeal": 1396,
      "ustom": 1397,
      "ĠFr": 1398,
      "20": 1399,
      "ON": 1400,
      "ered": 1401,
      "Ġwent": 1402,
      "Ġbig": 1403,
      "Ġever": 1404,
      "chn": 1405,
      "ery": 1406,
      "Ġmov": 1407,
      "Ġhard": 1408,
      "ided": 1409,
      "Ġunt": 1410,
      "istan": 1411,
      "www": 1412,
      "Ġfamily": 1413,
      "50": 1414,
      "ering": 1415,
      "Ġresult": 1416,
      "Ġexperience": 1417,
      "conom": 1418,
      "ling": 1419,
      "Ġ9": 1420,
      "rem": 1421,
      "Ġ18": 1422,
      "ries": 1423,
      "Ġable": 1424,
      "Ġlooking": 1425,
      "13": 1426,
      "aut": 1427,
      "rent": 1428,
      "Ġpass": 1429,
      "ĠAn": 1430,
      "Ġproper": 1431,
      "Ġprobably": 1432,
      "ruct": 1433,
      "Ġcommun": 1434,
      "ency": 1435,
      "Ġlarge": 1436,
      "Ġorder": 1437,
      "ĠEn": 1438,
      "Ġsupport": 1439,
      "Ġimportant": 1440,
      "Ġaff": 1441,
      "Ġthough": 1442,
      "Ġactually": 1443,
      "not": 1444,
      "ision": 1445,
      "Ġstre": 1446,
      "Ġprog": 1447,
      "ection": 1448,
      "ike": 1449,
      "ton": 1450,
      "Ġsays": 1451,
      "Ġchange": 1452,
      "Ġproblem": 1453,
      "Ġexample": 1454,
      "AS": 1455,
      "co": 1456,
      "fess": 1457,
      "iet": 1458,
      "ration": 1459,
      "wh": 1460,
      "Ġplease": 1461,
      "illion": 1462,
      "Ġunderstand": 1463,
      "Ġmark": 1464,
      "Ġdirect": 1465,
      "Ġhour": 1466,
      "Ġlight": 1467,
      "Ġlater": 1468,
      "Ġgra": 1469,
      "ently": 1470,
      "Ġleft": 1471,
      ",\"": 1472,
      "EN": 1473,
      "ians": 1474,
      "acy": 1475,
      "Ġgetting": 1476,
      "St": 1477,
      "ead": 1478,
      "Ġty": 1479,
      "Ġlangu": 1480,
      "ames": 1481,
      "ĠPh": 1482,
      "Ġmilit": 1483,
      "line": 1484,
      "ym": 1485,
      "Ġcou": 1486,
      "Ġcap": 1487,
      "Ġbit": 1488,
      "Ġmat": 1489,
      "alf": 1490,
      "ached": 1491,
      "Ġ11": 1492,
      "ived": 1493,
      "cient": 1494,
      "Ġdiscuss": 1495,
      "Ġreturn": 1496,
      "kay": 1497,
      "pr": 1498,
      "Ġsk": 1499,
      "ats": 1500,
      "Ġreason": 1501,
      "Ġtimes": 1502,
      "Ġopp": 1503,
      "Ġanything": 1504,
      "uck": 1505,
      "Ġuntil": 1506,
      "On": 1507,
      "ror": 1508,
      "ator": 1509,
      "Ġoper": 1510,
      "Ġcustom": 1511,
      "Ġfil": 1512,
      "Ġeconom": 1513,
      "Ġreview": 1514,
      "Ġstand": 1515,
      "pend": 1516,
      "ĠDe": 1517,
      "Ġlear": 1518,
      "Ġpolit": 1519,
      "'d": 1520,
      "ither": 1521,
      "Ġmajor": 1522,
      "ĠPresident": 1523,
      "els": 1524,
      "Ġappe": 1525,
      "Ġtreat": 1526,
      "ann": 1527,
      "http": 1528,
      "Ġconst": 1529,
      "Ġproject": 1530,
      "Ġchang": 1531,
      "ohn": 1532,
      "??": 1533,
      "mail": 1534,
      "Ġstay": 1535,
      "....": 1536,
      "Ġbuild": 1537,
      "Ġbeh": 1538,
      "Ġprice": 1539,
      "________": 1540,
      "Ġcr": 1541,
      "Ġbad": 1542,
      "Ġintern": 1543,
      "Ġline": 1544,
      "Ġstat": 1545,
      "Ġusing": 1546,
      "Ġquestion": 1547,
      "aur": 1548,
      "ls": 1549,
      "ral": 1550,
      "Ġmoney": 1551,
      "Ġhist": 1552,
      "Ġless": 1553,
      "Ġstate": 1554,
      "Ġwithout": 1555,
      "olution": 1556,
      "ained": 1557,
      "ĠEng": 1558,
      "Ġprom": 1559,
      "Ġquestions": 1560,
      "atic": 1561,
      "ised": 1562,
      "Ġdra": 1563,
      "Ġhot": 1564,
      "Ġwhy": 1565,
      "Ġsever": 1566,
      "Ġlive": 1567,
      "ield": 1568,
      "Ġknown": 1569,
      "ĠUniversity": 1570,
      "Is": 1571,
      "ĠZ": 1572,
      "Ġbre": 1573,
      "aces": 1574,
      "ĠPar": 1575,
      "Ġpossible": 1576,
      "Ġseveral": 1577,
      "uff": 1578,
      "Ġmove": 1579,
      "Ġhor": 1580,
      "Ġequ": 1581,
      "Ġworking": 1582,
      "ĠEuro": 1583,
      "Ġleast": 1584,
      "oon": 1585,
      "Ġturn": 1586,
      "inking": 1587,
      "Ġpast": 1588,
      "Ġenj": 1589,
      "Ġclaim": 1590,
      "Ġoffic": 1591,
      "ggest": 1592,
      "Ġincre": 1593,
      "19": 1594,
      "Ġbeg": 1595,
      "Ġenough": 1596,
      "Ġpret": 1597,
      "----------------": 1598,
      "ai": 1599,
      "ĠAf": 1600,
      "Ġsuggest": 1601,
      "unch": 1602,
      "Ġtechn": 1603,
      "Ġelse": 1604,
      "ior": 1605,
      "Ġfour": 1606,
      "Ġdri": 1607,
      "used": 1608,
      "Ġcompany": 1609,
      "Ġwanted": 1610,
      "Ġeffect": 1611,
      "tle": 1612,
      "Ġpa": 1613,
      "Ġhaving": 1614,
      "Ġconc": 1615,
      "Ġwhole": 1616,
      "Ġprot": 1617,
      "Ġstudy": 1618,
      "Ġwait": 1619,
      "ĠComm": 1620,
      "lish": 1621,
      "rom": 1622,
      "Ġcamp": 1623,
      "Ġbook": 1624,
      "alking": 1625,
      "utes": 1626,
      "ury": 1627,
      "cell": 1628,
      "Ġspace": 1629,
      "ission": 1630,
      "onna": 1631,
      "enn": 1632,
      "Ġpar": 1633,
      "Ġrese": 1634,
      "Ġhealth": 1635,
      "Ġclass": 1636,
      "Ġ199": 1637,
      "Ch": 1638,
      "ted": 1639,
      "Ġsal": 1640,
      "ata": 1641,
      "Ġhope": 1642,
      "ĠSp": 1643,
      "Ġanyone": 1644,
      "Ġappro": 1645,
      "Ġtrying": 1646,
      "iod": 1647,
      "lam": 1648,
      "Ġcre": 1649,
      "Ġnice": 1650,
      "ctor": 1651,
      "ament": 1652,
      "Ġparticular": 1653,
      "Ġocc": 1654,
      "Ġstaff": 1655,
      "ĠPer": 1656,
      "Ġorgan": 1657,
      "Ġnear": 1658,
      "Ġsomeone": 1659,
      "Ġguys": 1660,
      "Ġfriends": 1661,
      "Ġincluding": 1662,
      "Ġbelieve": 1663,
      "rist": 1664,
      "ining": 1665,
      "Ġcol": 1666,
      "ides": 1667,
      "ulation": 1668,
      "though": 1669,
      "arent": 1670,
      "ĠEurope": 1671,
      "ger": 1672,
      "Ġes": 1673,
      "Ġtalk": 1674,
      "Ġmaking": 1675,
      "Ġtown": 1676,
      "Ġla": 1677,
      "ĠPM": 1678,
      "ĠPro": 1679,
      "Ġsend": 1680,
      "Ġmeans": 1681,
      "ney": 1682,
      "Ġvisit": 1683,
      "Ġmonths": 1684,
      "Ġhuman": 1685,
      "Ġcreat": 1686,
      "ids": 1687,
      "Ġstop": 1688,
      "ption": 1689,
      "Ġlocal": 1690,
      "Ġbro": 1691,
      "Ġhear": 1692,
      "Ġview": 1693,
      "Ġclose": 1694,
      "ĠEnron": 1695,
      "Ġmess": 1696,
      "Ġet": 1697,
      "ider": 1698,
      "igin": 1699,
      "ĠMar": 1700,
      "Ġexpect": 1701,
      "Ġshort": 1702,
      "avor": 1703,
      "11": 1704,
      "By": 1705,
      "IN": 1706,
      "gu": 1707,
      "most": 1708,
      "por": 1709,
      "Ġsent": 1710,
      "aster": 1711,
      "Ġlarg": 1712,
      "âĢĶ": 1713,
      "Ġprop": 1714,
      "Ġcontro": 1715,
      "ccess": 1716,
      "Ġearly": 1717,
      "Ġpresent": 1718,
      "ned": 1719,
      "side": 1720,
      "Ġoften": 1721,
      "arm": 1722,
      "Ġgrow": 1723,
      "Ġans": 1724,
      "Ġ15": 1725,
      "Ġteam": 1726,
      "15": 1727,
      "AT": 1728,
      "par": 1729,
      "Ġcost": 1730,
      "Ġpat": 1731,
      "Ġgir": 1732,
      "ains": 1733,
      "ocr": 1734,
      "ives": 1735,
      "ploy": 1736,
      "Ġprev": 1737,
      "ording": 1738,
      "Ġlanguage": 1739,
      "iqu": 1740,
      "yl": 1741,
      "Ġcertain": 1742,
      "Ġhouse": 1743,
      "Ġonce": 1744,
      "ĠMay": 1745,
      "Ġnothing": 1746,
      "Ġagre": 1747,
      "Ġtrad": 1748,
      "Ġbecome": 1749,
      "Ġbuy": 1750,
      "Ġstrong": 1751,
      "hod": 1752,
      "Ġcop": 1753,
      "Ġbeaut": 1754,
      "ĠAm": 1755,
      "Ġ12": 1756,
      "resent": 1757,
      "However": 1758,
      "ev": 1759,
      "Ġoil": 1760,
      "ories": 1761,
      "ened": 1762,
      "ases": 1763,
      "lect": 1764,
      "Ġ17": 1765,
      "Ġallow": 1766,
      "Ġcourse": 1767,
      "Ġpolitical": 1768,
      "Ġpretty": 1769,
      "to": 1770,
      "use": 1771,
      "where": 1772,
      "Ġ#": 1773,
      "Ġ.": 1774,
      "Ġbased": 1775,
      "Ġtoget": 1776,
      "amed": 1777,
      "Ġwithin": 1778,
      "Ġquick": 1779,
      "Ġago": 1780,
      "Ġattack": 1781,
      "Ġeverything": 1782,
      "Ġpriv": 1783,
      "Ġtogether": 1784,
      "ES": 1785,
      "Now": 1786,
      "ched": 1787,
      "Ġtaking": 1788,
      "Ġyet": 1789,
      "ĠCon": 1790,
      "Ġalong": 1791,
      "Ġsoon": 1792,
      "ization": 1793,
      "Ġasked": 1794,
      "Ġcurrent": 1795,
      "Ġproduct": 1796,
      "uthor": 1797,
      "Ġmilitary": 1798,
      "work": 1799,
      "Ġtop": 1800,
      "Ġdr": 1801,
      "Ġgonna": 1802,
      "ĠIran": 1803,
      "Ġforward": 1804,
      "Ġothers": 1805,
      "Ġtravel": 1806,
      "Ġstarted": 1807,
      "Ġchildren": 1808,
      "After": 1809,
      "ged": 1810,
      "part": 1811,
      "tal": 1812,
      "Ġwond": 1813,
      "Ġfac": 1814,
      "ĠCl": 1815,
      "ĠAM": 1816,
      "raph": 1817,
      "Ġsum": 1818,
      "ĠWar": 1819,
      "cially": 1820,
      "Ġquality": 1821,
      "Ġoffice": 1822,
      "Ġinvol": 1823,
      "reme": 1824,
      "One": 1825,
      "Ġwom": 1826,
      "ators": 1827,
      "Ġcause": 1828,
      "Ġmar": 1829,
      "Ġmind": 1830,
      "Ġhold": 1831,
      "uture": 1832,
      "imate": 1833,
      "iously": 1834,
      "ully": 1835,
      "Ġclean": 1836,
      "Ġmembers": 1837,
      "To": 1838,
      "by": 1839,
      "cri": 1840,
      "fer": 1841,
      "Ġwrit": 1842,
      "Ġeither": 1843,
      "Ġperiod": 1844,
      "Ġcheck": 1845,
      "Ġminutes": 1846,
      "Ġclear": 1847,
      "ĠSept": 1848,
      "eor": 1849,
      "sh": 1850,
      "Ġtem": 1851,
      "Ġdue": 1852,
      "Ġhalf": 1853,
      "Ġlim": 1854,
      "Ġorigin": 1855,
      "Ġprofess": 1856,
      "ĠTH": 1857,
      "Ġvar": 1858,
      "Ġmorning": 1859,
      "Ġenjoy": 1860,
      "ium": 1861,
      "Ġfund": 1862,
      "ortun": 1863,
      "oss": 1864,
      "Ġdoesn": 1865,
      "========": 1866,
      "Let": 1867,
      "right": 1868,
      "ination": 1869,
      "Ġwon": 1870,
      "Ġgre": 1871,
      "Ġyoung": 1872,
      "ĠCar": 1873,
      "Ġdog": 1874,
      "Ġsuccess": 1875,
      "aken": 1876,
      "Ġspecial": 1877,
      "Ġaddress": 1878,
      "minist": 1879,
      "Ġansw": 1880,
      "ipp": 1881,
      "ox": 1882,
      "Ġ:": 1883,
      "Ġfore": 1884,
      "Ġanim": 1885,
      "Ġkill": 1886,
      "Ġrespons": 1887,
      "lished": 1888,
      "Ġwalk": 1889,
      "eng": 1890,
      "ane": 1891,
      "Ġinit": 1892,
      "Ġum": 1893,
      "osp": 1894,
      "Ġwhether": 1895,
      "Ġprogram": 1896,
      "for": 1897,
      "ok": 1898,
      "Ġaw": 1899,
      "itive": 1900,
      "Ġdiv": 1901,
      "Ġdata": 1902,
      "urs": 1903,
      "Ġdeath": 1904,
      "Ġquite": 1905,
      "new": 1906,
      "Thank": 1907,
      "cellent": 1908,
      "Yes": 1909,
      "my": 1910,
      "ured": 1911,
      "ones": 1912,
      "ĠSouth": 1913,
      "hern": 1914,
      "obal": 1915,
      "Ġaccess": 1916,
      "16": 1917,
      "rect": 1918,
      "Ġfuture": 1919,
      "Ġmakes": 1920,
      "Ġpeace": 1921,
      "aps": 1922,
      "Ġneeds": 1923,
      "Ġdesign": 1924,
      "Ġreceived": 1925,
      "Ġavail": 1926,
      "orld": 1927,
      "Ġmus": 1928,
      "ley": 1929,
      "Ġeat": 1930,
      "ĠNational": 1931,
      "ected": 1932,
      "ĠJohn": 1933,
      "Ġamong": 1934,
      "Ġhowever": 1935,
      "Ġissue": 1936,
      "Ġidea": 1937,
      "Ġestab": 1938,
      "With": 1939,
      "Ġtour": 1940,
      "Ġfre": 1941,
      "iday": 1942,
      "urity": 1943,
      "Ġstore": 1944,
      "rap": 1945,
      "hers": 1946,
      "ĠTr": 1947,
      "ĠChina": 1948,
      "ended": 1949,
      "ensive": 1950,
      "Ġprovide": 1951,
      "Ġresearch": 1952,
      "AN": 1953,
      "All": 1954,
      "fully": 1955,
      "iation": 1956,
      "lf": 1957,
      "oice": 1958,
      "son": 1959,
      "Ġauthor": 1960,
      "Ġpain": 1961,
      "Ġrepl": 1962,
      "These": 1963,
      "ified": 1964,
      "Ġseen": 1965,
      "Ġ16": 1966,
      "erence": 1967,
      "Ġdefin": 1968,
      "Ġproblems": 1969,
      "Ġmeeting": 1970,
      "Don": 1971,
      "ober": 1972,
      "Ġalmost": 1973,
      "ude": 1974,
      "Ġcomplete": 1975,
      "17": 1976,
      "2000": 1977,
      "Not": 1978,
      "lo": 1979,
      "ese": 1980,
      "Ġgame": 1981,
      "urther": 1982,
      "irc": 1983,
      "irm": 1984,
      "ilities": 1985,
      "ĠHar": 1986,
      "ogn": 1987,
      "Ġaddition": 1988,
      "Ġfollowing": 1989,
      "12": 1990,
      "af": 1991,
      "Ġside": 1992,
      "Ġple": 1993,
      "Ġlo": 1994,
      "ĠCan": 1995,
      "rael": 1996,
      "ĠBe": 1997,
      "ĠHe": 1998,
      "Ġlevel": 1999,
      "Ġindust": 2000,
      "Ġrestaur": 2001,
      "Ġgiven": 2002,
      "Ġbegin": 2003,
      "Okay": 2004,
      "Ġsqu": 2005,
      "Ġsour": 2006,
      "Ġconn": 2007,
      "Ġvide": 2008,
      "Ġupon": 2009,
      "Ġcountries": 2010,
      "Ġrequest": 2011,
      "ĠIndia": 2012,
      "Ġgeneral": 2013,
      "hem": 2014,
      "Ġcut": 2015,
      "Ġpress": 2016,
      "Ġmillion": 2017,
      "ential": 2018,
      "iron": 2019,
      "ify": 2020,
      "ĠEx": 2021,
      "Ġplaces": 2022,
      "Ġleave": 2023,
      "Ġinstead": 2024,
      "2001": 2025,
      "Ġspecific": 2026,
      "Ġhours": 2027,
      "IS": 2028,
      "OU": 2029,
      "iver": 2030,
      "ances": 2031,
      "Ġmen": 2032,
      "Ġmom": 2033,
      "idence": 2034,
      "ĠAd": 2035,
      "Ġcoming": 2036,
      "pecially": 2037,
      "ability": 2038,
      "Ġactiv": 2039,
      "Ġblack": 2040,
      "Ġphot": 2041,
      "ĠIntern": 2042,
      "ĠAmerica": 2043,
      "Ġevent": 2044,
      "Ġaccept": 2045,
      "Ġcouple": 2046,
      ".âĢĿ": 2047,
      "18": 2048,
      "Great": 2049,
      "uly": 2050,
      "uation": 2051,
      "Ġstep": 2052,
      "ĠCal": 2053,
      "Ġann": 2054,
      "Ġcond": 2055,
      "ried": 2056,
      "Ġshop": 2057,
      "ĠNorth": 2058,
      "astic": 2059,
      "Ġeng": 2060,
      "Ġneeded": 2061,
      "ĠAmericans": 2062,
      "Ġacross": 2063,
      "Ġetc": 2064,
      "eorge": 2065,
      "Some": 2066,
      "oint": 2067,
      "ued": 2068,
      "Ġage": 2069,
      "ety": 2070,
      "iful": 2071,
      "Ġfront": 2072,
      "elt": 2073,
      "ivil": 2074,
      "Ġrespect": 2075,
      "Ġregard": 2076,
      "Ġremember": 2077,
      "Ġavailable": 2078,
      "atural": 2079,
      "Ġfive": 2080,
      "Ġfoc": 2081,
      "anc": 2082,
      "Ġmiss": 2083,
      "Ġdest": 2084,
      "icle": 2085,
      "Ġisland": 2086,
      "ĠAnd": 2087,
      "ĠPr": 2088,
      "empt": 2089,
      "orts": 2090,
      "ĠJan": 2091,
      "Ġpract": 2092,
      "!!!": 2093,
      "Ġcommon": 2094,
      "Ġemail": 2095,
      "Ġterror": 2096,
      "Ġrepresent": 2097,
      "Ġproperty": 2098,
      "Just": 2099,
      "gle": 2100,
      "lor": 2101,
      "Ġsn": 2102,
      "Ġsw": 2103,
      "eral": 2104,
      "Ġobs": 2105,
      "ister": 2106,
      "utions": 2107,
      "Ġwebs": 2108,
      "istic": 2109,
      "Ġcannot": 2110,
      "ĠGu": 2111,
      "akistan": 2112,
      "Ġoutside": 2113,
      "Ġnews": 2114,
      "Ġfriendly": 2115,
      "Ġhistory": 2116,
      "ĠSeptember": 2117,
      "ially": 2118,
      "Ġsite": 2119,
      "Ġbar": 2120,
      "ara": 2121,
      "iding": 2122,
      "ights": 2123,
      "cience": 2124,
      "Ġamount": 2125,
      "Ġattempt": 2126,
      "Ġ197": 2127,
      "ĠIsrael": 2128,
      "Any": 2129,
      "OT": 2130,
      "Um": 2131,
      "Ġtaken": 2132,
      "Ġgave": 2133,
      "Ġred": 2134,
      "ots": 2135,
      "Ġstuff": 2136,
      "ada": 2137,
      "ĠPol": 2138,
      "htm": 2139,
      "Ġcomes": 2140,
      "Ġjud": 2141,
      "ograph": 2142,
      "Ġ30": 2143,
      "Ġeveryone": 2144,
      "Ġservices": 2145,
      "Ġbring": 2146,
      "ledge": 2147,
      "Ġofficial": 2148,
      "Sh": 2149,
      "Ġsing": 2150,
      "Ġgas": 2151,
      "Ġattached": 2152,
      "Ġletter": 2153,
      "Ġbelow": 2154,
      "Ġinvest": 2155,
      "Ġconcern": 2156,
      "Ġmessage": 2157,
      "\",": 2158,
      "Can": 2159,
      "ape": 2160,
      "lation": 2161,
      "Ġwin": 2162,
      "Ġcat": 2163,
      "Ġpot": 2164,
      "Ġnon": 2165,
      "Ġrev": 2166,
      "ston": 2167,
      "ĠIS": 2168,
      "Ġhair": 2169,
      "amb": 2170,
      "ĠAs": 2171,
      "Ġant": 2172,
      "Ġsocial": 2173,
      "umber": 2174,
      "Ġchar": 2175,
      "Ġenv": 2176,
      "Ġrecord": 2177,
      "like": 2178,
      "exas": 2179,
      "Also": 2180,
      "Ġeduc": 2181,
      "Ġmarket": 2182,
      "Ġcontrol": 2183,
      "Ġcopy": 2184,
      "Ġbeautiful": 2185,
      "Good": 2186,
      "OR": 2187,
      "aed": 2188,
      "Ġsix": 2189,
      "ergy": 2190,
      "Ġfine": 2191,
      "Ġfield": 2192,
      "Ġpick": 2193,
      "room": 2194,
      "ĠMr": 2195,
      "ĠPl": 2196,
      "une": 2197,
      "ĠState": 2198,
      "Ġphone": 2199,
      "Ġsubject": 2200,
      "Ġhighly": 2201,
      "rench": 2202,
      "Ġentire": 2203,
      ".,": 2204,
      "aul": 2205,
      "body": 2206,
      "Ġ...": 2207,
      "Ġtheory": 2208,
      "Ġsound": 2209,
      "Ġcoun": 2210,
      "itions": 2211,
      "Ġfight": 2212,
      "Ġfall": 2213,
      "icy": 2214,
      "ĠCent": 2215,
      "ĠPakistan": 2216,
      "Ġnecess": 2217,
      "ĠWh": 2218,
      "Ġusually": 2219,
      "wards": 2220,
      "Ġvalue": 2221,
      "********": 2222,
      "01": 2223,
      "AL": 2224,
      "Ġwind": 2225,
      "Ġwatch": 2226,
      "Ġmass": 2227,
      "Ġthreat": 2228,
      "ĠSen": 2229,
      "ĠCo": 2230,
      "Ġsoci": 2231,
      "Ġworks": 2232,
      "ung": 2233,
      "ples": 2234,
      "Ġrights": 2235,
      "Ġemploy": 2236,
      "Ġissues": 2237,
      "Ġespecially": 2238,
      "Ġ<": 2239,
      "read": 2240,
      "isions": 2241,
      "Ġyes": 2242,
      "Ġformer": 2243,
      "ĠSec": 2244,
      "Ġheard": 2245,
      "ĠAt": 2246,
      "ump": 2247,
      "Ġcontract": 2248,
      "lier": 2249,
      "Ġconsider": 2250,
      "ĠIndian": 2251,
      "Ġobject": 2252,
      "mber": 2253,
      "Ġben": 2254,
      "Ġbra": 2255,
      "Ġbody": 2256,
      "Ġdom": 2257,
      "Ġhu": 2258,
      "Ġnet": 2259,
      "igure": 2260,
      "ades": 2261,
      "rab": 2262,
      "Ġdel": 2263,
      "Ġdeli": 2264,
      "ĠBr": 2265,
      "Ġris": 2266,
      "ands": 2267,
      "ĠRep": 2268,
      "Ġenergy": 2269,
      "ĠOr": 2270,
      "ruction": 2271,
      "Ġweeks": 2272,
      "Ġparticip": 2273,
      "Ġeconomic": 2274,
      "Ġhorse": 2275,
      "Ġpaper": 2276,
      "aeda": 2277,
      "gre": 2278,
      "lu": 2279,
      "ule": 2280,
      "val": 2281,
      "Ġcit": 2282,
      "Ġcivil": 2283,
      "Ġfavor": 2284,
      "Ġfurther": 2285,
      "Ġthinking": 2286,
      "ication": 2287,
      "icult": 2288,
      "Ġlate": 2289,
      "Ġexist": 2290,
      "ĠWorld": 2291,
      "ghan": 2292,
      "augh": 2293,
      "Ġcomput": 2294,
      "Ġ2005": 2295,
      "ĠYork": 2296,
      "iddle": 2297,
      "dd": 2298,
      "ees": 2299,
      "eff": 2300,
      "fe": 2301,
      "oot": 2302,
      "att": 2303,
      "Ġfelt": 2304,
      "Ġmag": 2305,
      "ster": 2306,
      "ida": 2307,
      "ĠSc": 2308,
      "Ġdead": 2309,
      "Ġdecl": 2310,
      "ĠTexas": 2311,
      "Ġabs": 2312,
      "Ġabove": 2313,
      "ĠLe": 2314,
      "redit": 2315,
      "itely": 2316,
      "ibility": 2317,
      "ondon": 2318,
      "Ġpercent": 2319,
      "Ġperform": 2320,
      "Ġguy": 2321,
      "Ġdifficult": 2322,
      "Ġextreme": 2323,
      "exic": 2324,
      "ĠIslam": 2325,
      "Ġtried": 2326,
      "Ġsignific": 2327,
      "Ġcourt": 2328,
      "Ġdeter": 2329,
      "Ġvideo": 2330,
      "Ex": 2331,
      "hib": 2332,
      "mm": 2333,
      "Ġ/": 2334,
      "ĠYou": 2335,
      "Ġways": 2336,
      "itution": 2337,
      "Ġfather": 2338,
      "Ġste": 2339,
      "Ġliving": 2340,
      "ĠNumber": 2341,
      "ĠGeorge": 2342,
      "ivid": 2343,
      "Ġfeed": 2344,
      "Ġposition": 2345,
      "Ġrelig": 2346,
      "Ġdetail": 2347,
      "Ġpopulation": 2348,
      "Ġseems": 2349,
      "25": 2350,
      "oor": 2351,
      "uary": 2352,
      "Ġtax": 2353,
      "Ġfix": 2354,
      "Ġpub": 2355,
      "Ġmot": 2356,
      "Ġnational": 2357,
      "rove": 2358,
      "Ġur": 2359,
      "irt": 2360,
      "chie": 2361,
      "Ġconv": 2362,
      "atever": 2363,
      "ĠBl": 2364,
      "Ġrul": 2365,
      "ival": 2366,
      "Ġbecame": 2367,
      "Ġargu": 2368,
      "Ġaction": 2369,
      "Ġwords": 2370,
      "Here": 2371,
      "epend": 2372,
      "Ġtast": 2373,
      "Ġtalking": 2374,
      "Ġhost": 2375,
      "Ġlack": 2376,
      "Ġlost": 2377,
      "Ġrele": 2378,
      "uted": 2379,
      "ĠSan": 2380,
      "Ġanal": 2381,
      "ilt": 2382,
      "ilar": 2383,
      "oph": 2384,
      "ored": 2385,
      "Ġsuff": 2386,
      "Ġrate": 2387,
      "Ġrather": 2388,
      "Ġoffer": 2389,
      "ĠChrist": 2390,
      "Ġaccount": 2391,
      "selves": 2392,
      "Ġbox": 2393,
      "Ġculture": 2394,
      "Ġbreak": 2395,
      "Ġwonder": 2396,
      "Ġprofessional": 2397,
      "Be": 2398,
      "],": 2399,
      "yn": 2400,
      "ze": 2401,
      "Ġtakes": 2402,
      "Ġsense": 2403,
      "Ġfair": 2404,
      "ences": 2405,
      "Ġmention": 2406,
      "Ġnorm": 2407,
      "Ġey": 2408,
      "enty": 2409,
      "Ġitem": 2410,
      "ama": 2411,
      "oogle": 2412,
      "ills": 2413,
      "Ġareas": 2414,
      "ĠMexic": 2415,
      "âĢĵ": 2416,
      "Ġsuper": 2417,
      "ume": 2418,
      "Ġlikely": 2419,
      "Ġcontact": 2420,
      "Ġattention": 2421,
      "Ġrecent": 2422,
      "undred": 2423,
      "Ġrequire": 2424,
      "Ġhappy": 2425,
      "Ġeasy": 2426,
      "Ġtyp": 2427,
      "Ġinternational": 2428,
      "Ġanswer": 2429,
      "Ġwebsite": 2430,
      ".)": 2431,
      "03": 2432,
      "AR": 2433,
      "From": 2434,
      "His": 2435,
      "app": 2436,
      "bor": 2437,
      "equ": 2438,
      "go": 2439,
      "za": 2440,
      "Ġer": 2441,
      "Ġcru": 2442,
      "Ġfail": 2443,
      "Ġpie": 2444,
      "aring": 2445,
      "Ġyeah": 2446,
      "ams": 2447,
      "ĠApr": 2448,
      "ĠPal": 2449,
      "Ġ13": 2450,
      "Ġexcept": 2451,
      "umb": 2452,
      "ĠFran": 2453,
      "Ġadm": 2454,
      "itted": 2455,
      "Ġrole": 2456,
      "Ġ196": 2457,
      "Ġmaybe": 2458,
      "Ġlonger": 2459,
      "Ġindivid": 2460,
      "azing": 2461,
      "Ġgroups": 2462,
      "ĠFriday": 2463,
      "ĠAfghan": 2464,
      "Ġenviron": 2465,
      ",âĢĿ": 2466,
      "14": 2467,
      "46": 2468,
      "bb": 2469,
      "iol": 2470,
      "just": 2471,
      "ring": 2472,
      "Ġsol": 2473,
      "erman": 2474,
      "Ġopt": 2475,
      "Ġface": 2476,
      "Ġpict": 2477,
      "asing": 2478,
      "ashing": 2479,
      "Ġlit": 2480,
      "Ġnatural": 2481,
      "ental": 2482,
      "Then": 2483,
      "ceed": 2484,
      "ĠFrench": 2485,
      "Ġyourself": 2486,
      "ourt": 2487,
      "Ġknowledge": 2488,
      "Ġarri": 2489,
      "Ġsaw": 2490,
      "ervice": 2491,
      "Ġregion": 2492,
      "Ġhelpful": 2493,
      "Ġassist": 2494,
      "Ġinclude": 2495,
      "Ġwrong": 2496,
      "Ġcorrect": 2497,
      "duced": 2498,
      "ASA": 2499,
      "Ġtype": 2500,
      "ING": 2501,
      "ique": 2502,
      "Ġprivate": 2503,
      "Ġbenef": 2504,
      "Ġsignificant": 2505,
      "aign": 2506,
      "uk": 2507,
      "onse": 2508,
      "Ġsat": 2509,
      "Ġsle": 2510,
      "Ġpack": 2511,
      "Ġparent": 2512,
      "Ġhig": 2513,
      "Ġstra": 2514,
      "Ġsea": 2515,
      "Ġsex": 2516,
      "resh": 2517,
      "Ġcompan": 2518,
      "Ġ2000": 2519,
      "Ġearlier": 2520,
      "Ġlooks": 2521,
      "Ġleaders": 2522,
      "Ġchanges": 2523,
      "ĠApril": 2524,
      "39": 2525,
      "iate": 2526,
      "lim": 2527,
      "yle": 2528,
      "Ġvers": 2529,
      "Ġtou": 2530,
      "Ġsort": 2531,
      "aced": 2532,
      "amer": 2533,
      "Ġexcellent": 2534,
      "Ġdoc": 2535,
      "Ġtrue": 2536,
      "ĠOct": 2537,
      "Ġteac": 2538,
      "aving": 2539,
      "Ġscre": 2540,
      "TH": 2541,
      "br": 2542,
      "fect": 2543,
      "ply": 2544,
      "Ġcirc": 2545,
      "ison": 2546,
      "Ġpur": 2547,
      "Ġmother": 2548,
      "Ġge": 2549,
      "ĠMan": 2550,
      "ĠMus": 2551,
      "ĠBar": 2552,
      "Ġcomb": 2553,
      "aining": 2554,
      "ĠRe": 2555,
      "Ġparty": 2556,
      "iction": 2557,
      "ED": 2558,
      "net": 2559,
      "uj": 2560,
      "Ġident": 2561,
      "Ġaud": 2562,
      "Ġachie": 2563,
      "ino": 2564,
      "rest": 2565,
      "erous": 2566,
      "Ġcy": 2567,
      "itch": 2568,
      "Ġbott": 2569,
      "orry": 2570,
      "estern": 2571,
      "Ġpet": 2572,
      "ald": 2573,
      "Ġdate": 2574,
      "Ġbegan": 2575,
      "Ġforce": 2576,
      "Ġforces": 2577,
      "Ġitself": 2578,
      "irth": 2579,
      "Ġstates": 2580,
      "ĠCol": 2581,
      "Ġneg": 2582,
      "Ġdoll": 2583,
      "ĠGl": 2584,
      "ĠGo": 2585,
      "ĠLondon": 2586,
      "Ġadminist": 2587,
      "Ġapplic": 2588,
      "Ġsecurity": 2589,
      "Ġdraft": 2590,
      "Ġcampaign": 2591,
      "Are": 2592,
      "].": 2593,
      "oke": 2594,
      "rict": 2595,
      "ta": 2596,
      "anks": 2597,
      "let": 2598,
      "Ġstory": 2599,
      "ĠCourt": 2600,
      "Ġneigh": 2601,
      "ĠJuly": 2602,
      "itten": 2603,
      "ressed": 2604,
      "aterial": 2605,
      "Ġcover": 2606,
      "Ġinterview": 2607,
      "inese": 2608,
      "Ġopportun": 2609,
      "Ġcustomer": 2610,
      "Ġbroad": 2611,
      "ĠJanuary": 2612,
      "22": 2613,
      "Im": 2614,
      "Un": 2615,
      "aily": 2616,
      "ging": 2617,
      "ming": 2618,
      "pro": 2619,
      "Ġbird": 2620,
      "anie": 2621,
      "Ġpred": 2622,
      "Ġmember": 2623,
      "Ġdin": 2624,
      "Ġht": 2625,
      "lear": 2626,
      "Ġweap": 2627,
      "ĠCor": 2628,
      "ĠCoun": 2629,
      "ĠMarch": 2630,
      "Ġexec": 2631,
      "Ġcompl": 2632,
      "Ġkids": 2633,
      "ager": 2634,
      "Ġens": 2635,
      "Ġcompet": 2636,
      "Ġmanage": 2637,
      "Ġrelations": 2638,
      "Ġstudents": 2639,
      "Ġsubst": 2640,
      "Ġinterested": 2641,
      "Ġpoints": 2642,
      "ĠQu": 2643,
      "Ġcontinue": 2644,
      "Ġcultural": 2645,
      "Ġsituation": 2646,
      "Ġquickly": 2647,
      "Ġindustry": 2648,
      "ashington": 2649,
      "80": 2650,
      "IC": 2651,
      "RE": 2652,
      "See": 2653,
      "cast": 2654,
      "ka": 2655,
      "Ġbur": 2656,
      "orrow": 2657,
      "Ġdou": 2658,
      "Ġhon": 2659,
      "Ġground": 2660,
      "Ġrent": 2661,
      "ows": 2662,
      "ĠSat": 2663,
      "ĠPart": 2664,
      "Ġsepar": 2665,
      "abor": 2666,
      "Ġ2004": 2667,
      "Ġstudies": 2668,
      "ological": 2669,
      "eneral": 2670,
      "Ġmethod": 2671,
      "Ġlegis": 2672,
      "Ġpopular": 2673,
      "Ġbuilding": 2674,
      "Ġbehind": 2675,
      "ĠEngland": 2676,
      "ĠEnglish": 2677,
      "Ġlargest": 2678,
      "Ġrestaurant": 2679,
      "Ġsquare": 2680,
      "Ġfocus": 2681,
      "Ġcitiz": 2682,
      "Ġhttp": 2683,
      "ners": 2684,
      "of": 2685,
      "Ġcal": 2686,
      "Ġpurch": 2687,
      "Ġmid": 2688,
      "Ġhundred": 2689,
      "Ġthous": 2690,
      "Ġready": 2691,
      "ĠMc": 2692,
      "Ġself": 2693,
      "Ġdoor": 2694,
      "Ġworth": 2695,
      "itting": 2696,
      "overed": 2697,
      "While": 2698,
      "Ġsaying": 2699,
      "duct": 2700,
      "Ġsometimes": 2701,
      "Ġhands": 2702,
      "Ġmodern": 2703,
      "Ġmatter": 2704,
      "Ġoriginal": 2705,
      "Ġdocu": 2706,
      "24": 2707,
      "28": 2708,
      "Best": 2709,
      "Right": 2710,
      "ST": 2711,
      "face": 2712,
      "haps": 2713,
      "log": 2714,
      "mar": 2715,
      "no": 2716,
      "Ġcross": 2717,
      "iting": 2718,
      "ĠAust": 2719,
      "ulf": 2720,
      "ĠBrit": 2721,
      "Ġmeas": 2722,
      "Ġlives": 2723,
      "Ġrad": 2724,
      "Ġalone": 2725,
      "ode": 2726,
      "idered": 2727,
      "ague": 2728,
      "onday": 2729,
      "Ġspend": 2730,
      "Ġinflu": 2731,
      "ecause": 2732,
      "Ġaccording": 2733,
      "Ġopin": 2734,
      "Ġlegal": 2735,
      "Ġmoral": 2736,
      "Ġdevelopment": 2737,
      "Ġglobal": 2738,
      "Ġsimilar": 2739,
      "iki": 2740,
      "Ġresults": 2741,
      "Ġcommunity": 2742,
      "Ġenvironment": 2743,
      "Our": 2744,
      "eal": 2745,
      "nces": 2746,
      "ps": 2747,
      "Ġbal": 2748,
      "icient": 2749,
      "oted": 2750,
      "Ġisn": 2751,
      "kend": 2752,
      "ooks": 2753,
      "pped": 2754,
      "ĠEast": 2755,
      "ĠFor": 2756,
      "ĠHouse": 2757,
      "Ġresponse": 2758,
      "Ġschools": 2759,
      "Ġagreement": 2760,
      "Ġsummer": 2761,
      "Ġwomen": 2762,
      "Ġdefinitely": 2763,
      "Ġsingle": 2764,
      "37": 2765,
      "ban": 2766,
      "cil": 2767,
      "iated": 2768,
      "kes": 2769,
      "ler": 2770,
      "sc": 2771,
      "reci": 2772,
      "Ġsouth": 2773,
      "ana": 2774,
      "Ġthird": 2775,
      "Ġones": 2776,
      "Ġwhatever": 2777,
      "ĠCity": 2778,
      "ĠMet": 2779,
      "ĠNASA": 2780,
      "unn": 2781,
      "rought": 2782,
      "ĠWest": 2783,
      "action": 2784,
      "avid": 2785,
      "Ġphys": 2786,
      "ification": 2787,
      "Ġdecision": 2788,
      "Ġkey": 2789,
      "Ġsimply": 2790,
      "Ġcapital": 2791,
      "ĠEuropean": 2792,
      "Ġinvolved": 2793,
      "ĠTHE": 2794,
      "Ġanimals": 2795,
      "html": 2796,
      "Ġextremely": 2797,
      "Ġparents": 2798,
      "09": 2799,
      "Every": 2800,
      "Or": 2801,
      "RON": 2802,
      "ege": 2803,
      "more": 2804,
      "nes": 2805,
      "over": 2806,
      "pite": 2807,
      "sp": 2808,
      "uel": 2809,
      "Ã©": 2810,
      "het": 2811,
      "ony": 2812,
      "erry": 2813,
      "Ġcrit": 2814,
      "Ġmaterial": 2815,
      "Ġtom": 2816,
      "Ġdam": 2817,
      "Ġhur": 2818,
      "lling": 2819,
      "Ġhaven": 2820,
      "Ġheld": 2821,
      "adem": 2822,
      "Ġwhite": 2823,
      "ĠAll": 2824,
      "ateg": 2825,
      "Ġdep": 2826,
      "Ġ25": 2827,
      "ĠEd": 2828,
      "ĠWashington": 2829,
      "Ġenc": 2830,
      "Ġprices": 2831,
      "Ġamazing": 2832,
      "ĠChinese": 2833,
      "Ġworked": 2834,
      "Ġrecently": 2835,
      "Ġsched": 2836,
      "Ġaccom": 2837,
      "Ġlocation": 2838,
      "Ġpersonal": 2839,
      "Ġcollect": 2840,
      "ugust": 2841,
      "________________": 2842,
      "Ġgirl": 2843,
      "Ġmusic": 2844,
      "45": 2845,
      "CT": 2846,
      "Since": 2847,
      "ext": 2848,
      "gr": 2849,
      "ires": 2850,
      "know": 2851,
      "rated": 2852,
      "Ġill": 2853,
      "head": 2854,
      "Ġsus": 2855,
      "Ġscient": 2856,
      "oura": 2857,
      "Ġbirth": 2858,
      "Ġfill": 2859,
      "Ġfire": 2860,
      "ederal": 2861,
      "Ġport": 2862,
      "ingu": 2863,
      "Ġegg": 2864,
      "ĠCong": 2865,
      "Ġconcept": 2866,
      "ops": 2867,
      "ief": 2868,
      "Ġvac": 2869,
      "Ġviol": 2870,
      "Ġshall": 2871,
      "ĠRuss": 2872,
      "Ġthemselves": 2873,
      "Ġprep": 2874,
      "Ġspeak": 2875,
      "Ġregular": 2876,
      "Ġconsidered": 2877,
      "Ġassoc": 2878,
      "Ġweekend": 2879,
      "Ġdecided": 2880,
      "Ġrequired": 2881,
      "Ġrespond": 2882,
      "Ġmodel": 2883,
      "centage": 2884,
      "Ġhotel": 2885,
      "ĠPercentage": 2886,
      "Ġtemper": 2887,
      "ĠCalif": 2888,
      "Ġcomputer": 2889,
      "21": 2890,
      "Even": 2891,
      "Mar": 2892,
      "crib": 2893,
      "eople": 2894,
      "unt": 2895,
      "Ġtre": 2896,
      "Ġten": 2897,
      "Ġbed": 2898,
      "Ġpull": 2899,
      "Ġmult": 2900,
      "eter": 2901,
      "imin": 2902,
      "ĠMed": 2903,
      "olute": 2904,
      "Ġdeb": 2905,
      "ĠTe": 2906,
      "alls": 2907,
      "ĠDr": 2908,
      "ĠGerman": 2909,
      "apan": 2910,
      "ips": 2911,
      "Ġperfect": 2912,
      "Ġ2003": 2913,
      "airs": 2914,
      "Ġtransport": 2915,
      "ĠAfric": 2916,
      "Ġeducation": 2917,
      "Ġsociety": 2918,
      "29": 2919,
      "OM": 2920,
      "come": 2921,
      "ding": 2922,
      "fort": 2923,
      "hi": 2924,
      "hol": 2925,
      "ole": 2926,
      "atory": 2927,
      "atives": 2928,
      "ising": 2929,
      "ening": 2930,
      "omb": 2931,
      "ĠItal": 2932,
      "ĠSchool": 2933,
      "Ġstruct": 2934,
      "ille": 2935,
      "ift": 2936,
      "ĠMoh": 2937,
      "Ġconvers": 2938,
      "emocr": 2939,
      "Ġalthough": 2940,
      "ĠEN": 2941,
      "Ġwouldn": 2942,
      "Ġtrust": 2943,
      "ibly": 2944,
      "Ġimmed": 2945,
      "ĠChurch": 2946,
      "Ġappreci": 2947,
      "Ġ2001": 2948,
      "Ġguess": 2949,
      "Ġinstit": 2950,
      "Ġfinan": 2951,
      "Ġfamil": 2952,
      "ĠIraqi": 2953,
      "Ġopening": 2954,
      "Ġlarger": 2955,
      "Ġ:)": 2956,
      "Ġsource": 2957,
      "Ġtouch": 2958,
      "ĠCongress": 2959,
      "PM": 2960,
      "Ph": 2961,
      "Your": 2962,
      "cle": 2963,
      "ih": 2964,
      "la": 2965,
      "time": 2966,
      "wo": 2967,
      "Ġaut": 2968,
      "ouston": 2969,
      "Ġboy": 2970,
      "orks": 2971,
      "Ġmis": 2972,
      "arant": 2973,
      "Ġlov": 2974,
      "Ġgen": 2975,
      "idge": 2976,
      "ĠShe": 2977,
      "Ġord": 2978,
      "Ġexact": 2979,
      "Ġsun": 2980,
      "Ġvol": 2981,
      "Ġsold": 2982,
      "ĠEar": 2983,
      "ĠDo": 2984,
      "artment": 2985,
      "ĠGoogle": 2986,
      "ĠFeb": 2987,
      "Ġchick": 2988,
      "Ġcharge": 2989,
      "Ġgoes": 2990,
      "Ġcontrib": 2991,
      "Ġspent": 2992,
      "Ġexperi": 2993,
      "Ġsupposed": 2994,
      "Ġterm": 2995,
      "Ġbehav": 2996,
      "Ġproducts": 2997,
      "Ġobserv": 2998,
      "ĠCaliforn": 2999,
      "40": 3000,
      ">>": 3001,
      "ael": 3002,
      "oe": 3003,
      "ped": 3004,
      "ĠX": 3005,
      "onst": 3006,
      "Ġborn": 3007,
      "Ġfile": 3008,
      "Ġfresh": 3009,
      "asons": 3010,
      "oming": 3011,
      "Ġnamed": 3012,
      "illi": 3013,
      "ĠMin": 3014,
      "ĠMich": 3015,
      "Ġdepend": 3016,
      "rible": 3017,
      "Ġrout": 3018,
      "osing": 3019,
      "Ġchall": 3020,
      "Ġimag": 3021,
      "comp": 3022,
      "Ġapply": 3023,
      "Why": 3024,
      "Ġpoor": 3025,
      "Ġlooked": 3026,
      "Although": 3027,
      "Ġmoving": 3028,
      "Ġstreng": 3029,
      "Ġfundament": 3030,
      "ursday": 3031,
      "Ġannoun": 3032,
      "EL": 3033,
      "May": 3034,
      "cis": 3035,
      "hood": 3036,
      "oid": 3037,
      "pris": 3038,
      "uf": 3039,
      "upp": 3040,
      "ws": 3041,
      "Ġ,": 3042,
      "Ġri": 3043,
      "Ġwife": 3044,
      "Ġcra": 3045,
      "Ġcredit": 3046,
      "Ġfem": 3047,
      "Ġmur": 3048,
      "arily": 3049,
      "ĠIt": 3050,
      "iri": 3051,
      "adu": 3052,
      "ĠAN": 3053,
      "ĠAir": 3054,
      "ĠAss": 3055,
      "ĠMe": 3056,
      "ores": 3057,
      "Ġdev": 3058,
      "Ġexc": 3059,
      "Ġknew": 3060,
      "aint": 3061,
      "Ġadult": 3062,
      "Ġindic": 3063,
      "Ġevidence": 3064,
      "Ġinteresting": 3065,
      "ropri": 3066,
      "Ġslow": 3067,
      "Ġmedia": 3068,
      "Ġseries": 3069,
      "Ġspecies": 3070,
      "what": 3071,
      "Ġcurrently": 3072,
      "Ġpleas": 3073,
      "Ġregarding": 3074,
      "Ġcounter": 3075,
      "ĠRepublic": 3076,
      "99": 3077,
      "Because": 3078,
      "First": 3079,
      "Get": 3080,
      "Hi": 3081,
      "doc": 3082,
      "gs": 3083,
      "Ġess": 3084,
      "inks": 3085,
      "inci": 3086,
      "itc": 3087,
      "Ġbab": 3088,
      "Ġpers": 3089,
      "Ġmer": 3090,
      "Ġhit": 3091,
      "Ġlic": 3092,
      "Ġnuc": 3093,
      "acter": 3094,
      "igence": 3095,
      "ĠSk": 3096,
      "ĠSy": 3097,
      "ĠSoc": 3098,
      "ĠArab": 3099,
      "ĠMonday": 3100,
      "Ġdeep": 3101,
      "Ġ100": 3102,
      "Ġ21": 3103,
      "ively": 3104,
      "Ġwilling": 3105,
      "ĠWed": 3106,
      "ĠJapan": 3107,
      "aged": 3108,
      "Ġimm": 3109,
      "ĠOff": 3110,
      "Ġparts": 3111,
      "Ġadded": 3112,
      "hens": 3113,
      "Ġtraining": 3114,
      "Ġprovided": 3115,
      "Ġlots": 3116,
      "Ġshows": 3117,
      "Ġfinal": 3118,
      "Ġleader": 3119,
      "Ġcentury": 3120,
      "Ġreported": 3121,
      "Ġmathem": 3122,
      "Ġlearn": 3123,
      "Ġlearning": 3124,
      "Ġsleep": 3125,
      "Ġdinner": 3126,
      "ĠCalifornia": 3127,
      "02": 3128,
      "26": 3129,
      "En": 3130,
      "IT": 3131,
      "Many": 3132,
      "bit": 3133,
      "ients": 3134,
      "ked": 3135,
      "you": 3136,
      "Ã³": 3137,
      "Ġz": 3138,
      "Ġsym": 3139,
      "oud": 3140,
      "Ġbill": 3141,
      "Ġbrought": 3142,
      "Ġdied": 3143,
      "Ġled": 3144,
      "Ġlow": 3145,
      "Ġep": 3146,
      "verage": 3147,
      "ĠSant": 3148,
      "Ġwasn": 3149,
      "ĠMark": 3150,
      "Ġcomments": 3151,
      "ĠNOT": 3152,
      "ĠEl": 3153,
      "Ġmyself": 3154,
      "Ġchance": 3155,
      "iving": 3156,
      "Ġintro": 3157,
      "Ġprim": 3158,
      "izza": 3159,
      "Ġwants": 3160,
      "Ġattend": 3161,
      "Ġroad": 3162,
      "Ġhimself": 3163,
      "Ġdescrib": 3164,
      "Ġnumbers": 3165,
      "Ġ713": 3166,
      "Ġhappened": 3167,
      "Ġwrite": 3168,
      "Ġmeaning": 3169,
      "Ġboard": 3170,
      "Ġdeveloped": 3171,
      "Ġmaint": 3172,
      "Ġideas": 3173,
      "Ġdemocr": 3174,
      "ĠFrance": 3175,
      "--------------------------------": 3176,
      "Ġlimited": 3177,
      "Ġnecessary": 3178,
      "Ġhuge": 3179,
      "Ġwonderful": 3180,
      "Ġitems": 3181,
      "ĠGovern": 3182,
      "08": 3183,
      "23": 3184,
      "89": 3185,
      "BC": 3186,
      "Like": 3187,
      "Most": 3188,
      "ius": 3189,
      "Ġtrou": 3190,
      "Ġscience": 3191,
      "Ġcities": 3192,
      "Ġcool": 3193,
      "Ġbat": 3194,
      "Ġfast": 3195,
      "Ġmiddle": 3196,
      "Ġtotal": 3197,
      "Ġinn": 3198,
      "Ġlink": 3199,
      "Ġlower": 3200,
      "Ġnorth": 3201,
      "ented": 3202,
      "rog": 3203,
      "iring": 3204,
      "ĠScient": 3205,
      "oose": 3206,
      "Ġsearch": 3207,
      "Ġseason": 3208,
      "Ġdepart": 3209,
      "Ġ14": 3210,
      "ĠFall": 3211,
      "Ġintell": 3212,
      "ago": 3213,
      "Ġfeet": 3214,
      "Ġthank": 3215,
      "avy": 3216,
      "Ġblood": 3217,
      "idential": 3218,
      "Ġevents": 3219,
      "ysis": 3220,
      "Ġsurround": 3221,
      "enced": 3222,
      "Ġeffort": 3223,
      "Ġtrip": 3224,
      "Ġprior": 3225,
      "Ġgrand": 3226,
      "ĠPhil": 3227,
      "Ġallowed": 3228,
      "Ġestablished": 3229,
      "Ġadditional": 3230,
      "Ġrules": 3231,
      "Ġpurp": 3232,
      "Ġinstitutions": 3233,
      "Uh": 3234,
      "ault": 3235,
      "een": 3236,
      "ham": 3237,
      "men": 3238,
      "ville": 3239,
      "Ġtal": 3240,
      "Ġtas": 3241,
      "Ġsize": 3242,
      "Ġokay": 3243,
      "Ġcup": 3244,
      "Ġbi": 3245,
      "ici": 3246,
      "Ġnation": 3247,
      "Ġgone": 3248,
      "sequ": 3249,
      "igital": 3250,
      "Ġstri": 3251,
      "Ġheart": 3252,
      "add": 3253,
      "ĠAb": 3254,
      "antly": 3255,
      "Ġdoctor": 3256,
      "ĠGeneral": 3257,
      "Ġtrade": 3258,
      "Ġclot": 3259,
      "Ġunivers": 3260,
      "ittee": 3261,
      "Ġrelated": 3262,
      "Ġbuilt": 3263,
      "Ġ50": 3264,
      "Ġcheap": 3265,
      "Ġdifference": 3266,
      "Ġkept": 3267,
      "Ġpolicy": 3268,
      "Ġrefer": 3269,
      "Ġimprove": 3270,
      "Ġplaying": 3271,
      "Ġserious": 3272,
      "Ġelected": 3273,
      "Ġelections": 3274,
      "Ġbasis": 3275,
      "Ġreturned": 3276,
      "Ġhistor": 3277,
      "ĠParis": 3278,
      "Ġdrive": 3279,
      "Ġwoman": 3280,
      "Ġpublished": 3281,
      "ĠAfghanistan": 3282,
      "Ġcompanies": 3283,
      "Ġdollars": 3284,
      "Ġcitizens": 3285,
      "Ġopinion": 3286,
      "Ġtomorrow": 3287,
      "36": 3288,
      "53": 3289,
      "VER": 3290,
      "iers": 3291,
      "mb": 3292,
      "yond": 3293,
      "rely": 3294,
      "Ġwish": 3295,
      "Ġsil": 3296,
      "Ġsens": 3297,
      "arr": 3298,
      "Ġden": 3299,
      "Ġdang": 3300,
      "Ġdaily": 3301,
      "icro": 3302,
      "Ġlunch": 3303,
      "Ġgames": 3304,
      "ĠService": 3305,
      "Ġaspect": 3306,
      "iles": 3307,
      "Ġsection": 3308,
      "ĠBa": 3309,
      "Ġalt": 3310,
      "Ġaltern": 3311,
      "Ġ24": 3312,
      "Ġsoft": 3313,
      "ĠNet": 3314,
      "ĠJune": 3315,
      "izing": 3316,
      "Ġtext": 3317,
      "ruary": 3318,
      "Ġfloor": 3319,
      "Ġstudent": 3320,
      "Ġsurface": 3321,
      "Ġsettle": 3322,
      "Ġarticle": 3323,
      "Ġwrote": 3324,
      "Ġmoved": 3325,
      "Ġcreate": 3326,
      "Ġoccur": 3327,
      "Ġcreated": 3328,
      "Ġvarious": 3329,
      "ĠCanada": 3330,
      "Ġreligious": 3331,
      "Ġhigher": 3332,
      "Ġnuclear": 3333,
      "Have": 3334,
      "LE": 3335,
      "Very": 3336,
      "ges": 3337,
      "ij": 3338,
      "lt": 3339,
      "oes": 3340,
      "ya": 3341,
      "Ġtank": 3342,
      "rew": 3343,
      "reet": 3344,
      "Ġswe": 3345,
      "Ġce": 3346,
      "itation": 3347,
      "Ġbud": 3348,
      "esome": 3349,
      "icing": 3350,
      "Ġlay": 3351,
      "Ġeth": 3352,
      "ĠII": 3353,
      "Ġstories": 3354,
      "Ġheat": 3355,
      "ĠChe": 3356,
      "ĠMont": 3357,
      "ests": 3358,
      "usion": 3359,
      "Ġcommer": 3360,
      "riage": 3361,
      "Ġprinci": 3362,
      "Ġtrack": 3363,
      "Ġarch": 3364,
      "Ġsafe": 3365,
      "Ġgreater": 3366,
      "Ġremain": 3367,
      "Ġconsum": 3368,
      "Ġfinally": 3369,
      "Ġwritten": 3370,
      "Ġinside": 3371,
      "Ġvalues": 3372,
      "Ġrunning": 3373,
      "Att": 3374,
      "Ġprogress": 3375,
      "iety": 3376,
      "Ġorganization": 3377,
      "Ġfrequ": 3378,
      "Ġbeginning": 3379,
      "Ġconnection": 3380,
      "Ġpractice": 3381,
      "Ġoptions": 3382,
      "Ġadministration": 3383,
      "Ġweapons": 3384,
      "ĠParty": 3385,
      "Ġeggs": 3386,
      "US": 3387,
      "noon": 3388,
      "wise": 3389,
      "Ġcand": 3390,
      "Ġcases": 3391,
      "Ġball": 3392,
      "Ġfif": 3393,
      "Ġpan": 3394,
      "Ġpath": 3395,
      "Ġdi": 3396,
      "Ġdry": 3397,
      "Ġnature": 3398,
      "Ġreasons": 3399,
      "eth": 3400,
      "roy": 3401,
      "ĠAct": 3402,
      "ĠAugust": 3403,
      "terday": 3404,
      "Ġexhib": 3405,
      "ria": 3406,
      "rian": 3407,
      "ĠHam": 3408,
      "ĠHouston": 3409,
      "Ġcharg": 3410,
      "Ġchann": 3411,
      "Ġcontent": 3412,
      "Ġcontain": 3413,
      "aves": 3414,
      "Ġcouldn": 3415,
      "Ġroot": 3416,
      "ĠUnion": 3417,
      "Ġserved": 3418,
      "range": 3419,
      "Ġcarry": 3420,
      "Ġstarting": 3421,
      "Ġsurpris": 3422,
      "Ġconflic": 3423,
      "Ġimpact": 3424,
      "Ġcapt": 3425,
      "Ġappear": 3426,
      "Ġturned": 3427,
      "Ġproposed": 3428,
      "ĠAmount": 3429,
      "cript": 3430,
      "Ġwriting": 3431,
      "================": 3432,
      "Ġcompletely": 3433,
      "Ġmoment": 3434,
      "Ġactivities": 3435,
      "ĠInternet": 3436,
      "Ġjudge": 3437,
      "Ġofficials": 3438,
      "ĠPalest": 3439,
      "Ġpictures": 3440,
      "Ġliter": 3441,
      "Ġrelationship": 3442,
      "ĠAustral": 3443,
      "nesday": 3444,
      "Ġfundamental": 3445,
      "AM": 3446,
      "ground": 3447,
      "ny": 3448,
      "off": 3449,
      "rs": 3450,
      "inc": 3451,
      "Ġwide": 3452,
      "erve": 3453,
      "isf": 3454,
      "ishing": 3455,
      "Ġbillion": 3456,
      "Ġfear": 3457,
      "Ġpage": 3458,
      "Ġhosp": 3459,
      "Ġlab": 3460,
      "Ġluck": 3461,
      "lev": 3462,
      "Ġemer": 3463,
      "Ġonline": 3464,
      "ĠSpe": 3465,
      "uls": 3466,
      "Ġnote": 3467,
      "uses": 3468,
      "Ġmeal": 3469,
      "ĠWe": 3470,
      "ously": 3471,
      "Ġwhose": 3472,
      "Ġrecogn": 3473,
      "liament": 3474,
      "duction": 3475,
      "ellow": 3476,
      "Ġprovides": 3477,
      "Ġsurv": 3478,
      "uesday": 3479,
      "Ġexpensive": 3480,
      "Ġtrial": 3481,
      "Ġslight": 3482,
      "Ġcentral": 3483,
      "Ġfunction": 3484,
      "Ġlaws": 3485,
      "!!!!!!!!": 3486,
      "ĠQaeda": 3487,
      "Ġreasonable": 3488,
      "Ġcustomers": 3489,
      "Ġincrease": 3490,
      "Ġprotect": 3491,
      "ĠConst": 3492,
      "Ġforeign": 3493,
      "Ġinitial": 3494,
      "ĠInternational": 3495,
      "ĠIslamic": 3496,
      "ĠMexico": 3497,
      "Ġpiece": 3498,
      "ĠFrancis": 3499,
      "ĠOctober": 3500,
      "Ġachieve": 3501,
      "Ġopportunity": 3502,
      "Ġensure": 3503,
      "Ġdocument": 3504,
      "ĠEarth": 3505,
      "ĠFebruary": 3506,
      "34": 3507,
      "Che": 3508,
      "TE": 3509,
      "back": 3510,
      "gency": 3511,
      "ha": 3512,
      "mosp": 3513,
      "sy": 3514,
      "Ġ@": 3515,
      "Ġx": 3516,
      "Ġver": 3517,
      "rep": 3518,
      "Ġoption": 3519,
      "anish": 3520,
      "Ġmount": 3521,
      "Ġmail": 3522,
      "Ġtoward": 3523,
      "Ġdark": 3524,
      "Ġbear": 3525,
      "urday": 3526,
      "chan": 3527,
      "Ġprof": 3528,
      "Ġleaving": 3529,
      "Ġagree": 3530,
      "Ġimple": 3531,
      "ression": 3532,
      "Ġafternoon": 3533,
      "awah": 3534,
      "Ġindepend": 3535,
      "Ġowner": 3536,
      "Ġexperim": 3537,
      "Ġpolice": 3538,
      "Ġreflect": 3539,
      "ĠIsland": 3540,
      "Ġsystems": 3541,
      "Ġobv": 3542,
      "gypt": 3543,
      "Ġdemand": 3544,
      "Ġstreet": 3545,
      "which": 3546,
      "Ġunderstanding": 3547,
      "Ġdirectly": 3548,
      "Ġfilm": 3549,
      "Ġstatement": 3550,
      "Ġnearly": 3551,
      "Ġgrowth": 3552,
      "ĠTrans": 3553,
      "Ġemployees": 3554,
      "ĠMuslim": 3555,
      "Ġfinancial": 3556,
      "27": 3557,
      "35": 3558,
      "CE": 3559,
      "IA": 3560,
      "Pl": 3561,
      "Vince": 3562,
      "ball": 3563,
      "uit": 3564,
      "Ġwalking": 3565,
      "Ġson": 3566,
      "Ġsam": 3567,
      "atures": 3568,
      "ites": 3569,
      "oring": 3570,
      "Ġfigure": 3571,
      "edom": 3572,
      "Ġpil": 3573,
      "Ġdress": 3574,
      "Ġdru": 3575,
      "utive": 3576,
      "imately": 3577,
      "Ġweb": 3578,
      "illa": 3579,
      "ĠMor": 3580,
      "raf": 3581,
      "rax": 3582,
      "ulated": 3583,
      "olf": 3584,
      "antic": 3585,
      "usse": 3586,
      "Ġcomment": 3587,
      "Ġcomfort": 3588,
      "osition": 3589,
      "ĠDep": 3590,
      "unk": 3591,
      "ĠGod": 3592,
      "Ġupd": 3593,
      "ĠJust": 3594,
      "Ġadjust": 3595,
      "Ġunc": 3596,
      "ĠKh": 3597,
      "ĠKing": 3598,
      "ĠKore": 3599,
      "Ġtwice": 3600,
      "ovember": 3601,
      "Ġappoint": 3602,
      "ounds": 3603,
      "Ġflow": 3604,
      "Ġthroughout": 3605,
      "Ġchem": 3606,
      "Ġ40": 3607,
      "Ġlocated": 3608,
      "Ġrain": 3609,
      "ĠNews": 3610,
      "ĠThis": 3611,
      "ĠComp": 3612,
      "Ġreports": 3613,
      "Ġcontinued": 3614,
      "ENRON": 3615,
      "olutionary": 3616,
      "ĠWarhol": 3617,
      "Ġpressure": 3618,
      "Ġengine": 3619,
      "Ġwatching": 3620,
      "Ġbrain": 3621,
      "Ġnetwork": 3622,
      "Ġrisk": 3623,
      "aughter": 3624,
      "Ġmanagement": 3625,
      "ĠScientology": 3626,
      "Ġimplement": 3627,
      "Over": 3628,
      "Re": 3629,
      "ches": 3630,
      "eed": 3631,
      "how": 3632,
      "nam": 3633,
      "oard": 3634,
      "ying": 3635,
      "Ġ?": 3636,
      "Ġcamer": 3637,
      "ises": 3638,
      "Ġmist": 3639,
      "ĠSw": 3640,
      "Ġstar": 3641,
      "Ġanth": 3642,
      "ils": 3643,
      "Ġnotice": 3644,
      "ĠTal": 3645,
      "ĠUK": 3646,
      "Ġunique": 3647,
      "Ġdispl": 3648,
      "Ġworkers": 3649,
      "Ġattract": 3650,
      "Ġseeing": 3651,
      "order": 3652,
      "Ġspeed": 3653,
      "Ġappropri": 3654,
      "Ġscen": 3655,
      "issions": 3656,
      "Ġemb": 3657,
      "Ġcold": 3658,
      "Ġinstruct": 3659,
      "Ġputting": 3660,
      "unday": 3661,
      "Ġterms": 3662,
      "Ġfollowed": 3663,
      "Ġinsur": 3664,
      "Ġsimple": 3665,
      "Ġreceive": 3666,
      "Ġgives": 3667,
      "Ġcaused": 3668,
      "Ġjoke": 3669,
      "Ġafford": 3670,
      "Ġchanged": 3671,
      "Ġparticularly": 3672,
      "Ġgirls": 3673,
      "Ġfavorite": 3674,
      "Ġdetails": 3675,
      "Ġreleased": 3676,
      "Ġmentioned": 3677,
      "Ġversion": 3678,
      "Ġthousands": 3679,
      "olutely": 3680,
      "Ġmathemat": 3681,
      "Ġcommercial": 3682,
      "awahiri": 3683,
      "John": 3684,
      "LY": 3685,
      "OW": 3686,
      "hm": 3687,
      "mp": 3688,
      "ping": 3689,
      "Ġign": 3690,
      "Ġahead": 3691,
      "ream": 3692,
      "Ġcell": 3693,
      "Ġbase": 3694,
      "Ġfoot": 3695,
      "Ġpen": 3696,
      "Ġmach": 3697,
      "arian": 3698,
      "icago": 3699,
      "Ġgall": 3700,
      "Ġeating": 3701,
      "Ġrepe": 3702,
      "irit": 3703,
      "ĠSa": 3704,
      "Ġwaste": 3705,
      "Ġatmosp": 3706,
      "olit": 3707,
      "Ġsell": 3708,
      "riend": 3709,
      "Ġrange": 3710,
      "Ġjour": 3711,
      "ĠEgypt": 3712,
      "ĠDel": 3713,
      "ĠLib": 3714,
      "Ġchurch": 3715,
      "Ġchoice": 3716,
      "Ġplants": 3717,
      "ĠWestern": 3718,
      "ĠWilli": 3719,
      "aught": 3720,
      "Ġprint": 3721,
      "Ġfell": 3722,
      "Ġunless": 3723,
      "Ġspread": 3724,
      "Ġperhaps": 3725,
      "Ġseek": 3726,
      "...@": 3727,
      "Ġguarant": 3728,
      "Ġtrain": 3729,
      "Ġacqu": 3730,
      "Alright": 3731,
      "Ġmetal": 3732,
      "ĠThursday": 3733,
      "Ġcorpor": 3734,
      "Ġdistrib": 3735,
      "Ġelectric": 3736,
      "retary": 3737,
      "Ġmajority": 3738,
      "Ġtechnology": 3739,
      "Ġeffects": 3740,
      "Ġesc": 3741,
      "Ġlaunch": 3742,
      "Ġestablish": 3743,
      "Ġislands": 3744,
      "Ġpotential": 3745,
      "Ġyesterday": 3746,
      "ĠAND": 3747,
      "++": 3748,
      ".?": 3749,
      "AP": 3750,
      "Americ": 3751,
      "Car": 3752,
      "Com": 3753,
      "Her": 3754,
      "based": 3755,
      "cy": 3756,
      "cks": 3757,
      "ean": 3758,
      "iately": 3759,
      "light": 3760,
      "ray": 3761,
      "zen": 3762,
      "hel": 3763,
      "hest": 3764,
      "Ġcoo": 3765,
      "Ġcats": 3766,
      "Ġfish": 3767,
      "Ġpizza": 3768,
      "Ġhy": 3769,
      "Ġhol": 3770,
      "Ġlines": 3771,
      "omes": 3772,
      "Ġeight": 3773,
      "Ġeast": 3774,
      "lying": 3775,
      "Ġforms": 3776,
      "sec": 3777,
      "ĠCount": 3778,
      "ĠColl": 3779,
      "ĠCont": 3780,
      "ĠAnt": 3781,
      "ĠPaul": 3782,
      "that": 3783,
      "Ġ28": 3784,
      "Ġvote": 3785,
      "Ġvoice": 3786,
      "ĠGreat": 3787,
      "ĠLee": 3788,
      "ĠRes": 3789,
      "aker": 3790,
      "oday": 3791,
      "Ġinteg": 3792,
      "ccording": 3793,
      "Ġthanks": 3794,
      "Ġflight": 3795,
      "ĠInc": 3796,
      "Ġacadem": 3797,
      "Ġdifferences": 3798,
      "Ġ2010": 3799,
      "Ġextra": 3800,
      "Ġincluded": 3801,
      "Ġvisited": 3802,
      "Ġmemory": 3803,
      "Ġmedical": 3804,
      "Ġplanning": 3805,
      "Ġfully": 3806,
      "????": 3807,
      "Ġpaid": 3808,
      "Ġagreed": 3809,
      "Ġtradition": 3810,
      "Ġkilled": 3811,
      "force": 3812,
      "Ġcharacter": 3813,
      "Ġindividual": 3814,
      "Ġimmediately": 3815,
      "iciency": 3816,
      "ĠPalestin": 3817,
      "38": 3818,
      "CH": 3819,
      "Go": 3820,
      "OL": 3821,
      "Per": 3822,
      "Reg": 3823,
      "ares": 3824,
      "ference": 3825,
      "gent": 3826,
      "mith": 3827,
      "Ġtable": 3828,
      "reg": 3829,
      "Ġwest": 3830,
      "Ġcard": 3831,
      "itect": 3832,
      "enron": 3833,
      "anced": 3834,
      "Ġmut": 3835,
      "Ġmill": 3836,
      "aries": 3837,
      "Ġthrow": 3838,
      "iced": 3839,
      "icated": 3840,
      "aches": 3841,
      "see": 3842,
      "Ġund": 3843,
      "urb": 3844,
      "Ġstation": 3845,
      "Ġstock": 3846,
      "Ġwhom": 3847,
      "uled": 3848,
      "rial": 3849,
      "Ġmeant": 3850,
      "Ġmechan": 3851,
      "ĠTer": 3852,
      "ĠLa": 3853,
      "Ġplans": 3854,
      "ources": 3855,
      "Ġanywhere": 3856,
      "Ġsomewhere": 3857,
      "Ġgets": 3858,
      "ĠON": 3859,
      "Ġtend": 3860,
      "ĠSte": 3861,
      "ĠStreet": 3862,
      "Ġrock": 3863,
      "ĠViet": 3864,
      "Ġrelative": 3865,
      "Ġexpand": 3866,
      "Ġfeeling": 3867,
      "Ġbrother": 3868,
      "Ġpresident": 3869,
      "Ġwarm": 3870,
      "Ġsmaller": 3871,
      "Ġmiles": 3872,
      "Ġcomplex": 3873,
      "Ġproduction": 3874,
      "Ġgiving": 3875,
      "Ġreading": 3876,
      "Ġadvice": 3877,
      "idden": 3878,
      "Ġdiscussed": 3879,
      "ĠCommission": 3880,
      "Ġhealthy": 3881,
      "Ġcertainly": 3882,
      "Ġgreen": 3883,
      "Ġresponsible": 3884,
      "Ġdestroy": 3885,
      "Ġinvestig": 3886,
      "ĠCenter": 3887,
      "Ġfixed": 3888,
      "Ġsexual": 3889,
      "Ġapplication": 3890,
      "Ġneighbor": 3891,
      "Ġseparate": 3892,
      "Ġchicken": 3893,
      "ĠWednesday": 3894,
      "Ġdemocracy": 3895,
      "Ġanthrax": 3896,
      "713": 3897,
      "?\"": 3898,
      "BS": 3899,
      "Look": 3900,
      "More": 3901,
      "Other": 3902,
      "PA": 3903,
      "Sara": 3904,
      "Will": 3905,
      "oom": 3906,
      "oly": 3907,
      "rast": 3908,
      "west": 3909,
      "year": 3910,
      "Ġtarg": 3911,
      "Ġwat": 3912,
      "Ġwine": 3913,
      "Ġcage": 3914,
      "Ġfit": 3915,
      "Ġfirm": 3916,
      "arc": 3917,
      "Ġhous": 3918,
      "ctions": 3919,
      "Ġwel": 3920,
      "ĠAS": 3921,
      "ulate": 3922,
      "ements": 3923,
      "Ġproduc": 3924,
      "ĠTuesday": 3925,
      "osure": 3926,
      "ĠNovember": 3927,
      "ĠDis": 3928,
      "Ġalleg": 3929,
      "ichard": 3930,
      "aging": 3931,
      "Ġarrest": 3932,
      "ube": 3933,
      "reek": 3934,
      "Ġperm": 3935,
      "Ġprefer": 3936,
      "Ġactions": 3937,
      "Ġsmell": 3938,
      "Ġinstance": 3939,
      "Ġtransfer": 3940,
      "Ġvet": 3941,
      "Ġdemonst": 3942,
      "ĠAnge": 3943,
      "Ġcommunities": 3944,
      "Ġtreatment": 3945,
      "Ġprojects": 3946,
      "ĠParliament": 3947,
      "Ġequal": 3948,
      "Ġcolor": 3949,
      "useum": 3950,
      "Ġattacks": 3951,
      "load": 3952,
      "ĠHarv": 3953,
      "Ġargument": 3954,
      "Ġnormal": 3955,
      "Ġencoura": 3956,
      "Ġexactly": 3957,
      "05": 3958,
      "60": 3959,
      "Dr": 3960,
      "VE": 3961,
      "bie": 3962,
      "ki": 3963,
      "lies": 3964,
      "she": 3965,
      "Ġice": 3966,
      "Ġtit": 3967,
      "Ġtro": 3968,
      "Ġsolution": 3969,
      "Ġsorry": 3970,
      "Ġbag": 3971,
      "Ġfro": 3972,
      "Ġpoll": 3973,
      "icks": 3974,
      "icip": 3975,
      "lex": 3976,
      "owl": 3977,
      "imum": 3978,
      "imated": 3979,
      "ĠAgre": 3980,
      "Ġproceed": 3981,
      "que": 3982,
      "rief": 3983,
      "Ġrough": 3984,
      "Ġworst": 3985,
      "ĠDavid": 3986,
      "Ġability": 3987,
      "ĠFort": 3988,
      "Ġplastic": 3989,
      "ocks": 3990,
      "Ġtruth": 3991,
      "Ġclimate": 3992,
      "Ġdont": 3993,
      "Ġconsist": 3994,
      "Ġcoast": 3995,
      "Ġcoff": 3996,
      "Ġfinding": 3997,
      "Ġdefend": 3998,
      "Ġdefense": 3999,
      "Ġdecisions": 4000,
      "ĠYOU": 4001,
      "Ġ2014": 4002,
      "Ġsett": 4003,
      "Ġshowed": 4004,
      "Ġ01": 4005,
      "Ġproduce": 4006,
      "Ġreviews": 4007,
      "Ġstandard": 4008,
      "Ġclaims": 4009,
      "Ġincreasing": 4010,
      "cription": 4011,
      "Ġsuccessful": 4012,
      "Ġfreedom": 4013,
      "ĠSenate": 4014,
      "Image": 4015,
      "ĠCouncil": 4016,
      "ĠBritish": 4017,
      "Ġchalleng": 4018,
      "ĠOffice": 4019,
      "Ġdescribed": 4020,
      "ĠGovernment": 4021,
      "ĠFalluj": 4022,
      "Ġpurpose": 4023,
      "Attached": 4024,
      "sych": 4025,
      "07": 4026,
      "47": 4027,
      "55": 4028,
      "69": 4029,
      "79": 4030,
      "Fin": 4031,
      "OD": 4032,
      "do": 4033,
      "ma": 4034,
      "ois": 4035,
      "works": 4036,
      "Ġ+": 4037,
      "Ġut": 4038,
      "inary": 4039,
      "itor": 4040,
      "anim": 4041,
      "Ġmig": 4042,
      "Ġinj": 4043,
      "ica": 4044,
      "level": 4045,
      "Ġbeyond": 4046,
      "Ġult": 4047,
      "ĠSunday": 4048,
      "Ġship": 4049,
      "ĠNo": 4050,
      "ĠDon": 4051,
      "ĠGulf": 4052,
      "ĠHow": 4053,
      "Ġchair": 4054,
      "ffic": 4055,
      "ĠUN": 4056,
      "ĠJack": 4057,
      "iban": 4058,
      "Ġcontext": 4059,
      "ĠOn": 4060,
      "iance": 4061,
      "ĠChar": 4062,
      "Ġ198": 4063,
      "Who": 4064,
      "Ġregional": 4065,
      "Ġhelped": 4066,
      "Ġdespite": 4067,
      "ĠInst": 4068,
      "Ġiod": 4069,
      "they": 4070,
      "Ġended": 4071,
      "Ġminute": 4072,
      "Ġefforts": 4073,
      "Ġpresence": 4074,
      "Ġcollection": 4075,
      "Ġhappen": 4076,
      "Ġbelief": 4077,
      "Ġglass": 4078,
      "Ġexplain": 4079,
      "ENT": 4080,
      "Ġconstruction": 4081,
      "Ġincreased": 4082,
      "Ġwaiting": 4083,
      "Ġviews": 4084,
      "Ġclearly": 4085,
      "Ġanimal": 4086,
      "Ġaware": 4087,
      "Ġsteps": 4088,
      "Ġsatisf": 4089,
      "Ġstraight": 4090,
      "ĠGlobal": 4091,
      "Ġsubstant": 4092,
      "Ġdoub": 4093,
      "Ġtemperature": 4094,
      "Ġfamilies": 4095,
      "aduate": 4096,
      "ĠAgreement": 4097,
      "65": 4098,
      "AY": 4099,
      "According": 4100,
      "Hope": 4101,
      "Once": 4102,
      "Pro": 4103,
      "Try": 4104,
      "Two": 4105,
      "aper": 4106,
      "band": 4107,
      "ek": 4108,
      "fortun": 4109,
      "mod": 4110,
      "pen": 4111,
      "rad": 4112,
      "Ġcab": 4113,
      "Ġbooks": 4114,
      "org": 4115,
      "Ġfa": 4116,
      "Ġfol": 4117,
      "ales": 4118,
      "icles": 4119,
      "Ġlif": 4120,
      "aman": 4121,
      "Ġwear": 4122,
      "aden": 4123,
      "Ġaren": 4124,
      "ĠMos": 4125,
      "olt": 4126,
      "Ġjury": 4127,
      "Ġvia": 4128,
      "Ġshut": 4129,
      "ĠDemocr": 4130,
      "ĠFl": 4131,
      "ĠLeg": 4132,
      "Ġchoose": 4133,
      "Ġgoal": 4134,
      "Ġsave": 4135,
      "ĠChicago": 4136,
      "obyl": 4137,
      "Ġ2002": 4138,
      "Ġblue": 4139,
      "Ġpharm": 4140,
      "rowd": 4141,
      "ĠYear": 4142,
      "Ġsubm": 4143,
      "Ġ2012": 4144,
      "Ġconference": 4145,
      "Ġterrit": 4146,
      "Ġcenter": 4147,
      "Ġserve": 4148,
      "Ġairport": 4149,
      "Ġjoin": 4150,
      "Ġavoid": 4151,
      "Ġeconomy": 4152,
      "Ġinternet": 4153,
      "ĠSpanish": 4154,
      "Ġapproach": 4155,
      "Ġoccas": 4156,
      "Ġoccup": 4157,
      "Ġgrowing": 4158,
      "Ġdrink": 4159,
      "party": 4160,
      "****************": 4161,
      "Ġdomin": 4162,
      "Ġdetermin": 4163,
      "Ġtaste": 4164,
      "Ġanalysis": 4165,
      "Ġbenefit": 4166,
      "Ġlegisl": 4167,
      "Ġmultip": 4168,
      "ihad": 4169,
      "Ġbaby": 4170,
      "Ġdangerous": 4171,
      "Ġcamera": 4172,
      "ĠTaliban": 4173,
      "Ġatmosphere": 4174,
      "Ġcoffee": 4175,
      "Ar": 4176,
      "Qaeda": 4177,
      "aq": 4178,
      "bon": 4179,
      "house": 4180,
      "ipe": 4181,
      "ken": 4182,
      "pret": 4183,
      "rate": 4184,
      "war": 4185,
      "Ġaverage": 4186,
      "eries": 4187,
      "Ġcash": 4188,
      "Ġfant": 4189,
      "Ġtowards": 4190,
      "ari": 4191,
      "Ġhop": 4192,
      "Ġlat": 4193,
      "Ġnort": 4194,
      "vere": 4195,
      "Ġreb": 4196,
      "irty": 4197,
      "Ġstated": 4198,
      "Ġstyle": 4199,
      "Ġpros": 4200,
      "ĠBu": 4201,
      "ĠBill": 4202,
      "Ġrates": 4203,
      "aine": 4204,
      "ĠNations": 4205,
      "ĠGal": 4206,
      "ĠRober": 4207,
      "venue": 4208,
      "Ġarms": 4209,
      "Ġarmy": 4210,
      "cles": 4211,
      "Ġnovel": 4212,
      "Ġspot": 4213,
      "Ġactive": 4214,
      "Ġcommit": 4215,
      "Ġdesk": 4216,
      "teen": 4217,
      "Ġelements": 4218,
      "Ġdecide": 4219,
      "Ġexpert": 4220,
      "Ġincludes": 4221,
      "Ġrepair": 4222,
      "Ġ60": 4223,
      "ERE": 4224,
      "Ġfacts": 4225,
      "Ġplayed": 4226,
      "Ġthoughts": 4227,
      "Ġbasically": 4228,
      "Ġjoined": 4229,
      "Ġveget": 4230,
      "Ġeasily": 4231,
      "Ġdiscussion": 4232,
      "ĠZeal": 4233,
      "Ġlevels": 4234,
      "Ġwinter": 4235,
      "Ġdelivery": 4236,
      "Ġeyes": 4237,
      "aniel": 4238,
      "ĠRussia": 4239,
      "ĠDoctor": 4240,
      "Ġbehavior": 4241,
      "ĠMichael": 4242,
      "Ġannounced": 4243,
      "ufact": 4244,
      "ĠAssoc": 4245,
      "Ġadults": 4246,
      "ĠDepartment": 4247,
      "ĠZealand": 4248,
      "44": 4249,
      "58": 4250,
      "ID": 4251,
      "ION": 4252,
      "Of": 4253,
      "PS": 4254,
      "Take": 4255,
      "UT": 4256,
      "ait": 4257,
      "bour": 4258,
      "cise": 4259,
      "hold": 4260,
      "ware": 4261,
      "Ġton": 4262,
      "hell": 4263,
      "rel": 4264,
      "Ġwild": 4265,
      "Ġsand": 4266,
      "ero": 4267,
      "nds": 4268,
      "oul": 4269,
      "Ġcook": 4270,
      "orum": 4271,
      "Ġdut": 4272,
      "icine": 4273,
      "lled": 4274,
      "Ġnor": 4275,
      "Ġreve": 4276,
      "Ġreach": 4277,
      "Ġreli": 4278,
      "ste": 4279,
      "entially": 4280,
      "Ġonto": 4281,
      "Ġforg": 4282,
      "vert": 4283,
      "Ġweather": 4284,
      "Ġwealth": 4285,
      "cember": 4286,
      "ĠCIA": 4287,
      "ĠPark": 4288,
      "ĠBra": 4289,
      "ession": 4290,
      "ĠTra": 4291,
      "pping": 4292,
      "Ġ23": 4293,
      "Ġplant": 4294,
      "iven": 4295,
      "ivity": 4296,
      "ĠJeff": 4297,
      "Ġadop": 4298,
      "Ġarm": 4299,
      "Ġdisp": 4300,
      "ĠKen": 4301,
      "ĠKar": 4302,
      "rupt": 4303,
      "Ġcalling": 4304,
      "Ġphil": 4305,
      "ception": 4306,
      "Ġconfirm": 4307,
      "Ġbusy": 4308,
      "Ġfinished": 4309,
      "Ġcollege": 4310,
      "Ġinsp": 4311,
      "Ġcorner": 4312,
      "Ġskills": 4313,
      "Ġlearned": 4314,
      "Ġtreated": 4315,
      "Ġstayed": 4316,
      "Ġdriving": 4317,
      "Ġlaun": 4318,
      "Ġprevent": 4319,
      "hernobyl": 4320,
      "Ġauthority": 4321,
      "ognitive": 4322,
      "Ġactivity": 4323,
      "Ġconditions": 4324,
      "Ġperformance": 4325,
      "ĠSaturday": 4326,
      "Ġphysical": 4327,
      "Ġtransportation": 4328,
      "Ġstructure": 4329,
      "Ġtrouble": 4330,
      "Ġintelligence": 4331,
      "Ġalternative": 4332,
      "ĠFrancisco": 4333,
      "ĠJustice": 4334,
      "ĠKorea": 4335,
      "ĠWilliam": 4336,
      "ĠHarvard": 4337,
      "Ġtroops": 4338,
      "32": 4339,
      "Did": 4340,
      "OC": 4341,
      "Sec": 4342,
      "Where": 4343,
      "apt": 4344,
      "ford": 4345,
      "hab": 4346,
      "uals": 4347,
      "vis": 4348,
      "wan": 4349,
      "yan": 4350,
      "zy": 4351,
      "Ġaf": 4352,
      "Ġcateg": 4353,
      "itness": 4354,
      "isc": 4355,
      "Ġband": 4356,
      "Ġbreat": 4357,
      "Ġbrief": 4358,
      "anna": 4359,
      "Ġmoon": 4360,
      "inger": 4361,
      "ario": 4362,
      "Ġdigital": 4363,
      "Ġloss": 4364,
      "ĠIT": 4365,
      "ownt": 4366,
      "ĠSunn": 4367,
      "Their": 4368,
      "adel": 4369,
      "adian": 4370,
      "chol": 4371,
      "Ġconduct": 4372,
      "olved": 4373,
      "istics": 4374,
      "using": 4375,
      "Ġ22": 4376,
      "Ġ27": 4377,
      "alled": 4378,
      "ĠNE": 4379,
      "ĠNort": 4380,
      "ĠGr": 4381,
      "ĠFlor": 4382,
      "outhern": 4383,
      "ĠLi": 4384,
      "ĠReg": 4385,
      "Ġtherefore": 4386,
      "Ġintended": 4387,
      "Its": 4388,
      "Ġreserv": 4389,
      "Ġtwenty": 4390,
      "Ġsheet": 4391,
      "Ġmostly": 4392,
      "Ġinfo": 4393,
      "Ġaccur": 4394,
      "Ġassum": 4395,
      "ologies": 4396,
      "Ġ2011": 4397,
      "Ġ2015": 4398,
      "Ġvisa": 4399,
      "Ġsigned": 4400,
      "Ġpossibly": 4401,
      "Ġolder": 4402,
      "Ġbelieved": 4403,
      "Ġobt": 4404,
      "ĠSea": 4405,
      "Ġbasic": 4406,
      "Ġjobs": 4407,
      "formation": 4408,
      "Ġsky": 4409,
      "Ġstandards": 4410,
      "Ġdraw": 4411,
      "Ġmovement": 4412,
      "Ġcosts": 4413,
      "Ġdogs": 4414,
      "Ġawesome": 4415,
      "Ġdesigned": 4416,
      "Ġphotograph": 4417,
      "Ġeventually": 4418,
      "ĠScott": 4419,
      "Ġeye": 4420,
      "Ġtypes": 4421,
      "Ġcruise": 4422,
      "Ġhonest": 4423,
      "known": 4424,
      "Ġsuspect": 4425,
      "ĠAfrica": 4426,
      "Ġconversation": 4427,
      "Maybe": 4428,
      "ĠJapanese": 4429,
      "Ġbudget": 4430,
      "Regards": 4431,
      "ĠFallujah": 4432,
      "48": 4433,
      "75": 4434,
      "AD": 4435,
      "Email": 4436,
      "Figure": 4437,
      "ca": 4438,
      "ey": 4439,
      "eep": 4440,
      "gen": 4441,
      "lines": 4442,
      "met": 4443,
      "sing": 4444,
      "iny": 4445,
      "Ġsem": 4446,
      "Ġsick": 4447,
      "Ġcrowd": 4448,
      "Ġbought": 4449,
      "Ġbomb": 4450,
      "Ġpark": 4451,
      "Ġmale": 4452,
      "Ġmatch": 4453,
      "Ġtot": 4454,
      "Ġdire": 4455,
      "Ġdram": 4456,
      "Ġhar": 4457,
      "asc": 4458,
      "asp": 4459,
      "icide": 4460,
      "oman": 4461,
      "lection": 4462,
      "Ġreci": 4463,
      "ette": 4464,
      "Ġforget": 4465,
      "Ġstorm": 4466,
      "Ġstru": 4467,
      "cend": 4468,
      "ĠAc": 4469,
      "Ġasking": 4470,
      "ĠPet": 4471,
      "ĠPeople": 4472,
      "ushed": 4473,
      "Ġseven": 4474,
      "ĠBen": 4475,
      "Ġmeat": 4476,
      "Ġlie": 4477,
      "Ġrat": 4478,
      "Ġrude": 4479,
      "ĠTo": 4480,
      "ables": 4481,
      "uman": 4482,
      "ĠEner": 4483,
      "ocol": 4484,
      "Ġknows": 4485,
      "ĠJames": 4486,
      "Ġquote": 4487,
      "Ġmanufact": 4488,
      "Ġimpl": 4489,
      "Ġspok": 4490,
      "anging": 4491,
      "Ġpositive": 4492,
      "Ġremov": 4493,
      "Ġcars": 4494,
      "Ġowners": 4495,
      "Ġtransl": 4496,
      "Ġminor": 4497,
      "Ġrefused": 4498,
      "Ġexposure": 4499,
      "Ġearth": 4500,
      "Ġboat": 4501,
      "Ġkinda": 4502,
      "Ġglad": 4503,
      "Ġopened": 4504,
      "ĠShi": 4505,
      "Ġexplained": 4506,
      "Ġcareer": 4507,
      "Ġaffect": 4508,
      "Ġlanguages": 4509,
      "Ġchanging": 4510,
      "ĠCommun": 4511,
      "Ġsales": 4512,
      "Ġexpected": 4513,
      "Ġfacilities": 4514,
      "Ġenjoyed": 4515,
      "ipped": 4516,
      "Ġanti": 4517,
      "Ġfighting": 4518,
      "ĠSecretary": 4519,
      "Ġarrived": 4520,
      "Ġscreen": 4521,
      "Ġbottom": 4522,
      "Ġdamage": 4523,
      "ĠItalian": 4524,
      "Ġcandid": 4525,
      "Ġconflict": 4526,
      "ĠAustralia": 4527,
      "ĠConstitution": 4528,
      "Ġobviously": 4529,
      "Ġcomfortable": 4530,
      "Ġacademic": 4531,
      "ĠFlorida": 4532,
      "04": 4533,
      "100": 4534,
      "500": 4535,
      "?âĢĿ": 4536,
      "Both": 4537,
      "Jeff": 4538,
      "Kay": 4539,
      "fast": 4540,
      "ky": 4541,
      "me": 4542,
      "mon": 4543,
      "mas": 4544,
      "mers": 4545,
      "pid": 4546,
      "ties": 4547,
      "ugg": 4548,
      "Ġir": 4549,
      "Ġtick": 4550,
      "rehens": 4551,
      "Ġoh": 4552,
      "Ġcock": 4553,
      "Ġcrop": 4554,
      "ishes": 4555,
      "Ġfat": 4556,
      "Ġfederal": 4557,
      "eds": 4558,
      "Ġmouth": 4559,
      "Ġinqu": 4560,
      "arraf": 4561,
      "Ġdaughter": 4562,
      "Ġhi": 4563,
      "Ġnames": 4564,
      "Ġbeat": 4565,
      "etime": 4566,
      "Ġham": 4567,
      "ĠSu": 4568,
      "Ġheavy": 4569,
      "ĠCons": 4570,
      "ĠApp": 4571,
      "illed": 4572,
      "ĠMaster": 4573,
      "raft": 4574,
      "ulous": 4575,
      "opl": 4576,
      "Ġproced": 4577,
      "Ġdeg": 4578,
      "Ġdelic": 4579,
      "Ġlibr": 4580,
      "Ġran": 4581,
      "ĠTai": 4582,
      "Ġvirt": 4583,
      "Ġshown": 4584,
      "umn": 4585,
      "roud": 4586,
      "ĠRed": 4587,
      "ĠRiver": 4588,
      "cious": 4589,
      "ĠâĢ¦": 4590,
      "Ġimage": 4591,
      "Ġoffered": 4592,
      "Ġspoke": 4593,
      "Ġspirit": 4594,
      "Ġapparent": 4595,
      "orses": 4596,
      "ighter": 4597,
      "Ġflu": 4598,
      "lied": 4599,
      "Ġblog": 4600,
      "Ġletters": 4601,
      "Ġremind": 4602,
      "Ġremains": 4603,
      "Ġemp": 4604,
      "Ġrelax": 4605,
      "Ġtraffic": 4606,
      "usharraf": 4607,
      "Ġelev": 4608,
      "Ġdecades": 4609,
      "Ġefficient": 4610,
      "Ġshowing": 4611,
      "Ġhandle": 4612,
      "Ġgenerally": 4613,
      "Ġcompleted": 4614,
      "ĠArt": 4615,
      "Ġtelling": 4616,
      "Ġveh": 4617,
      "Ġpassed": 4618,
      "ĠDecember": 4619,
      "Ġconstit": 4620,
      "Ġeffective": 4621,
      "Ġsalt": 4622,
      "Ġapprox": 4623,
      "Ġprevious": 4624,
      "Ġbeauty": 4625,
      "Ġmarriage": 4626,
      "Ġresponsibility": 4627,
      "news": 4628,
      "Ġrestaurants": 4629,
      "Ġconnect": 4630,
      "ĠAdminist": 4631,
      "Ġterrorist": 4632,
      "ĠAsia": 4633,
      "inoa": 4634,
      "Ġscheduled": 4635,
      "Ġvolunt": 4636,
      "Ġsoldiers": 4637,
      "Ġstrength": 4638,
      "Ġtask": 4639,
      "Ġaspects": 4640,
      "Ġsettlement": 4641,
      "Ġarchitect": 4642,
      "Ġindependent": 4643,
      "Ġmachine": 4644,
      "Ġjourn": 4645,
      "Ġcooper": 4646,
      "animals": 4647,
      "Ġfolks": 4648,
      "owntown": 4649,
      "Am": 4650,
      "Add": 4651,
      "IL": 4652,
      "Mhm": 4653,
      "Rem": 4654,
      "bur": 4655,
      "bles": 4656,
      "da": 4657,
      "down": 4658,
      "life": 4659,
      "mark": 4660,
      "then": 4661,
      "wood": 4662,
      "Ġing": 4663,
      "Ġwiki": 4664,
      "Ġsitting": 4665,
      "atr": 4666,
      "itable": 4667,
      "itude": 4668,
      "orney": 4669,
      "Ġpock": 4670,
      "Ġtool": 4671,
      "Ġdad": 4672,
      "ications": 4673,
      "omas": 4674,
      "road": 4675,
      "Ġfort": 4676,
      "Ġforced": 4677,
      "urning": 4678,
      "adr": 4679,
      "Ġants": 4680,
      "ĠPri": 4681,
      "ĠPenn": 4682,
      "Ġselect": 4683,
      "Ġliqu": 4684,
      "Ġkn": 4685,
      "Ġrise": 4686,
      "ĠTV": 4687,
      "resp": 4688,
      "Ġjump": 4689,
      "Ġvict": 4690,
      "Ġvlog": 4691,
      "Ġshare": 4692,
      "ĠDef": 4693,
      "Ġchlor": 4694,
      "ĠRen": 4695,
      "ĠRob": 4696,
      "udd": 4697,
      "udi": 4698,
      "izations": 4699,
      "Ġmanager": 4700,
      "ĠOF": 4701,
      "Ġcalls": 4702,
      "Ġevening": 4703,
      "Ġflat": 4704,
      "Ġflag": 4705,
      "Ġassess": 4706,
      "Ġelection": 4707,
      "Ġproviding": 4708,
      "Ġrefere": 4709,
      "Ġraised": 4710,
      "Ġhappens": 4711,
      "Ġleading": 4712,
      "standing": 4713,
      "2005": 4714,
      "Another": 4715,
      "Ġsites": 4716,
      "ĠAnal": 4717,
      "Ġproperly": 4718,
      "Chris": 4719,
      "Ġstopped": 4720,
      "Ġhearing": 4721,
      "Ġtrading": 4722,
      "Ġwondering": 4723,
      "Ġgrew": 4724,
      "Ġwalked": 4725,
      "Ġtourist": 4726,
      "Ġload": 4727,
      "Ġsources": 4728,
      "Ġaccepted": 4729,
      "ancing": 4730,
      "Ġ1970": 4731,
      "Ġconcerned": 4732,
      "ambment": 4733,
      "Ġfailed": 4734,
      "Ġlegislation": 4735,
      "Ġhundreds": 4736,
      "Ġscientific": 4737,
      "Ġbirthday": 4738,
      "Ġvacation": 4739,
      "Ġassociated": 4740,
      "Ġordered": 4741,
      "Ġobserved": 4742,
      "Ã³d": 4743,
      "Ġdepartment": 4744,
      "Ġslightly": 4745,
      "Ġinsurance": 4746,
      "ĠEgyptian": 4747,
      "American": 4748,
      "Ġmillions": 4749,
      "ĠVietnam": 4750,
      "ĠEnergy": 4751,
      "Ġdegree": 4752,
      "!âĢĿ": 4753,
      "Tr": 4754,
      "Under": 4755,
      "book": 4756,
      "och": 4757,
      "ses": 4758,
      "xy": 4759,
      "inter": 4760,
      "oned": 4761,
      "Ġwed": 4762,
      "Ġwitness": 4763,
      "Ġcast": 4764,
      "Ġcert": 4765,
      "orus": 4766,
      "orial": 4767,
      "Ġfan": 4768,
      "Ġfig": 4769,
      "edy": 4770,
      "Ġproud": 4771,
      "Ġinequ": 4772,
      "Ġhorses": 4773,
      "omen": 4774,
      "Ġnine": 4775,
      "Ġgar": 4776,
      "otes": 4777,
      "oting": 4778,
      "uther": 4779,
      "eting": 4780,
      "aming": 4781,
      "Ġweight": 4782,
      "ĠCE": 4783,
      "ĠMore": 4784,
      "ĠMag": 4785,
      "ĠPort": 4786,
      "ulations": 4787,
      "ĠBal": 4788,
      "ĠBay": 4789,
      "Ġsuicide": 4790,
      "Ġ(\"": 4791,
      "Ġride": 4792,
      "Ġalc": 4793,
      "ĠTO": 4794,
      "pper": 4795,
      "Ġvast": 4796,
      "osh": 4797,
      "ĠEB": 4798,
      "ĠGroup": 4799,
      "Those": 4800,
      "ĠWik": 4801,
      "ĠJud": 4802,
      "actions": 4803,
      "Ġanyway": 4804,
      "Ġprime": 4805,
      "oga": 4806,
      "Ġcompared": 4807,
      "ibilities": 4808,
      "ĠOK": 4809,
      "Ġoverall": 4810,
      "ressive": 4811,
      "Ġpartners": 4812,
      "Ġactual": 4813,
      "ĠThey": 4814,
      "ĠTheod": 4815,
      "Hey": 4816,
      "Which": 4817,
      "athy": 4818,
      "Ġsmo": 4819,
      "ĠInter": 4820,
      "ontin": 4821,
      "Ġassume": 4822,
      "Ġbelong": 4823,
      "duce": 4824,
      "Ġnumerous": 4825,
      "Ġpolic": 4826,
      "Ġinterpret": 4827,
      "Ġincor": 4828,
      "Ġrapid": 4829,
      "encies": 4830,
      "Ġenter": 4831,
      "Ġfamous": 4832,
      "Ġ04": 4833,
      "Ġlegs": 4834,
      "Ġdistrict": 4835,
      "Ġjokes": 4836,
      "Ġbigger": 4837,
      "Ġparking": 4838,
      "Ġ1999": 4839,
      "porary": 4840,
      "Ġteams": 4841,
      "ength": 4842,
      "Ġ<<": 4843,
      "Ġabsolutely": 4844,
      "Excellent": 4845,
      "Ġurban": 4846,
      "Ġnegot": 4847,
      "Ġmeasure": 4848,
      "Ġinfluence": 4849,
      "ĠMethod": 4850,
      "Ġhurt": 4851,
      "Ġpleasant": 4852,
      "addam": 4853,
      "Ġchannel": 4854,
      "Ġhospital": 4855,
      "Ġmathematics": 4856,
      "ĠCounty": 4857,
      "Ġfaith": 4858,
      "Ġdetermined": 4859,
      "59": 4860,
      "CC": 4861,
      "Des": 4862,
      "Dear": 4863,
      "Deb": 4864,
      "ET": 4865,
      "Mark": 4866,
      "Paul": 4867,
      "Qu": 4868,
      "Se": 4869,
      "TTE": 4870,
      "Would": 4871,
      "de": 4872,
      "df": 4873,
      "iar": 4874,
      "mine": 4875,
      "oad": 4876,
      "pic": 4877,
      "set": 4878,
      "vant": 4879,
      "xic": 4880,
      "Ġtail": 4881,
      "Ġaward": 4882,
      "inal": 4883,
      "Ġwood": 4884,
      "Ġcatch": 4885,
      "Ġbath": 4886,
      "ene": 4887,
      "edia": 4888,
      "Ġpsych": 4889,
      "Ġmine": 4890,
      "ingly": 4891,
      "Ġded": 4892,
      "Ġdie": 4893,
      "oms": 4894,
      "Ġgard": 4895,
      "Ġyellow": 4896,
      "enture": 4897,
      "owing": 4898,
      "uries": 4899,
      "Ġstage": 4900,
      "Ġwash": 4901,
      "ilit": 4902,
      "iled": 4903,
      "ĠMon": 4904,
      "raid": 4905,
      "Ġconclud": 4906,
      "Ġliber": 4907,
      "Ġliked": 4908,
      "Ġkid": 4909,
      "Ġ26": 4910,
      "ĠFederal": 4911,
      "ĠLaden": 4912,
      "ĠHome": 4913,
      "ĠHall": 4914,
      "Ġgod": 4915,
      "Ġpled": 4916,
      "odka": 4917,
      "inews": 4918,
      "Ġqual": 4919,
      "Ġcompar": 4920,
      "apers": 4921,
      "Ġresources": 4922,
      "Ġdise": 4923,
      "ittles": 4924,
      "well": 4925,
      "Ġscale": 4926,
      "oyal": 4927,
      "Ġcommand": 4928,
      "Ġpoet": 4929,
      "rows": 4930,
      "Ġfeels": 4931,
      "Ġbright": 4932,
      "Ġlegit": 4933,
      "Ġdistin": 4934,
      "Ġbasil": 4935,
      "Ġposted": 4936,
      "Does": 4937,
      "ĠDev": 4938,
      "Ġappeared": 4939,
      "ĠZawahiri": 4940,
      "Ġprotection": 4941,
      "ĠSpace": 4942,
      "ATO": 4943,
      "Ġreplication": 4944,
      "Ġcondition": 4945,
      "Should": 4946,
      "Ġfields": 4947,
      "Ġsounds": 4948,
      "Ġmagic": 4949,
      "Ġteachers": 4950,
      "Ġaudience": 4951,
      "Ġdouble": 4952,
      "Ġpurchase": 4953,
      "Ġimagine": 4954,
      "Ġfemale": 4955,
      "Ġmurd": 4956,
      "Ġlicens": 4957,
      "ĠSyria": 4958,
      "Ġuniversities": 4959,
      "Ġchemical": 4960,
      "Ġappropriate": 4961,
      "olitan": 4962,
      "ĠAngeles": 4963,
      "fortunately": 4964,
      "Ġreliable": 4965,
      "Ġphilos": 4966,
      "Ġtotally": 4967,
      ".'": 4968,
      "51": 4969,
      "CP": 4970,
      "EC": 4971,
      "Mr": 4972,
      "New": 4973,
      "OS": 4974,
      "People": 4975,
      "Sorry": 4976,
      "bre": 4977,
      "but": 4978,
      "gar": 4979,
      "lin": 4980,
      "oons": 4981,
      "tr": 4982,
      "Ġ*": 4983,
      "ĠÂ": 4984,
      "Ġaim": 4985,
      "reen": 4986,
      "Ġcris": 4987,
      "Ġble": 4988,
      "Ġbul": 4989,
      "Ġfax": 4990,
      "Ġpal": 4991,
      "arter": 4992,
      "llo": 4993,
      "vey": 4994,
      "Ġrelease": 4995,
      "otel": 4996,
      "roc": 4997,
      "idering": 4998,
      "ammed": 4999,
      "irmed": 5000,
      "ĠSal": 5001,
      "ĠSam": 5002,
      "ĠSun": 5003,
      "ĠSystem": 5004,
      "Ġstars": 5005,
      "cel": 5006,
      "key": 5007,
      "ĠPR": 5008,
      "Ġconsequ": 5009,
      "olves": 5010,
      "anted": 5011,
      "Ġdele": 5012,
      "ĠBas": 5013,
      "---": 5014,
      "Ġlived": 5015,
      "Ġrule": 5016,
      "ĠTem": 5017,
      "Ġshoes": 5018,
      "oses": 5019,
      "osal": 5020,
      "Ġworry": 5021,
      "ĠNY": 5022,
      "ĠNook": 5023,
      "ĠNATO": 5024,
      "ĠGas": 5025,
      "ĠGold": 5026,
      "ĠLL": 5027,
      "ĠHer": 5028,
      "ĠHug": 5029,
      "Ġgoals": 5030,
      "oston": 5031,
      "odies": 5032,
      "ongol": 5033,
      "Ġuses": 5034,
      "Ġquinoa": 5035,
      "Ġimper": 5036,
      "Ġsaf": 5037,
      "Ġresident": 5038,
      "Ġuniversity": 5039,
      "igned": 5040,
      "Ġrose": 5041,
      "ordin": 5042,
      "Ġ31": 5043,
      "Ġflavor": 5044,
      "Ġeval": 5045,
      "Ġfoods": 5046,
      "Ġdefe": 5047,
      "Ġdecade": 5048,
      "Ġincred": 5049,
      "Ġ2016": 5050,
      "Ġimpro": 5051,
      "Ġ09": 5052,
      "Ġgeneration": 5053,
      "Ġprocesses": 5054,
      "Ġapart": 5055,
      "Ġmainly": 5056,
      "Ġkeeping": 5057,
      "Ġrooms": 5058,
      "Ġ80": 5059,
      "Ġrecommended": 5060,
      "Ġeasier": 5061,
      "Ġaffected": 5062,
      "Ġstreets": 5063,
      "Ġdirector": 5064,
      "Ġstatus": 5065,
      "Ġenjambment": 5066,
      "Ġcolon": 5067,
      "Ġvisitors": 5068,
      "Ġdrinking": 5069,
      "Ġmarried": 5070,
      "Ġdivide": 5071,
      "Ġpaint": 5072,
      "Ġpleased": 5073,
      "Ġloan": 5074,
      "ĠCanadian": 5075,
      "Ġmenu": 5076,
      "ĠPakistani": 5077,
      "ĠChristian": 5078,
      "Ġcircle": 5079,
      "Ġcycle": 5080,
      "Ġbirds": 5081,
      "Ġpredict": 5082,
      "Ġprepared": 5083,
      "Ġexperienced": 5084,
      "itchen": 5085,
      "ĠSanta": 5086,
      "Ġinnov": 5087,
      "Ġcele": 5088,
      "Ġappointment": 5089,
      "Ġneighborhood": 5090,
      "Ġalleged": 5091,
      "Ġfrozen": 5092,
      "Finally": 5093,
      "Ġterritory": 5094,
      "Ġlaunched": 5095,
      "ĠSunni": 5096,
      "Ġwedding": 5097,
      "33": 5098,
      "90": 5099,
      "<<": 5100,
      "BI": 5101,
      "Cl": 5102,
      "Con": 5103,
      "IR": 5104,
      "Mike": 5105,
      "Today": 5106,
      "can": 5107,
      "dom": 5108,
      "kin": 5109,
      "rong": 5110,
      "rical": 5111,
      "Åº": 5112,
      "Åģ": 5113,
      "Ġtim": 5114,
      "ona": 5115,
      "Ġok": 5116,
      "Ġcovered": 5117,
      "Ġboo": 5118,
      "Ġborder": 5119,
      "Ġmission": 5120,
      "aled": 5121,
      "Ġdrop": 5122,
      "Ġharm": 5123,
      "astern": 5124,
      "Ġlog": 5125,
      "Ġlaugh": 5126,
      "Ġnail": 5127,
      "Ġgram": 5128,
      "otion": 5129,
      "ache": 5130,
      "semb": 5131,
      "verty": 5132,
      "ĠAp": 5133,
      "ĠMat": 5134,
      "ĠMongol": 5135,
      "rand": 5136,
      "esthet": 5137,
      "Ġrub": 5138,
      "Ġworse": 5139,
      "ĠDu": 5140,
      "ĠDan": 5141,
      "ĠDirect": 5142,
      "ĠGh": 5143,
      "ĠGreek": 5144,
      "ĠLou": 5145,
      "ĠLaw": 5146,
      "Ġplus": 5147,
      "Ġplenty": 5148,
      "ĠRichard": 5149,
      "soft": 5150,
      "Ġfeat": 5151,
      "Ġclosed": 5152,
      "Ġcontem": 5153,
      "apter": 5154,
      "Ġuns": 5155,
      "Ġunable": 5156,
      "ĠStud": 5157,
      "Ġparties": 5158,
      "Ġrob": 5159,
      "Ġprepar": 5160,
      "Ġbackground": 5161,
      "ensus": 5162,
      "Ġapplied": 5163,
      "Ġ2007": 5164,
      "Ġ2009": 5165,
      "Ġflood": 5166,
      "Ġscore": 5167,
      "Ġregist": 5168,
      "Ġhelps": 5169,
      "Ġhelping": 5170,
      "ecutive": 5171,
      "Ġpoverty": 5172,
      "Ġcarbon": 5173,
      "Ġsurg": 5174,
      "Ġ2013": 5175,
      "Ġextend": 5176,
      "Ġrabb": 5177,
      "Ġexpress": 5178,
      "bered": 5179,
      "Ġpersonally": 5180,
      "Ġformed": 5181,
      "Ġformal": 5182,
      "Ġwarming": 5183,
      "Ġmodels": 5184,
      "Ġissued": 5185,
      "Ġdistingu": 5186,
      "Ġseriously": 5187,
      "Ġseemed": 5188,
      "Ġmovie": 5189,
      "fessor": 5190,
      "Ġappears": 5191,
      "Ġclaimed": 5192,
      "Ġtechnologies": 5193,
      "Ġsending": 5194,
      "ifying": 5195,
      "iverse": 5196,
      "ĠProt": 5197,
      "Ġsnake": 5198,
      "Ġnewsp": 5199,
      "ĠWhite": 5200,
      "Ġwindow": 5201,
      "ĠYouT": 5202,
      "Ġboxes": 5203,
      "ĠMexican": 5204,
      "Ġindividuals": 5205,
      "Ġassistance": 5206,
      "Ġfilled": 5207,
      "ĠAfrican": 5208,
      "ĠMinister": 5209,
      "Ġclothes": 5210,
      "Ġethn": 5211,
      "Ġexhibit": 5212,
      "Ġsurprised": 5213,
      "levision": 5214,
      "Ġescape": 5215,
      "Carol": 5216,
      "Ġrelatively": 5217,
      "Ġiodine": 5218,
      "ĠDemocratic": 5219,
      "Ġafraid": 5220,
      "Ġdirection": 5221,
      "oplast": 5222,
      "Ã³dÅº": 5223,
      "Ġbathroom": 5224,
      "!\"": 5225,
      "54": 5226,
      "64": 5227,
      "76": 5228,
      "88": 5229,
      "853": 5230,
      "Ab": 5231,
      "Make": 5232,
      "Never": 5233,
      "OK": 5234,
      "UR": 5235,
      "ae": 5236,
      "ien": 5237,
      "ias": 5238,
      "iest": 5239,
      "lig": 5240,
      "oices": 5241,
      "ras": 5242,
      "wide": 5243,
      "Ġ)": 5244,
      "Ġ=": 5245,
      "Ġid": 5246,
      "Ġast": 5247,
      "hered": 5248,
      "inet": 5249,
      "Ġcart": 5250,
      "isp": 5251,
      "Ġfly": 5252,
      "Ġfurn": 5253,
      "eding": 5254,
      "Ġpun": 5255,
      "Ġpipe": 5256,
      "Ġmo": 5257,
      "Ġmix": 5258,
      "aron": 5259,
      "Ġdust": 5260,
      "Ġdyn": 5261,
      "Ġhus": 5262,
      "Ġgun": 5263,
      "ĠIN": 5264,
      "acity": 5265,
      "imb": 5266,
      "imp": 5267,
      "igan": 5268,
      "ĠCamp": 5269,
      "ĠAL": 5270,
      "ĠMiss": 5271,
      "ĠMiddle": 5272,
      "olic": 5273,
      "Ġdeals": 5274,
      "ĠBre": 5275,
      "ĠBern": 5276,
      "Ġsubs": 5277,
      "iere": 5278,
      "ĠTom": 5279,
      "ĠTreat": 5280,
      "Ġvs": 5281,
      "Ġvir": 5282,
      "Ġvodka": 5283,
      "ĠNation": 5284,
      "ĠEduc": 5285,
      "ĠLO": 5286,
      "ĠLat": 5287,
      "ĠLTTE": 5288,
      "ĠHigh": 5289,
      "Ġplaced": 5290,
      "ĠJew": 5291,
      "ansion": 5292,
      "ĠâĢĺ": 5293,
      "Ġquiet": 5294,
      "Ġagency": 5295,
      "Ġclos": 5296,
      "Ġoffices": 5297,
      "clus": 5298,
      "ipment": 5299,
      "obby": 5300,
      "anged": 5301,
      "Ġprem": 5302,
      "Ġregards": 5303,
      "Ġowned": 5304,
      "Ġevolutionary": 5305,
      "ologist": 5306,
      "phas": 5307,
      "Ġtransm": 5308,
      "Ġtranslation": 5309,
      "Ġdiscovered": 5310,
      "Ġ2017": 5311,
      "Ġexpressed": 5312,
      "azon": 5313,
      "Ġ03": 5314,
      "Ġ08": 5315,
      "Ġfollows": 5316,
      "Ġexamples": 5317,
      "ropolitan": 5318,
      "ikh": 5319,
      "ĠArgent": 5320,
      "Ġfunny": 5321,
      "Ġexplore": 5322,
      "Ġpayment": 5323,
      "Ġhumans": 5324,
      "Ġestimated": 5325,
      "Ġcontinues": 5326,
      "Ġ90": 5327,
      "prise": 5328,
      "Ġoperation": 5329,
      "Ġoperating": 5330,
      "ĠDevelop": 5331,
      "Ġstudying": 5332,
      "Ġcreating": 5333,
      "Ġclosely": 5334,
      "Ġpatient": 5335,
      "cribe": 5336,
      "Ġanswers": 5337,
      "Ġdefinition": 5338,
      "Ġrequested": 5339,
      "ancy": 5340,
      "Ġmissing": 5341,
      "ĠPrime": 5342,
      "Ġrepresentative": 5343,
      "ĠSecurity": 5344,
      "Ġobjects": 5345,
      "Ġconvention": 5346,
      "Ġrequirements": 5347,
      "Ġerror": 5348,
      "Ġpicture": 5349,
      "Ġnegative": 5350,
      "Ġcompetition": 5351,
      "Ġpurchased": 5352,
      "ĠENA": 5353,
      "ĠSkittles": 5354,
      "Ġintroduced": 5355,
      "Ġclothing": 5356,
      "Ġcharged": 5357,
      "Ġdrugs": 5358,
      "Ġdestroyed": 5359,
      "Ġdoubt": 5360,
      "Ġfantastic": 5361,
      "stein": 5362,
      "ĠTaiwan": 5363,
      "Ġelevator": 5364,
      "Ġconstitu": 5365,
      "Ġchloroplast": 5366,
      "Ġpolicies": 5367,
      "ÅģÃ³dÅº": 5368,
      "\")": 5369,
      "During": 5370,
      "Last": 5371,
      "ME": 5372,
      "OOD": 5373,
      "PR": 5374,
      "Sp": 5375,
      "ao": 5376,
      "cat": 5377,
      "fr": 5378,
      "lers": 5379,
      "van": 5380,
      "with": 5381,
      "Ġ|": 5382,
      "Ġwanna": 5383,
      "Ġsen": 5384,
      "Ġsong": 5385,
      "Ġspl": 5386,
      "Ġsister": 5387,
      "Ġcott": 5388,
      "iture": 5389,
      "Ġfab": 5390,
      "Ġpm": 5391,
      "Ġtow": 5392,
      "Ġder": 5393,
      "Ġhung": 5394,
      "omatic": 5395,
      "Ġnone": 5396,
      "lymp": 5397,
      "ĠIm": 5398,
      "ayed": 5399,
      "ĠSaddam": 5400,
      "Ġstret": 5401,
      "ĠCub": 5402,
      "ilk": 5403,
      "iling": 5404,
      "ĠMal": 5405,
      "ĠMom": 5406,
      "ĠMur": 5407,
      "ĠMel": 5408,
      "ĠMart": 5409,
      "ĠMusharraf": 5410,
      "gel": 5411,
      "Ġconcent": 5412,
      "emy": 5413,
      "Ġprove": 5414,
      "usan": 5415,
      "Ġsector": 5416,
      "Ġsevere": 5417,
      "ĠBer": 5418,
      "ĠBus": 5419,
      "ĠBang": 5420,
      "quar": 5421,
      "osite": 5422,
      "ĠNe": 5423,
      "ĠNick": 5424,
      "ĠEm": 5425,
      "ĠDec": 5426,
      "ĠGood": 5427,
      "ĠFound": 5428,
      "ĠFax": 5429,
      "acks": 5430,
      "acking": 5431,
      "ĠRev": 5432,
      "Ġleaves": 5433,
      "ĠWeb": 5434,
      "ĠJoe": 5435,
      "Ġagg": 5436,
      "Ġresc": 5437,
      "Ġunit": 5438,
      "Ġoffers": 5439,
      "ulture": 5440,
      "clusion": 5441,
      "coming": 5442,
      "ĠChair": 5443,
      "Ġattended": 5444,
      "ordon": 5445,
      "Ġ2006": 5446,
      "Ġcommittee": 5447,
      "Ġuseful": 5448,
      "Ġaccident": 5449,
      "tered": 5450,
      "Ġtrail": 5451,
      "Ġacknow": 5452,
      "Ġsecret": 5453,
      "Ġrare": 5454,
      "upreme": 5455,
      "Ġinterests": 5456,
      "ĠThomas": 5457,
      "Ġrealize": 5458,
      "Ġinformed": 5459,
      "Ġmedicine": 5460,
      "Ġlisted": 5461,
      "Ġplanned": 5462,
      "lingiere": 5463,
      "Ġgraph": 5464,
      "Ġcoup": 5465,
      "Ġoperators": 5466,
      "Ġbuildings": 5467,
      "Ġsuggestions": 5468,
      "Ġresearc": 5469,
      "ĠPerlingiere": 5470,
      "Ġpattern": 5471,
      "Ġpreviously": 5472,
      "ESS": 5473,
      "Ġinvolve": 5474,
      "Ġholding": 5475,
      "Ġvariety": 5476,
      "Ġsuccessfully": 5477,
      "Ġkilling": 5478,
      "Ġfocused": 5479,
      "Ġjudg": 5480,
      "Ġcopyright": 5481,
      "dden": 5482,
      "Ġsteam": 5483,
      "Ġmotion": 5484,
      "Ġexception": 5485,
      "Ġbenefits": 5486,
      "Ġteacher": 5487,
      "Ġmethods": 5488,
      "Ġbalance": 5489,
      "Ġaccompl": 5490,
      "Ġaccommod": 5491,
      "Ġportion": 5492,
      "Ġappreciate": 5493,
      "Ġloved": 5494,
      "Ġmurder": 5495,
      "Ġessential": 5496,
      "ĠSocial": 5497,
      "Ġprimary": 5498,
      "icrosoft": 5499,
      "Ġsweet": 5500,
      "Ġfrequently": 5501,
      "ĠHamas": 5502,
      "Ġwidely": 5503,
      "ulsa": 5504,
      "ussell": 5505,
      "Ġinstructions": 5506,
      "ĠDelhi": 5507,
      "Ġcorporate": 5508,
      "Ġelectricity": 5509,
      "ĠPalestinian": 5510,
      "Ġchallenges": 5511,
      "leveland": 5512,
      "Ġmultiple": 5513,
      "Second": 5514,
      "Ġstrugg": 5515,
      "xygen": 5516,
      "Ġinequality": 5517,
      "Ġalcoh": 5518,
      "ĠTheodorus": 5519,
      "Debra": 5520,
      "',": 5521,
      "'.": 5522,
      "87": 5523,
      "CO": 5524,
      "Ed": 5525,
      "IG": 5526,
      "Met": 5527,
      "NA": 5528,
      "UN": 5529,
      "cking": 5530,
      "craft": 5531,
      "dra": 5532,
      "ech": 5533,
      "eag": 5534,
      "fare": 5535,
      "ker": 5536,
      "nect": 5537,
      "oen": 5538,
      "rant": 5539,
      "rary": 5540,
      "vo": 5541,
      "vention": 5542,
      "yer": 5543,
      "Ġ>>": 5544,
      "Ġtens": 5545,
      "Ġaid": 5546,
      "Ġaesthet": 5547,
      "heast": 5548,
      "iner": 5549,
      "reland": 5550,
      "Ġschol": 5551,
      "err": 5552,
      "itz": 5553,
      "Ġban": 5554,
      "Ġbare": 5555,
      "Ġbran": 5556,
      "Ġbodies": 5557,
      "oration": 5558,
      "Ġfal": 5559,
      "Ġpush": 5560,
      "Ġmental": 5561,
      "Ġmuseum": 5562,
      "aling": 5563,
      "arks": 5564,
      "Ġdro": 5565,
      "Ġhire": 5566,
      "Ġthus": 5567,
      "icit": 5568,
      "icial": 5569,
      "Ġnut": 5570,
      "Ġgift": 5571,
      "Ġreality": 5572,
      "Ġreduced": 5573,
      "Ġbeach": 5574,
      "ros": 5575,
      "roll": 5576,
      "image": 5577,
      "urrent": 5578,
      "ĠST": 5579,
      "Ġstood": 5580,
      "Ġhes": 5581,
      "Ġancient": 5582,
      "ĠPe": 5583,
      "ula": 5584,
      "ules": 5585,
      "Ġnoticed": 5586,
      "oples": 5587,
      "atell": 5588,
      "ĠBin": 5589,
      "Ġkitchen": 5590,
      "Ġrac": 5591,
      "Ġrid": 5592,
      "Ġround": 5593,
      "ĠTit": 5594,
      "ivered": 5595,
      "Ġsoil": 5596,
      "ums": 5597,
      "ĠNorm": 5598,
      "ĠDes": 5599,
      "elg": 5600,
      ".....": 5601,
      "ĠLos": 5602,
      "ĠLuther": 5603,
      "ĠHy": 5604,
      "Thus": 5605,
      "ĠRome": 5606,
      "ĠRights": 5607,
      "ĠRoman": 5608,
      "aked": 5609,
      "ĠUs": 5610,
      "Ġknowing": 5611,
      "Ġintend": 5612,
      "Ġsomewhat": 5613,
      "ograp": 5614,
      "Ġotherwise": 5615,
      "ĠOper": 5616,
      "Ġarg": 5617,
      "Ġunp": 5618,
      "Ġunlike": 5619,
      "Ġdisaster": 5620,
      "ondad": 5621,
      "orms": 5622,
      "Ġrecon": 5623,
      "Ġrecru": 5624,
      "Ġscr": 5625,
      "ĠVice": 5626,
      "lands": 5627,
      "Ġremained": 5628,
      "Ġtrained": 5629,
      "ĠYour": 5630,
      "argill": 5631,
      "Ġminimum": 5632,
      "rency": 5633,
      "Ġreference": 5634,
      "opez": 5635,
      "Ġentertain": 5636,
      "Ġsigns": 5637,
      "Ġplayer": 5638,
      "Ġheads": 5639,
      "ĠArmy": 5640,
      "Ġexplan": 5641,
      "tenoph": 5642,
      "Ġsitu": 5643,
      "Ġcapacity": 5644,
      "Ġoperations": 5645,
      "Ġstanding": 5646,
      "Ġconstantly": 5647,
      "Ġinternal": 5648,
      "Ġpromised": 5649,
      "ĠCommittee": 5650,
      "Ġclasses": 5651,
      "ĠSpain": 5652,
      "Ġapproved": 5653,
      "Ġcreative": 5654,
      "EST": 5655,
      "Ġwriter": 5656,
      "Ġiniti": 5657,
      "sonville": 5658,
      "Ġpainting": 5659,
      "Ġreplace": 5660,
      "Ġshops": 5661,
      "ĠIsraeli": 5662,
      "Ġbringing": 5663,
      "Ġconcerns": 5664,
      "ĠPlan": 5665,
      "Ġdeliver": 5666,
      "Ġdetermine": 5667,
      "Ġadmissions": 5668,
      "Ġhighest": 5669,
      "ĠColumb": 5670,
      "Ġhonor": 5671,
      "Ġrental": 5672,
      "Ġschedule": 5673,
      "ĠGermany": 5674,
      "ĠItaly": 5675,
      "ĠMohamed": 5676,
      "ĠMohammed": 5677,
      "Ġappreciated": 5678,
      "Ġsurrounded": 5679,
      "Ġhistorical": 5680,
      "Ġpilot": 5681,
      "Ġupdate": 5682,
      "ĠKhan": 5683,
      "Ġflowers": 5684,
      "Ġrepeated": 5685,
      "Ġfellow": 5686,
      "Ġtarget": 5687,
      "Ġnorthern": 5688,
      "ĠGalois": 5689,
      "rehensive": 5690,
      "Ġdelicious": 5691,
      "Ġliquid": 5692,
      "ĠMoreau": 5693,
      "ĠYouTube": 5694,
      "Ġhusband": 5695,
      "31": 5696,
      "56": 5697,
      "70": 5698,
      "BA": 5699,
      "Ear": 5700,
      "Ind": 5701,
      "PI": 5702,
      "Pr": 5703,
      "SS": 5704,
      "Such": 5705,
      "aven": 5706,
      "che": 5707,
      "dad": 5708,
      "gain": 5709,
      "ixt": 5710,
      "mart": 5711,
      "oz": 5712,
      "put": 5713,
      "ship": 5714,
      "tail": 5715,
      "uz": 5716,
      "uge": 5717,
      "vent": 5718,
      "Ġwet": 5719,
      "Ġwall": 5720,
      "atically": 5721,
      "Ġoz": 5722,
      "Ġcode": 5723,
      "itute": 5724,
      "Ġbowl": 5725,
      "orse": 5726,
      "Ġfle": 5727,
      "Ġfest": 5728,
      "Ġped": 5729,
      "Ġpupp": 5730,
      "Ġmos": 5731,
      "Ġmap": 5732,
      "alec": 5733,
      "Ġdre": 5734,
      "icking": 5735,
      "omin": 5736,
      "Ġnose": 5737,
      "Ġgent": 5738,
      "Ġec": 5739,
      "Ġreject": 5740,
      "ett": 5741,
      "amar": 5742,
      "irms": 5743,
      "ĠServ": 5744,
      "ĠSupreme": 5745,
      "Ġstick": 5746,
      "adalec": 5747,
      "cean": 5748,
      "ĠCC": 5749,
      "illing": 5750,
      "illage": 5751,
      "ĠMike": 5752,
      "ĠPach": 5753,
      "ĠPaine": 5754,
      "Ġnoted": 5755,
      "ola": 5756,
      "emic": 5757,
      "Ġexer": 5758,
      "Ġexch": 5759,
      "Ġsudden": 5760,
      "Ġkm": 5761,
      "Ġrot": 5762,
      "Ġrich": 5763,
      "unicip": 5764,
      "ĠFree": 5765,
      "ĠLank": 5766,
      "redients": 5767,
      "ocent": 5768,
      "ource": 5769,
      "peror": 5770,
      "ghdad": 5771,
      "Ġadapt": 5772,
      "Ġanybody": 5773,
      "Ġsomebody": 5774,
      "Web": 5775,
      "Ġquart": 5776,
      "Ġagric": 5777,
      "Ġimages": 5778,
      "ĠOlymp": 5779,
      "Ġunf": 5780,
      "Ġunits": 5781,
      "Ġdiss": 5782,
      "Ġtelevision": 5783,
      "olly": 5784,
      "Ġattach": 5785,
      "Ġroll": 5786,
      "Ġacts": 5787,
      "Ġseeking": 5788,
      "Ġ300": 5789,
      "Ġ2008": 5790,
      "ounded": 5791,
      "Ġeverybody": 5792,
      "Ġguests": 5793,
      "onto": 5794,
      "Ġemphas": 5795,
      "Ġconsult": 5796,
      "Ġcheese": 5797,
      "Ġsupplies": 5798,
      "Ġsubsequ": 5799,
      "Ġconfidential": 5800,
      "Ġextent": 5801,
      "Ġextract": 5802,
      "Ġearned": 5803,
      "Ġbridge": 5804,
      "azine": 5805,
      "Ġ70": 5806,
      "Ġgovernments": 5807,
      "Ġmorality": 5808,
      "Ġlisten": 5809,
      "ĠArch": 5810,
      "Ġadvant": 5811,
      "Ġadvance": 5812,
      "Ġbusinesses": 5813,
      "Ġcauses": 5814,
      "Ġestimate": 5815,
      "Ġseconds": 5816,
      "Ġmilitant": 5817,
      "Ġopposite": 5818,
      "Ġfiled": 5819,
      "Ġpromise": 5820,
      "Ġhotels": 5821,
      "Ġhorrible": 5822,
      "Ġequipment": 5823,
      "Ġofficers": 5824,
      "Ġcampus": 5825,
      "Ġbooked": 5826,
      "Ġcreation": 5827,
      "Ġorganized": 5828,
      "Ġhousehold": 5829,
      "Ġbuying": 5830,
      "Ġwriters": 5831,
      "Ġlimit": 5832,
      "ossible": 5833,
      "ĠCarol": 5834,
      "Ġphoto": 5835,
      "ĠAndaman": 5836,
      "Ġterrorism": 5837,
      "ĠGuard": 5838,
      "Ġattempts": 5839,
      "ĠPolar": 5840,
      "Ġentirely": 5841,
      "Ġdelivered": 5842,
      "Ġdecline": 5843,
      "itutional": 5844,
      "Ġrelevant": 5845,
      "Ġbreakfast": 5846,
      "Ġnormally": 5847,
      "Ġtypically": 5848,
      "appoint": 5849,
      "Ġpieces": 5850,
      "Ġadmitted": 5851,
      "ĠCounter": 5852,
      "Ġcalc": 5853,
      "Ġthousand": 5854,
      "Ġcritic": 5855,
      "Ġconcepts": 5856,
      "Phone": 5857,
      "Ġexperiences": 5858,
      "Ġbattle": 5859,
      "ĠPhilipp": 5860,
      "Ġcupc": 5861,
      "ĠAbd": 5862,
      "Ġappearance": 5863,
      "Ġemergency": 5864,
      "Ġsample": 5865,
      "ĠSwed": 5866,
      "ĠSaudi": 5867,
      "Ġwelcome": 5868,
      "Ġpollution": 5869,
      "Ġbeliefs": 5870,
      "Ġprosper": 5871,
      "ĠLiber": 5872,
      "Ġaccurate": 5873,
      "Ġrecip": 5874,
      "Ġvehicle": 5875,
      "Ġapproximately": 5876,
      "respond": 5877,
      "ĠCEO": 5878,
      "Ġsafety": 5879,
      "Ġcelebr": 5880,
      "ĠLouis": 5881,
      "Ġsurgery": 5882,
      "Ġresearchers": 5883,
      "Ġalcohol": 5884,
      "Method": 5885,
      "adalecki": 5886,
      "-#": 5887,
      "42": 5888,
      "43": 5889,
      "74": 5890,
      "Act": 5891,
      "ECT": 5892,
      "Gu": 5893,
      "High": 5894,
      "Iran": 5895,
      "Keep": 5896,
      "Le": 5897,
      "Mich": 5898,
      "Res": 5899,
      "War": 5900,
      "cing": 5901,
      "cons": 5902,
      "eer": 5903,
      "gram": 5904,
      "hmed": 5905,
      "mir": 5906,
      "pan": 5907,
      "pers": 5908,
      "pdf": 5909,
      "world": 5910,
      "wiki": 5911,
      "zai": 5912,
      "Ã¡": 5913,
      "Ġtill": 5914,
      "inent": 5915,
      "Ġsac": 5916,
      "ounder": 5917,
      "Ġcir": 5918,
      "Ġcore": 5919,
      "Ġcards": 5920,
      "isation": 5921,
      "Ġbank": 5922,
      "Ġbunch": 5923,
      "orter": 5924,
      "orters": 5925,
      "enge": 5926,
      "Ġpair": 5927,
      "alition": 5928,
      "Ġdance": 5929,
      "Ġdates": 5930,
      "Ġdating": 5931,
      "Ġdiversity": 5932,
      "Ġhate": 5933,
      "asy": 5934,
      "icians": 5935,
      "Ġlose": 5936,
      "lli": 5937,
      "Ġnations": 5938,
      "lem": 5939,
      "leans": 5940,
      "ĠIP": 5941,
      "ĠInt": 5942,
      "ĠIreland": 5943,
      "uting": 5944,
      "rol": 5945,
      "iden": 5946,
      "Ġforth": 5947,
      "urric": 5948,
      "amil": 5949,
      "ĠSim": 5950,
      "ĠCA": 5951,
      "ĠCr": 5952,
      "ĠCra": 5953,
      "ĠCreat": 5954,
      "ĠCap": 5955,
      "ĠCup": 5956,
      "ĠABC": 5957,
      "ĠMary": 5958,
      "ulating": 5959,
      "istry": 5960,
      "ĠBoston": 5961,
      "Ġdoct": 5962,
      "Ġlip": 5963,
      "Ġrom": 5964,
      "Ġrice": 5965,
      "ĠTy": 5966,
      "Ġjur": 5967,
      "Ġshape": 5968,
      "ĠEPM": 5969,
      "ĠDar": 5970,
      "elines": 5971,
      "ĠGen": 5972,
      "ĠGall": 5973,
      "ĠFin": 5974,
      "ĠFore": 5975,
      "ĠFood": 5976,
      "ĠFirst": 5977,
      "ĠFile": 5978,
      "ĠFBI": 5979,
      "ĠHu": 5980,
      "Ġchief": 5981,
      "ackle": 5982,
      "ĠRoad": 5983,
      "ĠRussell": 5984,
      "ĠUV": 5985,
      "auc": 5986,
      "ĠJer": 5987,
      "ĠJose": 5988,
      "Ġweren": 5989,
      "Ġadvert": 5990,
      "Ġenh": 5991,
      "Ġagents": 5992,
      "Ġclub": 5993,
      "Ġbecoming": 5994,
      "Ġarrog": 5995,
      "ĠStar": 5996,
      "iana": 5997,
      "Inst": 5998,
      "Ġsports": 5999,
      "obile": 6000,
      "Ġ1980": 6001,
      "ucks": 6002,
      "Ġspect": 6003,
      "Ġ36": 6004,
      "Ġguid": 6005,
      "Ġaddiction": 6006,
      "ĠVal": 6007,
      "ĠVict": 6008,
      "Ġdescend": 6009,
      "Ġconsidering": 6010,
      "Ġprovision": 6011,
      "Ġtransform": 6012,
      "Ġincome": 6013,
      "Ġconfirmed": 6014,
      "exp": 6015,
      "Ġterrible": 6016,
      "Ġfinish": 6017,
      "bean": 6018,
      "Ġcollabor": 6019,
      "Ġdeveloping": 6020,
      "Ġcentre": 6021,
      "Ġgrown": 6022,
      "Ġweekly": 6023,
      "Ġpaying": 6024,
      "Ġpowerful": 6025,
      "Ġmovies": 6026,
      "Ġmarkets": 6027,
      "Ġlighting": 6028,
      "Ġopposed": 6029,
      "Ġstatements": 6030,
      "Ġprompt": 6031,
      "Ġsuggests": 6032,
      "Ġ1998": 6033,
      "China": 6034,
      "Ġvisiting": 6035,
      "Ġbroken": 6036,
      "Ġpresented": 6037,
      "ĠIranian": 6038,
      "Ġtraveling": 6039,
      "Ġoriginally": 6040,
      "Ġyounger": 6041,
      "Ġreplaced": 6042,
      "ĠBeat": 6043,
      "Ġindustrial": 6044,
      "Ġspecifically": 6045,
      "Ġsnitch": 6046,
      "Ġsubjects": 6047,
      "ĠAtl": 6048,
      "Ġexisting": 6049,
      "Ġsuffer": 6050,
      "Ġfairly": 6051,
      "Ġleadership": 6052,
      "Ġgeograph": 6053,
      "Ġinterviews": 6054,
      "Ġopportunities": 6055,
      "Unfortunately": 6056,
      "________________________________": 6057,
      "ĠRussian": 6058,
      "Ġpulled": 6059,
      "Ġroute": 6060,
      "Ġriver": 6061,
      "ĠRepublican": 6062,
      "Ġsymp": 6063,
      "Ġepis": 6064,
      "Ġtalks": 6065,
      "Ġbiological": 6066,
      "Ġuniversal": 6067,
      "ĠBaghdad": 6068,
      "Ġoccurred": 6069,
      "Ġprinciple": 6070,
      "Ġconsumption": 6071,
      "Ġfifty": 6072,
      "ĠCollege": 6073,
      "Ġtraditional": 6074,
      "Ġtitle": 6075,
      "ĠHowever": 6076,
      "Ġexpertise": 6077,
      "Ġduty": 6078,
      "Ġinspired": 6079,
      "Ġremoved": 6080,
      "Ġinquir": 6081,
      "Ġhiking": 6082,
      "Ġapparently": 6083,
      "Ġcertific": 6084,
      "Ġlicensed": 6085,
      "sembly": 6086,
      "ĠTreaty": 6087,
      "Ġconstituency": 6088,
      "ĠCounterparty": 6089,
      "339": 6090,
      "49": 6091,
      "83": 6092,
      "AC": 6093,
      "Bush": 6094,
      "Cor": 6095,
      "DOC": 6096,
      "EP": 6097,
      "Game": 6098,
      "II": 6099,
      "Mont": 6100,
      "SM": 6101,
      "bn": 6102,
      "big": 6103,
      "board": 6104,
      "cest": 6105,
      "fl": 6106,
      "ga": 6107,
      "gest": 6108,
      "hal": 6109,
      "iat": 6110,
      "lined": 6111,
      "mary": 6112,
      "pm": 6113,
      "spe": 6114,
      "ua": 6115,
      "ux": 6116,
      "uy": 6117,
      "vest": 6118,
      "Ã¼": 6119,
      "ĠÅģÃ³dÅº": 6120,
      "Ġtent": 6121,
      "Ġtight": 6122,
      "onia": 6123,
      "Ġwal": 6124,
      "Ġwake": 6125,
      "Ġsy": 6126,
      "Ġsatell": 6127,
      "Ġoxygen": 6128,
      "Ġcaught": 6129,
      "Ġcognitive": 6130,
      "Ġctenoph": 6131,
      "orb": 6132,
      "orage": 6133,
      "oronto": 6134,
      "Ġfans": 6135,
      "enna": 6136,
      "esides": 6137,
      "Ġpow": 6138,
      "Ġpure": 6139,
      "Ġpool": 6140,
      "alvo": 6141,
      "arrow": 6142,
      "arians": 6143,
      "Ġdial": 6144,
      "Ġdrove": 6145,
      "Ġhom": 6146,
      "Ġhall": 6147,
      "Ġlingu": 6148,
      "Ġloud": 6149,
      "Ġlength": 6150,
      "lean": 6151,
      "Ġyield": 6152,
      "acetime": 6153,
      "ayer": 6154,
      "roat": 6155,
      "sect": 6156,
      "igration": 6157,
      "Ġweak": 6158,
      "irts": 6159,
      "iramar": 6160,
      "ĠSand": 6161,
      "ĠScience": 6162,
      "ĠSmith": 6163,
      "Ġhell": 6164,
      "aded": 6165,
      "ĠCleveland": 6166,
      "ĠAR": 6167,
      "Ġancest": 6168,
      "ooking": 6169,
      "tery": 6170,
      "rag": 6171,
      "ĠPat": 6172,
      "ĠPers": 6173,
      "Ġnotes": 6174,
      "Ġconven": 6175,
      "anta": 6176,
      "thanks": 6177,
      "ĠBy": 6178,
      "ĠBut": 6179,
      "rier": 6180,
      "Ġshoot": 6181,
      "ĠLake": 6182,
      "ĠLopez": 6183,
      "ĠWH": 6184,
      "ĠWars": 6185,
      "ocation": 6186,
      "Ġwheel": 6187,
      "Ġouter": 6188,
      "ĠJones": 6189,
      "ĠJihad": 6190,
      "berg": 6191,
      "earch": 6192,
      "actor": 6193,
      "Ġagent": 6194,
      "Ġclosing": 6195,
      "Ġbecomes": 6196,
      "ĠOpen": 6197,
      "Ġunknown": 6198,
      "Ġdisappoint": 6199,
      "ulty": 6200,
      "ahan": 6201,
      "Ġ32": 6202,
      "Ġserving": 6203,
      "Ġadding": 6204,
      "Ġpositions": 6205,
      "Ġconserv": 6206,
      "Ġrelief": 6207,
      "pective": 6208,
      "Ġassert": 6209,
      "Ġtrave": 6210,
      "Ġfindings": 6211,
      "phia": 6212,
      "Ġprovisions": 6213,
      "Therefore": 6214,
      "ĠUSA": 6215,
      "Ġentit": 6216,
      "Ġcolleag": 6217,
      "Ġimpossible": 6218,
      "Ġmetropolitan": 6219,
      "Ġpossess": 6220,
      "ocked": 6221,
      "Ġrestrict": 6222,
      "Ġapartment": 6223,
      "Ġvalu": 6224,
      "Ġmedian": 6225,
      "Ġmedium": 6226,
      "Ġgraduate": 6227,
      "Ġreceiving": 6228,
      "ashion": 6229,
      "Ġadvis": 6230,
      "Ġedge": 6231,
      "Ġlargely": 6232,
      "while": 6233,
      "Ġgrav": 6234,
      "Ġmatters": 6235,
      "pring": 6236,
      "Ġbehalf": 6237,
      "Ġequival": 6238,
      "Ġprotected": 6239,
      "Ġcolumn": 6240,
      "ĠAmazon": 6241,
      "Ġprivile": 6242,
      "ĠJohnson": 6243,
      "Ġtourists": 6244,
      "Ġauthorities": 6245,
      "ĠHarry": 6246,
      "ĠExecutive": 6247,
      "Ġphotos": 6248,
      "Ġengage": 6249,
      "ĠCentral": 6250,
      "Ġnecessarily": 6251,
      "ĠAtt": 6252,
      "Ġdomain": 6253,
      "ĠBrown": 6254,
      "ĠOrleans": 6255,
      "Ġparticipate": 6256,
      "Ġparticipants": 6257,
      "Ġreligion": 6258,
      "Ġtaxes": 6259,
      "ĠChristmas": 6260,
      "Ġfailure": 6261,
      "Ġbroadcast": 6262,
      "Ġspending": 6263,
      "Everyone": 6264,
      "Everything": 6265,
      "Ġmaterials": 6266,
      "Ġfamiliar": 6267,
      "Ġbehavi": 6268,
      "ĠMichigan": 6269,
      "Ġmaintain": 6270,
      "Ġcontainer": 6271,
      "Ġliterally": 6272,
      "Ġexperimental": 6273,
      "ĠIslands": 6274,
      "forcement": 6275,
      "Ġwaters": 6276,
      "Ġultimately": 6277,
      "Ġoccasion": 6278,
      "ĠRobert": 6279,
      "ĠAssociation": 6280,
      "Ġtonight": 6281,
      "ĠBraz": 6282,
      "adelphia": 6283,
      "ĠScottish": 6284,
      "ocolate": 6285,
      "Ġcandidate": 6286,
      "Ġcocktail": 6287,
      "Ġcooperation": 6288,
      "burgh": 6289,
      "Despite": 6290,
      "Ġcrisis": 6291,
      "ĠDevelopment": 6292,
      "ĠFoundation": 6293,
      "ĠPachom": 6294,
      "ĠLanka": 6295,
      "Ġcolleagues": 6296,
      "!?": 6297,
      "57": 6298,
      "84": 6299,
      "86": 6300,
      "AA": 6301,
      "Again": 6302,
      "Cause": 6303,
      "DA": 6304,
      "FL": 6305,
      "IB": 6306,
      "RA": 6307,
      "Rec": 6308,
      "Sc": 6309,
      "Sure": 6310,
      "Somet": 6311,
      "UC": 6312,
      "WH": 6313,
      "Wow": 6314,
      "den": 6315,
      "field": 6316,
      "gl": 6317,
      "iant": 6318,
      "ios": 6319,
      "long": 6320,
      "lades": 6321,
      "pot": 6322,
      "person": 6323,
      "rd": 6324,
      "rig": 6325,
      "rants": 6326,
      "tion": 6327,
      "Ġtaught": 6328,
      "Ġtiny": 6329,
      "rey": 6330,
      "Ġtheories": 6331,
      "Ġwolves": 6332,
      "Ġsust": 6333,
      "Ġsides": 6334,
      "Ġcry": 6335,
      "Ġfav": 6336,
      "esla": 6337,
      "Ġphen": 6338,
      "Ġpages": 6339,
      "Ġmad": 6340,
      "Ġmicro": 6341,
      "alist": 6342,
      "aration": 6343,
      "Ġdowntown": 6344,
      "Ġthr": 6345,
      "Ġnerv": 6346,
      "Ġgross": 6347,
      "Ġreduc": 6348,
      "otional": 6349,
      "ĠImm": 6350,
      "ĠICT": 6351,
      "Ġislam": 6352,
      "acement": 6353,
      "sex": 6354,
      "Ġupper": 6355,
      "Ġweird": 6356,
      "Ġwearing": 6357,
      "ĠSri": 6358,
      "ĠSection": 6359,
      "Ġstress": 6360,
      "Ġstup": 6361,
      "ĠCur": 6362,
      "illy": 6363,
      "illas": 6364,
      "ĠMu": 6365,
      "ĠPeter": 6366,
      "ems": 6367,
      "isted": 6368,
      "istory": 6369,
      "Ġsequ": 6370,
      "Ġselection": 6371,
      "ques": 6372,
      "Ġlies": 6373,
      "ander": 6374,
      "Ġ29": 6375,
      "Ġvoted": 6376,
      "Ġshot": 6377,
      "Ġshares": 6378,
      "ĠNot": 6379,
      "ĠEU": 6380,
      "ĠEOL": 6381,
      "ĠDie": 6382,
      "ĠDeb": 6383,
      "unction": 6384,
      "ĠHidden": 6385,
      "Ġchapter": 6386,
      "Through": 6387,
      "akers": 6388,
      "odge": 6389,
      "Ġadequ": 6390,
      "Ġusers": 6391,
      "Ġusual": 6392,
      "Ġtheme": 6393,
      "Ġclient": 6394,
      "ĠOb": 6395,
      "ĠOl": 6396,
      "Ġarrange": 6397,
      "------": 6398,
      "Ġtea": 6399,
      "onder": 6400,
      "Ġwhenever": 6401,
      "ĠStan": 6402,
      "ĠStep": 6403,
      "ahoo": 6404,
      "ports": 6405,
      "Ġattorney": 6406,
      "Ġacting": 6407,
      "ucking": 6408,
      "Ġmayor": 6409,
      "ĠThese": 6410,
      "ords": 6411,
      "Ġspeech": 6412,
      "Hello": 6413,
      "ints": 6414,
      "Ġeveryday": 6415,
      "Ġblow": 6416,
      "Ġblank": 6417,
      "oyd": 6418,
      "Ġcommission": 6419,
      "Ġremark": 6420,
      "ĠInformation": 6421,
      "Ġassass": 6422,
      "Ġcounty": 6423,
      "Ġevac": 6424,
      "Ġdefined": 6425,
      "Ġ500": 6426,
      "Ġgotten": 6427,
      "Ġelement": 6428,
      "Ġdecent": 6429,
      "Ġexperts": 6430,
      "uality": 6431,
      "Ġstarts": 6432,
      "Ġsurprise": 6433,
      "Ġsecure": 6434,
      "egal": 6435,
      "Ġtransaction": 6436,
      "Ġdiscount": 6437,
      "Ġconfidence": 6438,
      "Ġraise": 6439,
      "Ġpreserv": 6440,
      "Ġrequires": 6441,
      "Ġgovernor": 6442,
      "Ġhappening": 6443,
      "Ġpossibility": 6444,
      "Ġleads": 6445,
      "Ġcorrespond": 6446,
      "Ġfactor": 6447,
      "Ġmemo": 6448,
      "Ġplayers": 6449,
      "Ġstrict": 6450,
      "Ġoblig": 6451,
      "Ġvalid": 6452,
      "Ġimportance": 6453,
      "Ġveter": 6454,
      "Ġtesting": 6455,
      "Ġeastern": 6456,
      "509": 6457,
      "Ġpassing": 6458,
      "Ġcommunication": 6459,
      "Ġsupported": 6460,
      "Ġsupporting": 6461,
      "Ġcapable": 6462,
      "Ġskin": 6463,
      "Ġfiles": 6464,
      "Ġstands": 6465,
      "Ġappell": 6466,
      "........": 6467,
      "Ġbegun": 6468,
      "Ġsuggested": 6469,
      "Ġprotest": 6470,
      "ĠCommons": 6471,
      "Ġsalon": 6472,
      "Ġcrew": 6473,
      "Ġorganizations": 6474,
      "ĠProject": 6475,
      "ĠProfessor": 6476,
      "Ġbroke": 6477,
      "Ġexpectations": 6478,
      "ATION": 6479,
      "iques": 6480,
      "Ġcopies": 6481,
      "ĠClair": 6482,
      "Ġprofession": 6483,
      "Ġstores": 6484,
      "Ġphotograp": 6485,
      "Ġshopping": 6486,
      "ĠAndy": 6487,
      "Ġinvestment": 6488,
      "Ġpicked": 6489,
      "Ġwindows": 6490,
      "Ġmassive": 6491,
      "Ġparticipation": 6492,
      "greg": 6493,
      "ĠScot": 6494,
      "Ġdeclared": 6495,
      "Ġdetailed": 6496,
      "Ġ1960": 6497,
      "Ġcycl": 6498,
      "Ġweapon": 6499,
      "Ġgrounds": 6500,
      "Ġdocuments": 6501,
      "ĠBritain": 6502,
      "Ġradical": 6503,
      "Ġballet": 6504,
      "Ġscientists": 6505,
      "Ġviolence": 6506,
      "Ġprepare": 6507,
      "Ġboys": 6508,
      "Ġdepending": 6509,
      "Ġexcited": 6510,
      "Ġslowly": 6511,
      "Ġpleasure": 6512,
      "Ġreportedly": 6513,
      "ĠSantorum": 6514,
      "Ġchannels": 6515,
      "================================": 6516,
      "Ġdrug": 6517,
      "ĠAnton": 6518,
      "Ġwatched": 6519,
      "Ġarrested": 6520,
      "Ġinjury": 6521,
      "ĠJacksonville": 6522,
      "Ġlegislative": 6523,
      "related": 6524,
      "Ġphotography": 6525,
      "ĠSuper": 6526,
      "ĠAdministration": 6527,
      "Remember": 6528,
      "Ġingredients": 6529,
      "Ġsmooth": 6530,
      "Ġpoetry": 6531,
      "Ġpaintings": 6532,
      "Ġfurniture": 6533,
      "ĠEducation": 6534,
      "ĠArgentina": 6535,
      "ĠBanglades": 6536,
      "oenix": 6537,
      "Ġfalse": 6538,
      "ĠColumbia": 6539,
      "Ġgentle": 6540,
      "ĠPhilippines": 6541,
      "ĠSweden": 6542,
      "Michael": 6543,
      "Ġstupid": 6544,
      "06": 6545,
      "72": 6546,
      "Bas": 6547,
      "Could": 6548,
      "Cons": 6549,
      "EE": 6550,
      "EY": 6551,
      "Each": 6552,
      "Further": 6553,
      "Int": 6554,
      "Ken": 6555,
      "LS": 6556,
      "Love": 6557,
      "Me": 6558,
      "Mm": 6559,
      "Ne": 6560,
      "Put": 6561,
      "SE": 6562,
      "TA": 6563,
      "Us": 6564,
      "bl": 6565,
      "bo": 6566,
      "box": 6567,
      "cceed": 6568,
      "don": 6569,
      "democr": 6570,
      "gn": 6571,
      "iot": 6572,
      "jin": 6573,
      "night": 6574,
      "pir": 6575,
      "rition": 6576,
      "ument": 6577,
      "uild": 6578,
      "whel": 6579,
      "yers": 6580,
      "zz": 6581,
      "ĠÃ": 6582,
      "Ġturning": 6583,
      "inf": 6584,
      "ini": 6585,
      "inity": 6586,
      "inite": 6587,
      "rene": 6588,
      "Ġtherap": 6589,
      "Ġwave": 6590,
      "Ġwolf": 6591,
      "Ġsad": 6592,
      "nda": 6593,
      "Ġcos": 6594,
      "isd": 6595,
      "Ġbother": 6596,
      "orough": 6597,
      "Ġfiction": 6598,
      "esh": 6599,
      "Ġpin": 6600,
      "Ġpurs": 6601,
      "Ġpushed": 6602,
      "Ġmile": 6603,
      "Ġinhab": 6604,
      "Ġthirty": 6605,
      "Ġlists": 6606,
      "Ġlabor": 6607,
      "Ġnarr": 6608,
      "Ġnarrow": 6609,
      "Ġgain": 6610,
      "star": 6611,
      "stood": 6612,
      "stream": 6613,
      "ota": 6614,
      "ĠIf": 6615,
      "ĠIr": 6616,
      "roduction": 6617,
      "iders": 6618,
      "sey": 6619,
      "iment": 6620,
      "urd": 6621,
      "iguch": 6622,
      "ctic": 6623,
      "Ġheight": 6624,
      "ading": 6625,
      "ĠCy": 6626,
      "ĠCath": 6627,
      "ĠAre": 6628,
      "ĠAlex": 6629,
      "illmore": 6630,
      "ĠMajor": 6631,
      "ĠMann": 6632,
      "Ġfrust": 6633,
      "Ġorient": 6634,
      "istrict": 6635,
      "this": 6636,
      "Ġprohib": 6637,
      "Ġproduced": 6638,
      "Ġneck": 6639,
      "ĠBat": 6640,
      "ĠBet": 6641,
      "ĠBro": 6642,
      "ĠBelg": 6643,
      "Ġsucceed": 6644,
      "Ġlikes": 6645,
      "Ġking": 6646,
      "ĠTimes": 6647,
      "ĠToronto": 6648,
      "abilities": 6649,
      "Ġvan": 6650,
      "Ġshit": 6651,
      "Ġshower": 6652,
      "Ġshirt": 6653,
      "Ġworried": 6654,
      "ĠNor": 6655,
      "ĠNob": 6656,
      "ĠDaniel": 6657,
      "elve": 6658,
      "unh": 6659,
      "Ġaband": 6660,
      "ĠGe": 6661,
      "ĠLab": 6662,
      "ĠHotel": 6663,
      "asty": 6664,
      "arded": 6665,
      "Ġplat": 6666,
      "Ġplot": 6667,
      "Ġplague": 6668,
      "osted": 6669,
      "ective": 6670,
      "Ġoutstanding": 6671,
      "ĠUnder": 6672,
      "ivic": 6673,
      "inda": 6674,
      "ĠJim": 6675,
      "ĠJob": 6676,
      "ĠJean": 6677,
      "cipl": 6678,
      "agers": 6679,
      "Ġjustice": 6680,
      "Ġenemy": 6681,
      "Ġfeather": 6682,
      "Ġfeatures": 6683,
      "Ġtruly": 6684,
      "izes": 6685,
      "Ġamb": 6686,
      "Ġarr": 6687,
      "appe": 6688,
      "Ġdish": 6689,
      "Ġdism": 6690,
      "Ġdisappe": 6691,
      "ultural": 6692,
      "ĠKev": 6693,
      "claim": 6694,
      "obed": 6695,
      "Ġprecise": 6696,
      "ĠThere": 6697,
      "Ġ38": 6698,
      "Ġgreatly": 6699,
      "Ġscared": 6700,
      "awi": 6701,
      "Ġdesire": 6702,
      "Ġdescription": 6703,
      "Ġremem": 6704,
      "Ġremove": 6705,
      "rank": 6706,
      "Ġcarried": 6707,
      "Ġcoordin": 6708,
      "Ġinstall": 6709,
      "Ġchecking": 6710,
      "Ġinvas": 6711,
      "Ġsurge": 6712,
      "Ġextended": 6713,
      "Ġexpansion": 6714,
      "Ġbrings": 6715,
      "Ġ75": 6716,
      "Ġloose": 6717,
      "Ġartist": 6718,
      "Ġartists": 6719,
      "Ġarticles": 6720,
      "Ġimpressed": 6721,
      "Ġ05": 6722,
      "Ġformat": 6723,
      "Ġmilk": 6724,
      "ropical": 6725,
      "rison": 6726,
      "Ġdevelopments": 6727,
      "Ġstrateg": 6728,
      "Ġsimpl": 6729,
      "Ġcenturies": 6730,
      "Ġheading": 6731,
      "hips": 6732,
      "Ġelite": 6733,
      "Ġelimin": 6734,
      "Ġadvise": 6735,
      "Ġruns": 6736,
      "Ġresulting": 6737,
      "ructure": 6738,
      "Ġstream": 6739,
      "Ġmarked": 6740,
      "Start": 6741,
      "Only": 6742,
      "Ġfilter": 6743,
      "Ġtreatments": 6744,
      "Ġstaying": 6745,
      "Ġcrime": 6746,
      "Islam": 6747,
      "Ġbegins": 6748,
      "Ġapproval": 6749,
      "Ġtalked": 6750,
      "Ġshortly": 6751,
      "Ġstronger": 6752,
      "ĠConference": 6753,
      "Ġperiods": 6754,
      "Ġchecked": 6755,
      "Ġgreet": 6756,
      "Ġforever": 6757,
      "Ġinitially": 6758,
      "Ġdivision": 6759,
      "ĠExp": 6760,
      "Ġmissed": 6761,
      "Ġamounts": 6762,
      "ĠISO": 6763,
      "ĠAsian": 6764,
      "Ġcounsel": 6765,
      "Ġcontracts": 6766,
      "Ġdeliber": 6767,
      "Ġargued": 6768,
      "ophy": 6769,
      "Ġcircum": 6770,
      "Ġbottles": 6771,
      "ĠCorpor": 6772,
      "ICE": 6773,
      "Ġcritical": 6774,
      "Ġregularly": 6775,
      "Ġtrees": 6776,
      "iminal": 6777,
      "Ġdepends": 6778,
      "Ġstrengthen": 6779,
      "Ġlicense": 6780,
      "ĠSociety": 6781,
      "Enf": 6782,
      "Enron": 6783,
      "Ġsymb": 6784,
      "Ġsurrounding": 6785,
      "ĠPhiladelphia": 6786,
      "Ġreferred": 6787,
      "Ġsoftware": 6788,
      "Ġdipl": 6789,
      "Ġliterature": 6790,
      "Ġlucky": 6791,
      "Ġexperiment": 6792,
      "Ġuncertain": 6793,
      "ĠPalestinians": 6794,
      "Perhaps": 6795,
      "Ġhouses": 6796,
      "Ġroughly": 6797,
      "Ġsettled": 6798,
      "Ġpharmac": 6799,
      "Ġoccupation": 6800,
      "Ġlatest": 6801,
      "Ġsandw": 6802,
      "iveness": 6803,
      "ĠAcadem": 6804,
      "Ġspoken": 6805,
      "Ġconnections": 6806,
      "ILL": 6807,
      "Ġincorpor": 6808,
      "Ġcomparison": 6809,
      "Ġdisease": 6810,
      "Ġconsequences": 6811,
      "Ġevalu": 6812,
      "ĠDirector": 6813,
      "ĠGhost": 6814,
      "Ġethnic": 6815,
      "ĠMississ": 6816,
      "Ġstretch": 6817,
      "ĠServices": 6818,
      "Ġadvantage": 6819,
      "ĠCreative": 6820,
      "ĠVictor": 6821,
      "Ġepisode": 6822,
      "ĠBrazil": 6823,
      "ĠPachomius": 6824,
      "ĠDiego": 6825,
      "iguchi": 6826,
      ");": 6827,
      "646": 6828,
      "73": 6829,
      "85": 6830,
      "Bl": 6831,
      "DP": 6832,
      "David": 6833,
      "Fort": 6834,
      "Fax": 6835,
      "Feb": 6836,
      "GE": 6837,
      "Kim": 6838,
      "MAN": 6839,
      "Sim": 6840,
      "TS": 6841,
      "Tw": 6842,
      "Wik": 6843,
      "Yet": 6844,
      "aa": 6845,
      "awn": 6846,
      "born": 6847,
      "cher": 6848,
      "chernobyl": 6849,
      "fit": 6850,
      "gers": 6851,
      "overy": 6852,
      "rors": 6853,
      "sa": 6854,
      "tra": 6855,
      "uen": 6856,
      "uan": 6857,
      "under": 6858,
      "Ġâ": 6859,
      "Ġtire": 6860,
      "Ġtired": 6861,
      "erning": 6862,
      "Ġodd": 6863,
      "Ġocean": 6864,
      "Ġcred": 6865,
      "itement": 6866,
      "isa": 6867,
      "Ġbom": 6868,
      "Ġbike": 6869,
      "Ġfo": 6870,
      "Ġfulf": 6871,
      "Ġfuel": 6872,
      "edu": 6873,
      "Ġmir": 6874,
      "Ġmaster": 6875,
      "alym": 6876,
      "Ġdig": 6877,
      "Ġhomes": 6878,
      "ask": 6879,
      "aser": 6880,
      "ician": 6881,
      "ichell": 6882,
      "iculous": 6883,
      "Ġlinks": 6884,
      "oma": 6885,
      "Ġgather": 6886,
      "Ġyoga": 6887,
      "Ġrevenue": 6888,
      "stick": 6889,
      "stances": 6890,
      "uts": 6891,
      "utation": 6892,
      "utch": 6893,
      "etary": 6894,
      "acing": 6895,
      "section": 6896,
      "ims": 6897,
      "imal": 6898,
      "uration": 6899,
      "ĠSqu": 6900,
      "ĠSov": 6901,
      "Ġstuck": 6902,
      "Ġstrap": 6903,
      "Ġstorage": 6904,
      "ĠCD": 6905,
      "ĠCO": 6906,
      "ĠCamb": 6907,
      "ĠCOM": 6908,
      "ĠAT": 6909,
      "ĠAhmed": 6910,
      "Ġwithdra": 6911,
      "ilty": 6912,
      "ifer": 6913,
      "ĠMer": 6914,
      "ĠMuseum": 6915,
      "ĠPo": 6916,
      "herlands": 6917,
      "estic": 6918,
      "Ġnotion": 6919,
      "Ġconver": 6920,
      "employ": 6921,
      "anting": 6922,
      "istance": 6923,
      "ushing": 6924,
      "ategy": 6925,
      "Ġdegre": 6926,
      "Ġneuro": 6927,
      "ĠBo": 6928,
      "ĠBur": 6929,
      "ĠBob": 6930,
      "ĠBible": 6931,
      "Ġmel": 6932,
      "Ġmerely": 6933,
      "ĠTW": 6934,
      "ĠTab": 6935,
      "ĠTesla": 6936,
      "Ġshared": 6937,
      "Ġships": 6938,
      "ĠNO": 6939,
      "ĠNov": 6940,
      "ĠDay": 6941,
      "ĠDav": 6942,
      "ĠGreen": 6943,
      "ĠGordon": 6944,
      "ĠFOR": 6945,
      "ĠLA": 6946,
      "ĠHad": 6947,
      "ĠHind": 6948,
      "Ġchances": 6949,
      "Three": 6950,
      "ĠRE": 6951,
      "ĠRh": 6952,
      "ĠRock": 6953,
      "Ġlect": 6954,
      "ĠWal": 6955,
      "ĠWil": 6956,
      "ĠWalk": 6957,
      "aks": 6958,
      "active": 6959,
      "Ġanymore": 6960,
      "plore": 6961,
      "erences": 6962,
      "Ġenforcement": 6963,
      "Ġquant": 6964,
      "Ġquoted": 6965,
      "Ġquarter": 6966,
      "Ġfee": 6967,
      "Ġclin": 6968,
      "Ġclick": 6969,
      "Ġcompens": 6970,
      "Ġcontrast": 6971,
      "aped": 6972,
      "Ġdisobed": 6973,
      "ĠKash": 6974,
      "Ġoverwhel": 6975,
      "Ġnoise": 6976,
      "eping": 6977,
      "ĠChath": 6978,
      "ipedia": 6979,
      "Ġspring": 6980,
      "anger": 6981,
      "Ġnewly": 6982,
      "owned": 6983,
      "Ġshel": 6984,
      "orders": 6985,
      "Ġshouldn": 6986,
      "...]": 6987,
      "Ġguilty": 6988,
      "Ġgreatest": 6989,
      "Ġregime": 6990,
      "Ġregret": 6991,
      "Ġinfrast": 6992,
      "Ġcommitted": 6993,
      "ĠVER": 6994,
      "Ġsmart": 6995,
      "Ġassault": 6996,
      "Ġcoinc": 6997,
      "Ġputs": 6998,
      "Ġdecre": 6999,
      "Ġinvent": 7000,
      "there": 7001,
      "eges": 7002,
      "Ġlocations": 7003,
      "Ġends": 7004,
      "Ġdiscover": 7005,
      "Ġsubur": 7006,
      "Ġconfident": 7007,
      "Ġextrem": 7008,
      "Ġexpired": 7009,
      "aza": 7010,
      "Ġartistic": 7011,
      "Ġcolleges": 7012,
      "ĠIraqis": 7013,
      "Ġgenerators": 7014,
      "Ġbelieves": 7015,
      "Ġprocessing": 7016,
      "Ġstrategy": 7017,
      "Ġwaited": 7018,
      "Ġdistance": 7019,
      "Ġelectrical": 7020,
      "Ġplane": 7021,
      "Ġkeeps": 7022,
      "Ġadvanced": 7023,
      "Ġeditor": 7024,
      "Ġdirections": 7025,
      "ĠPhone": 7026,
      "Ġconstruct": 7027,
      "Ġsuggesting": 7028,
      "Ġtechnical": 7029,
      "Ġ1990": 7030,
      "Christ": 7031,
      "ĠProv": 7032,
      "ylum": 7033,
      "Ġstrongly": 7034,
      "Ġsooner": 7035,
      "Ġfaculty": 7036,
      "ĠClub": 7037,
      "Ġresponses": 7038,
      "Ġpeaceful": 7039,
      "Ġconnected": 7040,
      "hemical": 7041,
      "Ġdestination": 7042,
      "Anyway": 7043,
      "ĠPolicy": 7044,
      "Ġrevised": 7045,
      "ĠSenators": 7046,
      "Ġsociet": 7047,
      "Ġmagn": 7048,
      "ĠLeague": 7049,
      "Ġsufficient": 7050,
      "Before": 7051,
      "appy": 7052,
      "ĠFrank": 7053,
      "Ġarrival": 7054,
      "Ġstrain": 7055,
      "Ġteaching": 7056,
      "Ġidentified": 7057,
      "Ġneighbour": 7058,
      "Ġexecute": 7059,
      "Ġvacc": 7060,
      "Ġtemperatures": 7061,
      "Ġdebate": 7062,
      "Ġstructures": 7063,
      "ĠENRON": 7064,
      "Ġimmediate": 7065,
      "Ġautom": 7066,
      "Ġannounce": 7067,
      "ĠAirport": 7068,
      "Ġprimarily": 7069,
      "arrass": 7070,
      "Ġdenied": 7071,
      "ĠNetwork": 7072,
      "ĠNetherlands": 7073,
      "ĠMontana": 7074,
      "Ġimpacts": 7075,
      "Ġcapture": 7076,
      "ĠSpecial": 7077,
      "Ġdisplay": 7078,
      "Ġaffordable": 7079,
      "Ġpenal": 7080,
      "Ġprinted": 7081,
      "Ġdistributed": 7082,
      "Ġhousing": 7083,
      "Ġencourage": 7084,
      "Ġdefendant": 7085,
      "ĠCharles": 7086,
      "ĠInstitute": 7087,
      "Ġsubstantial": 7088,
      "Ġpharmacy": 7089,
      "Ġcommitment": 7090,
      "Ġadopted": 7091,
      "ĠKarzai": 7092,
      "Ġobtain": 7093,
      "Ġmanufacture": 7094,
      "ĠwikiHow": 7095,
      "ĠAnalyst": 7096,
      "Ġgarden": 7097,
      "Ġconcluded": 7098,
      "Ġbulb": 7099,
      "ĠTemÃ¼": 7100,
      "ĠHuguen": 7101,
      "Ġimperial": 7102,
      "Ġresidents": 7103,
      "Ġdividends": 7104,
      "Ġgrammar": 7105,
      "Ġcontemporary": 7106,
      "Ġmoist": 7107,
      "ĠLatin": 7108,
      "Ġcloser": 7109,
      "Ġjudgments": 7110,
      "Ġhesit": 7111,
      "Ġreconcil": 7112,
      "Ġentertainment": 7113,
      "Ġquartile": 7114,
      "Ġrecipient": 7115,
      "Highly": 7116,
      "Instead": 7117,
      "ĠBeatles": 7118,
      "Ġsynt": 7119,
      "Ġsatellite": 7120,
      "Ġctenophores": 7121,
      "Ġvaluable": 7122,
      "Ġcircumstances": 7123,
      "Enfant": 7124,
      "ichelle": 7125,
      "Ġdegrees": 7126,
      "ĠKashmir": 7127,
      "400": 7128,
      "61": 7129,
      "Abs": 7130,
      "Fe": 7131,
      "Fr": 7132,
      "George": 7133,
      "IF": 7134,
      "Jan": 7135,
      "Su": 7136,
      "Sub": 7137,
      "Talk": 7138,
      "Was": 7139,
      "Zawahiri": 7140,
      "aat": 7141,
      "bar": 7142,
      "cont": 7143,
      "dam": 7144,
      "fire": 7145,
      "from": 7146,
      "iam": 7147,
      "ket": 7148,
      "ns": 7149,
      "rative": 7150,
      "sm": 7151,
      "such": 7152,
      "uing": 7153,
      "ÃŃ": 7154,
      "Ġtree": 7155,
      "rell": 7156,
      "rete": 7157,
      "onn": 7158,
      "Ġwont": 7159,
      "Ġwww": 7160,
      "Ġsnow": 7161,
      "Ġshed": 7162,
      "Ġsouthern": 7163,
      "eria": 7164,
      "ato": 7165,
      "Ġoath": 7166,
      "oulli": 7167,
      "Ġcute": 7168,
      "isher": 7169,
      "Ġbaking": 7170,
      "oral": 7171,
      "Ġfinger": 7172,
      "Ġfashion": 7173,
      "ena": 7174,
      "Ġpig": 7175,
      "Ġpod": 7176,
      "Ġpapers": 7177,
      "Ġtoler": 7178,
      "arry": 7179,
      "Ġdat": 7180,
      "Ġdated": 7181,
      "Ġdining": 7182,
      "Ġhole": 7183,
      "Ġthinks": 7184,
      "Ġthorough": 7185,
      "lly": 7186,
      "Ġgym": 7187,
      "Ġren": 7188,
      "Ġrenew": 7189,
      "Ġreduction": 7190,
      "otra": 7191,
      "Ġhabit": 7192,
      "imens": 7193,
      "igor": 7194,
      "igious": 7195,
      "ĠSC": 7196,
      "ĠSH": 7197,
      "ĠSch": 7198,
      "ĠSum": 7199,
      "ceived": 7200,
      "ĠCH": 7201,
      "ĠCat": 7202,
      "ĠCann": 7203,
      "ĠCredit": 7204,
      "ĠAra": 7205,
      "ĠAbb": 7206,
      "iller": 7207,
      "ifies": 7208,
      "ĠME": 7209,
      "ĠMem": 7210,
      "ĠMount": 7211,
      "ĠMass": 7212,
      "ĠMicrosoft": 7213,
      "âĢ¢": 7214,
      "Ġath": 7215,
      "ĠPitt": 7216,
      "ĠPublic": 7217,
      "ĠProp": 7218,
      "Ġframe": 7219,
      "istor": 7220,
      "Ġprosec": 7221,
      "Ġdeploy": 7222,
      "Ġneither": 7223,
      "ĠBY": 7224,
      "ĠBiden": 7225,
      "Ġkick": 7226,
      "Ġrum": 7227,
      "Ġrace": 7228,
      "ĠTur": 7229,
      "ĠTig": 7230,
      "ĠTamil": 7231,
      "anda": 7232,
      "Ġju": 7233,
      "Ġvotes": 7234,
      "Ġshr": 7235,
      "osada": 7236,
      "ĠEv": 7237,
      "ĠEqu": 7238,
      "ĠDH": 7239,
      "ĠDi": 7240,
      "ĠDen": 7241,
      "una": 7242,
      "Ġabroad": 7243,
      "ĠGO": 7244,
      "ĠGar": 7245,
      "outs": 7246,
      "ĠLay": 7247,
      "ĠHuman": 7248,
      "ĠHiguchi": 7249,
      "Ġchain": 7250,
      "Ġchocolate": 7251,
      "ardust": 7252,
      "Ġgold": 7253,
      "Ġplaint": 7254,
      "ĠRel": 7255,
      "ĠRoyal": 7256,
      "ĠWall": 7257,
      "ĠWood": 7258,
      "pty": 7259,
      "ansas": 7260,
      "actic": 7261,
      "agon": 7262,
      "place": 7263,
      "Ġpeoples": 7264,
      "Ġpricing": 7265,
      "Ġfeature": 7266,
      "Ġcler": 7267,
      "Ġclar": 7268,
      "Ġclimb": 7269,
      "Ġmanner": 7270,
      "Ġamend": 7271,
      "ĠOf": 7272,
      "cca": 7273,
      "Ġresidential": 7274,
      "aret": 7275,
      "ĠKerry": 7276,
      "claration": 7277,
      "Ġtwelve": 7278,
      "obe": 7279,
      "icken": 7280,
      "Ġrocks": 7281,
      "Ġbacked": 7282,
      "Ġspeaking": 7283,
      "iffs": 7284,
      "forest": 7285,
      "Ġguide": 7286,
      "Ġrecall": 7287,
      "Ġblind": 7288,
      "Ġinflation": 7289,
      "issance": 7290,
      "Ġdesper": 7291,
      "Ġcarol": 7292,
      "Ġassigned": 7293,
      "ushi": 7294,
      "Ġcoven": 7295,
      "elling": 7296,
      "Ġdownload": 7297,
      "erts": 7298,
      "Ġgotta": 7299,
      "phone": 7300,
      "Ġinvited": 7301,
      "Ġsupply": 7302,
      "Ġsuppose": 7303,
      "Ġintercept": 7304,
      "roups": 7305,
      "olds": 7306,
      "Ġtransactions": 7307,
      "Ġefficiency": 7308,
      "Ġsets": 7309,
      "Ġhandling": 7310,
      "Ġvisual": 7311,
      "Ġfinance": 7312,
      "Ġentering": 7313,
      "Ġpersonality": 7314,
      "Ġ02": 7315,
      "ĠIndones": 7316,
      "Ġcourses": 7317,
      "Ġmoder": 7318,
      "connect": 7319,
      "Ġkinds": 7320,
      "Ġglow": 7321,
      "Ġdistort": 7322,
      "Ġheaded": 7323,
      "Ġmeetings": 7324,
      "ĠSharon": 7325,
      "inson": 7326,
      "Ġplanet": 7327,
      "Ġreaders": 7328,
      "Ġavo": 7329,
      "Ġedit": 7330,
      "idditch": 7331,
      "Ġdealing": 7332,
      "ĠFront": 7333,
      "Ġbiggest": 7334,
      "chnology": 7335,
      "ĠAnn": 7336,
      "Ġlights": 7337,
      "Ġoperate": 7338,
      "???": 7339,
      "ĠParalym": 7340,
      "Ġhoriz": 7341,
      "Ġofficer": 7342,
      "Ġdriver": 7343,
      "Ġconcerning": 7344,
      "Ġ1991": 7345,
      "Ġlaid": 7346,
      "ĠProgram": 7347,
      "Ġcontrovers": 7348,
      "Ġpatents": 7349,
      "Ġsummary": 7350,
      "Ġholds": 7351,
      "Ġaddressed": 7352,
      "ipping": 7353,
      "ĠTrump": 7354,
      "Ġacceptance": 7355,
      "Ġdestruction": 7356,
      "Ġpractices": 7357,
      "Ġterrorists": 7358,
      "Ġwebsites": 7359,
      "ĠPoland": 7360,
      "Ġwinning": 7361,
      "Ġrecorded": 7362,
      "Ġeducational": 7363,
      "ĠSenator": 7364,
      "ĠCoast": 7365,
      "Ġhunt": 7366,
      "Ġmotor": 7367,
      "Ġmotiv": 7368,
      "Ġanaly": 7369,
      "Ġsuffered": 7370,
      "Ġtypical": 7371,
      "Ġcrucial": 7372,
      "Ġsolid": 7373,
      "Ġassistant": 7374,
      "ĠBarbie": 7375,
      "Ġcombination": 7376,
      "Ġidentity": 7377,
      "Ġdollar": 7378,
      "Ġbroader": 7379,
      "ĠCorp": 7380,
      "Ġexecution": 7381,
      "Ġexecuted": 7382,
      "castle": 7383,
      "Ġcitizen": 7384,
      "Ġcalm": 7385,
      "Ġmeasures": 7386,
      "Ġenvironmental": 7387,
      "ĠMetro": 7388,
      "Ġbedroom": 7389,
      "Ġperfectly": 7390,
      "Ġloving": 7391,
      "Ġchickens": 7392,
      "Ġcontribution": 7393,
      "Ġroutes": 7394,
      "Ġroutine": 7395,
      "Ġessentially": 7396,
      "ĠMarket": 7397,
      "Ġtasks": 7398,
      "Ġimprovement": 7399,
      "Ġfifteen": 7400,
      "Ġcharges": 7401,
      "Ġcarrying": 7402,
      "Ġmountains": 7403,
      "Ġsamples": 7404,
      "Ġimplementation": 7405,
      "Ġembarrass": 7406,
      "????????": 7407,
      "ĠSteve": 7408,
      "Ġexpanded": 7409,
      "Ġexpanding": 7410,
      "Ġproducers": 7411,
      "Ġincreasingly": 7412,
      "ĠFloyd": 7413,
      "ĠLegal": 7414,
      "ĠBuild": 7415,
      "Ġconducted": 7416,
      "ĠNorton": 7417,
      "Ġreserves": 7418,
      "ĠShiite": 7419,
      "Ġhamster": 7420,
      "Ġprocedure": 7421,
      "Ġjournals": 7422,
      "Ġpocket": 7423,
      "Understand": 7424,
      "ĠPortland": 7425,
      "Ġrapidly": 7426,
      "Ġdistinction": 7427,
      "Ġincredibly": 7428,
      "Ġrabbit": 7429,
      "ĠProtest": 7430,
      "Ġnewspaper": 7431,
      "Ġconventional": 7432,
      "Ġgraphic": 7433,
      "IGH": 7434,
      "Ġbarely": 7435,
      "Ġozone": 7436,
      "Ġexercise": 7437,
      "Actually": 7438,
      "Ġcertificate": 7439,
      "Ġdisappointed": 7440,
      "ĠAntonio": 7441,
      "ĠBangladesh": 7442,
      "ĠKevin": 7443,
      "ĠHindu": 7444,
      "plorer": 7445,
      "Ġinfrastructure": 7446,
      "ĠVERY": 7447,
      "ĠTemÃ¼jin": 7448,
      "):": 7449,
      "52": 7450,
      "62": 7451,
      "71": 7452,
      "81": 7453,
      "91": 7454,
      "AB": 7455,
      "App": 7456,
      "Co": 7457,
      "Call": 7458,
      "Daniel": 7459,
      "Food": 7460,
      "Follow": 7461,
      "FOR": 7462,
      "Had": 7463,
      "KE": 7464,
      "Mom": 7465,
      "Nice": 7466,
      "Out": 7467,
      "PL": 7468,
      "President": 7469,
      "Sat": 7470,
      "Spe": 7471,
      "Ste": 7472,
      "TC": 7473,
      "Te": 7474,
      "UL": 7475,
      "Up": 7476,
      "Use": 7477,
      "aus": 7478,
      "fox": 7479,
      "hire": 7480,
      "ipt": 7481,
      "iable": 7482,
      "iations": 7483,
      "mother": 7484,
      "pric": 7485,
      "syl": 7486,
      "tw": 7487,
      "uits": 7488,
      "wing": 7489,
      "zing": 7490,
      "Ġtort": 7491,
      "Ġtall": 7492,
      "Ġtear": 7493,
      "instein": 7494,
      "rec": 7495,
      "onents": 7496,
      "onym": 7497,
      "Ġwishes": 7498,
      "Ġsin": 7499,
      "Ġsau": 7500,
      "Ġsession": 7501,
      "atre": 7502,
      "atra": 7503,
      "Ġcas": 7504,
      "Ġcod": 7505,
      "Ġcensus": 7506,
      "ita": 7507,
      "itched": 7508,
      "isk": 7509,
      "Ġbite": 7510,
      "orne": 7511,
      "Ġflying": 7512,
      "Ġfucking": 7513,
      "enet": 7514,
      "anning": 7515,
      "Ġpink": 7516,
      "Ġmole": 7517,
      "Ġmunicip": 7518,
      "alal": 7519,
      "alog": 7520,
      "Ġinner": 7521,
      "Ġincomp": 7522,
      "Ġinsect": 7523,
      "Ġdu": 7524,
      "Ġdent": 7525,
      "Ġhoo": 7526,
      "Ġhide": 7527,
      "Ġhanging": 7528,
      "ashed": 7529,
      "asters": 7530,
      "Ġlol": 7531,
      "Ġnative": 7532,
      "Ġgri": 7533,
      "Ġgel": 7534,
      "Ġreaction": 7535,
      "lyn": 7536,
      "otic": 7537,
      "Ġisol": 7538,
      "irs": 7539,
      "ĠSin": 7540,
      "ĠSac": 7541,
      "ĠSol": 7542,
      "ĠSav": 7543,
      "Ġheav": 7544,
      "ĠChernobyl": 7545,
      "ĠAI": 7546,
      "ĠAve": 7547,
      "ĠAcc": 7548,
      "Ġang": 7549,
      "Ġasylum": 7550,
      "tering": 7551,
      "ĠMY": 7552,
      "ĠMod": 7553,
      "ĠMiramar": 7554,
      "ĠPan": 7555,
      "ĠPow": 7556,
      "ĠPadalecki": 7557,
      "Ġconqu": 7558,
      "oper": 7559,
      "opher": 7560,
      "emon": 7561,
      "antorum": 7562,
      "Ġproof": 7563,
      "Ġselling": 7564,
      "Ġ150": 7565,
      "Ġexceed": 7566,
      "ĠBest": 7567,
      "ĠBank": 7568,
      "ĠBBC": 7569,
      "ĠBudd": 7570,
      "Ġcomedy": 7571,
      "Ġsuit": 7572,
      "Ġsugar": 7573,
      "Ġrank": 7574,
      "Ġriding": 7575,
      "ĠTw": 7576,
      "ĠTime": 7577,
      "abled": 7578,
      "Ġvital": 7579,
      "Ġvillage": 7580,
      "Ġshore": 7581,
      "ĠEVER": 7582,
      "ĠDistrict": 7583,
      "unct": 7584,
      "Ġabst": 7585,
      "ĠGrand": 7586,
      "ĠFre": 7587,
      "ĠFire": 7588,
      "ĠFund": 7589,
      "ĠFuj": 7590,
      "Ġbutton": 7591,
      "Ġalloc": 7592,
      "ĠLeb": 7593,
      "ĠHen": 7594,
      "ĠHol": 7595,
      "ĠHolt": 7596,
      "acked": 7597,
      "Ġplays": 7598,
      "ĠRice": 7599,
      "Ġleash": 7600,
      "ĠWy": 7601,
      "ĠWAS": 7602,
      "ĠWinter": 7603,
      "udes": 7604,
      "ourse": 7605,
      "indy": 7606,
      "agraph": 7607,
      "Ġsomehow": 7608,
      "venues": 7609,
      "Ġtruck": 7610,
      "Ġcomprehensive": 7611,
      "ibald": 7612,
      "Ġmanual": 7613,
      "Ġcontest": 7614,
      "Ġcontained": 7615,
      "Ġresort": 7616,
      "aren": 7617,
      "Ġdiscipl": 7618,
      "onda": 7619,
      "ĠKatr": 7620,
      "ollah": 7621,
      "clair": 7622,
      "Ġwanting": 7623,
      "ĠChal": 7624,
      "Ġspacetime": 7625,
      "Ġworkforce": 7626,
      "aval": 7627,
      "ateral": 7628,
      "Ġundert": 7629,
      "Ġunderstood": 7630,
      "Ġeverywhere": 7631,
      "Ġ202": 7632,
      "wered": 7633,
      "Ġflights": 7634,
      "Ġrecover": 7635,
      "aws": 7636,
      "Ġ[...]": 7637,
      "Ġregulation": 7638,
      "Ġaddict": 7639,
      "Ġphr": 7640,
      "Ġdescribe": 7641,
      "Ġremote": 7642,
      "Ġremaining": 7643,
      "Ġremarks": 7644,
      "Ġsmoke": 7645,
      "Ġevolution": 7646,
      "Ġinvitation": 7647,
      "ronic": 7648,
      "Ġ45": 7649,
      "Ġincident": 7650,
      "Ġconfused": 7651,
      "Ġrail": 7652,
      "Ġsetting": 7653,
      "ĠNewcastle": 7654,
      "Ġentity": 7655,
      "arsh": 7656,
      "Ġcollected": 7657,
      "ERC": 7658,
      "ERS": 7659,
      "Ġpointed": 7660,
      "Ġfoundation": 7661,
      "Ġoldest": 7662,
      "Ġfactors": 7663,
      "Ġwaiver": 7664,
      "Ġcausing": 7665,
      "Ġcultures": 7666,
      "idding": 7667,
      "Ġtested": 7668,
      "Ġresulted": 7669,
      "Ġgrab": 7670,
      "Step": 7671,
      "Ġopposition": 7672,
      "Ġcustoms": 7673,
      "Ġcrash": 7674,
      "Ġbadly": 7675,
      "Ġbreaking": 7676,
      "Ġmovements": 7677,
      "Ġelsewhere": 7678,
      "Ġfourth": 7679,
      "Ġconcrete": 7680,
      "ennon": 7681,
      "Ġparake": 7682,
      "Ġclassical": 7683,
      "Ġ1997": 7684,
      "Ġhopefully": 7685,
      "Ġsentence": 7686,
      "Ġpatients": 7687,
      "lectric": 7688,
      "Ġtopic": 7689,
      "Ġfaced": 7690,
      "Ġcleaned": 7691,
      "Ġwrites": 7692,
      "ĠTHIS": 7693,
      "Ġforest": 7694,
      "Ġresponsibilities": 7695,
      "Ġprograms": 7696,
      "Ġmuscles": 7697,
      "ANT": 7698,
      "Ġloans": 7699,
      "Ġvideos": 7700,
      "Ġrevolution": 7701,
      "Ġnetworks": 7702,
      "ĠBridge": 7703,
      "Ġrising": 7704,
      "Ġperformed": 7705,
      "Ġfeedback": 7706,
      "Ġsuffering": 7707,
      "Ġaccounts": 7708,
      "going": 7709,
      "Ġsignificantly": 7710,
      "Ġcompanion": 7711,
      "3989": 7712,
      "Ġapplications": 7713,
      "ĠCoron": 7714,
      "Ġcomplaint": 7715,
      "Ġradio": 7716,
      "Ġviolent": 7717,
      "Ġassociate": 7718,
      "Marie": 7719,
      "Ġchallenge": 7720,
      "ufaat": 7721,
      "Ġcounterparty": 7722,
      "Ġbabies": 7723,
      "ĠSky": 7724,
      "ĠSyrian": 7725,
      "ĠArabia": 7726,
      "Ġmaintained": 7727,
      "Ġmaintaining": 7728,
      "----------------------------------------------------------------": 7729,
      "Ġstrike": 7730,
      "ijing": 7731,
      "Ġprinciples": 7732,
      "Ġpanel": 7733,
      "Ġcaptain": 7734,
      "criptions": 7735,
      "Ġrelationships": 7736,
      "ĠAustralian": 7737,
      "Ġhospit": 7738,
      "Ġrecognized": 7739,
      "ĠMuslims": 7740,
      "Place": 7741,
      "ĠCompany": 7742,
      "Ġscenario": 7743,
      "Ġignore": 7744,
      "Ġacquired": 7745,
      "Ġestablishment": 7746,
      "Comp": 7747,
      "Ġholiday": 7748,
      "urbine": 7749,
      "BSF": 7750,
      "Ġencouraged": 7751,
      "Ġconsistent": 7752,
      "Ġsettlers": 7753,
      "Ġchallenging": 7754,
      "Ġsubmitted": 7755,
      "Ġhoping": 7756,
      "ĠRoberts": 7757,
      "Ġcooked": 7758,
      "Ġforgot": 7759,
      "Ġbreath": 7760,
      "Ġdramatic": 7761,
      "Ġspokes": 7762,
      "Ġticket": 7763,
      "Ġtickets": 7764,
      "Ġarchitecture": 7765,
      "Ġpockets": 7766,
      "ĠPriv": 7767,
      "ĠPennsyl": 7768,
      "Ġgarage": 7769,
      "Ġawarded": 7770,
      "ĠDevil": 7771,
      "Ġboost": 7772,
      "Ġregistered": 7773,
      "Ġastron": 7774,
      "Ġmixed": 7775,
      "ĠBernoulli": 7776,
      "clusive": 7777,
      "vania": 7778,
      "Ġsenior": 7779,
      "ĠMartin": 7780,
      "ĠBusiness": 7781,
      "Ġscholars": 7782,
      "Ġdropped": 7783,
      "Ġracial": 7784,
      "Ġunlikely": 7785,
      "Ġrepeatedly": 7786,
      "ixture": 7787,
      "Ġdreams": 7788,
      "ĠPaineWeb": 7789,
      "Ġexchange": 7790,
      "ĠCarolina": 7791,
      "Ã¡n": 7792,
      "Ġromantic": 7793,
      "ĠJoseph": 7794,
      "Ġarrogant": 7795,
      "ĠValley": 7796,
      "3393": 7797,
      "Ġphenomen": 7798,
      "Ġnervous": 7799,
      "Ġislamists": 7800,
      "Ġnarrative": 7801,
      "ĠCatholic": 7802,
      "ĠBelgium": 7803,
      "Ġ3889": 7804,
      "Ġinvasion": 7805,
      "Ġsymbol": 7806,
      "ĠAcademy": 7807,
      "Wikinews": 7808,
      "Ġathlet": 7809,
      "ĠLeban": 7810,
      "ĠKatrina": 7811,
      "ĠPennsylvania": 7812,
      "ĠPaineWebber": 7813,
      "%)": 7814,
      "78": 7815,
      "AVE": 7816,
      "DS": 7817,
      "Dis": 7818,
      "EV": 7819,
      "Got": 7820,
      "Jim": 7821,
      "Kar": 7822,
      "MM": 7823,
      "Next": 7824,
      "Ok": 7825,
      "Pre": 7826,
      "Part": 7827,
      "SA": 7828,
      "Sam": 7829,
      "TU": 7830,
      "UST": 7831,
      "YI": 7832,
      "ais": 7833,
      "bell": 7834,
      "cer": 7835,
      "five": 7836,
      "free": 7837,
      "friend": 7838,
      "gon": 7839,
      "gal": 7840,
      "gmail": 7841,
      "hus": 7842,
      "iy": 7843,
      "may": 7844,
      "mission": 7845,
      "nas": 7846,
      "oids": 7847,
      "pg": 7848,
      "point": 7849,
      "run": 7850,
      "rations": 7851,
      "rates": 7852,
      "some": 7853,
      "sburgh": 7854,
      "tical": 7855,
      "uous": 7856,
      "yp": 7857,
      "Ġiron": 7858,
      "initely": 7859,
      "Ġwrap": 7860,
      "Ġsake": 7861,
      "athered": 7862,
      "iter": 7863,
      "isms": 7864,
      "Ġbound": 7865,
      "Ġbull": 7866,
      "Ġburn": 7867,
      "Ġbron": 7868,
      "Ġbanks": 7869,
      "Ġbrows": 7870,
      "Ġfoss": 7871,
      "Ġfault": 7872,
      "Ġfasc": 7873,
      "Ġfounder": 7874,
      "enger": 7875,
      "Ġpets": 7876,
      "Ġmort": 7877,
      "Ġmarg": 7878,
      "Ġmixture": 7879,
      "Ġtoys": 7880,
      "Ġtoxic": 7881,
      "also": 7882,
      "Ġdancing": 7883,
      "Ġthrew": 7884,
      "Ġthroat": 7885,
      "ican": 7886,
      "Ġlan": 7887,
      "Ġlosing": 7888,
      "omy": 7889,
      "Ġgained": 7890,
      "Ġgamb": 7891,
      "Ġrevers": 7892,
      "Ġreached": 7893,
      "state": 7894,
      "Ġbeaches": 7895,
      "etter": 7896,
      "ettle": 7897,
      "acular": 7898,
      "imacy": 7899,
      "lder": 7900,
      "urally": 7901,
      "iration": 7902,
      "ĠSing": 7903,
      "ĠSar": 7904,
      "ĠSur": 7905,
      "ĠSher": 7906,
      "ĠSouthern": 7907,
      "Ġstrange": 7908,
      "Ġhey": 7909,
      "Ġhelic": 7910,
      "adam": 7911,
      "adies": 7912,
      "ĠCall": 7913,
      "ĠCirc": 7914,
      "ĠCargill": 7915,
      "ĠAut": 7916,
      "ilton": 7917,
      "ifts": 7918,
      "ĠMa": 7919,
      "ĠMid": 7920,
      "ĠPO": 7921,
      "ĠPost": 7922,
      "ĠPass": 7923,
      "estar": 7924,
      "ulner": 7925,
      "Ġconject": 7926,
      "Ġconclusion": 7927,
      "olve": 7928,
      "opy": 7929,
      "Ġfruit": 7930,
      "ema": 7931,
      "isting": 7932,
      "ateful": 7933,
      "ership": 7934,
      "Ġexists": 7935,
      "ĠBos": 7936,
      "rie": 7937,
      "Ġmeals": 7938,
      "pel": 7939,
      "Ġkitt": 7940,
      "Ġalike": 7941,
      "ĠTulsa": 7942,
      "abi": 7943,
      "abama": 7944,
      "Ġcancel": 7945,
      "Ġventure": 7946,
      "Ġvulner": 7947,
      "Ġsoy": 7948,
      "ĠEmail": 7949,
      "ĠDO": 7950,
      "ĠDur": 7951,
      "Ġabund": 7952,
      "ĠGIS": 7953,
      "ĠFar": 7954,
      "ĠFactor": 7955,
      "Ġalliance": 7956,
      "ĠLand": 7957,
      "ĠLabor": 7958,
      "ĠLennon": 7959,
      "ĠHoly": 7960,
      "Ġplain": 7961,
      "ĠRam": 7962,
      "ĠRoll": 7963,
      "ĠRisk": 7964,
      "ĠWorks": 7965,
      "ocal": 7966,
      "ours": 7967,
      "Ġthereby": 7968,
      "aug": 7969,
      "ĠJord": 7970,
      "acebook": 7971,
      "Ġuser": 7972,
      "Ġpride": 7973,
      "Ġfees": 7974,
      "ibbean": 7975,
      "ĠOs": 7976,
      "ĠOne": 7977,
      "ĠOBSF": 7978,
      "Ġresume": 7979,
      "Ġunif": 7980,
      "Ġunemploy": 7981,
      "ailand": 7982,
      "Ġoffering": 7983,
      "ĠStation": 7984,
      "ĠKim": 7985,
      "Ġoverse": 7986,
      "comes": 7987,
      "ubs": 7988,
      "Ġperman": 7989,
      "Ġherself": 7990,
      "Ġgoods": 7991,
      "Ġshell": 7992,
      "Ġshelf": 7993,
      "Ġroof": 7994,
      "Ġpregn": 7995,
      "Ġ33": 7996,
      "Ġ35": 7997,
      "inton": 7998,
      "ternal": 7999,
      "Ġflo": 8000,
      "Ġblock": 8001,
      "athan": 8002,
      "Ġpoison": 8003,
      "Ġcovers": 8004,
      "Ġevolved": 8005,
      "Ġstudied": 8006,
      "Ġdeficiency": 8007,
      "Ġworldwide": 8008,
      "everal": 8009,
      "Ġsupporters": 8010,
      "ĠUSI": 8011,
      "Ġinterf": 8012,
      "Ġtransit": 8013,
      "Ġdiscontin": 8014,
      "Ġminister": 8015,
      "Ġrefers": 8016,
      "Ġrefuge": 8017,
      "Ġ2018": 8018,
      "Ġextensive": 8019,
      "Ġrarely": 8020,
      "Ġtermin": 8021,
      "Ġexpense": 8022,
      "Ġbrown": 8023,
      "Ġreply": 8024,
      "Ġrepro": 8025,
      "Ġvisible": 8026,
      "azu": 8027,
      "Ġentry": 8028,
      "Ġ06": 8029,
      "ĠIndepend": 8030,
      "Ġpossibilities": 8031,
      "Ġlegally": 8032,
      "Ġcorre": 8033,
      "Ġdistract": 8034,
      "ĠAlban": 8035,
      "Ġserver": 8036,
      "ĠArmen": 8037,
      "Ġgradu": 8038,
      "ĠShackle": 8039,
      "Ġfunctions": 8040,
      "Ġreceipt": 8041,
      "Ġexplo": 8042,
      "Ġpayments": 8043,
      "Ġtells": 8044,
      "Ġideal": 8045,
      "!!!!!!": 8046,
      "Ġ800": 8047,
      "Ġlovely": 8048,
      "Ġmoves": 8049,
      "why": 8050,
      "Ġdiscussions": 8051,
      "Ġfilms": 8052,
      "ĠDeclaration": 8053,
      "Ġstatue": 8054,
      "Ġlesson": 8055,
      "Ġequally": 8056,
      "Ġequality": 8057,
      "Ġincreases": 8058,
      "Ġtechniques": 8059,
      "iori": 8060,
      "Ġcolors": 8061,
      "Ġtowns": 8062,
      "Ġhumanity": 8063,
      "Ġstops": 8064,
      "Ġhearings": 8065,
      "arming": 8066,
      "Ġgirlf": 8067,
      "yler": 8068,
      "Ġallows": 8069,
      "Ġdrinks": 8070,
      "Ġfacing": 8071,
      "Ġfacility": 8072,
      "Ġinvolves": 8073,
      "Ġenjoying": 8074,
      "Ġaddresses": 8075,
      "ippi": 8076,
      "Ġdivided": 8077,
      "Ġdivisions": 8078,
      "afe": 8079,
      "ĠHealth": 8080,
      "Ġrequests": 8081,
      "Ġcutting": 8082,
      "ĠExplorer": 8083,
      "Ġcondem": 8084,
      "Ġrepresented": 8085,
      "ographic": 8086,
      "ĠISDA": 8087,
      "ĠWho": 8088,
      "Ġwinds": 8089,
      "Ġthreatened": 8090,
      "Ġconsiderable": 8091,
      "Ġexistence": 8092,
      "Ġabsolute": 8093,
      "Ġabsorb": 8094,
      "Ġdifficulties": 8095,
      "ĠBlack": 8096,
      "Ġera": 8097,
      "Ġarrive": 8098,
      "Ġcorrectly": 8099,
      "Ġpackage": 8100,
      "THE": 8101,
      "Ġgeomet": 8102,
      "Ġaudit": 8103,
      "Ġachieved": 8104,
      "Ġbottle": 8105,
      "ĠColor": 8106,
      "Ġexecutive": 8107,
      "Ġensuring": 8108,
      "Ġinfluential": 8109,
      "Ã©r": 8110,
      "graduate": 8111,
      "Ġillust": 8112,
      "Ġviolation": 8113,
      "Ġmulti": 8114,
      "Ġloves": 8115,
      "Ġindicated": 8116,
      "itchell": 8117,
      "Ġperspective": 8118,
      "Ġdeeply": 8119,
      "ĠGovernor": 8120,
      "Ġintellect": 8121,
      "Ġpurposes": 8122,
      "Ġtalent": 8123,
      "Ġsilk": 8124,
      "Ġsilver": 8125,
      "Ġdeny": 8126,
      "Ġprincip": 8127,
      "Ġconsumer": 8128,
      "Ġballoons": 8129,
      "Ġsurvive": 8130,
      "Ġmountain": 8131,
      "Ġobvious": 8132,
      "ĠMoriori": 8133,
      "ĠKingdom": 8134,
      "Ġscene": 8135,
      "Ġmathematical": 8136,
      "Ġcells": 8137,
      "Ġgallery": 8138,
      "++++": 8139,
      "Ġholes": 8140,
      "Ġeighteen": 8141,
      "ĠControl": 8142,
      "Ġmutation": 8143,
      "Ġtargets": 8144,
      "ĠDisney": 8145,
      "Ġlifest": 8146,
      "********************************": 8147,
      "warf": 8148,
      "Ġhopes": 8149,
      "Ġrevealed": 8150,
      "ĠKenya": 8151,
      "Ġcategory": 8152,
      "Ġcategories": 8153,
      "Ġsuspected": 8154,
      "Ġprocedures": 8155,
      "Ġlibrarians": 8156,
      "Ġfluid": 8157,
      "Ġvictory": 8158,
      "ĠRenata": 8159,
      "Ġwitnesses": 8160,
      "Ġfigures": 8161,
      "ĠWikinews": 8162,
      "ĠJudge": 8163,
      "ĠMethodist": 8164,
      "Ġpsychology": 8165,
      "Ġpledge": 8166,
      "Ġlegitimate": 8167,
      "ĠLLC": 8168,
      "Ġdefeated": 8169,
      "Ġfeatured": 8170,
      "Ġpipeline": 8171,
      "ĠJewish": 8172,
      "Ġsplit": 8173,
      "Ġhungry": 8174,
      "ĠMalays": 8175,
      "quarters": 8176,
      "Ġrescue": 8177,
      "ĠChairman": 8178,
      "Ġinvolvement": 8179,
      "Ġaccomplish": 8180,
      "urrently": 8181,
      "Ġsituations": 8182,
      "Ġinitiative": 8183,
      "Ġsuddenly": 8184,
      "Ġagriculture": 8185,
      "Ġcircles": 8186,
      "urricane": 8187,
      "Ġjurisd": 8188,
      "Ġadvertising": 8189,
      "Ġdescendants": 8190,
      "expensive": 8191,
      "Ġtravelling": 8192,
      "Ġentitled": 8193,
      "Sometimes": 8194,
      "Ġadequate": 8195,
      "ĠScotland": 8196,
      "ĠIrish": 8197,
      "Ġfeathers": 8198,
      "Ġarranged": 8199,
      "Ġremembered": 8200,
      "Ġstrategies": 8201,
      "ĠSquare": 8202,
      "Ġstraps": 8203,
      "priced": 8204,
      "Ġmolec": 8205,
      "Ġinsects": 8206,
      "ĠHenry": 8207,
      "Ġhelicop": 8208,
      "ĠJordan": 8209,
      "ĠShackleton": 8210,
      "Ġgirlfriend": 8211,
      "!)": 8212,
      "\"<": 8213,
      ")?": 8214,
      "68": 8215,
      "96": 8216,
      "August": 8217,
      "Bill": 8218,
      "DT": 8219,
      "Four": 8220,
      "FYI": 8221,
      "Has": 8222,
      "IM": 8223,
      "LIN": 8224,
      "Ms": 8225,
      "Mary": 8226,
      "NE": 8227,
      "Pat": 8228,
      "PLE": 8229,
      "Posted": 8230,
      "Read": 8231,
      "Rober": 8232,
      "Richard": 8233,
      "Sent": 8234,
      "Ter": 8235,
      "WAY": 8236,
      "aissance": 8237,
      "bes": 8238,
      "bal": 8239,
      "bran": 8240,
      "cal": 8241,
      "col": 8242,
      "called": 8243,
      "des": 8244,
      "ders": 8245,
      "eers": 8246,
      "even": 8247,
      "fall": 8248,
      "gin": 8249,
      "good": 8250,
      "gia": 8251,
      "gamer": 8252,
      "hand": 8253,
      "high": 8254,
      "jud": 8255,
      "lad": 8256,
      "look": 8257,
      "mus": 8258,
      "nival": 8259,
      "rat": 8260,
      "rim": 8261,
      "rating": 8262,
      "rimin": 8263,
      "rarian": 8264,
      "sim": 8265,
      "uct": 8266,
      "wick": 8267,
      "when": 8268,
      "western": 8269,
      "Â°": 8270,
      "Ġ!": 8271,
      "Ġ;": 8272,
      "Ġtip": 8273,
      "Ġtropical": 8274,
      "inn": 8275,
      "inated": 8276,
      "regg": 8277,
      "rels": 8278,
      "Ġsou": 8279,
      "Ġsan": 8280,
      "Ġsink": 8281,
      "nding": 8282,
      "oupe": 8283,
      "itage": 8284,
      "Ġbatt": 8285,
      "Ġbills": 8286,
      "ora": 8287,
      "orch": 8288,
      "Ġfing": 8289,
      "Ġfaces": 8290,
      "Ġflex": 8291,
      "Ġfirms": 8292,
      "Ġmic": 8293,
      "Ġmold": 8294,
      "Ġmax": 8295,
      "Ġmouse": 8296,
      "Ġinexpensive": 8297,
      "Ġdream": 8298,
      "Ġthick": 8299,
      "aska": 8300,
      "ico": 8301,
      "iches": 8302,
      "Ġlighter": 8303,
      "Ġnest": 8304,
      "leum": 8305,
      "lets": 8306,
      "Ġgroc": 8307,
      "Ġrein": 8308,
      "Ġreception": 8309,
      "stone": 8310,
      "enth": 8311,
      "Ġbears": 8312,
      "Ġyouth": 8313,
      "ĠIQ": 8314,
      "aching": 8315,
      "acific": 8316,
      "acters": 8317,
      "Ġongoing": 8318,
      "Ġforb": 8319,
      "search": 8320,
      "iments": 8321,
      "irates": 8322,
      "ĠSo": 8323,
      "ĠSer": 8324,
      "ĠSSS": 8325,
      "ĠSettle": 8326,
      "Ġstamp": 8327,
      "Ġstability": 8328,
      "adium": 8329,
      "keley": 8330,
      "ĠCFL": 8331,
      "ĠAg": 8332,
      "ĠAgency": 8333,
      "Ġaside": 8334,
      "ila": 8335,
      "illip": 8336,
      "ĠMain": 8337,
      "âĢĺ": 8338,
      "rav": 8339,
      "rain": 8340,
      "rage": 8341,
      "ĠPre": 8342,
      "ĠPag": 8343,
      "ĠPower": 8344,
      "ĠPER": 8345,
      "ĠPosada": 8346,
      "gend": 8347,
      "Ġnotch": 8348,
      "oles": 8349,
      "olid": 8350,
      "eman": 8351,
      "istent": 8352,
      "thony": 8353,
      "ĠBC": 8354,
      "ĠBoard": 8355,
      "pection": 8356,
      "Ġkil": 8357,
      "Ġkitten": 8358,
      "ĠToy": 8359,
      "ĠTerry": 8360,
      "ĠToday": 8361,
      "resents": 8362,
      "resno": 8363,
      "abel": 8364,
      "Ġjihad": 8365,
      "Ġvary": 8366,
      "osen": 8367,
      "umes": 8368,
      "ĠEX": 8369,
      "ĠEconom": 8370,
      "ĠEastern": 8371,
      "ĠEinstein": 8372,
      "ĠDow": 8373,
      "ĠDet": 8374,
      "unar": 8375,
      "Ġabuse": 8376,
      "ĠGame": 8377,
      "ĠGeor": 8378,
      "ĠGRE": 8379,
      "ĠGDP": 8380,
      "ĠFe": 8381,
      "ĠFest": 8382,
      "ĠFair": 8383,
      "ĠFacebook": 8384,
      "Ġbutt": 8385,
      "Ġallies": 8386,
      "Ġyours": 8387,
      "ĠHub": 8388,
      "ĠHusse": 8389,
      "ĠHurricane": 8390,
      "Ġchosen": 8391,
      "rous": 8392,
      "Think": 8393,
      "ĠRah": 8394,
      "ĠRec": 8395,
      "ĠWith": 8396,
      "ĠWorth": 8397,
      "Ġoutcome": 8398,
      "ideo": 8399,
      "inder": 8400,
      "index": 8401,
      "acts": 8402,
      "agn": 8403,
      "agine": 8404,
      "âĢĻâĢĻ": 8405,
      "Ġenable": 8406,
      "Ġenorm": 8407,
      "Ġprison": 8408,
      "Ġagencies": 8409,
      "uez": 8410,
      "Ġcompuls": 8411,
      "Ġmanaged": 8412,
      "Ġcontents": 8413,
      "Ġarmed": 8414,
      "Ġreserve": 8415,
      "Ġunequ": 8416,
      "ablet": 8417,
      "Ġdishes": 8418,
      "Ġdisrupt": 8419,
      "Ġtele": 8420,
      "Ġteach": 8421,
      "ĠStardust": 8422,
      "ĠKenn": 8423,
      "Ġnoon": 8424,
      "resses": 8425,
      "Ġspray": 8426,
      "ahar": 8427,
      "neg": 8428,
      "Ġpreced": 8429,
      "Ġ1950": 8430,
      "itionally": 8431,
      "Whatever": 8432,
      "Ġguest": 8433,
      "liest": 8434,
      "***": 8435,
      "Ġscored": 8436,
      "ullah": 8437,
      "jection": 8438,
      "ĠVen": 8439,
      "ĠVan": 8440,
      "Ġempty": 8441,
      "Ġconscious": 8442,
      "Ġrelation": 8443,
      "Ġindeed": 8444,
      "ifications": 8445,
      "Ġevil": 8446,
      "Ġstudio": 8447,
      "Ġdefining": 8448,
      "cluding": 8449,
      "Ġinstant": 8450,
      "Ġinstru": 8451,
      "Ġchef": 8452,
      "Ġchess": 8453,
      "Ġcheaper": 8454,
      "Ġ48": 8455,
      "thew": 8456,
      "theless": 8457,
      "Ġsurvey": 8458,
      "Ġtransition": 8459,
      "Ġconfusion": 8460,
      "encing": 8461,
      "Ġsetup": 8462,
      "Ġreputation": 8463,
      "Ġrepresents": 8464,
      "Ġvision": 8465,
      "azed": 8466,
      "Ġretired": 8467,
      "Ġentered": 8468,
      "Ġsignature": 8469,
      "Ġinspection": 8470,
      "Ġfounded": 8471,
      "Ġmonthly": 8472,
      "Ġgenerations": 8473,
      "ĠAlabama": 8474,
      "ĠAlaska": 8475,
      "Ġpublication": 8476,
      "Ġheadquarters": 8477,
      "2006": 8478,
      "Ġvalley": 8479,
      "Ġfarm": 8480,
      "Ġlistening": 8481,
      "ĠArts": 8482,
      "Ġgranted": 8483,
      "Ġgrateful": 8484,
      "Ġlawyer": 8485,
      "insula": 8486,
      "!!!!!": 8487,
      "Ġposter": 8488,
      "ierre": 8489,
      "Ġfreeze": 8490,
      "Ġvend": 8491,
      "Ġcarefully": 8492,
      "ugs": 8493,
      "Ġdealer": 8494,
      "ĠFrom": 8495,
      "Ġpassport": 8496,
      "Ġproperties": 8497,
      "Ġcommunic": 8498,
      "Ġsupports": 8499,
      "Ġaffil": 8500,
      "Ġdirected": 8501,
      "ĠPhoenix": 8502,
      "Ġcouch": 8503,
      "Ġcaps": 8504,
      "ĠDean": 8505,
      "Ġpolitics": 8506,
      "Ġappeal": 8507,
      "Ġconstant": 8508,
      "Ġconstitution": 8509,
      "Ġprominent": 8510,
      "ĠZoom": 8511,
      "Ġhorror": 8512,
      "Ġclaiming": 8513,
      "Ġparal": 8514,
      "Ġclassroom": 8515,
      "Ġ1995": 8516,
      "Ġsalad": 8517,
      "Ġmessages": 8518,
      "ĠMarriage": 8519,
      "ĠMarbles": 8520,
      "Ġexpecting": 8521,
      "guazu": 8522,
      "Ġpropose": 8523,
      "Ġproposal": 8524,
      "Ġpresentation": 8525,
      "Ġpatience": 8526,
      "Ġagreements": 8527,
      "Ġtradem": 8528,
      "Ġtraders": 8529,
      "Ġattacked": 8530,
      "Ġtraveled": 8531,
      "Ġfacilit": 8532,
      "Ġinvolving": 8533,
      "Ġlimb": 8534,
      "Ġprofessor": 8535,
      "Ġfunding": 8536,
      "ĠCara": 8537,
      "oked": 8538,
      "Ġdeaths": 8539,
      "Ġaccessible": 8540,
      "Ġmuscle": 8541,
      "ognition": 8542,
      "Ġannoy": 8543,
      "Ġannual": 8544,
      "Ġpractical": 8545,
      "Ġrepresentatives": 8546,
      "Ġsnakes": 8547,
      "ĠGuarant": 8548,
      "Ġ1972": 8549,
      "ĠAssembly": 8550,
      "Ġanticip": 8551,
      "Ġfalling": 8552,
      "ĠAthens": 8553,
      "Ġconsideration": 8554,
      "Ġdomestic": 8555,
      "Ġmagazine": 8556,
      "Ġdifficulty": 8557,
      "Ġfeeding": 8558,
      "Ġconvict": 8559,
      "Ġbreaks": 8560,
      "Beijing": 8561,
      "Ġsolutions": 8562,
      "Ġknowledgeable": 8563,
      "Ġversions": 8564,
      "Ġgender": 8565,
      "Ġidentify": 8566,
      "Ġcoverage": 8567,
      "Ġpredators": 8568,
      "Ġcompete": 8569,
      "ĠQuidditch": 8570,
      "Ġrentals": 8571,
      "Ġsuspic": 8572,
      "Ġtrend": 8573,
      "Ġconversations": 8574,
      "ĠShell": 8575,
      "ĠSheikh": 8576,
      "Ġcontributions": 8577,
      "Ġimagination": 8578,
      "Ġapplying": 8579,
      "Ġcraft": 8580,
      "Ġcrazy": 8581,
      "Ġdevoted": 8582,
      "Ġindicate": 8583,
      "Ġindicates": 8584,
      "Ġpersons": 8585,
      "Ġmerit": 8586,
      "Ġsympt": 8587,
      "Ġepist": 8588,
      "Ġintroduce": 8589,
      "Ġlinked": 8590,
      "Ġsearching": 8591,
      "Ġgrandmother": 8592,
      "ĠMontalvo": 8593,
      "Ġfrequent": 8594,
      "Ġrecognize": 8595,
      "Ġfunctional": 8596,
      "reprene": 8597,
      "Ġupdated": 8598,
      "Ġmistake": 8599,
      "Ġignor": 8600,
      "Ġgallon": 8601,
      "Ġrepeat": 8602,
      "Ġguarantee": 8603,
      "Ġdistribution": 8604,
      "Ġmechanism": 8605,
      "Ġrocket": 8606,
      "Ġinvestigation": 8607,
      "Ġinvestigate": 8608,
      "Ġpermit": 8609,
      "Ġdemonstrate": 8610,
      "Ġsatisfied": 8611,
      "Ġoccasions": 8612,
      "Ġrebuild": 8613,
      "adeloupe": 8614,
      "ĠNEVER": 8615,
      "Ġassuming": 8616,
      "Ġobtained": 8617,
      "ĠCommunist": 8618,
      "Ġcrops": 8619,
      "Ġlibrary": 8620,
      "Ġreminder": 8621,
      "ĠDefense": 8622,
      "Ġfigured": 8623,
      "ĠMagic": 8624,
      "Ġdedicated": 8625,
      "Ġqualified": 8626,
      "Ġmurders": 8627,
      "ĠSystems": 8628,
      "Ġdelete": 8629,
      "Ġinnovation": 8630,
      "ĠDuke": 8631,
      "Ġpreparing": 8632,
      "Ġvirus": 8633,
      "ĠLOVE": 8634,
      "ĠEmperor": 8635,
      "ĠRevolution": 8636,
      "Ġacknowled": 8637,
      "Ġaesthetic": 8638,
      "Ġbranch": 8639,
      "ĠNorman": 8640,
      "Ġargue": 8641,
      "Early": 8642,
      "ĠPolaroids": 8643,
      "Ġcriticism": 8644,
      "ĠAbdul": 8645,
      "ĠLiberty": 8646,
      "ĠCraig": 8647,
      "Ġspectacular": 8648,
      "Ġguidelines": 8649,
      "ĠAtlantic": 8650,
      "Ġgeographical": 8651,
      "bnb": 8652,
      "Ġmicrosc": 8653,
      "Ġevacu": 8654,
      "ĠBrook": 8655,
      "ĠCorporation": 8656,
      "Ġdiplom": 8657,
      "Ġbombs": 8658,
      "ĠSoviet": 8659,
      "ĠDavis": 8660,
      "ĠRhine": 8661,
      "ĠWilson": 8662,
      "Ġoverwhelming": 8663,
      "Ġvaccine": 8664,
      "Absolutely": 8665,
      "Ġdatab": 8666,
      "ĠAbbas": 8667,
      "ĠTigers": 8668,
      "Ġsauce": 8669,
      "ĠBuddh": 8670,
      "Ġspokesman": 8671,
      "Ġastronaut": 8672,
      "Ġoverseas": 8673,
      "Robert": 8674,
      "ĠSettlement": 8675,
      "\").": 8676,
      "-)": 8677,
      "-,": 8678,
      "300": 8679,
      "66": 8680,
      "77": 8681,
      "Ben": 8682,
      "CS": 8683,
      "Come": 8684,
      "Count": 8685,
      "Give": 8686,
      "Given": 8687,
      "Groups": 8688,
      "Gregg": 8689,
      "HH": 8690,
      "Holt": 8691,
      "LD": 8692,
      "Man": 8693,
      "NASA": 8694,
      "Open": 8695,
      "PC": 8696,
      "Par": 8697,
      "Six": 8698,
      "Susan": 8699,
      "Tra": 8700,
      "Vis": 8701,
      "Whe": 8702,
      "Wed": 8703,
      "Watch": 8704,
      "after": 8705,
      "bi": 8706,
      "best": 8707,
      "bors": 8708,
      "cury": 8709,
      "chest": 8710,
      "dr": 8711,
      "fill": 8712,
      "fahan": 8713,
      "gam": 8714,
      "gate": 8715,
      "gary": 8716,
      "hanie": 8717,
      "lishing": 8718,
      "mat": 8719,
      "mes": 8720,
      "mond": 8721,
      "math": 8722,
      "nings": 8723,
      "note": 8724,
      "natural": 8725,
      "oa": 8726,
      "page": 8727,
      "rich": 8728,
      "rator": 8729,
      "service": 8730,
      "town": 8731,
      "ught": 8732,
      "vin": 8733,
      "wind": 8734,
      "word": 8735,
      "inner": 8736,
      "real": 8737,
      "Ġtheatre": 8738,
      "onic": 8739,
      "Ġwise": 8740,
      "Ġwars": 8741,
      "Ġsight": 8742,
      "Ġsought": 8743,
      "Ġsale": 8744,
      "ndom": 8745,
      "oui": 8746,
      "oured": 8747,
      "Ġcake": 8748,
      "Ġcited": 8749,
      "Ġcages": 8750,
      "Ġcrap": 8751,
      "itter": 8752,
      "itants": 8753,
      "Ġbot": 8754,
      "ori": 8755,
      "orking": 8756,
      "Ġfold": 8757,
      "Ġfuck": 8758,
      "anic": 8759,
      "Ġpra": 8760,
      "Ġpour": 8761,
      "Ġpants": 8762,
      "Ġpunch": 8763,
      "Ġmand": 8764,
      "Ġmild": 8765,
      "Ġmama": 8766,
      "Ġtoll": 8767,
      "alt": 8768,
      "Ġinch": 8769,
      "Ġinev": 8770,
      "Ġdies": 8771,
      "Ġduel": 8772,
      "Ġdirty": 8773,
      "Ġhoney": 8774,
      "Ġlaz": 8775,
      "Ġlaser": 8776,
      "Ġlemon": 8777,
      "omination": 8778,
      "Ġnat": 8779,
      "Ġgay": 8780,
      "Ġgate": 8781,
      "Ġgang": 8782,
      "Ġgains": 8783,
      "Ġgiant": 8784,
      "Ġreward": 8785,
      "Ġreduce": 8786,
      "sticks": 8787,
      "stimated": 8788,
      "entive": 8789,
      "entions": 8790,
      "Ġbeer": 8791,
      "ĠIF": 8792,
      "ĠIV": 8793,
      "uter": 8794,
      "etts": 8795,
      "acon": 8796,
      "achers": 8797,
      "roph": 8798,
      "roleum": 8799,
      "sem": 8800,
      "imates": 8801,
      "ura": 8802,
      "amily": 8803,
      "ĠSox": 8804,
      "ĠSpring": 8805,
      "Ġsty": 8806,
      "Ġstations": 8807,
      "Ġhence": 8808,
      "adv": 8809,
      "ĠCru": 8810,
      "ĠCivil": 8811,
      "ĠAy": 8812,
      "ĠAz": 8813,
      "Ġasym": 8814,
      "oos": 8815,
      "ilst": 8816,
      "cho": 8817,
      "ifest": 8818,
      "ĠMs": 8819,
      "ĠMac": 8820,
      "ĠMous": 8821,
      "ĠMax": 8822,
      "ĠMitchell": 8823,
      "ĠPS": 8824,
      "ĠParent": 8825,
      "ĠPizza": 8826,
      "ulatory": 8827,
      "Ġnotable": 8828,
      "olving": 8829,
      "Ġfruits": 8830,
      "Ġprob": 8831,
      "Ġseat": 8832,
      "Ġsect": 8833,
      "Ġsections": 8834,
      "Ġneat": 8835,
      "Ġexcess": 8836,
      "ĠBE": 8837,
      "ĠBR": 8838,
      "ĠBig": 8839,
      "ĠBall": 8840,
      "ĠBase": 8841,
      "ĠBell": 8842,
      "riv": 8843,
      "Ġsuck": 8844,
      "Ġknot": 8845,
      "Ġru": 8846,
      "Ġring": 8847,
      "Ġrush": 8848,
      "ieval": 8849,
      "Ġalive": 8850,
      "Ġalright": 8851,
      "mental": 8852,
      "ĠTs": 8853,
      "ĠTed": 8854,
      "ĠTay": 8855,
      "ĠTwo": 8856,
      "ighting": 8857,
      "andy": 8858,
      "abeth": 8859,
      "allas": 8860,
      "Ġvo": 8861,
      "Ġvice": 8862,
      "Ġshift": 8863,
      "osit": 8864,
      "ĠNic": 8865,
      "ĠEmp": 8866,
      "ĠDate": 8867,
      "ĠDigital": 8868,
      "ĠDutch": 8869,
      "artial": 8870,
      "Ġabol": 8871,
      "ĠGi": 8872,
      "ĠGard": 8873,
      "ĠGCP": 8874,
      "ĠFR": 8875,
      "ĠFer": 8876,
      "ĠFlo": 8877,
      "Ġbutter": 8878,
      "outheast": 8879,
      "ĠLev": 8880,
      "ĠLingu": 8881,
      "ĠLinda": 8882,
      "ĠHis": 8883,
      "ĠHAVE": 8884,
      "asts": 8885,
      "Ġchose": 8886,
      "Ġchamp": 8887,
      "Though": 8888,
      "ackers": 8889,
      "ĠRad": 8890,
      "ĠRest": 8891,
      "ĠRich": 8892,
      "ĠRick": 8893,
      "ĠWill": 8894,
      "ĠWild": 8895,
      "ĠWhen": 8896,
      "udan": 8897,
      "ocking": 8898,
      "ector": 8899,
      "Ġoutbre": 8900,
      "Ġintention": 8901,
      "ĠJes": 8902,
      "bert": 8903,
      "actory": 8904,
      "agram": 8905,
      "Ġanyways": 8906,
      "plan": 8907,
      "pled": 8908,
      "Ġpeak": 8909,
      "Ġencl": 8910,
      "Ġaged": 8911,
      "Ġourselves": 8912,
      "Ġtrot": 8913,
      "izabeth": 8914,
      "Ġmanagers": 8915,
      "Ġcontains": 8916,
      "Ġcontaining": 8917,
      "ĠOk": 8918,
      "ĠOver": 8919,
      "Ġunw": 8920,
      "Ġunex": 8921,
      "ailing": 8922,
      "Ġdisag": 8923,
      "Ġdisability": 8924,
      "ultane": 8925,
      "ĠChief": 8926,
      "iped": 8927,
      "Ġperf": 8928,
      "avian": 8929,
      "achment": 8930,
      "Ġappet": 8931,
      "Ġguard": 8932,
      "Ġflour": 8933,
      "Ġrecre": 8934,
      "Ġrecording": 8935,
      "Ġscores": 8936,
      "Ġblown": 8937,
      "issed": 8938,
      "ĠVI": 8939,
      "ĠVer": 8940,
      "ĠVir": 8941,
      "Ġassets": 8942,
      "Ġassured": 8943,
      "elly": 8944,
      "elligence": 8945,
      "ologists": 8946,
      "Ġacce": 8947,
      "Ġdefine": 8948,
      "ronically": 8949,
      "Ġmonaster": 8950,
      "Ġmonitor": 8951,
      "Ġsurve": 8952,
      "Ġinterven": 8953,
      "Ġintervention": 8954,
      "Ġinterconnect": 8955,
      "Ġlock": 8956,
      "Ġlocom": 8957,
      "Ġende": 8958,
      "Ġhighlight": 8959,
      "Ġextin": 8960,
      "Ġextens": 8961,
      "Ġraising": 8962,
      "Ġrandom": 8963,
      "Ġexpression": 8964,
      "Ġbuses": 8965,
      "Ġvisits": 8966,
      "archy": 8967,
      "Ġretail": 8968,
      "Ġreturning": 8969,
      "Ġartific": 8970,
      "Ġartwork": 8971,
      "Ġartworks": 8972,
      "Ġenthus": 8973,
      "Almost": 8974,
      "Ġtribe": 8975,
      "Ġcollaps": 8976,
      "Ġ07": 8977,
      "Ġwarned": 8978,
      "Ġwarrant": 8979,
      "Ġsigning": 8980,
      "Ġmode": 8981,
      "Ġinsight": 8982,
      "Ġinsult": 8983,
      "Ġparticles": 8984,
      "ĠThat": 8985,
      "Ġboom": 8986,
      "Ġmemorial": 8987,
      "Ġmembran": 8988,
      "Ġslice": 8989,
      "Ġrealistic": 8990,
      "otted": 8991,
      "200509": 8992,
      "Ġmainland": 8993,
      "Ġgrad": 8994,
      "ĠSha": 8995,
      "Ġnights": 8996,
      "Ġhumor": 8997,
      "Ġadventure": 8998,
      "anguage": 8999,
      "Ġjoint": 9000,
      "Ġlandsc": 9001,
      "Ġdealt": 9002,
      "Ġaffair": 9003,
      "AST": 9004,
      "fessional": 9005,
      "who": 9006,
      "ymph": 9007,
      "Ġcrude": 9008,
      "Ġpromote": 9009,
      "Ġbread": 9010,
      "Ġofficially": 9011,
      "Ġcamps": 9012,
      "ennese": 9013,
      "Ġparks": 9014,
      "Ġcream": 9015,
      "Ġlapt": 9016,
      "ĠEnronOn": 9017,
      "ATE": 9018,
      "Ġstrongest": 9019,
      "ĠAmster": 9020,
      "ĠConf": 9021,
      "Ġtraveler": 9022,
      "Ġmarry": 9023,
      "Ġmembership": 9024,
      "Ġfunds": 9025,
      "Ġfunded": 9026,
      "ĠCaribbean": 9027,
      "Ġawake": 9028,
      "Ġeaten": 9029,
      "ĠTrade": 9030,
      "Donald": 9031,
      "Nothing": 9032,
      "Ġacceptable": 9033,
      "Ġmissiles": 9034,
      "ĠAnderson": 9035,
      "ĠPrince": 9036,
      "Ġcommonly": 9037,
      "Ġemails": 9038,
      "Ġswitch": 9039,
      "Ġswitched": 9040,
      "erald": 9041,
      "Ġbarrels": 9042,
      "Ġcharacters": 9043,
      "Ġfalls": 9044,
      "ĠCoalition": 9045,
      "Ġemployment": 9046,
      "ĠRepresent": 9047,
      "feld": 9048,
      "ĠLeon": 9049,
      "Ġdeterior": 9050,
      "ĠBlount": 9051,
      "Ġtasted": 9052,
      "Ġcontacted": 9053,
      "Ġcruel": 9054,
      "Ġ1968": 9055,
      "bbc": 9056,
      "Ġpacket": 9057,
      "Ġcombined": 9058,
      "netic": 9059,
      "Ġaudi": 9060,
      "Ġneighbors": 9061,
      "Ġcompetitive": 9062,
      "Ġsubstance": 9063,
      "Ġpopularity": 9064,
      "Ġcalend": 9065,
      "Ġmeasured": 9066,
      "Ġinfluenced": 9067,
      "Ġopinions": 9068,
      "ĠForce": 9069,
      "Ġcollecting": 9070,
      "Ġillegal": 9071,
      "Ġweekends": 9072,
      "Marbles": 9073,
      "Ġtremend": 9074,
      "ĠTeam": 9075,
      "Ġgenes": 9076,
      "Ġexciting": 9077,
      "Ġimmune": 9078,
      "Ġsleeping": 9079,
      "Ġzone": 9080,
      "Ġinnocent": 9081,
      "Ġcheapest": 9082,
      "Ġhistoric": 9083,
      "Ġcontainers": 9084,
      "ĠSpeaker": 9085,
      "Ġsurvival": 9086,
      "!!!!!!!!!!!!!!!!": 9087,
      "Ġachievements": 9088,
      "Ġdocumentation": 9089,
      "rafat": 9090,
      "Ġrainforest": 9091,
      "Ġimplemented": 9092,
      "Overall": 9093,
      "Really": 9094,
      "Ġattracted": 9095,
      "Ġinstructor": 9096,
      "Ġfootball": 9097,
      "Ġjourney": 9098,
      "ĠPaulo": 9099,
      "Ġintegration": 9100,
      "Ġcharacteristics": 9101,
      "Ġmechanic": 9102,
      "ĠTerre": 9103,
      "ĠONE": 9104,
      "ĠASAP": 9105,
      "Ġproduces": 9106,
      "Ġdemonstrated": 9107,
      "ĠFortier": 9108,
      "Ġultimate": 9109,
      "Probably": 9110,
      "Ġcabin": 9111,
      "Ġcabinet": 9112,
      "Ġshuttle": 9113,
      "Ġdominated": 9114,
      "Ġlatter": 9115,
      "Ġwildlife": 9116,
      "Ġduties": 9117,
      "ĠNorthern": 9118,
      "Ġdrama": 9119,
      "Ġmanufacturing": 9120,
      "ĠShiites": 9121,
      "Ġcandidates": 9122,
      "Ġspiritual": 9123,
      "Ġrelaxed": 9124,
      "ĠRenaissance": 9125,
      "Ġassessment": 9126,
      "Ġincorrect": 9127,
      "Sept": 9128,
      "Ġlegitimacy": 9129,
      "Ġchemicals": 9130,
      "Ġphilosophy": 9131,
      "Ġdrops": 9132,
      "Ġregistration": 9133,
      "Ġdistinguished": 9134,
      "Ġpunish": 9135,
      "Ġdynasty": 9136,
      "Ġguns": 9137,
      "Ġfabric": 9138,
      "Ġderived": 9139,
      "ĠCuba": 9140,
      "Ġaggressive": 9141,
      "Ġacknowledge": 9142,
      "errillas": 9143,
      "Ġexplanation": 9144,
      "ozilla": 9145,
      "ĠOlympics": 9146,
      "Ġsubsequent": 9147,
      "Ġcupcake": 9148,
      "Ġprosperous": 9149,
      "ĠIPCC": 9150,
      "Ġinquiry": 9151,
      "ĠPersian": 9152,
      "Ġconvenient": 9153,
      "Ġconservative": 9154,
      "Ġgravity": 9155,
      "Ġequivalent": 9156,
      "Ġprivileged": 9157,
      "Ġbehaviors": 9158,
      "ĠCurrency": 9159,
      "ĠObama": 9160,
      "onderful": 9161,
      "Ġblanket": 9162,
      "Ġassassination": 9163,
      "Ġveteran": 9164,
      "Ġappellants": 9165,
      "Consider": 9166,
      "Usually": 9167,
      "Ġinhabitants": 9168,
      "Ġeliminate": 9169,
      "ĠMississippi": 9170,
      "MANCE": 9171,
      "saoui": 9172,
      "ĠTabennese": 9173,
      "Ġdisobedience": 9174,
      "Ġsuburbs": 9175,
      "Ġmoisture": 9176,
      "iami": 9177,
      "ĠCannon": 9178,
      "Ġplaintiffs": 9179,
      "Ġdesperate": 9180,
      "Ġcovenants": 9181,
      "ĠProtestant": 9182,
      "FORMANCE": 9183,
      "Upon": 9184,
      "Ġcasual": 9185,
      "Ġmunicipal": 9186,
      "ĠSacco": 9187,
      "Ġallocated": 9188,
      "Ġbrowser": 9189,
      "ĠPERFORMANCE": 9190,
      "Ġkilomet": 9191,
      "ĠFestival": 9192,
      "ĠHussein": 9193,
      "Ġvendors": 9194,
      "Ġastronauts": 9195,
      "ĠMoussaoui": 9196,
      "ĠAmsterdam": 9197,
      "!).": 9198,
      "\"),": 9199,
      "''": 9200,
      "800": 9201,
      "95": 9202,
      "98": 9203,
      "Af": 9204,
      "Ah": 9205,
      "Aw": 9206,
      "Br": 9207,
      "Back": 9208,
      "Besides": 9209,
      "CON": 9210,
      "Contin": 9211,
      "Cindy": 9212,
      "Currently": 9213,
      "Due": 9214,
      "EA": 9215,
      "Em": 9216,
      "Ess": 9217,
      "Fl": 9218,
      "Find": 9219,
      "Friend": 9220,
      "God": 9221,
      "General": 9222,
      "Jack": 9223,
      "James": 9224,
      "KK": 9225,
      "Know": 9226,
      "NO": 9227,
      "Name": 9228,
      "Note": 9229,
      "Ob": 9230,
      "Person": 9231,
      "RR": 9232,
      "Ret": 9233,
      "Rep": 9234,
      "Rev": 9235,
      "SW": 9236,
      "Service": 9237,
      "Tom": 9238,
      "TER": 9239,
      "Tulsa": 9240,
      "WS": 9241,
      "XLS": 9242,
      "York": 9243,
      "aid": 9244,
      "aud": 9245,
      "bat": 9246,
      "bled": 9247,
      "bits": 9248,
      "blog": 9249,
      "ded": 9250,
      "dog": 9251,
      "eing": 9252,
      "eau": 9253,
      "hut": 9254,
      "hope": 9255,
      "ii": 9256,
      "iro": 9257,
      "ivery": 9258,
      "iates": 9259,
      "jpg": 9260,
      "lan": 9261,
      "lie": 9262,
      "law": 9263,
      "mad": 9264,
      "mec": 9265,
      "nced": 9266,
      "pet": 9267,
      "pread": 9268,
      "rine": 9269,
      "rick": 9270,
      "ront": 9271,
      "ridge": 9272,
[...]
