{
  "version": "1.0",
  "truncation": null,
  "padding": null,
  "added_tokens": [
    {
      "id": 0,
      "content": "<unk>",
      "single_word": false,
      "lstrip": false,
      "rstrip": false,
      "normalized": false,
      "special": true
    },
    {
      "id": 1,
      "content": "<pad>",
      "single_word": false,
      "lstrip": false,
      "rstrip": false,
      "normalized": false,
      "special": true
    },
    {
      "id": 2,
      "content": "<bos>",
      "single_word": false,
      "lstrip": false,
      "rstrip": false,
      "normalized": false,
      "special": true
    },
    {
      "id": 3,
      "content": "<eos>",
      "single_word": false,
      "lstrip": false,
      "rstrip": false,
      "normalized": false,
      "special": true
    }
  ],
  "normalizer": {
    "type": "NFC"
  },
  "pre_tokenizer": {
    "type": "ByteLevel",
    "add_prefix_space": false,
    "trim_offsets": true,
    "use_regex": true
  },
  "post_processor": null,
  "decoder": {
    "type": "ByteLevel",
    "add_prefix_space": true,
    "trim_offsets": true,
    "use_regex": true
  },
  "model": {
    "type": "BPE",
    "dropout": null,
    "unk_token": "<unk>",
    "continuing_subword_prefix": null,
    "end_of_word_suffix": null,
    "fuse_unk": false,
    "byte_fallback": false,
    "ignore_merges": false,
    "vocab": {
      "<unk>": 0,
      "<pad>": 1,
      "<bos>": 2,
      "<eos>": 3,
      "!": 4,
      "\"": 5,
      "#": 6,
      "$": 7,
      "%": 8,
      "&": 9,
      "'": 10,
      "(": 11,
      ")": 12,
      "*": 13,
      "+": 14,
      ",": 15,
      "-": 16,
      ".": 17,
      "/": 18,
      "0": 19,
      "1": 20,
      "2": 21,
      "3": 22,
      "4": 23,
      "5": 24,
      "6": 25,
      "7": 26,
      "8": 27,
      "9": 28,
      ":": 29,
      ";": 30,
      "<": 31,
      "=": 32,
      ">": 33,
      "?": 34,
      "@": 35,
      "A": 36,
      "B": 37,
      "C": 38,
      "D": 39,
      "E": 40,
      "F": 41,
      "G": 42,
      "H": 43,
      "I": 44,
      "J": 45,
      "K": 46,
      "L": 47,
      "M": 48,
      "N": 49,
      "O": 50,
      "P": 51,
      "Q": 52,
      "R": 53,
      "S": 54,
      "T": 55,
      "U": 56,
      "V": 57,
      "W": 58,
      "X": 59,
      "Y": 60,
      "Z": 61,
      "[": 62,
      "\\": 63,
      "]": 64,
      "^": 65,
      "_": 66,
      "`": 67,
      "a": 68,
      "b": 69,
      "c": 70,
      "d": 71,
      "e": 72,
      "f": 73,
      "g": 74,
      "h": 75,
      "i": 76,
      "j": 77,
      "k": 78,
      "l": 79,
      "m": 80,
      "n": 81,
      "o": 82,
      "p": 83,
      "q": 84,
      "r": 85,
      "s": 86,
      "t": 87,
      "u": 88,
      "v": 89,
      "w": 90,
      "x": 91,
      "y": 92,
      "z": 93,
      "{": 94,
      "|": 95,
      "}": 96,
      "~": 97,
      "¡": 98,
      "¢": 99,
      "£": 100,
      "¤": 101,
      "¥": 102,
      "¦": 103,
      "§": 104,
      "¨": 105,
      "©": 106,
      "ª": 107,
      "«": 108,
      "¬": 109,
      "®": 110,
      "¯": 111,
      "°": 112,
      "±": 113,
      "²": 114,
      "³": 115,
      "´": 116,
      "µ": 117,
      "¶": 118,
      "·": 119,
      "¸": 120,
      "¹": 121,
      "º": 122,
      "»": 123,
      "¼": 124,
      "½": 125,
      "¾": 126,
      "¿": 127,
      "À": 128,
      "Á": 129,
      "Â": 130,
      "Ã": 131,
      "Ä": 132,
      "Å": 133,
      "Æ": 134,
      "Ç": 135,
      "È": 136,
      "É": 137,
      "Ê": 138,
      "Ë": 139,
      "Ì": 140,
      "Í": 141,
      "Î": 142,
      "Ï": 143,
      "Ð": 144,
      "Ñ": 145,
      "Ò": 146,
      "Ó": 147,
      "Ô": 148,
      "Õ": 149,
      "Ö": 150,
      "×": 151,
      "Ø": 152,
      "Ù": 153,
      "Ú": 154,
      "Û": 155,
      "Ü": 156,
      "Ý": 157,
      "Þ": 158,
      "ß": 159,
      "à": 160,
      "á": 161,
      "â": 162,
      "ã": 163,
      "ä": 164,
      "å": 165,
      "æ": 166,
      "ç": 167,
      "è": 168,
      "é": 169,
      "ê": 170,
      "ë": 171,
      "ì": 172,
      "í": 173,
      "î": 174,
      "ï": 175,
      "ð": 176,
      "ñ": 177,
      "ò": 178,
      "ó": 179,
      "ô": 180,
      "õ": 181,
      "ö": 182,
      "÷": 183,
      "ø": 184,
      "ù": 185,
      "ú": 186,
      "û": 187,
      "ü": 188,
      "ý": 189,
      "þ": 190,
      "ÿ": 191,
      "Ā": 192,
      "ā": 193,
      "Ă": 194,
      "ă": 195,
      "Ą": 196,
      "ą": 197,
      "Ć": 198,
      "ć": 199,
      "Ĉ": 200,
      "ĉ": 201,
      "Ċ": 202,
      "ċ": 203,
      "Č": 204,
      "č": 205,
      "Ď": 206,
      "ď": 207,
      "Đ": 208,
      "đ": 209,
      "Ē": 210,
      "ē": 211,
      "Ĕ": 212,
      "ĕ": 213,
      "Ė": 214,
      "ė": 215,
      "Ę": 216,
      "ę": 217,
      "Ě": 218,
      "ě": 219,
      "Ĝ": 220,
      "ĝ": 221,
      "Ğ": 222,
      "ğ": 223,
      "Ġ": 224,
      "ġ": 225,
      "Ģ": 226,
      "ģ": 227,
      "Ĥ": 228,
      "ĥ": 229,
      "Ħ": 230,
      "ħ": 231,
      "Ĩ": 232,
      "ĩ": 233,
      "Ī": 234,
      "ī": 235,
      "Ĭ": 236,
      "ĭ": 237,
      "Į": 238,
      "į": 239,
      "İ": 240,
      "ı": 241,
      "Ĳ": 242,
      "ĳ": 243,
      "Ĵ": 244,
      "ĵ": 245,
      "Ķ": 246,
      "ķ": 247,
      "ĸ": 248,
      "Ĺ": 249,
      "ĺ": 250,
      "Ļ": 251,
      "ļ": 252,
      "Ľ": 253,
      "ľ": 254,
      "Ŀ": 255,
      "ŀ": 256,
      "Ł": 257,
      "ł": 258,
      "Ń": 259,
      "à¤": 260,
      "Ġà¤": 261,
      "à¥": 262,
      "à¤¾": 263,
      "à¥ĩ": 264,
      "à¤°": 265,
      "Ġà¤ķ": 266,
      "à¥į": 267,
      "à¤¿": 268,
      "à¤Ĥ": 269,
      "à¥Ģ": 270,
      "à¤¨": 271,
      "à¥ĭ": 272,
      "à¤¤": 273,
      "à¤ķ": 274,
      "à¤¯": 275,
      "à¤²": 276,
      "à¤¸": 277,
      "Ġà¤¸": 278,
      "à¤¹": 279,
      "Ġà¤®": 280,
      "à¤®": 281,
      "Ġà¤¹": 282,
      "Ġà¤ª": 283,
      "à¥ģ": 284,
      "à¤µ": 285,
      "à¥Ī": 286,
      "Ġà¥": 287,
      "à¤¦": 288,
      "à¥ĩà¤Ĥ": 289,
      "Ġà¤¨": 290,
      "Ġà¥¤": 291,
      "à¤ª": 292,
      "à¤Ĺ": 293,
      "Ġà¤¬": 294,
      "à¤ľ": 295,
      "à¥ĭà¤Ĥ": 296,
      "à¤Ł": 297,
      "Ġà¤¦": 298,
      "Ġà¤ľ": 299,
      "Ġà¤µ": 300,
      "Ġà¤ħ": 301,
      "à¥Ĥ": 302,
      "Ġà¤°": 303,
      "à¤ı": 304,
      "Ġà¤²": 305,
      "à¤¬": 306,
      "à¤¶": 307,
      "à¤¡": 308,
      "à¤§": 309,
      "Ġà¤Ĺ": 310,
      "à¤ļ": 311,
      "à¤·": 312,
      "Ġà¤ķà¤°": 313,
      "Ġà¤ī": 314,
      "Ġà¤¤": 315,
      "Ġà¤Ĩ": 316,
      "Ġà¤Ń": 317,
      "à¤Ī": 318,
      "Ġà¤ªà¤°": 319,
      "Ġà¤ĩ": 320,
      "Ġà¤Ķ": 321,
      "à¤¼": 322,
      "Ġà¤Ķà¤°": 323,
      "à¤¥": 324,
      "à¤¾à¤Ĥ": 325,
      "Ġà¤ı": 326,
      "à¤£": 327,
      "Ġà¤ļ": 328,
      "Ġà¤¯": 329,
      "à¤ĸ": 330,
      "à¤Ń": 331,
      "Ġà¤¶": 332,
      "à¥Īà¤Ĥ": 333,
      "à¤«": 334,
      "Ġà¤¥": 335,
      "Ġà¤ĩà¤¸": 336,
      "à¤ĩ": 337,
      "Ġà¤ķà¤¹": 338,
      "à¥Į": 339,
      "à¤°à¤¤": 340,
      "à¤°à¤ķ": 341,
      "à¥Ģà¤Ĥ": 342,
      "Ġà¤ĸ": 343,
      "Ġà¤°à¤¹": 344,
      "Ġà¤«": 345,
      "Ġà¤¸à¤®": 346,
      "Ġà¤ıà¤ķ": 347,
      "à¤ķà¤°": 348,
      "Ġà¤¨à¤¹": 349,
      "Ġà¤īà¤¨": 350,
      "à¤ªà¤¨": 351,
      "Ġà¤ķà¤°à¤¨": 352,
      "à¥¤": 353,
      "à¤¿à¤Ĥ": 354,
      "Ġà¤Ĺà¤¯": 355,
      "à¤ł": 356,
      "à¤ī": 357,
      "à¤ĩà¤¸": 358,
      "Ġ-": 359,
      "Ġà¤¯à¤¹": 360,
      "à¤Ľ": 361,
      "à¤Ĩ": 362,
      "à¥ī": 363,
      "à¥¦": 364,
      "à¤¤à¤°": 365,
      "à¤¯à¤ķ": 366,
      "Ġà¤ªà¤¹": 367,
      "Ġà¤ħà¤§": 368,
      "à¥ĥ": 369,
      "à¤ĵ": 370,
      "Ġà¤ħà¤ªà¤¨": 371,
      "à¤ľà¤¨": 372,
      "Ġà¤ħà¤¨": 373,
      "Ġà¤Ł": 374,
      "Ġà¤¸à¤°à¤ķ": 375,
      "Ġà¤¡": 376,
      "Ġà¤ĺ": 377,
      "à¤īà¤¨": 378,
      "à¤µà¤°": 379,
      "Ġà¤²à¤Ĺ": 380,
      "Ġà¤īà¤¸": 381,
      "à¤¼à¤¾": 382,
      "Ġà¤®à¤¹": 383,
      "Ġà¤¸à¤ķ": 384,
      "à¤¹à¤°": 385,
      "à¤®à¤²": 386,
      "Ġà¤¤à¤ķ": 387,
      "à¤°à¤®": 388,
      "Ġà¤¬à¤¨": 389,
      "à¤¢": 390,
      "à¤ģ": 391,
      "à¤ħ": 392,
      "Ġà¤Ĺà¤Ī": 393,
      "à¤°à¤£": 394,
      "à¤¨à¤®": 395,
      "Ġà¤Ĺà¤ı": 396,
      "Ġà¤¬à¤¤": 397,
      "Ġà¤īà¤¨à¤ķ": 398,
      "à¤²à¤¨": 399,
      "à¤¾,": 400,
      "à¤Łà¤°": 401,
      "Ġ(": 402,
      "Ġà¤µà¤¹": 403,
      "Ġà¤Ľ": 404,
      "Ġà¥§": 405,
      "à¤¶à¤¨": 406,
      "Ġà¤§": 407,
      "à¤°à¤µ": 408,
      "Ġà¤µà¤°": 409,
      "Ġà¤ªà¤¹à¤²": 410,
      "à¤°à¤¹": 411,
      "à¤¸à¤°": 412,
      "à¤°à¤¦": 413,
      "à¤¸à¤²": 414,
      "à¤°à¤¸": 415,
      "à¥ģà¤Ĥ": 416,
      "Ġà¤ķà¤°à¤¤": 417,
      "Ġà¤¸à¤ķà¤¤": 418,
      "à¤ªà¤¤": 419,
      "à¤¯à¤®": 420,
      "à¤¾à¤ģ": 421,
      "Ġà¤Ĩà¤¯": 422,
      "à¤²à¤¤": 423,
      "Ġà¤ħà¤²": 424,
      "Ġà¤ķà¤®": 425,
      "à¤¬à¤°": 426,
      "Ġà¤īà¤ª": 427,
      "Ġà¥¨": 428,
      "à¤²à¤¯": 429,
      "à¤¸à¤¦": 430,
      "Ġ1": 431,
      "Ġà¥§à¥": 432,
      "à¤Ĺà¤°": 433,
      "à¤Łà¤¨": 434,
      "à¥Ī,": 435,
      "à¤ªà¤°": 436,
      "Ġà¤Ĩà¤°": 437,
      "à¤¼à¥Ģ": 438,
      "à¤¹à¤¤": 439,
      "à¤ıà¤Ĺ": 440,
      "à¤¨à¤ķ": 441,
      "à¤¯à¤°": 442,
      "à¤¾à¥¤": 443,
      "Ġà¤¬à¤¢": 444,
      "Ġà¤¸à¤¹": 445,
      "à¥Īà¥¤": 446,
      "à¤ĩà¤¸à¤ķ": 447,
      "à¤°à¤§": 448,
      "Ġà¤īà¤¤": 449,
      "à¤¸à¤®": 450,
      "à¤ĺ": 451,
      "Ġà¤ħà¤®": 452,
      "à¤Ŀ": 453,
      "Ġà¤ĩà¤¸à¤ķ": 454,
      "à¤Ĺà¤²": 455,
      "Ġà¤ħà¤Ń": 456,
      "Ġà¤°à¤ĸ": 457,
      "à¤ľà¤ª": 458,
      "à¤®à¤¨": 459,
      "Ġà¤Ĩà¤¤": 460,
      "à¤·à¤£": 461,
      "Ġà¤¦à¤°": 462,
      "à¤¯à¤¹": 463,
      "Ġà¤¸à¤®à¤¯": 464,
      "à¤¼à¥ĩ": 465,
      "Ġà¤ªà¤¤": 466,
      "à¥Ģ,": 467,
      "à¥Ģ.": 468,
      "à¤®à¤¤": 469,
      "à¥¦à¥¦": 470,
      "Ġà¤¤à¤°à¤¹": 471,
      "à¤¸à¤¨": 472,
      "à¤¯à¤¤": 473,
      "Ġà¤ħà¤¬": 474,
      "Ġà¤ľà¤¨": 475,
      "à¤ıà¤¸": 476,
      "Ġà¤ľà¤¬": 477,
      "Ġà¤¸à¤¦": 478,
      "Ġà¤ľà¤°": 479,
      "à¤Ĩà¤Ī": 480,
      "Ġà¤ĩà¤¨": 481,
      "Ġà¤¬à¤¹": 482,
      "Ġà¤¸à¤Ń": 483,
      "à¤µà¤¨": 484,
      "Ġà¤ĵ": 485,
      "à¤¦à¤°": 486,
      "Ġà¤īà¤¸à¤ķ": 487,
      "Ġà¤ķà¤Ī": 488,
      "à¤¯à¤¨": 489,
      "à¤¬à¤¸": 490,
      "Ġà¤ļà¤²": 491,
      "à¤ļà¤¨": 492,
      "à¤ĩà¤¨": 493,
      "Ġà¤ªà¤¡": 494,
      "Ġà¤Ĳ": 495,
      "Ġà¤¹à¤®": 496,
      "Ġ'": 497,
      "à¤¹à¤¨": 498,
      "à¤¸à¤Ń": 499,
      "à¤ľà¤°": 500,
      "à¤łà¤ķ": 501,
      "à¤°à¤«": 502,
      "Ġà¤¦à¤²": 503,
      "00": 504,
      "à¤µà¤¸": 505,
      "à¤Ĺà¤¤": 506,
      "à¤§à¤¨": 507,
      "à¤ŀ": 508,
      "Ġà¤ľà¤®": 509,
      "Ġà¤ĳ": 510,
      "à¤ªà¤ķ": 511,
      "Ġà¤ķà¤¹à¤¨": 512,
      "à¥«": 513,
      "Ġà¤¬à¤ļ": 514,
      "à¤ķà¤²": 515,
      "à¤¸à¤ķ": 516,
      "à¤Ľà¤²": 517,
      "à¤¶à¤ķ": 518,
      "à¤²à¤¬": 519,
      "à¤ªà¤¯": 520,
      "à¥Ī.": 521,
      "Ġà¤¬à¤¡": 522,
      "à¥ĩ.": 523,
      "Ġà¤¸à¤°": 524,
      "Ġà¤Ĳà¤¸": 525,
      "Ġ2": 526,
      "à¤®à¤¦": 527,
      "Ġà¤īà¤®": 528,
      "¯à¥": 529,
      "Ġà¤ªà¤¦": 530,
      "Ġà¤Ĩà¤Ī": 531,
      "Ġà¤¬à¤ľ": 532,
      "Ġà¤ıà¤¸": 533,
      "Ġà¤¸à¤¦à¤¸": 534,
      "à¤¤à¤¨": 535,
      "Ġà¤ĵà¤°": 536,
      "à¥ĩ,": 537,
      "à¤ªà¤¸": 538,
      "à¤ķà¤¤": 539,
      "à¤ľà¤¬": 540,
      "Ġà¤ħà¤ª": 541,
      "à¤°à¤Ń": 542,
      "Ġà¤Ĩà¤§": 543,
      "à¥§": 544,
      "Ġà¤¸à¤¬à¤¸": 545,
      "à¤¨à¤¤": 546,
      "Ġà¤ħà¤µ": 547,
      "Ġà¤¹à¤°": 548,
      "Ġà¤Ĩà¤Ĺ": 549,
      "à¤µà¤¹": 550,
      "à¤łà¤¨": 551,
      "à¤Łà¤²": 552,
      "Ġà¤ķà¤¶": 553,
      "Ġà¤ł": 554,
      "Ġà¤Ŀ": 555,
      "Ġà¤®à¤¦": 556,
      "Ġà¤Ńà¤°": 557,
      "à¤°à¤¶": 558,
      "Ġà¤ĩà¤²": 559,
      "à¥Īà¤Ĥ,": 560,
      "à¥Īà¤Ĥà¥¤": 561,
      "à¥¨": 562,
      "à¤®à¤ķ": 563,
      "à¤µà¤¤": 564,
      "Ġà¤¤à¤¥": 565,
      "Ġà¤ľà¤µ": 566,
      "Ġà¤ĸà¤°": 567,
      "Ġà¥©": 568,
      "Ġà¤¸à¤®à¤°": 569,
      "à¤¯à¤²": 570,
      "Ġà¤īà¤ł": 571,
      "à¤Łà¤ķ": 572,
      "à¤¨à¤µ": 573,
      "Ġà¤ħà¤°": 574,
      "à¤ķà¤°à¤£": 575,
      "âĢ": 576,
      "à¥ª": 577,
      "Ġà¤¬à¤°": 578,
      "Ġà¤īà¤¦": 579,
      "Ġà¤¬à¤¦": 580,
      "à¤¤à¤ļ": 581,
      "à¤¹à¤®": 582,
      "à¤°à¤ªà¤¤": 583,
      "Ġà¤Ĩà¤¦": 584,
      "à¥©": 585,
      "Ġà¥¨à¥¦à¥¦": 586,
      "Ġà¤Ĩà¤¨": 587,
      "à¤ĸà¤¨": 588,
      "Ġà¤Ĩà¤ľ": 589,
      "Ġà¤ªà¤ķ": 590,
      "Ġà¤¸à¤¤": 591,
      "à¤¬à¤²": 592,
      "Ġà¤Ĩà¤µ": 593,
      "Ġà¤ķà¤²": 594,
      "Ġà¤ľà¤²": 595,
      "à¤µà¤²": 596,
      "Ġà¤ħà¤²à¤Ĺ": 597,
      "à¤ķà¤¨": 598,
      "Ġà¤¸à¤ļ": 599,
      "à¤ľà¤Ĺ": 600,
      "Ġà¤µà¤ķ": 601,
      "à¤¾.": 602,
      "Ġà¤Ĭ": 603,
      "à¤°à¤¯": 604,
      "Ġà¤ħà¤¸": 605,
      "à¤°à¤¨": 606,
      "à¤¯à¤ª": 607,
      "à¤¨à¤¨": 608,
      "à¤¦à¤¨": 609,
      "Ġ19": 610,
      "Ġà¤¹à¤µ": 611,
      "Ġà¤¤à¤¹à¤¤": 612,
      "à¤¥à¤¨": 613,
      "Ġà¤ħà¤ķ": 614,
      "à¥Ĥà¤Ĥ": 615,
      "à¤¡à¤²": 616,
      "Ġà¤ħà¤¦": 617,
      "à¤¯à¤¦": 618,
      "Ġà¤¹à¤®à¤²": 619,
      "Ġà¤ıà¤¨": 620,
      "à¤¼à¤¿": 621,
      "Ġà¤¬à¤¯": 622,
      "Ġà¤¬à¤²": 623,
      "à¤ľà¤¹": 624,
      "à¤ľà¤¦": 625,
      "Ġà¤²à¤¡": 626,
      "à¤®à¤°": 627,
      "Ġà¤ĺà¤Łà¤¨": 628,
      "Ġà¤¸à¤µ": 629,
      "à¤°à¤²": 630,
      "à¤¸à¤ª": 631,
      "à¤§à¤µ": 632,
      "Ġà¤¹à¤ľ": 633,
      "à¥¬": 634,
      "à¥ĩà¤Ĥ,": 635,
      "à¤¦à¤µ": 636,
      "à¤ľà¤²": 637,
      "Ġà¤Ī": 638,
      "Ġà¤®à¤¤": 639,
      "à¤ıà¤®": 640,
      "Ġà¤¶à¤¹à¤°": 641,
      "Ġà¤ĺà¤°": 642,
      "Ġà¤¤à¤°": 643,
      "à¤¯à¤µà¤¸": 644,
      "Ġà¤®à¤¨à¤®": 645,
      "Ġà¤¸à¤®à¤Ŀ": 646,
      "à¤¹à¤¸": 647,
      "à¤Ĩà¤°": 648,
      "à¤ķà¤µ": 649,
      "à¤²à¤ķ": 650,
      "à¤²à¤µ": 651,
      "Ġà¤Ĩà¤¶": 652,
      "Ġà¤ļà¤°": 653,
      "à¥Įà¤Ĥ": 654,
      "Ġà¥«": 655,
      "Ġà¤¢": 656,
      "à¤Ĺà¤łà¤¨": 657,
      "Ġà¤Ĩà¤ª": 658,
      "à¥Ģà¥¤": 659,
      "Ġà¥ª": 660,
      "à¤®à¤µ": 661,
      "Ġà¤ľà¤¹": 662,
      "à¤īà¤¨à¤ķ": 663,
      "à¤¸à¤µ": 664,
      "Ġà¤°à¤µ": 665,
      "à¤¬à¤Ī": 666,
      "à¤¡à¤°": 667,
      "Ġà¤®à¤¦à¤¦": 668,
      "à¤¡à¤µ": 669,
      "Ġ\"": 670,
      "Ġà¤¸à¤²": 671,
      "à¥®": 672,
      "Ġà¤«à¤°": 673,
      "Ġà¤¶à¤°": 674,
      "âĢį": 675,
      "Ġà¤®à¤¨": 676,
      "à¤¨à¤°": 677,
      "à¤ľà¤¯": 678,
      "Ġà¤ľà¤¤": 679,
      "à¤Ńà¤Ĺ": 680,
      "à¥Ń": 681,
      "Ġà¤¸à¤®à¤¸": 682,
      "à¤ĩà¤¸à¤¸": 683,
      "Ġà¤°à¤ĸà¤¨": 684,
      "à¤ıà¤ķ": 685,
      "Ġà¥§à¥¯à¥": 686,
      "Ġà¤®à¤¹à¤¤": 687,
      "à¤Ĺà¤²à¤µ": 688,
      "Ġà¤ħà¤¤": 689,
      "à¤¶à¤°": 690,
      "Ġà¤īà¤ļ": 691,
      "à¥įâĢį": 692,
      "à¤ķà¤ª": 693,
      "à¤¸à¤¤": 694,
      "Ġà¤ħà¤ļ": 695,
      "à¤ıà¤«": 696,
      "à¤µà¤ľ": 697,
      "à¤¦à¤®": 698,
      "à¤¨à¤¸à¤Ń": 699,
      "Ġà¤ªà¤¶": 700,
      "Ġà¤¦à¤¸": 701,
      "Ġà¤ĳà¤«": 702,
      "à¤ķà¤¸": 703,
      "à¤°à¤¬": 704,
      "Ġà¤ħà¤«": 705,
      "à¤¤à¤®": 706,
      "à¤ĩà¤Ł": 707,
      "à¥ĩà¥¤": 708,
      "à¤¤à¤ķ": 709,
      "à¤°à¤¦à¤°": 710,
      "Ġà¤ıà¤ľ": 711,
      "Ġà¤Ĩà¤ı": 712,
      "Ġà¤¹à¤¤": 713,
      "Ġà¤°à¤ķ": 714,
      "Ġà¤²à¤Ĺà¤Ńà¤Ĺ": 715,
      "Ġà¤µà¤ľà¤¹": 716,
      "Ġà¤ıà¤µ": 717,
      "Ġà¤¬à¤¦à¤²": 718,
      "Ġà¤¸à¤¹à¤¯": 719,
      "à¤¬à¤¹": 720,
      "à¤ĩà¤²": 721,
      "Ġà¤°à¤¹à¤¨": 722,
      "Ġà¤ľà¤¬à¤ķ": 723,
      "Ġà¤¨à¤Ī": 724,
      "Ġà¤¤à¤¬": 725,
      "Ġà¤¨à¤ķ": 726,
      "Ġ3": 727,
      "à¤ĸà¤°": 728,
      "à¤µà¤ª": 729,
      "Ġà¤¬à¤¸": 730,
      "Ġà¤¦à¤ķ": 731,
      "à¤Łà¤µà¤°": 732,
      "à¤Ĩà¤¤": 733,
      "Ġà¤¹à¤Ł": 734,
      "Ġà¤ľà¤Ĺ": 735,
      "Ġà¤ıà¤®": 736,
      "Ġà¤°à¤¹à¤¤": 737,
      "Ġà¤¦à¤¬": 738,
      "Ġà¤Ĺà¤ł": 739,
      "Ġà¤Ĩà¤®": 740,
      "Ġà¤¶à¤¨": 741,
      "Ġà¤ħà¤Ĺà¤²": 742,
      "à¤ķà¤Ł": 743,
      "Ġà¤®à¤§": 744,
      "Ġà¤Ĺà¤°": 745,
      "à¤·à¤ķ": 746,
      "à¤ľà¤¬à¤ķ": 747,
      "à¤ľà¤®": 748,
      "Ġà¤ľà¤¨à¤¤": 749,
      "à¤¨à¤²": 750,
      "Ġà¥¬": 751,
      "à¤¼à¥ĭà¤Ĥ": 752,
      "Ġà¤§à¤°": 753,
      "à¤§à¤°": 754,
      "Ġà¤¸à¤ª": 755,
      "Ġà¤¨à¤ı": 756,
      "à¤ıà¤²": 757,
      "à¤¨à¤¸": 758,
      "Ġà¤ħà¤Ĺ": 759,
      "Ġà¤ªà¤°à¤®": 760,
      "à¤¥à¤²": 761,
      "Ġà¤īà¤ªà¤¯": 762,
      "Ġà¤īà¤¸à¤¨": 763,
      "à¤¿,": 764,
      "à¥Ģ)": 765,
      "à¤ķà¤¡": 766,
      "Ġà¤īà¤¡": 767,
      "Ġà¤īà¤ªà¤²à¤¬": 768,
      "Ġà¤īà¤²": 769,
      "Ġà¤Ĩà¤¡à¤µ": 770,
      "Ġà¤®à¤¸à¤²": 771,
      "Ġà¤ĩà¤¨à¤ķ": 772,
      "à¤µà¤µ": 773,
      "Ġà¤Ĩà¤¸": 774,
      "à¥Īà¤Ĥ.": 775,
      "Ġà¤ĩà¤¸à¤¸": 776,
      "Ġà¤¸à¤«": 777,
      "à¤°à¤¤à¤²à¤¬": 778,
      "à¤ķà¤¸à¤Ń": 779,
      "Ġà¤¸à¤¬": 780,
      "à¤Ĺà¤®": 781,
      "à¤ıà¤¨": 782,
      "à¤ļà¤²": 783,
      "Ġà¤¤à¤¯": 784,
      "à¤ĸà¤¤": 785,
      "à¤¯à¤µ": 786,
      "à¤²à¤°": 787,
      "à¤ĥ": 788,
      "Ġà¤¤à¤²": 789,
      "à¤²à¤ķà¤°": 790,
      "Ġà¤Ľà¤¹": 791,
      "à¤°à¤ª": 792,
      "Ġà¤ĩà¤¸à¤®": 793,
      "Ġà¤¹à¤²": 794,
      "Ġà¥Ń": 795,
      "Ġà¤ĩà¤°": 796,
      "à¤ªà¤·": 797,
      "Ġà¤ļà¤²à¤¤": 798,
      "à¤µà¤ķ": 799,
      "à¤¼à¥ĭ": 800,
      "à¤£à¤¨": 801,
      "à¤¸à¤¸": 802,
      "à¤Ĺà¤¨": 803,
      "à¤Īà¤ķ": 804,
      "Ġà¤ľà¤Ĺà¤¹": 805,
      "Ġà¤ķà¤ª": 806,
      "à¤®à¤ļ": 807,
      "Ġà¤¨à¤µ": 808,
      "à¤°à¤µà¤ķ": 809,
      "Ġà¤¬à¤ľà¤Ł": 810,
      "Ġà¤ħà¤Ĺà¤°": 811,
      "Ġà¤¯à¤¦": 812,
      "à¤¸à¤ļ": 813,
      "à¤ħà¤®": 814,
      "à¤¸à¤°à¤ķ": 815,
      "Ġ200": 816,
      "à¤²à¤¸": 817,
      "à¥¯": 818,
      "Ġà¤¸à¤¹à¤®à¤¤": 819,
      "à¤¹à¤ķ": 820,
      "Ġà¤¹à¤¥": 821,
      "à¤ĩà¤¸à¤²": 822,
      "Ġà¤¹à¤¸": 823,
      "à¤ľà¤¸": 824,
      "à¤·à¤¤": 825,
      "à¤¯à¤¸": 826,
      "à¤¹à¤²": 827,
      "à¤ľà¤§": 828,
      "Ġà¤¸à¤¦à¤¨": 829,
      "Ġà¤¨à¤ľà¤°": 830,
      "à¤¬à¤¤": 831,
      "à¤ĩà¤¸à¤®": 832,
      "à¤¹à¤°à¤£": 833,
      "à¤Ĭ": 834,
      "Ġà¤ķà¤¬": 835,
      "Ġà¤ħà¤ªà¤°": 836,
      "Ġà¤¤à¤¤": 837,
      "à¤īà¤¸": 838,
      "Ġ20": 839,
      "Ġà¤¤à¤¸": 840,
      "Ġà¤Ĩà¤µà¤¶": 841,
      "Ġ5": 842,
      "à¤¥à¤°": 843,
      "Ġà¤ĸà¤¬à¤°": 844,
      "à¤ħà¤¬": 845,
      "Ġà¤®à¤ľà¤¬": 846,
      "à¤µà¤§": 847,
      "Ġà¥®": 848,
      "à¤Ĺà¤¢": 849,
      "Ġà¥¨à¥¦": 850,
      "IN": 851,
      "JO": 852,
      "à¤ªà¤®": 853,
      "à¤¡à¤®": 854,
      "Ġà¥§à¥¦": 855,
      "JOIN": 856,
      "à¤²à¤®": 857,
      "Ġà¤®à¤¤à¤¦": 858,
      "à¥ģà¤ģ": 859,
      "à¤·à¤¦": 860,
      "Ġà¤ķà¤Ł": 861,
      "Ġà¤¨à¤¯": 862,
      "Ġà¤Ĺà¤¤": 863,
      "Ġà¤ķà¤°à¤ķ": 864,
      "à¤Ńà¤µ": 865,
      "à¤¶à¤¨à¤²": 866,
      "Ġà¤ķà¤¦à¤®": 867,
      "Ġà¤ħà¤¡": 868,
      "Ġà¤¤à¤ķà¤¨": 869,
      "Ġà¤®à¤ķ": 870,
      "Ġà¤Ĺà¤łà¤¬": 871,
      "à¤¨à¤Ĺà¤°": 872,
      "à¤²à¤¹": 873,
      "Ġà¤Ĺà¤łà¤¨": 874,
      "à¤ĺà¤°": 875,
      "Ġà¤ħà¤¯": 876,
      "Ġà¤Ĺà¤²à¤¤": 877,
      "à¤¥à¤®": 878,
      "à¤¤à¤µ": 879,
      "Ġà¤¸à¤¡": 880,
      "Ġà¤Ĩà¤ķ": 881,
      "Ġà¥§à¥«": 882,
      "à¤°à¤ľ": 883,
      "à¤ªà¤²": 884,
      "à¤§à¤ķ": 885,
      "à¤ļà¤°": 886,
      "Ġà¤ıà¤²": 887,
      "à¤Ĳ": 888,
      "à¤°à¤ĸ": 889,
      "à¤¦à¤²": 890,
      "à¥ĭà¤Ĥ,": 891,
      "Ġà¤ħà¤¸à¤®": 892,
      "Ġà¤ĸà¤¡": 893,
      "Ġà¥§à¥¨": 894,
      "à¤Łà¤®": 895,
      "Ġà¤ĸà¤¤": 896,
      "Ġà¤ķà¤¡": 897,
      "Ġà¤¶à¤ķ": 898,
      "à¤«à¤°": 899,
      "Ġà¤ªà¤¹à¤ļ": 900,
      "à¤µà¤¯": 901,
      "Ġà¤¦à¤¶à¤ķ": 902,
      "à¤īà¤¤": 903,
      "Ġà¤ķà¤Ń": 904,
      "à¤£à¤¯": 905,
      "Ġ4": 906,
      "Ġà¤ħà¤ľ": 907,
      "Ġà¤Ĩà¤²": 908,
      "Ġà¤®à¤Ī": 909,
      "Ġà¤ĸà¤¤à¤°": 910,
      "Ġà¤µà¤¸": 911,
      "à¤·à¤ľ": 912,
      "Ġà¤ĩà¤¤": 913,
      "Ġà¤ıà¤«": 914,
      "à¤īà¤²": 915,
      "000": 916,
      "Ġà¤Ĭà¤ªà¤°": 917,
      "Ġà¤¤à¤®": 918,
      "Ġà¤ľà¤¨à¤µà¤°": 919,
      "à¤¹à¤¤à¤°": 920,
      "Ġà¤ħà¤®à¤°": 921,
      "à¤Ĳà¤¸": 922,
      "à¤¤à¤¤": 923,
      "Ġà¤¸à¤ľ": 924,
      "Ġà¤²à¤ķ": 925,
      "à¤µà¤ľà¤¨": 926,
      "Ġà¤¨à¤¦": 927,
      "à¤¡à¤ª": 928,
      "à¤Ľà¤¤": 929,
      "Ġà¥¦": 930,
      "Ġà¤§à¤¨": 931,
      "Ġà¤ħà¤¹": 932,
      "Ġà¤ĩà¤ľ": 933,
      "Ġà¤ĩà¤¸à¤²": 934,
      "à¤ĩà¤¨à¤®": 935,
      "Ġà¥§à¥§": 936,
      "à¤²à¤Ĺ": 937,
      "à¤®à¤¹": 938,
      "à¤¦à¤ķ": 939,
      "à¤¦à¤¸": 940,
      "à¤¬à¤¨": 941,
      "à¥ī.": 942,
      "à¤°à¤ļ": 943,
      "Ġà¤®à¤²": 944,
      "Ġà¤ħà¤ĸ": 945,
      "Ġà¤Ĩà¤ķà¤°": 946,
      "Ġà¤īà¤ªà¤ķà¤°à¤£": 947,
      "Ġà¤łà¤¹à¤°": 948,
      "Ġà¤Ĭà¤°": 949,
      "Ġ201": 950,
      "Ġà¤®à¤¸": 951,
      "Ġà¥¯": 952,
      "à¤ľà¤µ": 953,
      "à¤¬à¤°à¤®": 954,
      "à¤¶à¤¤": 955,
      "Ġà¤Ńà¤µ": 956,
      "Ġà¥¨à¥«": 957,
      "à¤¤à¤ľ": 958,
      "à¤ªà¤Ł": 959,
      "Ġà¤¤à¤Ł": 960,
      "Ġà¤ķà¤¹à¤¤": 961,
      "à¤īà¤¸à¤ķ": 962,
      "Ġà¤²à¤Ĺà¤¤": 963,
      "Ġà¥§à¥¯à¥¯à¥": 964,
      "),": 965,
      "Ġà¤®à¤°": 966,
      "à¤®à¤Ĺ": 967,
      "à¤ªà¤£": 968,
      "Ġà¤¦à¤µ": 969,
      "Ġà¤ľà¤¸": 970,
      "à¤¡à¤¨": 971,
      "Ġà¤Ĩà¤°à¤ķ": 972,
      "à¤°à¤ķà¤°": 973,
      "à¤ħà¤§": 974,
      "Ġà¤ľà¤¨à¤°à¤²": 975,
      "Ġ7": 976,
      "Ġà¤¨à¤Łà¤µà¤°": 977,
      "à¤¬à¤¦": 978,
      "Ġà¤ĩà¤¤à¤¨": 979,
      "Ġà¤ıà¤¯à¤°": 980,
      "à¥¦à¥¦à¥¦": 981,
      "à¤¨à¤¤à¤®": 982,
      "à¤¨à¤Ł": 983,
      "à¤¦à¤¦": 984,
      "à¤¦à¤Ĺ": 985,
      "à¤Ĺà¤µ": 986,
      "à¤§à¤¤": 987,
      "à¤¥à¤ķ": 988,
      "à¤ĵà¤µ": 989,
      "Ġ6": 990,
      "à¤¯à¤ķà¤°": 991,
      "Ġà¤Ĩà¤¬": 992,
      "Ġà¤ļà¤°à¤£": 993,
      "à¤ħà¤¨": 994,
      "Ġ18": 995,
      "Ġà¤ħà¤µà¤§": 996,
      "à¤°à¤Ĺ": 997,
      "à¤¨à¤¦": 998,
      "Ġà¤ħà¤¸à¤°": 999,
      "à¤¬à¤¹à¤°": 1000,
      "Ġà¤ĩà¤®": 1001,
      "Ġà¤ħà¤¹à¤®à¤¦": 1002,
      "à¤¯à¤¯à¤¨": 1003,
      "Ġà¤¸à¤®à¤ķ": 1004,
      "Ġà¤īà¤¸à¤¸": 1005,
      "Ġà¥§à¥ª": 1006,
      "Ġà¤ªà¤ķà¤¡": 1007,
      "à¤ªà¤¹à¤°": 1008,
      "à¤·à¤®à¤¤": 1009,
      "Ġà¤ķà¤¨": 1010,
      "à¤¯à¤¸à¤Ń": 1011,
      "Ġà¤®à¤¶": 1012,
      "à¤·à¤¯": 1013,
      "Ġà¤īà¤°": 1014,
      "Ġà¤īà¤ľ": 1015,
      "Ġà¤Ĩà¤ł": 1016,
      "Ġà¤¶à¤¤": 1017,
      "à¤ĩà¤®": 1018,
      "à¤¹à¤¦": 1019,
      "Ġà¤®à¤ľ": 1020,
      "à¤®à¤ª": 1021,
      "à¤Ĺà¤¡": 1022,
      "Ġà¤¬à¤®": 1023,
      "Ġà¤Ĩà¤ªà¤ķ": 1024,
      "Ġà¤ıà¤¶": 1025,
      "à¤ħà¤ªà¤¨": 1026,
      "à¤¬à¤¹à¤°à¤¹": 1027,
      "à¤¸à¤ķà¤°": 1028,
      "à¤®à¤¸": 1029,
      "Ġà¤ªà¤Ł": 1030,
      "à¤ľà¤ķ": 1031,
      "à¤µà¤°à¤£": 1032,
      "Ġà¤ħà¤Ĺà¤¸": 1033,
      "Ġà¤ıà¤ļ": 1034,
      "Ġà¤īà¤¨à¤¸": 1035,
      "Ġà¤¹à¤«": 1036,
      "Ġà¤¨à¤°": 1037,
      "Ġà¤¨à¤¤": 1038,
      "à¤Łà¤µ": 1039,
      "à¤¶à¤²": 1040,
      "à¤·à¤®": 1041,
      "Ġà¤ĩà¤ķ": 1042,
      "Ġ10": 1043,
      "Ġà¤ľà¤¨à¤ľ": 1044,
      "Ġà¥¨à¥¦à¥¦à¥ª": 1045,
      "à¤¯à¤Łà¤ķ": 1046,
      "Ġà¤Ĺà¤µ": 1047,
      "Ġà¤¤à¤°à¤«": 1048,
      "à¤Łà¤°à¤¨": 1049,
      "Ġ199": 1050,
      "à¤ªà¤Łà¤¨": 1051,
      "à¤¬à¤¡": 1052,
      "Ġà¤Ńà¤µà¤¨": 1053,
      "Ġà¤ļà¤²à¤¨": 1054,
      "à¤łà¤Ń": 1055,
      "à¤°à¤®à¤£": 1056,
      "à¤ħà¤¦": 1057,
      "Ġà¤ľà¤®à¤ķà¤°": 1058,
      "Ġà¤«à¤°à¤µà¤°": 1059,
      "à¤¨à¤ľà¤°": 1060,
      "à¤®à¤£": 1061,
      "Ġà¤ªà¤¢": 1062,
      "Ġà¤ħà¤¶": 1063,
      "à¤Ńà¤°": 1064,
      "Ġà¤¬à¤¨à¤¨": 1065,
      "Ġà¤°à¤ĸà¤¤": 1066,
      "Ġà¤ħà¤µà¤¸à¤°": 1067,
      "à¤¾'": 1068,
      "Ġà¥§à¥®": 1069,
      "Ġà¥«à¥¦": 1070,
      "à¥ĭ,": 1071,
      "à¤ªà¤ļ": 1072,
      "Ġà¤ıà¤¡": 1073,
      "à¤ĸà¤²": 1074,
      "à¤«à¤²": 1075,
      "à¤Ĩà¤¯": 1076,
      "à¤ħà¤Ń": 1077,
      "Ġ15": 1078,
      "à¤®à¤¦à¤²": 1079,
      "Ġà¤ħà¤°à¤¬": 1080,
      "à¤¤à¤²": 1081,
      "à¤¯à¤Łà¤¨": 1082,
      "Ġà¤ªà¤µ": 1083,
      "à¤Ĺà¤¦": 1084,
      "Ġà¤µà¤¨": 1085,
      "Ġ8": 1086,
      "Ġà¤ķà¤¥": 1087,
      "à¤µà¤¶": 1088,
      "à¤ıà¤ļ": 1089,
      "à¤·à¤°": 1090,
      "Ġà¤¶à¤¹": 1091,
      "à¤«à¤¨": 1092,
      "à¤¯à¤ķà¤¤": 1093,
      "Ġà¤Łà¤¨": 1094,
      "Ġ12": 1095,
      "Ġà¥§à¥©": 1096,
      "Ġà¥§à¥¬": 1097,
      "Ġà¤Ŀà¤Łà¤ķ": 1098,
      "à¤¾)": 1099,
      "à¤¥à¤µ": 1100,
      "à¤¤à¤°à¤£": 1101,
      "à¤ħà¤°": 1102,
      "Ġà¥©à¥¦": 1103,
      "à¥ħ": 1104,
      "Ġà¤ķà¤¸": 1105,
      "Ġà¤ľà¤ľ": 1106,
      "Ġà¤ªà¤°à¤µ": 1107,
      "à¥Ģà¤Ĥ,": 1108,
      "Ġà¤īà¤ªà¤Ń": 1109,
      "Ġ17": 1110,
      "à¤ķà¤Ī": 1111,
      "Ġà¤¨à¤®": 1112,
      "à¤ªà¤¦": 1113,
      "Ġà¤°à¤ľ": 1114,
      "Ġà¤ķà¤°à¤µ": 1115,
      "Ġà¤īà¤Ĺ": 1116,
      "Ġà¤Ĩà¤ªà¤¤": 1117,
      "Ġà¤Ĩà¤ªà¤¸": 1118,
      "Ġà¤¶à¤µ": 1119,
      "Ġà¤§à¤®à¤ķ": 1120,
      "Ġà¥¨à¥¦à¥¦à¥©": 1121,
      "à¤ĳ": 1122,
      "à¥¯à¥": 1123,
      "à¤°à¤Ĺà¤¤": 1124,
      "à¤¯à¤¡": 1125,
      "Ġà¤¨à¤ľ": 1126,
      "à¤ªà¤¥": 1127,
      "Ġà¤ħà¤Łà¤²": 1128,
      "Ġà¤²à¤¹à¤°": 1129,
      "Ġà¤īà¤¤à¤°": 1130,
      "Ġà¤ĩà¤ļ": 1131,
      "à¤īà¤¸à¤¨": 1132,
      "à¤Ĩà¤ľ": 1133,
      "Ġà¤ĺà¤Ł": 1134,
      "à¤ħà¤²": 1135,
      "Ġà¥¨à¥§": 1136,
      "Ġà¤ľà¤¨à¤¸": 1137,
      "Ġà¤¬à¤¹à¤¸": 1138,
      "Ġà¤ķà¤µ": 1139,
      "à¤ķà¤®": 1140,
      "à¤²à¤Ŀ": 1141,
      "à¤ļà¤¤": 1142,
      "Ġà¤Ĩà¤ªà¤°": 1143,
      "Ġà¤ıà¤ķà¤¤": 1144,
      "à¤ıà¤¸à¤ª": 1145,
      "Ġà¤ħà¤«à¤¸à¤°": 1146,
      "19": 1147,
      "à¤°à¤·": 1148,
      "à¤¯à¤µà¤¹": 1149,
      "Ġà¤ħà¤Ł": 1150,
      "Ġà¤Ĩà¤ĸ": 1151,
      "Ġà¤¶à¤¬": 1152,
      "à¤ĩà¤ķ": 1153,
      "Ġà¤®à¤¹à¤²": 1154,
      "Ġà¤§à¤®": 1155,
      "à¤¸à¤²à¤®": 1156,
      "à¤Ķ": 1157,
      "à¥Ĥ)": 1158,
      "Ġà¤Īà¤°": 1159,
      "à¤µà¤Ł": 1160,
      "à¤Łà¤«": 1161,
      "Ġà¤ľà¤¯": 1162,
      "Ġà¤°à¤£à¤¨": 1163,
      "Ġà¤Ĺà¤¹à¤°": 1164,
      "Ġà¤Ķà¤¸à¤¤": 1165,
      "à¤ĩà¤¯": 1166,
      "à¤ĩà¤¡": 1167,
      "Ġà¤īà¤ªà¤¸": 1168,
      "Ġ16": 1169,
      "à¤ĺà¤¨": 1170,
      "Ġà¤ĭ": 1171,
      "Ġà¤¹à¤ķ": 1172,
      "Ġà¤¬à¤Ĺ": 1173,
      "Ġà¤ħà¤®à¤²": 1174,
      "à¤¡à¤¸": 1175,
      "à¤¥à¤Ĺ": 1176,
      "Ġà¥§à¥Ń": 1177,
      "à¤ıà¤¸à¤Ĩà¤Ī": 1178,
      "à¤Ĩà¤Īà¤ıà¤®": 1179,
      "Ġ9": 1180,
      "à¤°à¤¥à¤®": 1181,
      "à¤¯à¤ľ": 1182,
      "Ġà¤ªà¤¸": 1183,
      "à¤ªà¤¶": 1184,
      "à¤ªà¤¹à¤²": 1185,
      "Ġà¤°à¤¦": 1186,
      "à¤ıà¤¶à¤¨": 1187,
      "Ġà¤Ńà¤Ĺà¤µ": 1188,
      "à¤ĸà¤ķà¤°": 1189,
      "à¤ľà¤¨à¤ķ": 1190,
      "Ġà¤®à¤¹à¤¸": 1191,
      "Ġà¤Ľà¤¤": 1192,
      "à¤ĺà¤Łà¤¨": 1193,
      "à¤ıà¤¸à¤ıà¤¸": 1194,
      "Ġà¥©à¥§": 1195,
      "Ġ197": 1196,
      "ĠâĢ": 1197,
      "Ġà¤®à¤ľà¤¦": 1198,
      "à¤ĩà¤¬": 1199,
      "Ġà¤ķà¤®à¤ľ": 1200,
      "Ġà¥§à¥¯à¥®": 1201,
      "à¤ķà¤²à¤¨": 1202,
      "Ġà¤®à¤£": 1203,
      "Ġà¤¹à¤®à¤¨": 1204,
      "Ġà¤ªà¤Łà¤¨": 1205,
      "Ġà¤ħà¤¹à¤®": 1206,
      "Ġà¤°à¤¨": 1207,
      "Ġà¤Ĩà¤¸à¤ª": 1208,
      "à¤ĩà¤ľ": 1209,
      "Ġà¥¨à¥ª": 1210,
      "Ġà¤¬à¤¦à¤²à¤¨": 1211,
      "Ġà¤¸à¤«à¤²": 1212,
      "Ġà¤¸à¤«à¤²à¤¤": 1213,
      "à¤Ķà¤°": 1214,
      "à¤¨à¤¬": 1215,
      "Ġà¤¨à¤Ĺà¤°": 1216,
      "à¥Ĥà¤ģ": 1217,
      "à¤ħà¤Ĺà¤°": 1218,
      "Ġà¤Ĩà¤¯à¤ķà¤°": 1219,
      "Ġà¤ķà¤®à¤°": 1220,
      "Ġà¤īà¤ªà¤ķ": 1221,
      "Ġà¥¨à¥®": 1222,
      "à¤ıà¤¸à¤¸": 1223,
      "Ġà¤ħà¤ªà¤¹à¤°à¤£": 1224,
      "Ġà¤ķà¤ķ": 1225,
      "à¤ķà¤¤à¤°": 1226,
      "Ġà¤ªà¤²": 1227,
      "Ġà¤¬à¤°à¤¤": 1228,
      "à¤¬à¤ľ": 1229,
      "à¤ļà¤ķ": 1230,
      "Ġà¤īà¤ªà¤¨": 1231,
      "à¤¼à¥į": 1232,
      "à¤°à¤ķà¤°à¤£": 1233,
      "à¤ħà¤¸à¤²": 1234,
      "à¤Ĭà¤¦": 1235,
      "à¤®à¤§": 1236,
      "à¤ľà¤¤": 1237,
      "Ġà¤ļà¤ķ": 1238,
      "Ġà¤¶à¤ªà¤¥": 1239,
      "Ġà¤īà¤¨à¤®": 1240,
      "Ġà¤¬à¤¨à¤¤": 1241,
      "Ġ11": 1242,
      "Ġà¤Ĩà¤Īà¤ª": 1243,
      "Ġà¤ĭà¤£": 1244,
      "à¥Ģ'": 1245,
      "à¤¨à¤Ī": 1246,
      "Ġà¤¸à¤¨": 1247,
      "Ġà¥¯à¥": 1248,
      "Ġà¤¤à¤¨": 1249,
      "Ġà¤Ĩà¤ī": 1250,
      "Ġà¤Ńà¤Ł": 1251,
      "Ġà¤Ķà¤ªà¤ļ": 1252,
      "Ġà¤ļà¤¯à¤¨": 1253,
      "à¤°à¤ķà¤¤": 1254,
      "à¥ĥà¤Ĥ": 1255,
      "Ġà¤¡à¤¬": 1256,
      "Ġà¤īà¤ªà¤ļ": 1257,
      "Ġà¤¬à¤¹à¤¨": 1258,
      "Ġà¥¨à¥¦à¥¦à¥«": 1259,
      "Ġà¤Ĩà¤ªà¤¦": 1260,
      "Ġà¥ªà¥¦": 1261,
      "à¤¨à¤¯": 1262,
      "à¤¯à¤£": 1263,
      "à¤®à¤¯": 1264,
      "Ġà¤Ĺà¤£": 1265,
      "Ġà¤ļà¤¢": 1266,
      "Ġà¥¨à¥©": 1267,
      "à¤¦à¤°à¤ħà¤¸à¤²": 1268,
      "Ġà¥¨à¥¦à¥¦à¥¨": 1269,
      "Ġ198": 1270,
      "Ġà¤¹à¤²à¤«à¤¨": 1271,
      "Ġà¤ķà¤ªà¤¡": 1272,
      "à¥ĩ)": 1273,
      "Ġà¤¸à¤Ł": 1274,
      "Ġà¤®à¤ł": 1275,
      "Ġà¤ľà¤¬à¤°": 1276,
      "Ġà¤°à¤ļà¤¨": 1277,
      "Ġà¤ĩà¤¶": 1278,
      "à¤Ĩà¤¡à¤µ": 1279,
      "Ġà¤ªà¤¹à¤¨": 1280,
      "Ġà¥¨à¥¨": 1281,
      "Ġà¤Ĳà¤²": 1282,
      "Ġà¤ıà¤¨à¤¸": 1283,
      "..": 1284,
      "à¤¶à¤¸": 1285,
      "Ġà¤«à¤¸à¤²": 1286,
      "Ġà¤Ľà¤µ": 1287,
      "à¤Ĩà¤Īà¤Ĩà¤°": 1288,
      "à¤ĩà¤¨à¤°": 1289,
      "Ġà¤Ĩà¤Īà¤Ł": 1290,
      "Ġ30": 1291,
      "30": 1292,
      "Ġà¤ķà¤ł": 1293,
      "à¥Ģ-": 1294,
      "Ġà¤¸à¤ĸ": 1295,
      "à¤¦à¤¬": 1296,
      "à¤Ĺà¤ľ": 1297,
      "Ġà¤ľà¤¦": 1298,
      "Ġà¤°à¤¸": 1299,
      "Ġà¤²à¤¶": 1300,
      "à¤Ľà¤¡": 1301,
      "Ġà¤²à¤Ĺà¤¨": 1302,
      "Ġà¥¨à¥¬": 1303,
      "à¤Ĩà¤Īà¤¸": 1304,
      "Ġà¤Ĳà¤¤": 1305,
      "Ġà¤ĳà¤¸": 1306,
      "Ġà¤®à¤¤à¤Ń": 1307,
      "à¤Ĩà¤°à¤ª": 1308,
      "Ġà¥¬à¥¦": 1309,
      "Ġà¤ħà¤ĸà¤¬": 1310,
      "50": 1311,
      "à¤ķà¤¶": 1312,
      "Ġà¤¹à¤¡": 1313,
      "Ġà¤¦à¤°à¤µ": 1314,
      "Ġà¤ľà¤¨à¤®": 1315,
      "à¤¬à¤ķ": 1316,
      "à¤¶à¤¹à¤°": 1317,
      "à¤ļà¤¸": 1318,
      "Ġà¤Ĩà¤®à¤¤": 1319,
      "à¤Ĩà¤¨": 1320,
      "à¤°à¤¦à¤¸": 1321,
      "Ġà¤Ĩà¤°à¤ıà¤¸à¤ıà¤¸": 1322,
      "Ġà¤ĳà¤ªà¤°": 1323,
      "Ġ196": 1324,
      "ĠA": 1325,
      "Ġà¤®à¤ļ": 1326,
      "Ġà¤ªà¤ļ": 1327,
      "à¤µà¤¡": 1328,
      "à¥Ī?": 1329,
      "Ġà¤¨à¤·": 1330,
      "à¤Ĺà¤Łà¤¨": 1331,
      "Ġà¤Ĺà¤¡": 1332,
      "Ġà¤ļà¤Łà¤°": 1333,
      "à¤Ńà¤µà¤¤": 1334,
      "Ġà¤¸à¤®à¤¨": 1335,
      "à¤īà¤¦": 1336,
      "à¤ħà¤®à¤°": 1337,
      "à¤ıà¤¸à¤ıà¤«": 1338,
      "Ġà¤ĳà¤ķ": 1339,
      "Ġà¤Ĩà¤¦à¤®": 1340,
      "18": 1341,
      "à¤¤à¤¬": 1342,
      "à¤ľà¤¶": 1343,
      "à¤ľà¤«": 1344,
      "Ġà¤ľà¤¯à¤ª": 1345,
      "à¤¶à¤µ": 1346,
      "à¤¡à¤¯à¤¨": 1347,
      "Ġà¤Ĺà¤²": 1348,
      "Ġà¤Ĩà¤¹": 1349,
      "Ġà¤Ĩà¤ļ": 1350,
      "Ġà¤ĩà¤Łà¤²": 1351,
      "à¤ĩà¤°": 1352,
      "Ġà¥§à¥¦à¥¦": 1353,
      "Ġà¤ħà¤µà¤Ĺà¤¤": 1354,
      "Ġà¤¬à¤¦à¤®": 1355,
      "Ġà¤®à¤¤à¤²à¤¬": 1356,
      "à¤¨à¤ķà¤°": 1357,
      "à¥ĭ.": 1358,
      "Ġà¤¹à¤¦": 1359,
      "Ġà¤Ĺà¤¨": 1360,
      "Ġà¤ĩà¤¨à¤®": 1361,
      "à¤«à¤¬": 1362,
      "à¤ĩà¤¨à¤ķ": 1363,
      "à¤Ĩà¤§": 1364,
      "à¤ħà¤¯": 1365,
      "à¤ķà¤¤à¤®": 1366,
      "Ġà¥©à¥«": 1367,
      "Ġà¤ıà¤¨à¤¡": 1368,
      "Ġà¤ķà¤®à¤²": 1369,
      "à¤¸à¤Ĺà¤¢": 1370,
      "Ġà¤¸à¤°à¤¸": 1371,
      "à¤®à¤¨à¤®": 1372,
      "Ġà¤¨à¤ľà¤¦": 1373,
      "Ġà¤ľà¤Ĺà¤¤": 1374,
      "à¤ıà¤¡": 1375,
      "Ġà¤ĩà¤¬": 1376,
      "à¥Ģà¤Ĥà¥¤": 1377,
      "à¤¤à¤°à¤°": 1378,
      "Ġà¤Łà¤°": 1379,
      "Ġ13": 1380,
      "Ġ14": 1381,
      "à¤¸à¤®à¤Ŀ": 1382,
      "Ġà¤ľà¤¬à¤°à¤¦à¤¸": 1383,
      "Ġà¤¬à¤ļà¤¤": 1384,
      "Ġà¤ħà¤µà¤¶": 1385,
      "à¥©à¥¦": 1386,
      "à¤ĸà¤¨à¤Ĭ": 1387,
      "Ġà¤°à¤ķà¤®": 1388,
      "BC": 1389,
      "à¤¨à¤ľ": 1390,
      "à¤ķà¤¦à¤®": 1391,
      "à¤¯à¤£à¤¨": 1392,
      "Ġà¤¸à¤¤à¤°": 1393,
      "Ġà¤ªà¤¬": 1394,
      "à¤µà¤¦": 1395,
      "à¤ªà¤ı": 1396,
      "Ġà¤¬à¤ļà¤¨": 1397,
      "Ġà¤¬à¤°à¤ķà¤°": 1398,
      "Ġà¤ħà¤¥à¤µ": 1399,
      "Ġà¤ıà¤ª": 1400,
      "à¤īà¤®": 1401,
      "Ġà¤®à¤¹à¤ľ": 1402,
      "à¤ħà¤Ĺà¤²": 1403,
      "à¤°à¤¹à¤£": 1404,
      "Ġ25": 1405,
      "Ġà¤Īà¤¸": 1406,
      "à¤ľà¤®à¤¹à¤²": 1407,
      "Ġà¤Ĩà¤īà¤Ł": 1408,
      "à¤¾;": 1409,
      "à¤°à¤ľà¤¨": 1410,
      "Ġà¤ķà¤ļ": 1411,
      "à¤Ĥ,": 1412,
      "à¤¨à¤ª": 1413,
      "à¤²à¤¦": 1414,
      "Ġà¤ªà¤¥à¤°": 1415,
      "à¤µà¤¸à¤¨": 1416,
      "Ġà¤¦à¤¤": 1417,
      "Ġà¤°à¤®": 1418,
      "Ġà¤²à¤ĸà¤¨à¤Ĭ": 1419,
      "Ġà¤¤à¤Ń": 1420,
      "Ġà¤Ńà¤ķ": 1421,
      "à¤ĩà¤µ": 1422,
      "à¤łà¤²": 1423,
      "Ġà¤īà¤¸à¤®": 1424,
      "Ġà¥¨à¥Ń": 1425,
      "Ġà¥§à¥¯": 1426,
      "Ġà¤¸à¤°à¤¬à¤ľ": 1427,
      "Ġà¤Ĩà¤Īà¤Ĩà¤Īà¤ıà¤®": 1428,
      "Ġà¤Ńà¤°à¤ª": 1429,
      "Ġà¥¨à¥¦à¥¦à¥§": 1430,
      "Ġà¤ħà¤«à¤Ĺ": 1431,
      "Ġ50": 1432,
      "Ġà¤®à¤ķà¤¸à¤¦": 1433,
      "Ġà¥§à¥¯à¥¯à¥¯": 1434,
      "20": 1435,
      "à¤ķà¤¹": 1436,
      "à¤ķà¤Ń": 1437,
      "à¤¯à¤¬": 1438,
      "à¤²à¤Ń": 1439,
      "à¤¸à¤«": 1440,
      "Ġà¤®à¤Ľà¤²": 1441,
      "Ġà¤ľà¤Ł": 1442,
      "Ġà¤Ĩà¤Ń": 1443,
      "Ġà¤Ĩà¤Ĺà¤°": 1444,
      "Ġà¤Ńà¤¯": 1445,
      "Ġà¤Ķà¤¦": 1446,
      "à¤Ĩà¤®": 1447,
      "Ġà¤ĺà¤¨": 1448,
      "à¤¸à¤¨à¤µ": 1449,
      "à¥¨à¥¦": 1450,
      "Ġà¥¨à¥¦à¥¦à¥¦": 1451,
      "Ġà¤¸à¤¤à¤¹": 1452,
      "à¤¦à¤¨à¤¶": 1453,
      "Ġà¤ıà¤«à¤Ĩà¤Īà¤Ĩà¤°": 1454,
      "à¤°à¤µà¤°": 1455,
      "à¤¯à¤°à¤®": 1456,
      "à¤¸à¤¬": 1457,
      "Ġà¤¨à¤°à¤®": 1458,
      "à¤ªà¤¡": 1459,
      "Ġà¤¬à¤¸à¤ª": 1460,
      "Ġà¤ľà¤ĸ": 1461,
      "Ġà¤°à¤«": 1462,
      "à¤ıà¤Ł": 1463,
      "à¤ļà¤ķà¤°": 1464,
      "Ġà¤¤à¤ķà¤°": 1465,
      "Ġà¤Ĩà¤ıà¤Ĺ": 1466,
      "Ġà¤ļà¤¤": 1467,
      "Ġà¤¯à¤®": 1468,
      "Ġà¤Łà¤ķà¤°": 1469,
      "à¤°à¤£à¤µ": 1470,
      "Ġà¤īà¤ªà¤Ĺ": 1471,
      "Ġà¥¨à¥¯": 1472,
      "à¤¦à¤°à¤²": 1473,
      "Ġà¤ıà¤¸à¤ľ": 1474,
      "âĢĿ": 1475,
      "Ġà¤ıà¤¯à¤°à¤²": 1476,
      "Ġà¤¸à¤¶à¤¸": 1477,
      "Ġà¤ªà¤Łà¤°": 1478,
      "à¤Ĺà¤£": 1479,
      "Ġà¤¬à¤°à¤¸": 1480,
      "Ġà¤¦à¤¯": 1481,
      "à¥Ĥ.": 1482,
      "à¤¼à¥Ī": 1483,
      "Ġà¤ıà¤°": 1484,
      "à¤°à¤ķà¤Ł": 1485,
      "Ġà¤ĺà¤Łà¤ķ": 1486,
      "Ġà¤¬à¤¨à¤µ": 1487,
      "à¤ħà¤ª": 1488,
      "à¤ħà¤¸à¤®": 1489,
      "Ġà¤°à¤ĸà¤ķà¤°": 1490,
      "à¤¶à¤ķà¤¶": 1491,
      "Ġà¤ıà¤¨à¤°": 1492,
      "Ġà¤ıà¤¨à¤ıà¤¸à¤¸": 1493,
      "Ġà¤¸à¤¬à¤ķ": 1494,
      "Ġ40": 1495,
      "Ġà¤ıà¤«à¤¬": 1496,
      "Ġà¥¦à¥ª": 1497,
      "10": 1498,
      "ĠÂ": 1499,
      "à¤ķà¤¬": 1500,
      "à¤¯à¤§": 1501,
      "Ġà¤¸à¤¸": 1502,
      "à¤¹à¤Ł": 1503,
      "Ġà¤ªà¤¨": 1504,
      "à¥ģ,": 1505,
      "à¤µà¤¹à¤¨": 1506,
      "Ġà¤¬à¤Ł": 1507,
      "à¤Łà¤¤": 1508,
      "à¤Łà¤¸": 1509,
      "Ġà¤¦à¤®": 1510,
      "Ġà¤¦à¤«": 1511,
      "Ġà¤Ńà¤¡": 1512,
      "à¤Īà¤¦": 1513,
      "à¤¼,": 1514,
      "Ġà¤ļà¤ª": 1515,
      "à¤ĩà¤«à¤²": 1516,
      "Ġà¤ķà¤¹à¤°": 1517,
      "à¤ķà¤°à¤¨": 1518,
      "à¤°à¤£à¤¬": 1519,
      "à¤Łà¤°à¤¸": 1520,
      "à¤ıà¤¸à¤¯": 1521,
      "à¤Ĩà¤Īà¤ıà¤²": 1522,
      "Ġà¤ĵà¤²": 1523,
      "Ġà¤ĳà¤°": 1524,
      "Ġà¤ĳà¤¨": 1525,
      "Ġ28": 1526,
      "Ġà¤ıà¤¸à¤ª": 1527,
      "Ġà¥©à¥¨": 1528,
      "Ġà¥©à¥¬": 1529,
      "à¤ıà¤®à¤ª": 1530,
      "Ġà¤¸à¤²à¤®": 1531,
      "16": 1532,
      "à¤¾-": 1533,
      "à¤¨à¤µà¤°": 1534,
      "à¤¤à¤Ĺ": 1535,
      "à¤¯à¤¯": 1536,
      "à¤¯à¤¶": 1537,
      "à¤²à¤ľ": 1538,
      "Ġà¤¸à¤Īà¤¦": 1539,
      "à¤¹à¤¡": 1540,
      "à¤®à¤¶": 1541,
      "Ġà¤ªà¤ª": 1542,
      "à¤Łà¤¬": 1543,
      "Ġà¤¦à¤ĸà¤²": 1544,
      "Ġà¤°à¤£": 1545,
      "à¤¡à¤¬": 1546,
      "Ġà¤īà¤Ľ": 1547,
      "Ġà¤¤à¤¡": 1548,
      "Ġà¤Ńà¤¤": 1549,
      "à¤£à¤®": 1550,
      "Ġà¤ļà¤Ł": 1551,
      "Ġà¤°à¤¹à¤¸": 1552,
      "Ġà¤¡à¤²": 1553,
      "Ġà¤¬à¤¨à¤°": 1554,
      "à¥Īà¥¤\"": 1555,
      "Ġà¤ĳà¤²": 1556,
      "à¤ıà¤¨à¤ıà¤²": 1557,
      "Ġà¥¯à¥¦": 1558,
      "ĠâĢľ": 1559,
      "Ġà¤¬à¤°à¤¤à¤¨": 1560,
      "Ġà¤ķà¤®à¤²à¤¨": 1561,
      ")à¥¤": 1562,
      "Ġà¤ķà¤¤": 1563,
      "à¤¨à¤Łà¤µà¤°": 1564,
      "à¤²à¤«": 1565,
      "Ġà¤®à¤Ĺà¤°": 1566,
      "Ġà¤¬à¤§": 1567,
      "Ġà¤¬à¤ĸ": 1568,
      "Ġà¤°à¤ĺ": 1569,
      "à¤¶à¤®": 1570,
      "à¤¶à¤ª": 1571,
      "à¤ļà¤®": 1572,
      "à¤ļà¤µ": 1573,
      "Ġà¤ıà¤ķà¤ľ": 1574,
      "à¤ĵà¤¸": 1575,
      "à¤ľà¤¨à¤¤": 1576,
      "à¤ħà¤¤": 1577,
      "à¤Łà¤°à¤ª": 1578,
      "Ġà¤¸à¤¹à¤ķ": 1579,
      "à¤¸à¤®à¤°": 1580,
      "à¤¯à¤¤à¤¨": 1581,
      "Ġà¤Ńà¤°à¤¨": 1582,
      "âĢĵ": 1583,
      "on": 1584,
      "Ġ,": 1585,
      "Ġ0": 1586,
      "ĠI": 1587,
      "ĠP": 1588,
      "à¤¾:": 1589,
      "à¤°à¤¥": 1590,
      "à¤°à¤ļà¤¨": 1591,
      "à¤¯à¤Ł": 1592,
      "à¤¯à¤°à¤¸": 1593,
      "Ġà¤®à¤°à¤¨": 1594,
      "à¤Łà¤ķà¤°": 1595,
      "Ġà¤µà¤ľà¤¨": 1596,
      "à¥Ĥ,": 1597,
      "Ġà¤²à¤®": 1598,
      "à¤¶à¤¬": 1599,
      "Ġà¤Ĺà¤¢": 1600,
      "Ġà¤ıà¤Ł": 1601,
      "à¤ĸà¤ķ": 1602,
      "Ġà¤ĸà¤Ł": 1603,
      "à¤Ľà¤¨": 1604,
      "à¥īà¤Ĥ": 1605,
      "Ġà¤®à¤¹à¤®": 1606,
      "Ġà¤Ľà¤ª": 1607,
      "Ġà¤§à¤°à¤¤": 1608,
      "Ġ100": 1609,
      "à¤ĩà¤¨à¤²": 1610,
      "à¥«à¥¦": 1611,
      "Ġà¤Ĩà¤Īà¤ıà¤¸à¤Ĩà¤Ī": 1612,
      "Ġà¤¬à¤¦à¤²à¤¤": 1613,
      "Ġà¤ıà¤¨à¤ıà¤¸": 1614,
      "Ġà¤Īà¤ª": 1615,
      "Ġà¥Ńà¥¦": 1616,
      "Ġà¥Ńà¥«": 1617,
      "Ġ2002": 1618,
      "Ġà¥®à¥¦": 1619,
      "Ġà¤ıà¤¯à¤°à¤ª": 1620,
      "Ġ60": 1621,
      "ĠABC": 1622,
      "54": 1623,
      "es": 1624,
      "à¤¾?": 1625,
      "à¤¨à¤ı": 1626,
      "à¤²à¤ļà¤¸": 1627,
      "Ġà¤®à¤Ľ": 1628,
      "à¤µà¤°à¤ķ": 1629,
      "à¤¦à¤¶": 1630,
      "Ġà¤¨à¤¨": 1631,
      "à¤ªà¤µ": 1632,
      "à¤Ĺà¤ªà¤¤": 1633,
      "Ġà¤ħà¤£": 1634,
      "à¤§à¤ķà¤°": 1635,
      "Ġà¤Ĺà¤µà¤°": 1636,
      "Ġà¤īà¤¬": 1637,
      "Ġà¤¤à¤¹": 1638,
      "à¤Īà¤¯": 1639,
      "à¤Īà¤¸": 1640,
      "Ġà¤ªà¤°à¤¤": 1641,
      "Ġà¤ıà¤¡à¤µ": 1642,
      "Ġà¤ļà¤°à¤®": 1643,
      "à¤ĸà¤¦": 1644,
      "Ġà¤¶à¤°à¤£": 1645,
      "à¤«à¤²à¤¤": 1646,
      "Ġà¤ĩà¤¸à¤¨": 1647,
      "à¤ĩà¤µà¤°": 1648,
      "à¤īà¤§à¤°": 1649,
      "à¤¼à¤¾à¥¤": 1650,
      "à¤°à¤®à¤¨": 1651,
      "à¤ħà¤Ĺ": 1652,
      "à¤ħà¤ĸ": 1653,
      "à¤Ĩà¤Īà¤ľ": 1654,
      "Ġà¤ĳà¤¡": 1655,
      "Ġà¤Ĩà¤Īà¤ı": 1656,
      "Ġà¤Ĩà¤Īà¤ıà¤®": 1657,
      "Ġà¤ıà¤¸à¤Ł": 1658,
      "Ġà¤ħà¤ªà¤¹à¤°": 1659,
      "à¥§à¥¬": 1660,
      "Ġà¥©à¥ª": 1661,
      "Ġà¥©à¥©": 1662,
      "Ġà¥©à¥Ń": 1663,
      "Ġà¤Īà¤®": 1664,
      "à¤ıà¤®à¤ıà¤¸": 1665,
      "Ġà¥ªà¥¨": 1666,
      "Ġà¥§à¥¯à¥¯": 1667,
      "à¤ıà¤«à¤¬": 1668,
      "Ġà¤¨à¤ķà¤¦": 1669,
      "Ġà¤®à¤¶à¤¹": 1670,
      "ĠD": 1671,
      "à¤°à¤ł": 1672,
      "à¤¤à¤¸à¤°": 1673,
      "à¤²à¤¹à¤¨": 1674,
      "à¤¸à¤¡": 1675,
      "à¤¹à¤µ": 1676,
      "à¤®à¤ľ": 1677,
      "à¤®à¤¥": 1678,
      "à¤®à¤¹à¤¤": 1679,
      "Ġà¤¨à¤¶": 1680,
      "à¤ªà¤¬": 1681,
      "à¤ªà¤°à¤µ": 1682,
      "à¤Ĺà¤ķ": 1683,
      "à¤Ĺà¤¶": 1684,
      "Ġà¤¬à¤¬": 1685,
      "Ġà¤¦à¤°à¤ķ": 1686,
      "Ġà¤ľà¤¸à¤µ": 1687,
      "Ġà¤ħà¤¸à¤²": 1688,
      "Ġà¤ħà¤µà¤¸": 1689,
      "Ġà¤īà¤¬à¤°": 1690,
      "Ġà¤Ńà¤²": 1691,
      "Ġà¤Ńà¤ľà¤¨": 1692,
      "à¤Īà¤°": 1693,
      "Ġà¤ıà¤ķà¤®": 1694,
      "à¤ķà¤°à¤¶": 1695,
      "à¤ľà¤¨à¤¯": 1696,
      "à¤ħà¤ľ": 1697,
      "à¤Łà¤°à¤µ": 1698,
      "Ġà¤§à¤¡": 1699,
      "Ġà¤Ĩà¤°à¤ª": 1700,
      "Ġà¤īà¤¤à¤¨": 1701,
      "Ġà¤¦à¤°à¤Ĺ": 1702,
      "à¤ıà¤¸à¤ıà¤¨à¤ıà¤²": 1703,
      "à¤Ĩà¤Īà¤Ł": 1704,
      "Ġà¤ĳà¤¯à¤²": 1705,
      "Ġà¤¸à¤°à¤¨": 1706,
      "Ġà¤¸à¤°à¤²": 1707,
      "Ġà¤ªà¤¦à¤¸": 1708,
      "Ġà¤ıà¤¸à¤ıà¤¸à¤ª": 1709,
      "à¥§à¥¯à¥": 1710,
      "Ġà¤ħà¤µà¤ľ": 1711,
      "Ġà¥¨à¥¦à¥¦à¥¬": 1712,
      "Ġà¤ľà¤²à¤µ": 1713,
      "Ġà¤¢à¤²": 1714,
      "Ġà¥§à¥¯à¥Ń": 1715,
      "Ġ31": 1716,
      "Ġà¤ıà¤®à¤¬": 1717,
      "Ġ2004": 1718,
      "Ġà¤ĩà¤ķà¤¬": 1719,
      "Ġà¤ľà¤¨à¤®à¤¤": 1720,
      "à¤°à¤ľà¤¨à¤¨": 1721,
      "13": 1722,
      "40": 1723,
      "60": 1724,
      "ti": 1725,
      "à¥ĩ-": 1726,
      "à¥ĭ-": 1727,
      "à¤¤à¤ª": 1728,
      "à¤¤à¤ĸ": 1729,
      "à¤²à¤ļ": 1730,
      "à¤¸à¤¡à¤°": 1731,
      "à¤¹à¤¬": 1732,
      "à¤¹à¤®à¤²": 1733,
      "Ġà¤®à¤¥": 1734,
      "à¤®à¤¸à¤®à¤°": 1735,
      "Ġà¤¹à¤Łà¤¨": 1736,
      "à¤µà¤µà¤°": 1737,
      "à¤¦à¤¯": 1738,
      "à¥ĩà¤Ĥ.": 1739,
      "Ġà¤¨à¤¸": 1740,
      "à¤Ĺà¤¸": 1741,
      "Ġà¤ħà¤¹à¤¸": 1742,
      "Ġà¤ħà¤ľà¤¯": 1743,
      "à¤ıà¤¯à¤°": 1744,
      "Ġà¤²à¤¤": 1745,
      "Ġà¤Ĺà¤°à¤®": 1746,
      "Ġà¤Ĺà¤¹à¤¨": 1747,
      "Ġà¤īà¤ķ": 1748,
      "Ġà¤Ĩà¤ĩà¤¸à¤²": 1749,
      "Ġà¤Ńà¤Ĺà¤¤": 1750,
      "à¤Īà¤²": 1751,
      "Ġà¤ĩà¤«": 1752,
      "Ġà¤Ķà¤ļ": 1753,
      "à¤¼à¥ĩà¤Ĥ": 1754,
      "Ġà¤ıà¤¯": 1755,
      "Ġà¤ıà¤¡à¤®": 1756,
      "Ġà¤¶à¤°à¤¦": 1757,
      "à¤ĩà¤®à¤°": 1758,
      "à¤°à¤¤à¤®": 1759,
      "à¥Ģà¤Ĥ.": 1760,
      "Ġà¤ĸà¤ľ": 1761,
      "à¤īà¤ª": 1762,
      "à¤Ĩà¤ª": 1763,
      "à¤¼à¤¾,": 1764,
      "à¤°à¤¸à¤¨": 1765,
      "à¤ıà¤¸à¤Ī": 1766,
      "Ġà¤ĳà¤Ł": 1767,
      "à¥¨à¥¬": 1768,
      "Ġà¤īà¤łà¤¤": 1769,
      "Ġà¤ıà¤²à¤ª": 1770,
      "Ġà¤ıà¤«à¤¡": 1771,
      "Ġà¥¦à¥«": 1772,
      "Ġ2014": 1773,
      "Ġ1970": 1774,
      "Ġà¤īà¤ªà¤¨à¤Ĺà¤°": 1775,
      "12": 1776,
      "15": 1777,
      "200": 1778,
      "35": 1779,
      "BS": 1780,
      "ĠN": 1781,
      "Ġ[": 1782,
      "Ġn": 1783,
      "Ġp": 1784,
      "Ġà¤ķà¤µà¤°": 1785,
      "Ġà¤ķà¤¸à¤°": 1786,
      "à¥Ģ\"": 1787,
      "à¤²à¤ª": 1788,
      "à¤¹à¤ľà¤¹": 1789,
      "Ġà¤®à¤°à¤®": 1790,
      "à¤µà¤Ĺ": 1791,
      "à¤µà¤¸à¤®": 1792,
      "à¥Ī;": 1793,
      "à¤¦à¤¤": 1794,
      "Ġà¤¨à¤¬": 1795,
      "à¤Ĺà¤®à¤¨": 1796,
      "Ġà¤ľà¤¶": 1797,
      "Ġà¤µà¤¡": 1798,
      "Ġà¤µà¤¨à¤¸": 1799,
      "à¤ıà¤¬": 1800,
      "à¤¬à¤ļ": 1801,
      "Ġà¤Ĩà¤«": 1802,
      "Ġà¤ªà¤°à¤¸": 1803,
      "à¤¥à¤¶": 1804,
      "Ġà¤¯à¤¥": 1805,
      "à¤ĩà¤ª": 1806,
      "à¤ĩà¤§à¤°": 1807,
      "Ġà¤ĸà¤²": 1808,
      "Ġà¤ıà¤ķà¤¡": 1809,
      "à¤ķà¤°à¤°à¤®à¤¨": 1810,
      "à¤īà¤ļ": 1811,
      "à¤īà¤¥": 1812,
      "Ġ--": 1813,
      "à¤Ĩà¤µà¤ľ": 1814,
      "à¤°à¤®à¤¶": 1815,
      "à¤ħà¤²à¤Ĺ": 1816,
      "Ġà¤Ĩà¤°à¤¡": 1817,
      "à¤ĺà¤²": 1818,
      "à¤ĺà¤µ": 1819,
      "à¤Ĩà¤Īà¤ı": 1820,
      "Ġà¤ĵà¤µà¤°": 1821,
      "à¤²à¤¬à¤¤": 1822,
      "à¤¯à¤²à¤²": 1823,
      "à¤¯à¤²à¤Ł": 1824,
      "Ġà¤¸à¤®à¤Ŀà¤¤": 1825,
      "à¤Ĩà¤°à¤ıà¤¸": 1826,
      "Ġà¥ªà¥«": 1827,
      "à¤¡à¤°à¤µà¤°": 1828,
      "Ġà¥§à¥¯à¥¬": 1829,
      "Ġà¤īà¤²à¤Ł": 1830,
      "à¤ıà¤¨à¤ı": 1831,
      "à¤Īà¤ķà¤®": 1832,
      "Ġ2000": 1833,
      "Ġà¤īà¤¤à¤°à¤¨": 1834,
      "...": 1835,
      "ĠÂ£": 1836,
      "%)": 1837,
      "11": 1838,
      "25": 1839,
      "34": 1840,
      "55": 1841,
      "ed": 1842,
      "Ġ$": 1843,
      "ĠC": 1844,
      "ĠM": 1845,
      "à¤¨à¤¹": 1846,
      "à¤¤à¤ĸà¤¤": 1847,
      "à¤¸à¤Ł": 1848,
      "Ġà¤¸à¤ªà¤¨": 1849,
      "à¤®à¤¬": 1850,
      "à¤®à¤ĺ": 1851,
      "Ġà¤¹à¤°à¤ķà¤¤": 1852,
      "Ġà¤ªà¤ł": 1853,
      "à¥ĩà¤Ĥà¥¤": 1854,
      "Ġà¤¨à¤®à¤ķ": 1855,
      "Ġà¤¨à¤Ĺà¤®": 1856,
      "Ġà¤ľà¤®à¤¨": 1857,
      "à¤¶à¤ľ": 1858,
      "à¤¡à¤ķ": 1859,
      "Ġà¤Ĺà¤¶": 1860,
      "Ġà¤Ĺà¤£à¤¨": 1861,
      "Ġà¤¤à¤ª": 1862,
      "à¤Īà¤ª": 1863,
      "à¤Īà¤ı": 1864,
      "Ġà¤ıà¤ħà¤°": 1865,
      "à¤£à¤¸": 1866,
      "Ġà¤¯à¤¶à¤µ": 1867,
      "à¤ĩà¤¶": 1868,
      "Ġà¤ĸà¤«": 1869,
      "à¤īà¤°": 1870,
      "à¤Ľà¤°": 1871,
      "à¤Ĩà¤ĸ": 1872,
      "à¤¤à¤°à¤«": 1873,
      "Ġà¤ħà¤¨à¤¦": 1874,
      "Ġà¤¡à¤°": 1875,
      "à¤ħà¤²à¤¬à¤¤": 1876,
      "Ġà¤ħà¤®à¤°à¤¨": 1877,
      "à¤¸à¤¨à¤²": 1878,
      "à¤ıà¤¸à¤ľ": 1879,
      "Ġà¤ĵà¤¬": 1880,
      "à¤¹à¤¨à¤¤": 1881,
      "à¤ľà¤°à¤¨": 1882,
      "Ġ27": 1883,
      "Ġà¤īà¤®à¤°": 1884,
      "Ġà¤Ĩà¤Īà¤ľ": 1885,
      "à¥§à¥¦": 1886,
      "à¥§à¥¨": 1887,
      "Ġà¤ħà¤µà¤ķ": 1888,
      "Ġà¤Ĩà¤ľà¤®": 1889,
      "Ġà¤ľà¤²à¤¸": 1890,
      "Ġà¤ħà¤¸à¤¹": 1891,
      "Ġ190": 1892,
      "à¤Ĩà¤°à¤Ĩà¤Ī": 1893,
      "Ġà¥ªà¥©": 1894,
      "Ġà¥ªà¥®": 1895,
      "à¤°à¤¬à¤¦à¤²": 1896,
      "Ġà¤¸à¤«à¤°": 1897,
      "Ġ2005": 1898,
      "Ġà¤ĸà¤¤à¤°à¤¨": 1899,
      "Ġ2010": 1900,
      "Ġà¥§à¥¯à¥¯à¥¦": 1901,
      "an": 1902,
      "à¥ĩ'": 1903,
      "à¤°à¤°": 1904,
      "Ġà¤ķà¤¦": 1905,
      "à¤¨à¤¬à¤°": 1906,
      "à¤¸à¤Ĺ": 1907,
      "à¤¹à¤ª": 1908,
      "à¤¹à¤®à¤¨": 1909,
      "à¤µà¤®": 1910,
      "à¥Ī:": 1911,
      "à¤¦à¤ª": 1912,
      "Ġà¤¨à¤°à¤¸": 1913,
      "Ġà¤¨à¤ķà¤²": 1914,
      "à¤Ĺà¤ķà¤°": 1915,
      "à¤Ĺà¤ł": 1916,
      "Ġà¤¬à¤¦à¤°": 1917,
      "Ġà¤¬à¤Ĺà¤¦": 1918,
      "à¤ľà¤ķà¤°": 1919,
      "Ġà¤¦à¤¹": 1920,
      "Ġà¤¦à¤«à¤¨": 1921,
      "Ġà¤ħà¤Łà¤µ": 1922,
      "à¤ıà¤¶": 1923,
      "à¤¬à¤®": 1924,
      "à¤¬à¤°à¤µ": 1925,
      "à¤§à¤²": 1926,
      "à¤·à¤§": 1927,
      "Ġà¤īà¤§": 1928,
      "Ġà¤īà¤ĸ": 1929,
      "Ġà¤īà¤Ńà¤°": 1930,
      "Ġà¤Ĩà¤¦à¤°": 1931,
      "Ġà¤Ńà¤°à¤¤": 1932,
      "Ġà¤Ķà¤ªà¤¨": 1933,
      "Ġà¤Ķà¤·à¤§": 1934,
      "à¤¥à¤¤": 1935,
      "Ġà¤ıà¤Ĺ": 1936,
      "Ġà¤ıà¤¬": 1937,
      "à¤£à¤µ": 1938,
      "à¤ĸà¤Ń": 1939,
      "Ġà¤¥à¤²à¤¸": 1940,
      "à¤ĩà¤«": 1941,
      "Ġà¤ıà¤ķà¤¦à¤®": 1942,
      "à¤Ĩà¤²": 1943,
      "à¤ľà¤¨à¤²": 1944,
      "à¤ħà¤«": 1945,
      "à¤¶à¤¨à¤ķ": 1946,
      "à¤¯à¤®à¤¨": 1947,
      "à¤Ĺà¤°à¤ª": 1948,
      "à¤¼à¥Ģ,": 1949,
      "à¤¯à¤°à¤²": 1950,
      "à¤¸à¤®à¤¯": 1951,
      "Ġà¤ħà¤®à¤¨": 1952,
      "Ġà¤ľà¤¨à¤¹": 1953,
      "Ġà¤ľà¤¨à¤¶à¤ķ": 1954,
      "à¤ıà¤¸à¤ı": 1955,
      "à¤Ĩà¤Īà¤µ": 1956,
      "Ġà¤ļà¤²à¤ķà¤°": 1957,
      "Ġ22": 1958,
      "Ġà¤ıà¤¸à¤¬": 1959,
      "Ġà¤ħà¤ªà¤®": 1960,
      "à¥¨à¥«": 1961,
      "Ġà¥©à¥¦à¥¦": 1962,
      "Ġà¥©à¥®": 1963,
      "Ġà¥©à¥¯": 1964,
      "à¤µà¤²à¤ªà¤®": 1965,
      "Ġà¤ħà¤¸à¤µà¤¤": 1966,
      "Ġà¤Īà¤¶": 1967,
      "Ġà¤¸à¤®à¤Ŀà¤¨": 1968,
      "à¤Ĩà¤°à¤¡": 1969,
      "Ġà¥«à¥Ń": 1970,
      "Ġà¥ªà¥Ń": 1971,
      "Ġà¤¤à¤¬à¤ķ": 1972,
      "à¤ıà¤¨à¤¡": 1973,
      "Ġ2003": 1974,
      "Ġ2007": 1975,
      "Ġ55": 1976,
      "Ġà¤Ĩà¤ķà¤²à¤¨": 1977,
      "Ġà¤ħà¤¸à¤®à¤°": 1978,
      "Ġà¥¦à¥©": 1979,
      "Ġà¤łà¤¹à¤°à¤¨": 1980,
      "Ġ2013": 1981,
      "Ġ2015": 1982,
      "Ġ70": 1983,
      "Ġà¤ıà¤ļà¤Ĩà¤Īà¤µ": 1984,
      "à¥¯à¥§": 1985,
      "Ġà¤ħà¤Łà¤ķà¤²": 1986,
      "ĠâĢĵ": 1987,
      "Ġà¤ªà¤²à¤Ł": 1988,
      "Ġ1980": 1989,
      "Ġà¤ľà¤¬à¤°à¤¨": 1990,
      "in": 1991,
      "ta": 1992,
      "ĠE": 1993,
      "ĠL": 1994,
      "à¤°à¤ļà¤²": 1995,
      "Ġà¤ķà¤¤à¤°": 1996,
      "Ġà¤ķà¤ļà¤°": 1997,
      "à¤¤à¤¹": 1998,
      "à¤¤à¤ķà¤°": 1999,
      "à¤ķà¤¥": 2000,
      "à¤ķà¤ķà¤°": 2001,
      "à¤¯à¤ķà¤°à¤£": 2002,
      "à¤¯à¤¸à¤µ": 2003,
      "à¤¸à¤¶": 2004,
      "Ġà¤¸à¤°à¤¦": 2005,
      "Ġà¤¹à¤°à¤Ń": 2006,
      "Ġà¤ªà¤¥": 2007,
      "à¤µà¤¯à¤¨": 2008,
      "à¤µà¤ľà¤¹": 2009,
      "Ġà¤¨à¤«": 2010,
      "à¤Ĺà¤ª": 2011,
      "Ġà¤¬à¤ķ": 2012,
      "à¤Łà¤ª": 2013,
      "à¤Łà¤¡": 2014,
      "Ġà¤¦à¤¸à¤µ": 2015,
      "Ġà¤ľà¤¡": 2016,
      "Ġà¤ľà¤¯à¤²à¤²": 2017,
      "Ġà¤µà¤ľ": 2018,
      "Ġà¤ħà¤µà¤°": 2019,
      "Ġà¤²à¤¦": 2020,
      "Ġà¤²à¤ķà¤¡": 2021,
      "à¤¬à¤¯": 2022,
      "à¤¶à¤ķà¤°": 2023,
      "à¤¡à¤°à¤¸à¤¨": 2024,
      "à¤§à¤¡": 2025,
      "Ġà¤Ĩà¤®à¤¦": 2026,
      "Ġà¤Ńà¤Ĺ": 2027,
      "à¤Īà¤®": 2028,
      "à¤Īà¤ĵ": 2029,
      "à¤¼à¥ģ": 2030,
      "à¤¼à¥Ĥ": 2031,
      "à¤£à¤ķ": 2032,
      "à¤£à¤µà¤¤": 2033,
      "Ġà¤ļà¤¨": 2034,
      "à¤ĸà¤µ": 2035,
      "à¥Īà¤Ĥ?": 2036,
      "Ġà¤ķà¤¹à¤ķà¤°": 2037,
      "Ġà¤¸à¤®à¤Ĺ": 2038,
      "Ġà¤ıà¤ķà¤²": 2039,
      "à¤īà¤Ł": 2040,
      "à¤Ĩà¤°à¤¸": 2041,
      "Ġà¤¬à¤¨à¤ķà¤°": 2042,
      "à¤ħà¤ķ": 2043,
      "Ġà¤§à¤ķ": 2044,
      "à¤°à¤¹à¤µ": 2045,
      "à¤¸à¤¦à¤¨": 2046,
      "à¤Ŀà¤ķà¤°": 2047,
      "Ġà¤ľà¤¨à¤¸à¤Ń": 2048,
      "à¤ıà¤¸à¤ıà¤²": 2049,
      "Ġà¤ĵà¤¸": 2050,
      "Ġà¤ĵà¤ªà¤¨": 2051,
      "à¤ŀà¤ª": 2052,
      "Ġ21": 2053,
      "Ġ24": 2054,
      "à¥§à¥«": 2055,
      "à¥§à¥Ń": 2056,
      "à¤Łà¤²à¤°": 2057,
      "Ġà¤łà¤ª": 2058,
      "Ġà¤Ŀà¤¡": 2059,
      "à¥¨à¥¦à¥¦": 2060,
      "à¥¨à¥§": 2061,
      "à¥ªà¥¦": 2062,
      "Ġà¥«à¥«": 2063,
      "Ġà¥«à¥¬": 2064,
      "Ġà¥ªà¥¬": 2065,
      "à¥®à¥¦": 2066,
      "Ġà¥§à¥¯à¥ª": 2067,
      "à¤ıà¤«à¤¸": 2068,
      "Ġ35": 2069,
      "Ġ39": 2070,
      "Ġà¤ıà¤®à¤ıà¤®": 2071,
      "Ġà¤ħà¤Ĺà¤µ": 2072,
      "Ġ2001": 2073,
      "Ġà¥®à¥«": 2074,
      "Ġ45": 2075,
      "Ġ400": 2076,
      "à¤²à¤Ĺà¤Ńà¤Ĺ": 2077,
      "Ġ2012": 2078,
      "Ġ1997": 2079,
      "Ġ1998": 2080,
      "à¤ıà¤ļà¤ĵ": 2081,
      "à¤ĳà¤ķ": 2082,
      "Ġà¤ĺà¤Łà¤ķà¤°": 2083,
      "Ġà¥§à¥¯à¥®à¥ª": 2084,
      "Ġà¤Ĺà¤£à¤°": 2085,
      "Ġà¤ªà¤¨à¤¡": 2086,
      "Ġà¤¤à¤¹à¤²à¤ķ": 2087,
      "Ġà¤Ĩà¤Īà¤ıà¤ıà¤¸": 2088,
      "Ġà¤īà¤¬à¤°à¤¨": 2089,
      "Ġà¤¹à¤°à¤Ńà¤ľà¤¨": 2090,
      "\")": 2091,
      "56": 2092,
      "65": 2093,
      "en": 2094,
      "ky": 2095,
      "li": 2096,
      "ri": 2097,
      "»¿": 2098,
      "ï»¿": 2099,
      "ĠQ": 2100,
      "ĠS": 2101,
      "ĠV": 2102,
      "à¤ĭ": 2103,
      "à¤°à¤¬à¤²": 2104,
      "Ġà¤ķà¤£": 2105,
      "Ġà¤ķà¤¸à¤¨": 2106,
      "à¤¨à¤Ĺ": 2107,
      "à¤¨à¤¡": 2108,
      "à¤¨à¤¹à¤°": 2109,
      "à¤¨à¤µà¤¤": 2110,
      "à¥ĭà¥¤": 2111,
      "à¤¤à¤Ń": 2112,
      "à¤ķà¤²à¤¤": 2113,
      "à¤¯à¤°à¤¤": 2114,
      "à¤¯à¤ľà¤¨à¤ķ": 2115,
      "Ġà¤¸à¤¶à¤ķ": 2116,
      "à¤¹à¤«": 2117,
      "Ġà¤®à¤®à¤¤": 2118,
      "à¤®à¤ķà¤¤": 2119,
      "Ġà¤¹à¤¬": 2120,
      "Ġà¤¹à¤°à¤ķ": 2121,
      "à¥ĩà¤Ĥ)": 2122,
      "Ġà¤¬à¤µ": 2123,
      "Ġà¤¬à¤Ĺà¤²": 2124,
      "Ġà¤¬à¤¬à¤²": 2125,
      "Ġà¤°à¤¨à¤µ": 2126,
      "à¤ıà¤¨à¤¸": 2127,
      "à¤§à¤¸": 2128,
      "Ġà¤Ĺà¤ľ": 2129,
      "à¤ļà¤¯": 2130,
      "à¤·à¤°à¤¤": 2131,
      "Ġà¤¤à¤²à¤¬": 2132,
      "Ġà¤¤à¤°à¤²": 2133,
      "Ġà¤Ĩà¤²à¤®": 2134,
      "à¤Īà¤µ": 2135,
      "à¤Īà¤¡": 2136,
      "Ġà¤ĩà¤®à¤°": 2137,
      "Ġà¤ĩà¤ķà¤Ł": 2138,
      "à¤¾à¤Ĥ,": 2139,
      "Ġà¤ıà¤¹à¤¤": 2140,
      "Ġà¤ļà¤®à¤ķ": 2141,
      "à¤ĸà¤Ł": 2142,
      "à¤ĸà¤²à¤¨": 2143,
      "à¤Ńà¤ķ": 2144,
      "à¤Ńà¤Ł": 2145,
      "à¤ĩà¤¤": 2146,
      "à¤ĩà¤¬à¤°": 2147,
      "à¤ĩà¤ªà¤²": 2148,
      "à¤łà¤¤": 2149,
      "à¤Ľà¤¹": 2150,
      "à¤ĵà¤ķ": 2151,
      "à¤ĵà¤²": 2152,
      "à¤ľà¤¨à¤°à¤²": 2153,
      "Ġà¤¡à¤ķ": 2154,
      "à¤īà¤¨à¤²": 2155,
      "à¤ħà¤ļ": 2156,
      "Ġà¤Ľà¤ł": 2157,
      "Ġà¤§à¤°à¤¨": 2158,
      "à¤¸à¤²à¤µ": 2159,
      "à¤¹à¤¤à¤ķ": 2160,
      "Ġà¤¸à¤¹à¤µ": 2161,
      "Ġà¤ħà¤®à¤°à¤®à¤£": 2162,
      "à¤Ŀà¤®": 2163,
      "Ġà¤¸à¤¦à¤°": 2164,
      "à¤Ĩà¤Īà¤ª": 2165,
      "à¤Ĩà¤Īà¤¡": 2166,
      "à¤¬à¤¸à¤ª": 2167,
      "Ġà¤ĳà¤¨à¤²": 2168,
      "Ġà¤Ĩà¤Īà¤¸": 2169,
      "à¥§à¥©": 2170,
      "à¥¨à¥ª": 2171,
      "à¥¨à¥¯": 2172,
      "Ġà¤¬à¤°à¤ĸ": 2173,
      "à¤¤à¤ļà¤°": 2174,
      "à¥©à¥¬": 2175,
      "Ġà¤¸à¤¤à¤²": 2176,
      "à¤°à¤¨à¤Ĺà¤°": 2177,
      "Ġ194": 2178,
      "Ġà¤Ĩà¤¶à¤¯": 2179,
      "Ġà¥«à¥¦à¥¦": 2180,
      "Ġà¥«à¥©": 2181,
      "Ġà¤¢à¤ķ": 2182,
      "à¤¸à¤¤à¤²": 2183,
      "Ġà¤ħà¤«à¤µ": 2184,
      "Ġ36": 2185,
      "Ġà¤Ĺà¤łà¤ľ": 2186,
      "Ġ2006": 2187,
      "Ġà¤®à¤ķà¤¬à¤°": 2188,
      "Ġà¥§à¥«à¥¦": 2189,
      "Ġà¥§à¥¯à¥¯à¥®": 2190,
      "Ġà¥§à¥¯à¥¯à¥Ń": 2191,
      "Ġà¤ıà¤¯à¤°à¤Ł": 2192,
      "à¤ıà¤ļà¤ıà¤¸": 2193,
      "à¤ĳà¤«": 2194,
      "Ġà¥§à¥¯à¥®à¥¦": 2195,
      "à¤¬à¤ľà¤Ł": 2196,
      "Ġà¥¯à¥¨": 2197,
      "Ġà¤¨à¤°à¤®à¤ª": 2198,
      "ĠII": 2199,
      "Ġà¤ĸà¤Łà¤ĸà¤Ł": 2200,
      "à¤ħà¤ĸà¤¬": 2201,
      "Ġà¤ıà¤¯à¤°à¤µ": 2202,
      "Ġà¤¦à¤¹à¤¶à¤¤": 2203,
      "\",": 2204,
      "14": 2205,
      "21": 2206,
      "28": 2207,
      "37": 2208,
      "38": 2209,
      "70": 2210,
      "99": 2211,
      "Mon": 2212,
      "SP": 2213,
      "uMon": 2214,
      "Ġ/": 2215,
      "ĠT": 2216,
      "ĠY": 2217,
      "Ġc": 2218,
      "à¥ĩ\"": 2219,
      "à¥ĩ?": 2220,
      "à¤°à¤Ľ": 2221,
      "à¤¿à¤ĥ": 2222,
      "à¥Ģ;": 2223,
      "à¥ĭ'": 2224,
      "à¤ķà¤ľ": 2225,
      "à¤²à¤¡": 2226,
      "à¤¸à¤¹": 2227,
      "à¤¸à¤¬à¤°": 2228,
      "à¤¸à¤¨à¤ķ": 2229,
      "Ġà¤¸à¤Ĭà¤¦": 2230,
      "à¤¹à¤ľ": 2231,
      "à¤®à¤Ĺà¤°": 2232,
      "à¤®à¤ľà¤¦": 2233,
      "Ġà¤¹à¤¨à¤¨": 2234,
      "Ġà¤¹à¤²à¤ķ": 2235,
      "Ġà¤ªà¤Łà¤²": 2236,
      "à¤µà¤ļ": 2237,
      "à¤¦à¤°à¤¤": 2238,
      "à¥ĩà¤Ĥ?": 2239,
      "Ġà¤¨à¤ķà¤µ": 2240,
      "Ġà¤¨à¤µà¤ľ": 2241,
      "Ġà¤¬à¤¸à¤¨": 2242,
      "à¤ľà¤Ń": 2243,
      "Ġà¤¦à¤¶": 2244,
      "Ġà¤ľà¤¨à¤ķ": 2245,
      "Ġà¤ľà¤«à¤°": 2246,
      "Ġà¤µà¤¯à¤¸": 2247,
      "Ġà¤ħà¤ł": 2248,
      "à¥Ĥ-": 2249,
      "Ġà¤°à¤¤": 2250,
      "Ġà¤°à¤ļ": 2251,
      "Ġà¤°à¤®à¤¨": 2252,
      "Ġà¤°à¤¤à¤¨": 2253,
      "à¤ıà¤ª": 2254,
      "Ġà¤²à¤²": 2255,
      "Ġà¤²à¤ļ": 2256,
      "à¤§à¤°à¤¨": 2257,
      "Ġà¤Ĺà¤¦": 2258,
      "Ġà¤īà¤Ń": 2259,
      "Ġà¤¤à¤Ĺà¤¡": 2260,
      "Ġà¤Ĩà¤¡": 2261,
      "Ġà¤Ĩà¤ªà¤¨": 2262,
      "Ġà¤Ĩà¤¸à¤®": 2263,
      "Ġà¤Ĩà¤¸à¤¨": 2264,
      "à¤Īà¤Ł": 2265,
      "Ġà¤ªà¤°à¤¹": 2266,
      "Ġà¤ıà¤¤à¤°": 2267,
      "Ġà¤ıà¤ħ": 2268,
      "Ġà¤ıà¤Ĩà¤Īà¤¸": 2269,
      "Ġà¤ļà¤®": 2270,
      "Ġà¤ļà¤¶": 2271,
      "Ġà¤¯à¤ķ": 2272,
      "Ġà¤¯à¤ľ": 2273,
      "Ġà¤¶à¤ĸ": 2274,
      "à¤«à¤°à¤ª": 2275,
      "Ġà¤¥à¤²": 2276,
      "Ġà¤¥à¤®": 2277,
      "à¤ĩà¤ķà¤²": 2278,
      "à¤ĩà¤¤à¤¨": 2279,
      "Ġà¤ĸà¤Ĺ": 2280,
      "Ġà¤ĸà¤¨à¤¨": 2281,
      "Ġà¤«à¤Łà¤ķ": 2282,
      "Ġà¤ıà¤ķà¤¤à¤°à¤«": 2283,
      "Ġà¤¨à¤¹à¤°": 2284,
      "à¤łà¤µ": 2285,
      "à¤īà¤¡à¤°": 2286,
      "à¤Ĩà¤Ĺ": 2287,
      "à¤Ĩà¤Ĺà¤°": 2288,
      "à¤Ĩà¤¯à¤ķà¤°": 2289,
      "Ġà¤ªà¤¹à¤¨à¤¨": 2290,
      "à¤ĵà¤ľ": 2291,
      "Ġà¤ĺà¤¡": 2292,
      "Ġ(\"": 2293,
      "à¤°à¤¹à¤®": 2294,
      "Ġà¤īà¤ªà¤¹": 2295,
      "Ġà¤Ĩà¤°à¤Ĩà¤Īà¤ıà¤²": 2296,
      "à¥Īà¥¤âĢĿ": 2297,
      "à¤ĺà¤®": 2298,
      "à¤Ŀà¤¨": 2299,
      "Ġà¤¦à¤°à¤Ń": 2300,
      "Ġà¤ªà¤¤à¤¨": 2301,
      "à¤Ĩà¤Īà¤Ĩà¤Ī": 2302,
      "Ġà¤ĩà¤¨à¤¸": 2303,
      "à¤¦à¤°à¤Ĺ": 2304,
      "à¤¯à¤¨à¤¶": 2305,
      "à¤ĩà¤¨à¤¸": 2306,
      "à¤¹à¤¨à¤µà¤Ł": 2307,
      "Ġà¤¸à¤°à¤Ĺà¤¨": 2308,
      "Ġ23": 2309,
      "à¥§à¥§": 2310,
      "Ġà¤ħà¤µà¤®": 2311,
      "Ġà¤Ĩà¤Ĺà¤ľà¤¨": 2312,
      "à¥¨à¥®": 2313,
      "Ġà¥¨à¥¦à¥¦à¥®": 2314,
      "Ġà¥¨à¥¦à¥¦à¥Ń": 2315,
      "Ġà¤ķà¤²à¤¹": 2316,
      "à¤µà¤²à¤ª": 2317,
      "Ġà¤ħà¤¸à¤«à¤²": 2318,
      "Ġà¤ħà¤ķà¤¬à¤°": 2319,
      "à¥Ĥà¤Ĥ,": 2320,
      "à¥Ĥà¤Ĥà¥¤": 2321,
      "Ġà¤¬à¤²à¤µ": 2322,
      "Ġà¤Īà¤¡": 2323,
      "Ġà¤Īà¤§à¤¨": 2324,
      "Ġà¤¤à¤°à¤ľ": 2325,
      "à¤Ĩà¤°à¤ıà¤¸à¤ıà¤¸": 2326,
      "Ġà¥«à¥¯": 2327,
      "Ġà¥«à¥¦à¥¦à¥¦": 2328,
      "Ġà¥ªà¥ª": 2329,
      "à¥®à¥§": 2330,
      "Ġà¥§à¥¯à¥¨": 2331,
      "Ġà¤ħà¤«à¤ľà¤²": 2332,
      "Ġà¤ľà¤Ĺà¤¦": 2333,
      "Ġà¥¬à¥«": 2334,
      "Ġà¥¬à¥¬": 2335,
      "Ġà¤¨à¤µà¤®": 2336,
      "à¤Ĭà¤°": 2337,
      "Ġà¥¦à¥¬": 2338,
      "Ġà¥§à¥¯à¥¯à¥©": 2339,
      "Ġà¥§à¥¯à¥¯à¥¬": 2340,
      "Ġà¤¸à¤®à¤ķà¤ķ": 2341,
      "Ġ1990": 2342,
      "Ġ80": 2343,
      "à¤ĳà¤²": 2344,
      "à¤Ĩà¤Īà¤ıà¤®à¤ı": 2345,
      "Ġ99": 2346,
      "Ġ1979": 2347,
      "Ġà¥§à¥¯à¥®à¥®": 2348,
      "Ġà¤ªà¤²à¤µà¤²": 2349,
      "Ġà¤ķà¤¤à¤Ī": 2350,
      "à¥§à¥¯à¥¯à¥": 2351,
      "BSky": 2352,
      "Ġà¤Ĩà¤®à¤¦à¤¨": 2353,
      "à¤ĭà¤·": 2354,
      "uMont": 2355,
      "BSkyB": 2356,
      "36": 2357,
      "39": 2358,
      "57": 2359,
      "500": 2360,
      "64": 2361,
      "74": 2362,
      "79": 2363,
      "EC": 2364,
      "er": 2365,
      "et": 2366,
      "·à¤¡": 2367,
      "ĠH": 2368,
      "ĠU": 2369,
      "ĠX": 2370,
      "Ġf": 2371,
      "Ġ...": 2372,
      "ĠBSkyB": 2373,
      "Ġà¤·à¤¡": 2374,
      "à¤¾),": 2375,
      "Ġà¤ķà¤Łà¤°": 2376,
      "Ġà¤ķà¤¦à¤°": 2377,
      "à¤¨à¤«": 2378,
      "à¤¨à¤¸à¤¨": 2379,
      "à¥ĭ)": 2380,
      "à¤¤à¤²à¤µ": 2381,
      "à¤ķà¤ķ": 2382,
      "à¤¯à¤¬à¤°": 2383,
      "à¤¯à¤ľà¤²": 2384,
      "à¤²à¤ªà¤¤": 2385,
      "à¤²à¤ĩà¤®": 2386,
      "à¤¸à¤ªà¤°": 2387,
      "à¤¸à¤ĺ": 2388,
      "à¤¸à¤¬à¤¸": 2389,
      "à¤¹à¤Ĺ": 2390,
      "à¤®à¤ł": 2391,
      "Ġà¤¹à¤¨": 2392,
      "Ġà¤¹à¤¯": 2393,
      "Ġà¤ªà¤Ĺà¤¡": 2394,
      "à¤µà¤ķà¤°": 2395,
      "à¤µà¤¦à¤²": 2396,
      "à¥Ī)à¥¤": 2397,
      "Ġà¤¨à¤µà¤¤": 2398,
      "à¤ªà¤°à¤¸": 2399,
      "à¤Ĺà¤°à¤£": 2400,
      "à¤Ĺà¤£à¤¨": 2401,
      "à¤ľà¤ľ": 2402,
      "à¤ľà¤ĸ": 2403,
      "à¤ľà¤ķà¤¤": 2404,
      "à¤ľà¤µà¤²": 2405,
      "à¤ľà¤¯à¤ª": 2406,
      "à¤ľà¤®à¤°": 2407,
      "à¤Łà¤¯": 2408,
      "à¤Łà¤¸à¤¨": 2409,
      "Ġà¤ħà¤ľà¤®": 2410,
      "Ġà¤ħà¤¯à¤¸": 2411,
      "à¤ıà¤°": 2412,
      "à¤ıà¤µ": 2413,
      "à¤ıà¤ıà¤²": 2414,
      "Ġà¤²à¤µ": 2415,
      "Ġà¤²à¤ª": 2416,
      "Ġà¤²à¤ĺ": 2417,
      "à¤¬à¤Ĺ": 2418,
      "à¤¶à¤¦": 2419,
      "à¤¡à¤ķà¤°": 2420,
      "à¤ļà¤¤à¤®": 2421,
      "à¤·à¤§à¤°": 2422,
      "à¤·à¤ľà¤¨à¤ķ": 2423,
      "Ġà¤īà¤·": 2424,
      "Ġà¤īà¤µà¤°": 2425,
      "Ġà¤¤à¤ĸ": 2426,
      "Ġà¤¤à¤¸à¤²": 2427,
      "Ġà¤¤à¤°à¤¨": 2428,
      "Ġà¤Ĩà¤¹à¤¤": 2429,
      "à¤Īà¤ľ": 2430,
      "Ġà¤ĩà¤Ł": 2431,
      "Ġà¤ĩà¤°à¤«": 2432,
      "à¤¼à¤Ĥ": 2433,
      "à¤¥à¤Ĺà¤¨": 2434,
      "Ġà¤ıà¤ıà¤¸à¤Ĩà¤Ī": 2435,
      "à¤£à¤ķà¤Ł": 2436,
      "Ġà¤ļà¤ļ": 2437,
      "à¤Ńà¤¨": 2438,
      "Ġà¤¶à¤¸": 2439,
      "Ġà¤¶à¤¶": 2440,
      "à¥Īà¤Ĥ;": 2441,
      "à¤«à¤¤": 2442,
      "à¤«à¤¡": 2443,
      "Ġà¤¥à¤°": 2444,
      "Ġà¤ĸà¤¦": 2445,
      "Ġà¤ĸà¤ªà¤¤": 2446,
      "Ġà¤«à¤¨": 2447,
      "Ġà¤«à¤°à¤®": 2448,
      "à¤łà¤ķà¤°": 2449,
      "à¤īà¤¡": 2450,
      "à¤īà¤ªà¤¦": 2451,
      "à¤ĩà¤¸à¤¨": 2452,
      "à¤Ĩà¤¸": 2453,
      "à¤Ĩà¤¶": 2454,
      "à¤Ĩà¤īà¤Ł": 2455,
      "à¤¤à¤°à¤ª": 2456,
      "à¤ĵà¤°à¤²": 2457,
      "à¤ĵà¤ıà¤®": 2458,
      "Ġà¤ħà¤¨à¤ªà¤°": 2459,
      "Ġà¤Łà¤ļ": 2460,
      "Ġà¤¸à¤ķà¤²": 2461,
      "Ġà¤¤à¤ķà¤²": 2462,
      "à¤ģ?": 2463,
      "Ġà¤Ľà¤¡": 2464,
      "Ġà¤ªà¤¹à¤²à¤Ĺ": 2465,
      "à¤¸à¤°à¤¨": 2466,
      "Ġà¤ħà¤²à¤°": 2467,
      "Ġà¤īà¤ªà¤¦": 2468,
      "Ġà¤īà¤ªà¤ľ": 2469,
      "à¤¸à¤®à¤¸": 2470,
      "à¤ĺà¤Ł": 2471,
      "Ġà¤ħà¤®à¤ľ": 2472,
      "Ġà¤ħà¤Ńà¤¦": 2473,
      "à¤Ĩà¤Īà¤ıà¤¸à¤ıà¤«": 2474,
      "Ġà¤ĵà¤ľ": 2475,
      "Ġà¤ĵà¤¡": 2476,
      "Ġà¤ĵà¤¬à¤°": 2477,
      "Ġà¤ĵà¤Ŀ": 2478,
      "Ġà¤ĵà¤Ĩà¤°": 2479,
      "à¤ľà¤°à¤²": 2480,
      "Ġà¤¬à¤ļà¤ªà¤¨": 2481,
      "Ġà¤¬à¤ľà¤ķà¤°": 2482,
      "Ġà¤ıà¤¸à¤ıà¤ļà¤ĵ": 2483,
      "Ġà¤ĵà¤°à¤²": 2484,
      "Ġà¤ħà¤ªà¤¹": 2485,
      "Ġà¤ħà¤ªà¤µ": 2486,
      "à¥§à¥®": 2487,
      "Ġà¤ħà¤µà¤¤": 2488,
      "Ġà¤Ĩà¤Ĺà¤®à¤¨": 2489,
      "Ġà¤Ŀà¤®": 2490,
      "Ġà¤Ŀà¤²à¤ķ": 2491,
      "Ġà¤®à¤¦à¤¨": 2492,
      "à¤°à¤¶à¤°à¤£": 2493,
      "à¥¨à¥©": 2494,
      "à¥¨à¥Ń": 2495,
      "Ġà¤īà¤łà¤ķà¤°": 2496,
      "Ġà¤Ĩà¤¦à¤¤": 2497,
      "Ġ1950": 2498,
      "à¤ıà¤®à¤¸": 2499,
      "à¤ıà¤®à¤ı": 2500,
      "à¤Ĩà¤°à¤Ł": 2501,
      "Ġà¥«à¥ª": 2502,
      "Ġà¥«à¥®": 2503,
      "à¥Ńà¥©": 2504,
      "Ġà¥§à¥¯à¥©": 2505,
      "Ġà¤ĳà¤«à¤°": 2506,
      "Ġà¤ħà¤«à¤°": 2507,
      "Ġà¤ıà¤®à¤¸": 2508,
      "Ġà¥¬à¥©": 2509,
      "à¤ıà¤²à¤ıà¤«": 2510,
      "Ġà¤ªà¤°à¤®à¤ľ": 2511,
      "à¥Ģ),": 2512,
      "Ġà¥Ńà¥ª": 2513,
      "Ġà¥Ńà¥©": 2514,
      "Ġà¥Ńà¥®": 2515,
      "Ġà¥Ńà¥Ń": 2516,
      "Ġà¤¨à¤ľà¤°à¤ħ": 2517,
      "Ġ500": 2518,
      "Ġà¥®à¥ª": 2519,
      "à¤°à¤ĸà¤ª": 2520,
      "Ġ2011": 2521,
      "Ġà¥¨à¥«à¥¦": 2522,
      "Ġà¥§à¥¯à¥¯à¥§": 2523,
      "Ġà¥§à¥¯à¥¯à¥ª": 2524,
      "Ġ75": 2525,
      "Ġ188": 2526,
      "Ġ1991": 2527,
      "Ġ1996": 2528,
      "Ġ1999": 2529,
      "à¤ĳà¤ªà¤°": 2530,
      "à¤ıà¤¸à¤Ĩà¤Īà¤Ĩà¤°": 2531,
      "Ġ90": 2532,
      "Ġà¤Ĩà¤īà¤Łà¤²": 2533,
      "Ġ1981": 2534,
      "Ġà¤Ĩà¤ļà¤°à¤£": 2535,
      "Ġ134": 2536,
      "Ġ149": 2537,
      "Ġà¤°à¤£à¤µ": 2538,
      "esti": 2539,
      "Ġà¤¨à¤«à¤°à¤¤": 2540,
      "à¤ľà¤Ńà¤µà¤¨": 2541,
      "Ġà¤ĵà¤Ĩà¤°à¤ľ": 2542,
      "estis": 2543,
      "',": 2544,
      "100": 2545,
      "22": 2546,
      "23": 2547,
      "31": 2548,
      "58": 2549,
      "62": 2550,
      "67": 2551,
      "73": 2552,
      "80": 2553,
      "95": 2554,
      "CE": 2555,
      "OR": 2556,
      "eed": 2557,
      "ita": 2558,
      "Â°": 2559,
      "Ġ)": 2560,
      "ĠG": 2561,
      "ĠO": 2562,
      "à¥ĩ;": 2563,
      "à¤°à¤Ĺà¤°": 2564,
      "Ġà¤ķà¤Ľ": 2565,
      "à¤¿âĢį": 2566,
      "à¥Ģ:": 2567,
      "à¤¨à¤¶": 2568,
      "à¤¨à¤ļ": 2569,
      "à¤¤à¤¸": 2570,
      "à¤¤à¤°à¤ķ": 2571,
      "à¤¤à¤ľà¤¨": 2572,
      "à¤ķà¤ļ": 2573,
      "à¤ķà¤£": 2574,
      "à¤¯à¤¥": 2575,
      "à¤¯à¤¬à¤²": 2576,
      "à¤²à¤¶": 2577,
      "à¤²à¤ķà¤¤": 2578,
      "à¤¸à¤¤à¤°": 2579,
      "Ġà¤¸à¤Ĺ": 2580,
      "Ġà¤¸à¤¹à¤°": 2581,
      "à¤¹à¤£": 2582,
      "Ġà¤®à¤µ": 2583,
      "à¤®à¤¢": 2584,
      "à¤®à¤ķà¤°à¤£": 2585,
      "Ġà¤ªà¤µà¤¨": 2586,
      "Ġà¤ªà¤ĸà¤µ": 2587,
      "à¤µà¤¬": 2588,
      "à¤µà¤Ń": 2589,
      "à¥Ī)": 2590,
      "à¤¦à¤Ń": 2591,
      "Ġà¤¨à¤®à¤¸": 2592,
      "à¤ªà¤¸à¤¨": 2593,
      "à¤Ĺà¤¡à¤®": 2594,
      "Ġà¤¬à¤°à¤ķ": 2595,
      "Ġà¤¬à¤Łà¤¨": 2596,
      "à¥ĭà¤Ĥ\"": 2597,
      "à¤Łà¤¦": 2598,
      "à¤Łà¤ľ": 2599,
      "Ġà¤¦à¤¹à¤¨": 2600,
      "Ġà¤¦à¤¶à¤¹à¤°": 2601,
      "Ġà¤µà¤²": 2602,
      "Ġà¤ħà¤°à¤¸": 2603,
      "à¥Ĥ'": 2604,
      "à¤ıà¤Ĩà¤Ī": 2605,
      "à¤ıà¤®à¤ķ": 2606,
      "à¤ıà¤¡à¤°": 2607,
      "à¤ıà¤ıà¤¸à¤Ĩà¤Ī": 2608,
      "Ġà¤²à¤ĸ": 2609,
      "Ġà¤²à¤Łà¤ķ": 2610,
      "à¤¬à¤Ł": 2611,
      "à¤¬à¤°à¤¤": 2612,
      "à¤¬à¤¦à¤®": 2613,
      "à¤¬à¤¦à¤²": 2614,
      "à¤¶à¤¯": 2615,
      "à¤¶à¤¹": 2616,
      "à¤¶à¤§": 2617,
      "à¤¶à¤Ńà¤°": 2618,
      "à¤¡à¤¤": 2619,
      "à¤¡à¤¹à¤°": 2620,
      "à¤¡à¤°à¤²": 2621,
      "à¤§à¤¦": 2622,
      "à¤§à¤°à¤£": 2623,
      "Ġà¤īà¤«": 2624,
      "Ġà¤¤à¤¹à¤¸": 2625,
      "Ġà¤¤à¤²à¤µ": 2626,
      "Ġà¤¤à¤«à¤°": 2627,
      "Ġà¤Ĩà¤°à¤¤": 2628,
      "Ġà¤Ĩà¤µà¤°à¤£": 2629,
      "Ġà¤Ńà¤°à¤ķà¤°": 2630,
      "Ġà¤ªà¤°à¤¦": 2631,
      "à¤¼à¥ī": 2632,
      "à¤¥à¤ª": 2633,
      "Ġà¤ıà¤µà¤°": 2634,
      "Ġà¤ıà¤µà¤ľ": 2635,
      "Ġà¤ıà¤Łà¤®": 2636,
      "à¤Ńà¤ľà¤¨": 2637,
      "à¤Ńà¤Ĺà¤¤": 2638,
      "Ġà¤¶à¤®": 2639,
      "Ġà¤¶à¤¤à¤ķ": 2640,
      "à¥Īà¤Ĥ:": 2641,
      "Ġà¤¥à¤®à¤¨": 2642,
      "Ġà¤¥à¤ªà¤¥": 2643,
      "Ġà¤ĩà¤¸à¤°": 2644,
      "à¤ĩà¤Ĺà¤°": 2645,
      "à¤ĩà¤®à¤¨": 2646,
      "à¤ĩà¤Łà¤²": 2647,
      "à¤°à¤ķà¤²": 2648,
      "Ġà¤°à¤¹à¤®": 2649,
      "Ġà¤°à¤¹à¤ķà¤°": 2650,
      "Ġà¤«à¤¤": 2651,
      "Ġà¤¸à¤®à¤¯à¤°": 2652,
      "à¤łà¤Ĺ": 2653,
      "à¤īà¤¸à¤®": 2654,
      "à¤Ĩà¤ªà¤ķ": 2655,
      "à¤¤à¤°à¤ľ": 2656,
      "à¤ľà¤¨à¤¹": 2657,
      "à¤ľà¤¨à¤µà¤°": 2658,
      "Ġà¤ħà¤¨à¤¸": 2659,
      "Ġà¤Łà¤²": 2660,
      "Ġà¤¡à¤ļ": 2661,
      "à¤ħà¤¸": 2662,
      "à¤ħà¤Łà¤²": 2663,
      "à¤ħà¤ªà¤¹à¤°": 2664,
      "à¤Łà¤°à¤«": 2665,
      "Ġà¥§à¥¦à¥¦à¥¦": 2666,
      "Ġà¤§à¤°à¤®": 2667,
      "Ġà¤§à¤¨à¤°": 2668,
      "Ġà¤ħà¤²à¤ķ": 2669,
      "Ġà¤ħà¤²à¤ª": 2670,
      "à¤¬à¤°à¤²": 2671,
      "Ġà¤īà¤ªà¤°": 2672,
      "à¤¸à¤¦à¤¸": 2673,
      "Ġ1000": 2674,
      "Ġ130": 2675,
      "Ġà¤¸à¤¹à¤ľ": 2676,
      "à¤ĺà¤ª": 2677,
      "à¤Ĺà¤²à¤ª": 2678,
      "à¤¼à¥ĩ,": 2679,
      "à¤ıà¤¸à¤¡": 2680,
      "à¤ıà¤¸à¤ıà¤¸à¤ª": 2681,
      "Ġà¤ľà¤¬à¤²à¤ª": 2682,
      "à¤Ĩà¤Īà¤ıà¤¸": 2683,
      "à¤Ĺà¤¤à¤¨": 2684,
      "à¥«à¥¦à¥¦": 2685,
      "Ġ29": 2686,
      "Ġà¤Ĩà¤Īà¤¡": 2687,
      "Ġà¤Ĩà¤Īà¤Ĩà¤Īà¤Ł": 2688,
      "Ġà¤Ĩà¤Īà¤Īà¤¡": 2689,
      "Ġà¤ħà¤µà¤¹": 2690,
      "Ġà¤Ŀà¤°à¤¨": 2691,
      "Ġà¤®à¤¦à¤°à¤¸": 2692,
      "à¤°à¤¶à¤¸": 2693,
      "âĢĶ": 2694,
      "Ġà¤īà¤¦à¤¯": 2695,
      "Ġà¤Ĩà¤¨à¤¨": 2696,
      "Ġà¤ķà¤²à¤ª": 2697,
      "Ġà¤ķà¤²à¤ķà¤¤": 2698,
      "Ġà¤Ĭà¤·": 2699,
      "Ġà¤ħà¤¸à¤«à¤²à¤¤": 2700,
      "à¤°à¤¨à¤ª": 2701,
      "Ġà¤ıà¤¨à¤Ĩà¤°à¤Ĩà¤Ī": 2702,
      "à¥¬à¥ª": 2703,
      "à¤ıà¤®à¤¡": 2704,
      "à¤Ĩà¤°à¤Ĩà¤Īà¤ıà¤²": 2705,
      "Ġà¥ªà¥¦à¥¦": 2706,
      "Ġà¥ªà¥¯": 2707,
      "à¥Ńà¥«": 2708,
      "à¤ıà¤«à¤¡": 2709,
      "à¤ıà¤«à¤ĵ": 2710,
      "Ġà¤ħà¤«à¤¸": 2711,
      "Ġ34": 2712,
      "Ġ300": 2713,
      "Ġà¤ıà¤®à¤ª": 2714,
      "Ġà¤ıà¤®à¤¡": 2715,
      "Ġà¥¬à¥¦à¥¦": 2716,
      "Ġà¥¬à¥®": 2717,
      "à¤ıà¤¨à¤ľ": 2718,
      "à¤ıà¤¨à¤ıà¤¸": 2719,
      "à¤ıà¤¨à¤ıà¤¸à¤¸": 2720,
      "Ġà¥Ńà¥¨": 2721,
      "Ġ2008": 2722,
      "Ġ2009": 2723,
      "Ġ5000": 2724,
      "à¤²à¤®à¤£": 2725,
      "Ġà¤ķà¤Łà¤ĺà¤°": 2726,
      "Ġà¤®à¤ķà¤¦": 2727,
      "Ġ41": 2728,
      "Ġà¤§à¤¨à¤¬": 2729,
      "Ġ2016": 2730,
      "Ġ2017": 2731,
      "Ġ72": 2732,
      "Ġ66": 2733,
      "Ġ180": 2734,
      "Ġ1855": 2735,
      "Ġà¤ħà¤¸à¤°à¤¦": 2736,
      "Ġà¤®à¤¶à¤µ": 2737,
      "Ġ150": 2738,
      "Ġà¥§à¥©à¥¦": 2739,
      "à¤¾)à¥¤": 2740,
      "à¥¯à¥¯": 2741,
      "199": 2742,
      "Ġà¤ĭà¤·": 2743,
      "Ġ1975": 2744,
      "Ġà¥§à¥¯à¥®à¥¯": 2745,
      "Ġà¤¸à¤¨à¤¸à¤¨": 2746,
      "Ġà¥¯à¥®": 2747,
      "Ġ1960": 2748,
      "Ġ1968": 2749,
      "Ġà¤Ńà¤¯à¤Ń": 2750,
      "Ġà¤°à¤£à¤¬": 2751,
      "Ġà¥©à¥ªà¥¦": 2752,
      "ĠDuMont": 2753,
      "tion": 2754,
      "à¤īà¤ªà¤Ń": 2755,
      "Ġpestis": 2756,
      "Ġà¤ħà¤¸à¤¹à¤®à¤¤": 2757,
      "à¤ıà¤¸à¤ıà¤²à¤µ": 2758,
      "Ġà¤īà¤Ńà¤°à¤¤": 2759,
      "Ġà¤ıà¤ħà¤°à¤ª": 2760,
      "itation": 2761,
      "Ġà¤¥à¤ªà¤¥à¤ª": 2762,
      "\"à¥¤": 2763,
      ");": 2764,
      "17": 2765,
      "29": 2766,
      "32": 2767,
      "51": 2768,
      "63": 2769,
      "ABC": 2770,
      "ACE": 2771,
      "EU": 2772,
      "at": 2773,
      "citation": 2774,
      "ma": 2775,
      "net": 2776,
      "ol": 2777,
      "§à¥ª": 2778,
      "Îµ": 2779,
      "Ġ.": 2780,
      "ĠF": 2781,
      "ĠW": 2782,
      "Ġg": 2783,
      "Ġt": 2784,
      "Ġâ": 2785,
      "ĭâĢ": 2786,
      "à¤°à¤¡": 2787,
      "à¤°à¤Ī": 2788,
      "à¤°à¤¬à¤°": 2789,
      "Ġà¤ķà¤¢": 2790,
      "Ġà¤ķà¤¥à¤¨": 2791,
      "à¤¿)": 2792,
      "à¤¿.": 2793,
      "à¥Ģ?": 2794,
      "à¤¨à¤ľà¤¨à¤ķ": 2795,
      "à¥ĭ;": 2796,
      "à¤¤à¤ķà¤¨": 2797,
      "à¤¤à¤ķà¤µ": 2798,
      "à¤ķà¤µà¤°": 2799,
      "à¤ķà¤Łà¤°": 2800,
      "à¤ķà¤Ĩà¤īà¤Ł": 2801,
      "à¤¯à¤Ń": 2802,
      "à¤¯à¤µà¤°": 2803,
      "à¤¯à¤²à¤¯": 2804,
      "à¤²à¤²": 2805,
      "à¤²à¤Ł": 2806,
      "à¤²à¤µà¤²": 2807,
      "à¤¸à¤²à¤¨": 2808,
      "à¤¸à¤¤à¤¨": 2809,
      "à¤¸à¤«à¤°": 2810,
      "Ġà¤¸à¤¶": 2811,
      "Ġà¤¸à¤°à¤«": 2812,
      "Ġà¤¸à¤ĺà¤¨": 2813,
      "à¤¹à¤¯": 2814,
      "Ġà¤®à¤°à¤¤": 2815,
      "Ġà¤®à¤²à¤¬": 2816,
      "Ġà¤®à¤Ĭ": 2817,
      "à¤®à¤Ī": 2818,
      "à¤®à¤®à¤¤": 2819,
      "à¤®à¤ªà¤Ł": 2820,
      "Ġà¤¹à¤¸à¤¨": 2821,
      "Ġà¤ªà¤Ĺ": 2822,
      "Ġà¤ªà¤¨à¤¬": 2823,
      "à¤µà¤£": 2824,
      "Ġà¤¨à¤°à¤ķ": 2825,
      "Ġà¤¨à¤µà¤°": 2826,
      "Ġà¤¨à¤µà¤¨": 2827,
      "Ġà¤¨à¤ľà¤®": 2828,
      "à¤ªà¤¹": 2829,
      "à¤Ĺà¤°à¤®": 2830,
      "à¤Ĺà¤¦à¤°": 2831,
      "Ġà¤¬à¤¹à¤°": 2832,
      "Ġà¤¬à¤¶à¤°": 2833,
      "Ġà¤¬à¤«à¤°": 2834,
      "à¤ľà¤°à¤¤": 2835,
      "à¤ľà¤¯à¤ķ": 2836,
      "à¤ľà¤ĺà¤°": 2837,
      "à¥ĭà¤Ĥ'": 2838,
      "à¥ĭà¤Ĥ)": 2839,
      "à¥ĭà¤Ĥà¥¤": 2840,
      "Ġà¤ľà¤°à¤ķ": 2841,
      "Ġà¤ľà¤¯à¤®": 2842,
      "Ġà¤ľà¤¯à¤¸": 2843,
      "Ġà¤µà¤¶": 2844,
      "Ġà¤ħà¤¥": 2845,
      "Ġà¤ħà¤Łà¤ķ": 2846,
      "Ġà¤°à¤¶": 2847,
      "à¤ıà¤ľ": 2848,
      "à¤ıà¤Ī": 2849,
      "Ġà¤²à¤ªà¤Ł": 2850,
      "à¤¬à¤§": 2851,
      "à¤¬à¤Łà¤¨": 2852,
      "à¤¬à¤¸à¤¨": 2853,
      "à¤¬à¤°à¤¦à¤¸": 2854,
      "à¤¶à¤µà¤°": 2855,
      "à¤¶à¤®à¤¨": 2856,
      "à¤¡à¤«": 2857,
      "à¤¡à¤°à¤µ": 2858,
      "à¤§à¤ª": 2859,
      "à¤ļà¤ª": 2860,
      "à¤·à¤ª": 2861,
      "à¤·à¤°à¤£": 2862,
      "Ġà¤ķà¤°à¤ľ": 2863,
      "Ġà¤īà¤ķà¤¸": 2864,
      "Ġà¤īà¤¥à¤²": 2865,
      "Ġà¤¤à¤µà¤ľ": 2866,
      "Ġà¤Ĩà¤¹à¤²": 2867,
      "Ġà¤Ńà¤¸": 2868,
      "Ġà¤Ńà¤°à¤¸": 2869,
      "Ġà¤Ńà¤Łà¤¨": 2870,
      "à¤Īà¤ļ": 2871,
      "à¤Īà¤ħ": 2872,
      "Ġà¤ĩà¤¯": 2873,
      "Ġà¤ĩà¤µ": 2874,
      "Ġà¤Ķà¤¸à¤¤à¤¨": 2875,
      "à¤¥à¤°à¤¬": 2876,
      "Ġà¤ıà¤®à¤ķ": 2877,
      "Ġà¤ıà¤¥à¤²": 2878,
      "Ġà¤ıà¤²à¤¸": 2879,
      "à¤£à¤¤": 2880,
      "à¤£à¤ľ": 2881,
      "Ġà¤ļà¤ªà¤¤": 2882,
      "Ġà¤¯à¤¶": 2883,
      "Ġà¤¯à¤®à¤¨": 2884,
      "à¤ĸà¤ľ": 2885,
      "à¤Ńà¤¦": 2886,
      "à¤«à¤°à¤¨à¤Ĺà¤°": 2887,
      "à¤ĩà¤ı": 2888,
      "à¤ĩà¤ªà¤°": 2889,
      "à¤ĩà¤Łà¤ķ": 2890,
      "à¤ĩà¤¬à¤²": 2891,
      "à¤ĩà¤¡à¤²": 2892,
      "Ġà¤ķà¤¹à¤²": 2893,
      "à¤°à¤¤à¤Ł": 2894,
      "Ġà¤ĸà¤¨": 2895,
      "Ġà¤ĸà¤£": 2896,
      "Ġà¤«à¤²": 2897,
      "Ġà¤«à¤Łà¤¨": 2898,
      "Ġà¤«à¤²à¤¸": 2899,
      "à¤łà¤®à¤²": 2900,
      "à¤īà¤¬": 2901,
      "à¤Ĩà¤¦": 2902,
      "à¤Ĩà¤ł": 2903,
      "à¤Ĩà¤¯à¤¨": 2904,
      "à¥¦à¥¬": 2905,
      "à¤ľà¤¨à¤®": 2906,
      "Ġà¤¡à¤¬à¤²": 2907,
      "Ġà¤ĺà¤¨à¤¤": 2908,
      "à¤¹à¤°à¤¬": 2909,
      "à¤®à¤²à¤µ": 2910,
      "à¤ħà¤¹": 2911,
      "à¤ħà¤Ł": 2912,
      "à¤ħà¤ªà¤°": 2913,
      "à¤ħà¤¤à¤°à¤ľ": 2914,
      "à¤Łà¤°à¤²": 2915,
      "Ġà¤µà¤¹à¤¨": 2916,
      "à¤°à¤µà¤¤": 2917,
      "à¤¸à¤²à¤°": 2918,
      "à¤¯à¤®à¤¯": 2919,
      "Ġà¤īà¤ªà¤®": 2920,
      "à¤Łà¤¨à¤°": 2921,
      "Ġà¤Ĩà¤°à¤ıà¤¸à¤ª": 2922,
      "Ġà¤¸à¤¹à¤Ĺà¤²": 2923,
      "Ġà¤īà¤¤à¤°à¤¤": 2924,
      "à¤ĺà¤¤": 2925,
      "Ġà¤ħà¤®à¤°à¤¦": 2926,
      "à¤Ŀà¤¸": 2927,
      "à¤Ĺà¤²à¤¸à¤°": 2928,
      "Ġà¤ħà¤Ńà¤¯": 2929,
      "à¤®à¤¤à¤¦": 2930,
      "à¤¸à¤¨à¤¹": 2931,
      "Ġà¤ľà¤¨à¤Ĺà¤£à¤¨": 2932,
      "à¤ıà¤¸à¤¬": 2933,
      "à¤ıà¤¸à¤ĵ": 2934,
      "Ġà¤ľà¤¬à¤¡": 2935,
      "à¤Ĩà¤Īà¤ıà¤ļ": 2936,
      "Ġà¤¬à¤¹à¤ķà¤°": 2937,
      "à¤µà¤¨à¤°": 2938,
      "Ġà¤ĵà¤®": 2939,
      "Ġà¤ĵà¤²à¤®": 2940,
      "Ġà¤ĵà¤ıà¤¨à¤ľ": 2941,
      "à¤¦à¤°à¤ľ": 2942,
      "Ġà¤Ĳà¤¨": 2943,
      "Ġà¤Ĳà¤ķ": 2944,
      "Ġà¤Ĳà¤¤à¤°": 2945,
      "Ġà¤ĳà¤ª": 2946,
      "Ġà¤ĳà¤Ĺà¤¸": 2947,
      "à¤ªà¤ķà¤¡": 2948,
      "à¥«à¥«": 2949,
      "à¥«à¥ª": 2950,
      "à¥«à¥©": 2951,
      "à¥«à¥Ń": 2952,
      "à¤ķà¤²à¤ķà¤°": 2953,
      "Ġà¤¸à¤°à¤ª": 2954,
      "à¤®à¤¦à¤ª": 2955,
      "à¤®à¤¦à¤Ĺ": 2956,
      "Ġà¤īà¤®à¤¡": 2957,
      "Ġà¤Ĩà¤Īà¤¬": 2958,
      "Ġà¤ıà¤¸à¤ıà¤®à¤ıà¤¸": 2959,
      "Ġà¤ıà¤¸à¤ĵà¤ľ": 2960,
      "Ġà¤ħà¤ªà¤¶": 2961,
      "Ġà¤łà¤Ĺ": 2962,
      "Ġà¤Ŀà¤°": 2963,
      "Ġà¤Ŀà¤ľ": 2964,
      "Ġà¤Ŀà¤Ĺà¤¡": 2965,
      "à¥ªà¥ª": 2966,
      "Ġà¤¬à¤°à¤¬à¤¸": 2967,
      "à¥©à¥§": 2968,
      "à¥©à¥¨": 2969,
      "Ġà¤Ĭà¤¤à¤ķ": 2970,
      "Ġ1954": 2971,
      "Ġ1955": 2972,
      "Ġà¤ıà¤¨à¤Ł": 2973,
      "à¥¬à¥¦": 2974,
      "à¥¬à¥Ń": 2975,
      "Ġà¤Īà¤ķ": 2976,
      "à¤ıà¤®à¤Ĩà¤°": 2977,
      "à¤ıà¤®à¤ıà¤²": 2978,
      "Ġà¤¸à¤®à¤Ŀà¤ķà¤°": 2979,
      "à¤²à¤µà¤£": 2980,
      "Ġà¥«à¥¨": 2981,
      "Ġà¥ªà¥§": 2982,
      "à¤¡à¤°à¤Ĺ": 2983,
      "à¥®à¥¯": 2984,
      "Ġà¤ħà¤ļà¤²": 2985,
      "Ġ38": 2986,
      "Ġ3000": 2987,
      "Ġà¤ľà¤Ĺà¤®": 2988,
      "Ġà¤ľà¤Ĺà¤ľ": 2989,
      "Ġà¤Ĺà¤°à¤ľ": 2990,
      "Ġà¥¬à¥ª": 2991,
      "à¤ıà¤²à¤¸": 2992,
      "à¤ıà¤²à¤ª": 2993,
      "Ġà¤ħà¤Ĺà¤°à¤ķà¤°": 2994,
      "Ġà¤¸à¤¬à¤¬": 2995,
      "à¤¯à¤µà¤¶": 2996,
      "Ġà¤¹à¤²à¤ļà¤²": 2997,
      "Ġà¥Ńà¥§": 2998,
      "Ġà¤ķà¤ªà¤²": 2999,
      "Ġà¤¨à¤µà¤°à¤¤": 3000,
      "Ġ51": 3001,
      "Ġ58": 3002,
      "Ġà¥®à¥®": 3003,
      "Ġà¥¨à¥¦à¥§à¥¦": 3004,
      "Ġà¥§à¥«à¥«": 3005,
      "à¤Ĳà¤¨": 3006,
      "à¤Ĳà¤¤": 3007,
      "à¤«à¤°à¤µà¤°": 3008,
      "Ġ46": 3009,
      "Ġà¤¤à¤Łà¤°à¤ķ": 3010,
      "Ġà¥§à¥¯à¥¯à¥¨": 3011,
      "Ġ64": 3012,
      "Ġ65": 3013,
      "Ġà¤ļà¤°à¤£à¤ľ": 3014,
      "à¤®à¤¸à¤²à¤¨": 3015,
      "Ġ1992": 3016,
      "Ġà¤ıà¤¡à¤µà¤°": 3017,
      "Ġ1500": 3018,
      "Ġà¤µà¤¨à¤¡": 3019,
      "Ġ1754": 3020,
      "Ġ1756": 3021,
      "Ġà¤°à¤ľà¤¤": 3022,
      "à¤ĳà¤¨": 3023,
      "à¤ĳà¤¸": 3024,
      "à¥¯à¥Ń": 3025,
      "Ġà¤ĺà¤Łà¤¤": 3026,
      "Ġ1600": 3027,
      "Ġ1973": 3028,
      "ĠâĢĶ": 3029,
      "ĠâĢĭâĢ": 3030,
      "Ġà¥§à¥¯à¥®à¥Ń": 3031,
      "Ġà¥¨à¥ªà¥©": 3032,
      "Ġà¤ħà¤ªà¤¹à¤°à¤£à¤ķà¤°": 3033,
      "Ġà¥¯à¥©": 3034,
      "Ġà¥¯à¥ª": 3035,
      "Ġà¤Ĺà¤£à¤¤": 3036,
      "Ġ1961": 3037,
      "Ġ1962": 3038,
      "Ġ1964": 3039,
      "à¤ıà¤¨à¤ıà¤²à¤ıà¤«": 3040,
      "à¤ļà¤®à¤¹à¤²": 3041,
      "ĠPSP": 3042,
      "Ġà¤ļà¤°à¤®à¤°": 3043,
      "Ġà¤Ĩà¤Īà¤ıà¤®à¤ı": 3044,
      "Ġà¥§à¥¯à¥¯à¥«": 3045,
      "ĠDEC": 3046,
      "à¥§à¥¯à¥®": 3047,
      "Ġà¤ıà¤¯à¤°à¤ķ": 3048,
      "2005": 3049,
      "Ġneed": 3050,
      "à¤Ĩà¤Īà¤ıà¤Īà¤ı": 3051,
      "Ġà¥§à¥¯à¥¬à¥¨": 3052,
      "ĠCBS": 3053,
      "Ġ1901": 3054,
      "à¤¤à¤¹à¤²à¤ķ": 3055,
      "à¥¨à¥¦à¥¦à¥§": 3056,
      "Ġà¤ĩà¤®à¤°à¤ľ": 3057,
      "Ġà¥¯à¥¨à¥Ń": 3058,
      "Ġ1492": 3059,
      "Ġà¤¸à¤¹à¤°à¤¸": 3060,
      "Ġà¤Ńà¤°à¤¸à¤ķ": 3061,
      "à¤Īà¤ħà¤¡": 3062,
      "ĠâĢĭâĢĭ": 3063,
      "ĠPSPACE": 3064,
      "Ġneeded": 3065,
      "26": 3066,
      "27": 3067,
      "2000": 3068,
      "230": 3069,
      "42": 3070,
      "43": 3071,
      "47": 3072,
      "48": 3073,
      "600": 3074,
      "76": 3075,
      "77": 3076,
      "81": 3077,
      "82": 3078,
      "83": 3079,
      "85": 3080,
      "88": 3081,
      "90": 3082,
      "AR": 3083,
      "AS": 3084,
      "BP": 3085,
      "EN": 3086,
      "FEU": 3087,
      "NE": 3088,
      "PT": 3089,
      "ab": 3090,
      "ad": 3091,
      "ae": 3092,
      "al": 3093,
      "ar": 3094,
      "bi": 3095,
      "ic": 3096,
      "is": 3097,
      "iv": 3098,
      "min": 3099,
      "og": 3100,
      "or": 3101,
      "ran": 3102,
      "ÏĤ": 3103,
      "Ġ=": 3104,
      "Ġv": 3105,
      "ĠÃ": 3106,
      "ĬĨ": 3107,
      "à¤¾\"": 3108,
      "à¥ĩ),": 3109,
      "à¥ĩâĢĶ": 3110,
      "à¤°à¤¥à¤²": 3111,
      "à¤°à¤Ĺà¤¢": 3112,
      "à¤°à¤¡à¤¸": 3113,
      "Ġà¤ķà¤·": 3114,
      "Ġà¤ķà¤¨à¤ķ": 3115,
      "à¤¿-": 3116,
      "à¤Ĥà¥¤": 3117,
      "à¥Ģà¤ģ": 3118,
      "à¥ĭ\"": 3119,
      "à¤¤à¤¯": 3120,
      "à¤¤à¤¨à¤®": 3121,
      "à¤¤à¤ĭà¤·": 3122,
      "à¤ķà¤¯": 3123,
      "à¤ķà¤¦": 3124,
      "à¤ķà¤«": 3125,
      "à¤ķà¤®à¤²": 3126,
      "à¤ķà¤¹à¤¤": 3127,
      "à¤ķà¤®à¤°": 3128,
      "à¤ķà¤ĺà¤°": 3129,
      "à¤ķà¤ħà¤ª": 3130,
      "à¤¯à¤Ĺà¤¢": 3131,
      "à¤²à¤Ī": 3132,
      "à¤¸à¤µà¤°": 3133,
      "à¤¸à¤¹à¤µ": 3134,
      "Ġà¤®à¤Ł": 3135,
      "Ġà¤®à¤¶à¤ķ": 3136,
      "Ġà¤®à¤ľà¤¹": 3137,
      "à¤®à¤Ł": 3138,
      "à¤®à¤Ń": 3139,
      "à¤®à¤Ŀ": 3140,
      "à¤®à¤¸à¤¨": 3141,
      "à¤µà¤ķà¤°à¤¨": 3142,
      "à¥Īà¤ģ": 3143,
      "à¤¦à¤¹": 3144,
      "à¤¦à¤£": 3145,
      "à¤¦à¤¸à¤µ": 3146,
      "à¤¦à¤¹à¤µ": 3147,
      "Ġà¤¨à¤Ĺ": 3148,
      "Ġà¤¨à¤Ĺà¤¦": 3149,
      "à¤ªà¤ķà¤°": 3150,
      "à¤ªà¤µà¤°": 3151,
      "à¤Ĺà¤¬": 3152,
      "à¤Ĺà¤Ī": 3153,
      "à¤Ĺà¤ľà¤¨à¤ķ": 3154,
      "Ġà¤¬à¤¹à¤¤": 3155,
      "Ġà¤¬à¤ķà¤µ": 3156,
      "Ġà¤¬à¤Ľà¤°": 3157,
      "à¤ľà¤¡": 3158,
      "à¤ľà¤¤à¤°": 3159,
      "à¤ľà¤¬à¤°": 3160,
      "à¤ľà¤¯à¤²à¤²": 3161,
      "à¤Łà¤§": 3162,
      "à¤Łà¤°à¤ķ": 3163,
      "Ġà¤¦à¤®à¤¦": 3164,
      "Ġà¤ľà¤¯à¤ķ": 3165,
      "Ġà¤ľà¤¹à¤°": 3166,
      "Ġà¤µà¤¢": 3167,
      "Ġà¤ħà¤·": 3168,
      "Ġà¤ħà¤ľà¤¨": 3169,
      "Ġà¤ħà¤°à¤µ": 3170,
      "Ġà¤ħà¤¬à¤°": 3171,
      "Ġà¤ħà¤µà¤¨": 3172,
      "Ġà¤ħà¤¯à¤ª": 3173,
      "Ġà¤ħà¤¹à¤²": 3174,
      "Ġà¤°à¤ªà¤Ł": 3175,
      "à¤ıà¤¥": 3176,
      "à¤ıà¤Łà¤°": 3177,
      "à¤ıà¤²à¤¬": 3178,
      "à¤ıà¤Ĩà¤°": 3179,
      "à¤ıà¤¨à¤°": 3180,
      "à¤ıà¤ıà¤«": 3181,
      "à¤ıà¤¡à¤®": 3182,
      "à¤ıà¤Ĩà¤Īà¤¸": 3183,
      "à¤ıà¤ıà¤Ĩà¤Ī": 3184,
      "à¤¬à¤ª": 3185,
      "à¤¬à¤¢": 3186,
      "à¤¬à¤°à¤¸": 3187,
      "à¤¬à¤¦à¤°": 3188,
      "à¤¡à¤¯": 3189,
      "à¤¡à¤Ĺ": 3190,
      "à¤¡à¤®à¤°": 3191,
      "à¤¡à¤Ĺà¤¢": 3192,
      "à¤§à¤¶": 3193,
      "Ġà¤Ĺà¤¹à¤²": 3194,
      "Ġà¤Ĺà¤®à¤Ĺ": 3195,
      "à¤ļà¤²à¤¨": 3196,
      "à¤ļà¤Łà¤°": 3197,
      "à¤ļà¤¯à¤¨": 3198,
      "à¤·à¤¸": 3199,
      "à¤·à¤Ĺ": 3200,
      "à¤·à¤ķà¤°": 3201,
      "Ġà¤īà¤łà¤¨": 3202,
      "Ġà¤īà¤§à¤°": 3203,
      "Ġà¤¤à¤°à¤ķ": 3204,
      "Ġà¤¤à¤¹à¤°": 3205,
      "Ġà¤¤à¤¨à¤µ": 3206,
      "Ġà¤¤à¤Łà¤µà¤°": 3207,
      "Ġà¤Ĩà¤Ł": 3208,
      "Ġà¤Ĩà¤ĩ": 3209,
      "Ġà¤Ĩà¤ĩà¤¸": 3210,
      "Ġà¤Ĩà¤°à¤®": 3211,
      "Ġà¤Ĩà¤®à¤¨": 3212,
      "Ġà¤Ĩà¤¬à¤¸": 3213,
      "Ġà¤Ĩà¤ķà¤¸": 3214,
      "Ġà¤Ĩà¤£à¤µ": 3215,
      "Ġà¤Ńà¤¨à¤ķ": 3216,
      "Ġà¤Ńà¤Ĺà¤¦": 3217,
      "à¤Īà¤ªà¤°": 3218,
      "à¤Īà¤ķà¤²": 3219,
      "à¤Īà¤ıà¤²": 3220,
      "Ġà¤ªà¤°à¤ľ": 3221,
      "Ġà¤ªà¤°à¤µà¤°": 3222,
      "Ġà¤ĩà¤¤à¤°": 3223,
      "Ġà¤ĩà¤§à¤°": 3224,
      "à¤¼'": 3225,
      "à¤¼à¥Ģà¤Ĥ": 3226,
      "à¤¼à¥Ĥà¤Ĥ": 3227,
      "Ġà¤ıà¤¥": 3228,
      "Ġà¤ıà¤¨à¤ķ": 3229,
      "Ġà¤ıà¤¹à¤¸": 3230,
      "Ġà¤ıà¤Ĩà¤Īà¤Ĩà¤°": 3231,
      "à¤£à¤ªà¤¤": 3232,
      "Ġà¤ļà¤¹": 3233,
      "Ġà¤ļà¤¬": 3234,
      "Ġà¤ļà¤®à¤¤": 3235,
      "Ġà¤ļà¤ķà¤¨": 3236,
      "à¤ĸà¤¡": 3237,
      "à¤ĸà¤¨à¤®": 3238,
      "à¤Ńà¤¤": 3239,
      "à¤Ńà¤¯": 3240,
      "Ġà¤¶à¤¯": 3241,
      "Ġà¤¶à¤Łà¤°": 3242,
      "à¥Īà¤Ĥ)": 3243,
      "Ġà¤¥à¤ķ": 3244,
      "Ġà¤¥à¤²à¤Ĺ": 3245,
      "à¤ĩà¤°à¤ķ": 3246,
      "à¤ĩà¤ıà¤Ĺ": 3247,
      "à¤ĩà¤¬à¤°à¤®": 3248,
      "à¤°à¤¤à¤ħ": 3249,
      "à¤°à¤ķà¤®": 3250,
      "Ġà¤ĸà¤²à¤«": 3251,
      "Ġà¤«à¤Ĺà¤µ": 3252,
      "à¤ķà¤°à¤¦": 3253,
      "à¤īà¤Ĺ": 3254,
      "à¤īà¤ªà¤°": 3255,
      "à¤īà¤ªà¤¯": 3256,
      "à¤īà¤¸à¤¸": 3257,
      "à¤īà¤¡à¤¸": 3258,
      "à¤ĩà¤¸à¤°": 3259,
      "à¤Ľà¤Ł": 3260,
      "à¤Ĩà¤°à¤ķ": 3261,
      "à¤Ĩà¤°à¤µ": 3262,
      "à¤Ĩà¤µà¤¶": 3263,
      "à¤¤à¤°à¤¦": 3264,
      "Ġà¤ħà¤§à¤°": 3265,
      "à¤ĵà¤°": 3266,
      "à¤ĵà¤Ĩà¤Īà¤ıà¤²": 3267,
      "Ġà¤ħà¤¨à¤ľ": 3268,
      "Ġà¤ħà¤¨à¤µà¤°": 3269,
      "Ġà¤Łà¤ķ": 3270,
      "Ġà¤Łà¤¸": 3271,
      "Ġà¤Łà¤Ł": 3272,
      "Ġà¤ĺà¤¸": 3273,
      "Ġà¤ĺà¤¬à¤°": 3274,
      "à¤īà¤¨à¤¸": 3275,
      "à¤īà¤¨à¤®": 3276,
      "à¤µà¤°à¤¨": 3277,
      "à¤¼à¤¾.": 3278,
      "Ġà¤®à¤¹à¤°": 3279,
      "Ġà¤®à¤¹à¤¬": 3280,
      "Ġà¤¸à¤ķà¤¨": 3281,
      "à¤°à¤®à¤°": 3282,
      "à¤°à¤®à¤Ī": 3283,
      "à¤¢à¤¨": 3284,
      "à¤¢à¤¸": 3285,
      "à¤ģ,": 3286,
      "à¤Łà¤°à¤¡": 3287,
      "à¤Łà¤°à¤¸à¤¨": 3288,
      "Ġà¤Ľà¤ķ": 3289,
      "à¤¶à¤¨à¤°": 3290,
      "à¤°à¤µà¤¯": 3291,
      "Ġà¤µà¤°à¤¨": 3292,
      "Ġà¤µà¤°à¤¦à¤°": 3293,
      "à¤¾à¤ģ\"": 3294,
      "à¤¾à¤ģ,": 3295,
      "Ġà¤Ĩà¤¯à¤°": 3296,
      "Ġà¤Ĩà¤¯à¤°à¤¨": 3297,
      "Ġà¤Ĩà¤¯à¤°à¤²": 3298,
      "Ġà¤ħà¤²à¤µà¤°": 3299,
      "Ġà¤ħà¤²à¤¬à¤¤": 3300,
      "Ġà¤īà¤ªà¤ª": 3301,
      "Ġà¤īà¤ªà¤ķà¤°": 3302,
      "Ġà¤Ĩà¤°à¤ľ": 3303,
      "Ġà¤Ĩà¤°à¤¬": 3304,
      "à¤¼à¥Ģà¥¤": 3305,
      "Ġà¤¸à¤¹à¤¨": 3306,
      "Ġà¤¸à¤¹à¤¸": 3307,
      "à¤¼à¥ĩà¥¤": 3308,
      "à¤¸à¤¨à¤°": 3309,
      "Ġà¤ħà¤¬à¤¨": 3310,
      "Ġà¤ľà¤¨à¤ªà¤¥": 3311,
      "à¤ıà¤¸à¤ıà¤®": 3312,
      "à¤Ĩà¤Īà¤ĵ": 3313,
      "à¤Ĩà¤Īà¤ıà¤«": 3314,
      "à¤Ĩà¤Īà¤Ĩà¤Īà¤ıà¤®": 3315,
      "à¤Ĩà¤Īà¤ĵà¤¸": 3316,
      "Ġà¤ĩà¤¨à¤«": 3317,
      "Ġà¤¬à¤¹à¤¬à¤²": 3318,
      "Ġà¤ĵà¤Ł": 3319,
      "Ġà¤¹à¤®à¤¦à¤°": 3320,
      "à¤¹à¤¨à¤µ": 3321,
      "à¤¹à¤¨à¤¦": 3322,
      "à¤°à¤«à¤²": 3323,
      "Ġà¤¦à¤²à¤¹à¤¨": 3324,
      "à¥«à¥§": 3325,
      "à¥«à¥®": 3326,
      "Ġà¤ªà¤¦à¤ķ": 3327,
      "Ġà¤ªà¤¦à¤¯": 3328,
      "Ġà¤ªà¤¦à¤µ": 3329,
      "Ġà¤Ĩà¤Īà¤Ĩà¤°": 3330,
      "Ġà¤Ĩà¤Īà¤ıà¤²": 3331,
      "Ġà¤Ĩà¤Īà¤ĵà¤¸": 3332,
      "Ġà¤ıà¤¸à¤¡": 3333,
      "Ġà¤ħà¤ªà¤Ĺ": 3334,
      "à¥§à¥¯": 3335,
      "Ġà¤ħà¤µà¤¯à¤¸": 3336,
      "Ġà¤łà¤ķ": 3337,
      "Ġà¤®à¤¦à¤¨à¤²": 3338,
      "Ġà¤®à¤¦à¤®à¤¹": 3339,
      "à¤°à¤¶à¤°": 3340,
      "à¥Īà¤Ĥà¥¤\"": 3341,
      "Ġà¥©à¥¨à¥¦": 3342,
      "à¤¨à¤µà¤¶": 3343,
      "Ġà¤ħà¤°à¤°": 3344,
      "à¥ªà¥¨": 3345,
      "Ġà¤¬à¤¦à¤¨": 3346,
      "Ġà¤¬à¤¦à¤¹": 3347,
      "Ġà¤¬à¤¦à¤¤à¤°": 3348,
      "Ġà¤¸à¤¤à¤¬": 3349,
      "Ġà¤ķà¤²à¤°": 3350,
      "Ġà¤ľà¤²à¤ª": 3351,
      "Ġ1914": 3352,
      "Ġà¤ħà¤ķà¤¸à¤°": 3353,
      "Ġà¤¬à¤²à¤ª": 3354,
      "à¤§à¤µà¤Ĺà¤¢": 3355,
      "à¥¬à¥¦à¥¦": 3356,
      "à¥¬à¥§": 3357,
      "à¥¬à¥©": 3358,
      "à¤¦à¤µà¤Ī": 3359,
      "à¤ľà¤²à¤¸": 3360,
      "à¤ľà¤²à¤µ": 3361,
      "Ġà¤Īà¤µ": 3362,
      "à¤ıà¤®à¤Ł": 3363,
      "à¤ıà¤®à¤¬": 3364,
      "à¤ıà¤®à¤ĵ": 3365,
      "Ġà¤¶à¤¹à¤°à¤¯": 3366,
      "à¤Ĩà¤°à¤ıà¤®": 3367,
      "à¤Ĩà¤°à¤ıà¤«": 3368,
      "Ġà¥«à¥§": 3369,
      "Ġà¤¢à¤¹à¤¨": 3370,
      "à¥Ģà¥¤\"": 3371,
      "à¥®à¥«": 3372,
      "Ġà¥§à¥¯à¥§à¥ª": 3373,
      "à¤¸à¤¤à¤¹": 3374,
      "à¤ıà¤«à¤ª": 3375,
      "à¤ıà¤«à¤ıà¤²": 3376,
      "Ġà¤¬à¤¦à¤²à¤ķà¤°": 3377,
      "Ġ33": 3378,
      "Ġ37": 3379,
      "Ġ330": 3380,
      "Ġà¤ıà¤®à¤Ĩà¤Ī": 3381,
      "Ġà¤ıà¤®à¤ıà¤²": 3382,
      "Ġà¤ıà¤®à¤ıà¤ļ": 3383,
      "à¤ķà¤Łà¤¤": 3384,
      "Ġà¤§à¤°à¤ªà¤ķà¤¡": 3385,
      "Ġà¤īà¤²à¤®": 3386,
      "Ġà¤īà¤²à¤Ŀà¤¨": 3387,
      "Ġà¤¸à¤«à¤¦à¤°à¤ľ": 3388,
      "à¤ıà¤¨à¤Ł": 3389,
      "à¤ıà¤¨à¤ıà¤¨": 3390,
      "à¤ıà¤¨à¤ıà¤ļ": 3391,
      "à¤¯à¤µà¤§": 3392,
      "Ġà¤¤à¤²à¤¹à¤Ł": 3393,
      "Ġà¥Ńà¥¦à¥¦": 3394,
      "Ġà¥Ńà¥¬": 3395,
      "à¤ħà¤®à¤°à¤¨": 3396,
      "Ġà¤¹à¤¥à¤Ĺ": 3397,
      "Ġà¤¹à¤¸à¤°à¤¤": 3398,
      "Ġà¥®à¥¦à¥¦": 3399,
      "Ġà¥®à¥Ń": 3400,
      "Ġà¥¨à¥¦à¥§à¥¨": 3401,
      "à¤²à¤¹à¤µ": 3402,
      "Ġà¥§à¥¨à¥¦": 3403,
      "Ġà¥§à¥¨à¥¬": 3404,
      "Ġà¤ıà¤«à¤ıà¤¸à¤ıà¤²": 3405,
      "Ġà¤ıà¤«à¤Ĩà¤Īà¤Ĩà¤Ī": 3406,
      "Ġà¥§à¥§à¥¯": 3407,
      "Ġà¥¯à¥«": 3408,
      "à¤¬à¤°à¤®à¤¤": 3409,
      "Ġà¤¤à¤Łà¤¸": 3410,
      "Ġ71": 3411,
      "Ġ700": 3412,
      "à¤°à¤Ĺà¤®à¤¨": 3413,
      "Ġà¥§à¥ªà¥ª": 3414,
      "Ġà¥§à¥ªà¥¦à¥¦à¥¦": 3415,
      "Ġà¤®à¤¶à¤Ĺ": 3416,
      "Ġà¤®à¤¶à¤µà¤°": 3417,
      "Ġà¤ıà¤ļà¤¡": 3418,
      "Ġ1993": 3419,
      "Ġ1994": 3420,
      "Ġ1995": 3421,
      "Ġà¤ħà¤¶à¤°à¤«": 3422,
      "Ġà¥§à¥®à¥ª": 3423,
      "à¤ıà¤ļà¤¡": 3424,
      "Ġ120": 3425,
      "Ġ123": 3426,
      "Ġà¤ķà¤¸à¤°à¤¤": 3427,
      "à¤ĳà¤°": 3428,
      "à¤ĳà¤¯à¤²": 3429,
      "à¥¯à¥¨": 3430,
      "à¥¯à¥¬": 3431,
      "à¥¯à¥®": 3432,
      "Ġà¤ķà¤µà¤ļ": 3433,
      "à¤²à¤Ŀà¤¨": 3434,
      "1960": 3435,
      "1970": 3436,
      "Ġà¤¹à¤ķà¤¦": 3437,
      "à¤Ĩà¤Īà¤ıà¤®à¤¡": 3438,
      "Ġ1972": 3439,
      "Ġà¥¨à¥®à¥«": 3440,
      "Ġ118": 3441,
      "Ġà¥¯à¥¬": 3442,
      "Ġà¥¯à¥¯": 3443,
      "Ġà¥¯à¥Ń": 3444,
      "Ġà¤Ĩà¤īà¤Łà¤«": 3445,
      "Ġà¤ļà¤¯à¤¨à¤ķà¤°": 3446,
      "Ġ1985": 3447,
      "Ġ1987": 3448,
      "Ġà¤ªà¤¹à¤¨à¤ķà¤°": 3449,
      "Ġ1969": 3450,
      "ĠAS": 3451,
      "Ġà¤°à¤®à¤ľ": 3452,
      "Ġ407": 3453,
      "ĠÂ·": 3454,
      "Ġà¤¦à¤®à¤¨à¤ķ": 3455,
      "Ġ05": 3456,
      "Ġà¥Ńà¥«à¥¦à¥¦": 3457,
      "Ġà¤Ĩà¤Īà¤ıà¤Īà¤ı": 3458,
      "à¤®à¤ľà¤¤à¤¨": 3459,
      "à¥§à¥¯à¥ª": 3460,
      "Ġà¥§à¥¯à¥Ńà¥«": 3461,
      "Ġà¥§à¥¯à¥Ńà¥¬": 3462,
      "1350": 3463,
      "à¤ıà¤¯à¤°à¤Ł": 3464,
      "ĠNBC": 3465,
      "Ġà¥§à¥¯à¥¬à¥¦": 3466,
      "Ġà¤īà¤ĸà¤¡": 3467,
      "à¤ħà¤«à¤¸à¤°": 3468,
      "Ġà¤ħà¤Łà¤ķà¤²à¤¬": 3469,
      "ĠLOR": 3470,
      "à¤ıà¤¸à¤ıà¤²à¤ª": 3471,
      "Ġà¥§à¥¯à¥ªà¥Ń": 3472,
      "Ġà¥§à¥¯à¥ªà¥¯": 3473,
      "lis": 3474,
      "ĠIII": 3475,
      "ĠTFEU": 3476,
      "à¤¸à¤¹à¤®à¤¤": 3477,
      "Ġà¤ħà¤łà¤ĸ": 3478,
      "Ġà¤ļà¤®à¤¡": 3479,
      "ĠUPT": 3480,
      "ÎµÎ": 3481,
      "ĠâĬĨ": 3482,
      "à¤ħà¤¹à¤®à¤¦": 3483,
      "à¤Ĩà¤Īà¤ıà¤ļà¤ıà¤²": 3484,
      "bil": 3485,
      "mina": 3486,
      "Ġà¤®à¤ľà¤¹à¤¬": 3487,
      "Ġà¤Ńà¤Ĺà¤¦à¤¡": 3488,
      "Ġà¤¬à¤¹à¤¬à¤²à¤ª": 3489,
      "Ġà¤ıà¤®à¤ıà¤²à¤ıà¤¸": 3490,
      ",\"": 3491,
      "05": 3492,
      "118": 3493,
      "24": 3494,
      "45": 3495,
      "52": 3496,
      "53": 3497,
      "59": 3498,
      "550": 3499,
      "511": 3500,
      "66": 3501,
      "69": 3502,
      "71": 3503,
      "72": 3504,
      "75": 3505,
      "760": 3506,
      "91": 3507,
      "973": 3508,
      "CC": 3509,
      "DC": 3510,
      "DuMont": 3511,
      "EP": 3512,
      "FL": 3513,
      "II": 3514,
      "IS": 3515,
      "LR": 3516,
      "MA": 3517,
      "NR": 3518,
      "PZ": 3519,
      "Ph": 3520,
      "SF": 3521,
      "as": 3522,
      "ce": 3523,
      "can": 3524,
      "ir": 3525,
      "ion": 3526,
      "lli": 3527,
      "ng": 3528,
      "nt": 3529,
      "nar": 3530,
      "om": 3531,
      "ori": 3532,
      "pA": 3533,
      "qu": 3534,
      "rd": 3535,
      "ro": 3536,
      "th": 3537,
      "um": 3538,
      "ux": 3539,
      "uat": 3540,
      "uran": 3541,
      "we": 3542,
      "ºÏ": 3543,
      "Â½": 3544,
      "Î³": 3545,
      "Î¿": 3546,
      "ÎºÏ": 3547,
      "éĻ": 3548,
      "Ġ+": 3549,
      "Ġ:": 3550,
      "ĠR": 3551,
      "Ġb": 3552,
      "Ġ|": 3553,
      "Ġå": 3554,
      "Ġan": 3555,
      "Ġin": 3556,
      "Ġet": 3557,
      "Ġma": 3558,
      "ĠBP": 3559,
      "ĦÎµÎ": 3560,
      "à¤±": 3561,
      "Ġà¤©": 3562,
      "à¤¾(": 3563,
      "à¤¾\")": 3564,
      "à¥ĩ!": 3565,
      "à¤°à¤Ł": 3566,
      "à¤°à¤²à¤¯": 3567,
      "à¤°à¤Łà¤¨": 3568,
      "à¤°à¤ľà¤ª": 3569,
      "Ġà¤ķà¤¯": 3570,
      "Ġà¤ķà¤Ĺ": 3571,
      "Ġà¤ķà¤Łà¤¨": 3572,
      "Ġà¤ķà¤¸à¤®": 3573,
      "à¤¿'": 3574,
      "à¤¿:": 3575,
      "à¤¿\",": 3576,
      "à¤Ĥ\"": 3577,
      "à¤Ĥ.": 3578,
      "à¤¨à¤Łà¤°": 3579,
      "à¤¨à¤¸à¤°": 3580,
      "à¤¨à¤°à¤¸": 3581,
      "à¤¨à¤ªà¤¤": 3582,
      "à¤¨à¤°à¤²": 3583,
      "à¤¨à¤ĳà¤«": 3584,
      "à¤¤à¤«": 3585,
      "à¤¤à¤°à¤¤": 3586,
      "à¤¤à¤µà¤²": 3587,
      "à¤ķà¤Ĺ": 3588,
      "à¤ķà¤¦à¤²": 3589,
      "à¤ķà¤Ĺà¤£": 3590,
      "à¤¯à¤Ĺ": 3591,
      "à¤¯à¤«": 3592,
      "à¤¯à¤¨à¤ķ": 3593,
      "à¤²à¤ĸ": 3594,
      "à¤²à¤¸à¤¨": 3595,
      "à¤²à¤ķà¤¨": 3596,
      "à¤²à¤¡à¤²": 3597,
      "à¤²à¤Ńà¤Ĺ": 3598,
      "à¤²à¤ĸà¤¨à¤Ĭ": 3599,
      "à¤¸à¤ľ": 3600,
      "à¤¸à¤°à¤¤": 3601,
      "à¤¸à¤¹à¤°": 3602,
      "à¤¸à¤°à¤£": 3603,
      "Ġà¤¸à¤§": 3604,
      "Ġà¤¸à¤°à¤¹": 3605,
      "à¤¹à¤ľà¤¨à¤ķ": 3606,
      "Ġà¤®à¤®à¤²": 3607,
      "Ġà¤®à¤¢": 3608,
      "Ġà¤®à¤°à¤£": 3609,
      "Ġà¤®à¤Łà¤°": 3610,
      "Ġà¤®à¤²à¤¯": 3611,
      "Ġà¤®à¤Łà¤¨": 3612,
      "Ġà¤®à¤¦à¤°": 3613,
      "Ġà¤®à¤ľà¤²": 3614,
      "Ġà¤®à¤²à¤ķ": 3615,
      "Ġà¤®à¤ķà¤¡": 3616,
      "Ġà¤®à¤ļà¤²": 3617,
      "Ġà¤®à¤²à¤®": 3618,
      "Ġà¤®à¤²à¤¹": 3619,
      "Ġà¤®à¤Ĺà¤°à¤®": 3620,
      "à¤®à¤®": 3621,
      "à¤®à¤¡": 3622,
      "à¤®à¤Ľ": 3623,
      "à¤®à¤°à¤£": 3624,
      "à¤®à¤°à¤¸": 3625,
      "à¤®à¤¬à¤°": 3626,
      "à¤®à¤ªà¤°": 3627,
      "à¤®à¤ľà¤¬": 3628,
      "à¤®à¤¹à¤®": 3629,
      "à¤®à¤°à¤¨": 3630,
      "à¤®à¤¶à¤¤": 3631,
      "Ġà¤¹à¤°à¤®": 3632,
      "Ġà¤ªà¤Łà¤ķ": 3633,
      "Ġà¤ªà¤£à¤ľ": 3634,
      "à¥ģ-": 3635,
      "à¥ģà¤ĥ": 3636,
      "à¤µà¤¹à¤¤": 3637,
      "à¤µà¤Ĺà¤¨": 3638,
      "à¥Ī\"": 3639,
      "à¥Ī'": 3640,
      "à¥Ī),": 3641,
      "à¥Ī\"à¥¤": 3642,
      "à¤¦à¤ķà¤°": 3643,
      "à¤¦à¤°à¤¦": 3644,
      "à¤¦à¤®à¤¤": 3645,
      "à¤¦à¤ķà¤¤": 3646,
      "à¥ĩà¤Ĥ\"": 3647,
      "à¥ĩà¤Ĥ:": 3648,
      "Ġà¤¨à¤²": 3649,
      "Ġà¤¨à¤Ł": 3650,
      "Ġà¤¨à¤¥": 3651,
      "Ġà¤¨à¤Łà¤°": 3652,
      "Ġà¤¨à¤¯à¤¨": 3653,
      "Ġà¤¨à¤µà¤²": 3654,
      "Ġà¤¨à¤²à¤µ": 3655,
      "Ġà¤¨à¤¸à¤¬": 3656,
      "Ġà¤¨à¤Ĺà¤£": 3657,
      "Ġà¥¤:": 3658,
      "à¤ªà¤ĸ": 3659,
      "à¤ªà¤°à¤®": 3660,
      "à¤ªà¤²à¤¬": 3661,
      "à¤ªà¤Łà¤µà¤°": 3662,
      "à¤ªà¤µà¤ķ": 3663,
      "à¤ªà¤¥à¤°": 3664,
      "à¤ªà¤Ĺà¤¢": 3665,
      "à¤Ĺà¤§": 3666,
      "à¤Ĺà¤Ń": 3667,
      "à¤Ĺà¤ªà¤Ł": 3668,
      "Ġà¤¬à¤¶": 3669,
      "Ġà¤¬à¤¤à¤°": 3670,
      "Ġà¤¬à¤ªà¤¤": 3671,
      "Ġà¤¬à¤ľà¤°": 3672,
      "à¤ľà¤Ł": 3673,
      "à¤ľà¤Łà¤°": 3674,
      "à¤ľà¤°à¤µ": 3675,
      "à¤ľà¤ªà¤°": 3676,
      "à¤ľà¤ĺ": 3677,
      "à¤ľà¤¤à¤¨": 3678,
      "à¤Łà¤°à¤®": 3679,
      "à¤Łà¤¨à¤®": 3680,
      "à¤Łà¤¸à¤°": 3681,
      "à¤Łà¤ķà¤¤": 3682,
      "Ġà¤¦à¤¶à¤¨": 3683,
      "Ġà¤¦à¤°à¤¦": 3684,
      "Ġà¤¦à¤¯à¤¨": 3685,
      "Ġà¤¦à¤¹à¤²": 3686,
      "Ġà¤ľà¤ķ": 3687,
      "Ġà¤ľà¤²à¤¨": 3688,
      "Ġà¤ľà¤Łà¤°": 3689,
      "Ġà¤ľà¤°à¤µ": 3690,
      "Ġà¤ľà¤²à¤¤": 3691,
      "Ġà¤ľà¤Ĺà¤°": 3692,
      "Ġà¤ľà¤ĺà¤¨": 3693,
      "Ġà¤µà¤Ĺ": 3694,
      "Ġà¤µà¤§": 3695,
      "Ġà¤µà¤«": 3696,
      "Ġà¤µà¤ļà¤¨": 3697,
      "Ġà¤µà¤¤à¤¨": 3698,
      "Ġà¤ħà¤Ľ": 3699,
      "Ġà¤ħà¤ľà¤°": 3700,
      "Ġà¤ħà¤ĸà¤¨": 3701,
      "Ġà¤°à¤¥": 3702,
      "Ġà¤°à¤¬à¤°": 3703,
      "Ġà¤°à¤Ĺà¤¡": 3704,
      "Ġà¤°à¤¤à¤²": 3705,
      "à¤ıà¤Łà¤²": 3706,
      "à¤ıà¤Ĩà¤Īà¤ıà¤®": 3707,
      "Ġà¤²à¤¹": 3708,
      "Ġà¤²à¤ªà¤ķ": 3709,
      "Ġà¤²à¤ķà¤µ": 3710,
      "Ġà¤²à¤²à¤ķ": 3711,
      "Ġà¤²à¤ļà¤°": 3712,
      "Ġà¤²à¤¹à¤ľ": 3713,
      "Ġà¤²à¤Łà¤ķà¤¤": 3714,
      "à¤¬à¤¶": 3715,
      "à¤¬à¤°à¤¹": 3716,
      "à¤¬à¤²à¤¤": 3717,
      "à¤¬à¤²à¤¬": 3718,
      "à¤¬à¤ķà¤¤": 3719,
      "à¤¬à¤¹à¤¸": 3720,
      "à¤¬à¤¨à¤Ĺà¤°": 3721,
      "à¤¬à¤ļà¤¤": 3722,
      "à¤¶à¤ĸ": 3723,
      "à¤¶à¤°à¤®": 3724,
      "à¤¶à¤°à¤¦": 3725,
      "à¤¶à¤¤à¤µ": 3726,
      "à¤¶à¤ªà¤¥": 3727,
      "à¤¡à¤¶": 3728,
      "à¤¡à¤¬à¤²": 3729,
      "à¤§à¤Ĺ": 3730,
      "à¤§à¤°à¤¤": 3731,
      "à¤§à¤°à¤®": 3732,
      "à¤§à¤ªà¤¤": 3733,
      "à¤§à¤µà¤¨": 3734,
      "Ġà¤Ĺà¤¹à¤®": 3735,
      "Ġà¤Ĺà¤¨à¤°": 3736,
      "à¤ļà¤¡": 3737,
      "à¤ļà¤ľà¤¨": 3738,
      "à¤ļà¤Ĺà¤¨": 3739,
      "à¤ļà¤¤à¤°à¤£": 3740,
      "à¤·à¤¨": 3741,
      "à¤·à¤¯à¤ķ": 3742,
      "à¤·à¤µà¤°": 3743,
      "à¤·à¤¦à¤°": 3744,
      "Ġà¤ķà¤°à¤¦": 3745,
      "Ġà¤īà¤Ľà¤²": 3746,
      "Ġà¤īà¤ľà¤¬": 3747,
      "Ġà¤¤à¤µ": 3748,
      "Ġà¤¤à¤ľ": 3749,
      "Ġà¤¤à¤¹à¤ķ": 3750,
      "Ġà¤¤à¤¹à¤²": 3751,
      "Ġà¤Ĩà¤ĺ": 3752,
      "Ġà¤Ńà¤°à¤®": 3753,
      "Ġà¤Ńà¤°à¤£": 3754,
      "Ġà¤Ńà¤Łà¤ķ": 3755,
      "Ġà¤Ńà¤°à¤ķà¤®": 3756,
      "à¤Īà¤µà¤°": 3757,
      "à¤Īà¤Ĺà¤°": 3758,
      "à¤Īà¤¯à¤°": 3759,
      "à¤Īà¤Ĩà¤°à¤Ł": 3760,
      "Ġà¤ªà¤°à¤¨": 3761,
      "Ġà¤ªà¤°à¤ª": 3762,
      "Ġà¤ªà¤°à¤ĸ": 3763,
      "Ġà¤ªà¤°à¤Ĺà¤¨": 3764,
      "Ġà¤ĩà¤Ĺ": 3765,
      "Ġà¤ĩà¤·": 3766,
      "Ġà¤ĩà¤¥": 3767,
      "Ġà¤ĩà¤°à¤ķ": 3768,
      "Ġà¤Ķà¤±": 3769,
      "à¤¼)": 3770,
      "à¤¼à¥Į": 3771,
      "à¤¼),": 3772,
      "à¤¼à¥ħ": 3773,
      "à¤¥à¤¸": 3774,
      "à¤¥à¤°à¤¸": 3775,
      "à¤¥à¤ķà¤¤": 3776,
      "à¤¥à¤¦à¤£": 3777,
      "à¤¾à¤Ĥ'": 3778,
      "Ġà¤ıà¤£": 3779,
      "Ġà¤ıà¤Ĩà¤Ī": 3780,
      "Ġà¤ıà¤Ĩà¤°à¤Ł": 3781,
      "Ġà¤ıà¤ıà¤Ĩà¤Ī": 3782,
      "Ġà¤ļà¤®à¤ļ": 3783,
      "Ġà¤ļà¤ªà¤Ł": 3784,
      "Ġà¤ļà¤ķà¤®": 3785,
      "Ġà¤¯à¤¤": 3786,
      "Ġà¤¯à¤¶à¤ª": 3787,
      "à¤ĸà¤Ĺ": 3788,
      "à¤ĸà¤¬": 3789,
      "à¤ĸà¤£": 3790,
      "à¤ĸà¤¤à¤°": 3791,
      "à¤ĸà¤¬à¤°": 3792,
      "à¤ĸà¤°à¤¨": 3793,
      "à¤ĸà¤®à¤°": 3794,
      "à¤Ńà¤¡": 3795,
      "à¤Ńà¤ļ": 3796,
      "à¤Ńà¤°à¤¤": 3797,
      "à¤Ńà¤ķà¤°à¤£": 3798,
      "Ġà¤¶à¤«": 3799,
      "Ġà¤¶à¤®à¤¨": 3800,
      "Ġà¤¶à¤Łà¤²": 3801,
      "à¥Īà¤Ĥ'": 3802,
      "à¤«à¤Ī": 3803,
      "à¤«à¤¹à¤®": 3804,
      "Ġà¤ĩà¤¸à¤ªà¤°": 3805,
      "à¤ĩà¤¹": 3806,
      "à¤ĩà¤Łà¤°": 3807,
      "à¤ĩà¤°à¤¸": 3808,
      "à¤ĩà¤ľà¤°": 3809,
      "à¤ĩà¤°à¤«": 3810,
      "à¤ĩà¤µà¤¸": 3811,
      "à¤ĩà¤Łà¤²à¤°": 3812,
      "à¤ĩà¤ĳà¤ķ": 3813,
      "Ġà¤ķà¤¹à¤²à¤Ĺ": 3814,
      "à¤°à¤¤à¤µ": 3815,
      "à¥Ģà¤Ĥ)": 3816,
      "Ġà¤ĸà¤¯": 3817,
      "Ġà¤ĸà¤¸": 3818,
      "Ġà¤ĸà¤°à¤®": 3819,
      "Ġà¤ĸà¤Łà¤ķ": 3820,
      "Ġà¤ĸà¤Ĺà¤¡": 3821,
      "Ġà¤«à¤ķ": 3822,
      "Ġà¤«à¤µ": 3823,
      "Ġà¤«à¤Ĺ": 3824,
      "Ġà¤«à¤ľ": 3825,
      "Ġà¤«à¤Ł": 3826,
      "Ġà¤«à¤¤à¤µ": 3827,
      "Ġà¤«à¤Łà¤¤": 3828,
      "Ġà¤¸à¤®à¤°à¤¸": 3829,
      "Ġà¤¸à¤®à¤¤à¤²": 3830,
      "Ġà¤īà¤¨à¤ªà¤°": 3831,
      "à¥¤\"": 3832,
      "à¥¤âĢĿ": 3833,
      "à¤łà¤®": 3834,
      "à¤łà¤¶": 3835,
      "à¤īà¤ľ": 3836,
      "à¤īà¤£": 3837,
      "à¤īà¤«": 3838,
      "à¤īà¤ªà¤¨": 3839,
      "à¤īà¤®à¤°": 3840,
      "à¤īà¤Łà¤µ": 3841,
      "à¤īà¤ªà¤ļ": 3842,
      "à¤Ĩà¤¹": 3843,
      "à¤Ĩà¤µ": 3844,
      "à¤Ĩà¤ı": 3845,
      "à¤Ĩà¤¬": 3846,
      "à¤Ĩà¤ļ": 3847,
      "à¤Ĩà¤ī": 3848,
      "à¤Ĩà¤Ľ": 3849,
      "à¤Ĩà¤¯à¤°": 3850,
      "à¤Ĩà¤®à¤¤": 3851,
      "à¤Ĩà¤ªà¤¸": 3852,
      "à¤Ĩà¤ĩà¤¸à¤²": 3853,
      "à¤Ĩà¤ĩà¤ı": 3854,
      "à¥ī)": 3855,
      "à¥¦à¥¨": 3856,
      "à¥¦à¥ª": 3857,
      "à¥¦à¥®": 3858,
      "Ġà¤ªà¤¹à¤°": 3859,
      "à¤ĵà¤ª": 3860,
      "à¤ĵà¤Ł": 3861,
      "à¤ĵà¤µà¤°": 3862,
      "à¤ĵà¤°à¤Ľ": 3863,
      "à¤ľà¤¨à¤¸": 3864,
      "à¤ľà¤¨à¤¶": 3865,
      "Ġà¤ħà¤¨à¤Ĺ": 3866,
      "Ġà¤Łà¤¹à¤²": 3867,
      "Ġà¤¡à¤Ł": 3868,
      "Ġà¤¡à¤Ľ": 3869,
      "Ġà¤¡à¤²à¤µ": 3870,
      "Ġà¤ĺà¤¨à¤®": 3871,
      "à¤īà¤¨à¤Ł": 3872,
      "Ġà¤²à¤Ĺà¤µ": 3873,
      "à¤¹à¤°à¤µ": 3874,
      "à¤¹à¤°à¤ĸ": 3875,
      "à¤¹à¤°à¤Ńà¤ľà¤¨": 3876,
      "à¤ħà¤µ": 3877,
      "à¤ħà¤®à¤¨": 3878,
      "à¤°à¤£à¤ª": 3879,
      "à¤°à¤£à¤§": 3880,
      "à¤Łà¤°à¤Ł": 3881,
      "à¤Łà¤°à¤¬": 3882,
      "à¤Łà¤°à¤ıà¤ķ": 3883,
      "Ġà¤Ľà¤²": 3884,
      "Ġà¤Ľà¤Ł": 3885,
      "Ġà¤Ľà¤¤à¤°": 3886,
      "Ġà¤Ľà¤ªà¤°": 3887,
      "Ġà¤Ľà¤²à¤ķ": 3888,
      "à¤¶à¤¨à¤Ĺ": 3889,
      "Ġà¤§à¤¬": 3890,
      "à¤°à¤µà¤¨": 3891,
      "Ġà¤µà¤°à¤¦": 3892,
      "à¤¸à¤°à¤¶": 3893,
      "Ġà¤ķà¤°à¤¤à¤¬": 3894,
      "à¤¯à¤®à¤¶": 3895,
      "Ġà¤Ĩà¤¯à¤µà¤°": 3896,
      "Ġà¤ħà¤²à¤®": 3897,
      "Ġà¤ħà¤²à¤¬": 3898,
      "Ġà¤ħà¤²à¤¬à¤°": 3899,
      "Ġà¤īà¤ªà¤µ": 3900,
      "Ġà¤īà¤ªà¤¸à¤®": 3901,
      "Ġà¤īà¤ªà¤¸à¤Ń": 3902,
      "Ġà¤īà¤ªà¤¸à¤¤à¤¹": 3903,
      "à¤²à¤¯à¤¨": 3904,
      "Ġà¤Ĩà¤°à¤Īà¤ıà¤²": 3905,
      "à¤¨à¤ķà¤²": 3906,
      "à¤¯à¤°à¤¬": 3907,
      "Ġà¤¸à¤¹à¤ķà¤°": 3908,
      "Ġà¤īà¤¤à¤°à¤ķà¤°": 3909,
      "à¤ĺà¤ķ": 3910,
      "à¤ĺà¤¸": 3911,
      "à¤ĺà¤ļ": 3912,
      "à¤ĺà¤²à¤¨": 3913,
      "à¤ĺà¤µà¤¨": 3914,
      "à¤Ŀà¤ľ": 3915,
      "à¤®à¤¨à¤¦": 3916,
      "à¤®à¤¨à¤Ĺà¤°": 3917,
      "à¤·à¤£à¤µ": 3918,
      "Ġà¤¦à¤°à¤¬": 3919,
      "Ġà¤¸à¤®à¤¯à¤¬à¤¦": 3920,
      "Ġà¤ªà¤¤à¤²": 3921,
      "à¤¸à¤¨à¤Ĺà¤°": 3922,
      "à¤¯à¤¤à¤¯": 3923,
      "à¤¯à¤¤à¤ķà¤°": 3924,
      "Ġà¤ľà¤¨à¤°": 3925,
      "Ġà¤ľà¤¨à¤Ń": 3926,
      "à¤ıà¤¸à¤Ĩà¤°à¤µ": 3927,
      "Ġà¤¸à¤¦à¤®": 3928,
      "à¤Ĩà¤Īà¤¯": 3929,
      "à¤Ĩà¤Īà¤¬": 3930,
      "à¤Ĩà¤Īà¤ıà¤¨": 3931,
      "à¤Ĩà¤Īà¤Ĩà¤°à¤¸": 3932,
      "Ġà¤ĩà¤¨à¤µ": 3933,
      "Ġà¤ĩà¤¨à¤ª": 3934,
      "Ġà¤¬à¤¹à¤²": 3935,
      "Ġà¤ĵà¤ķ": 3936,
      "Ġà¤ĵà¤ª": 3937,
      "Ġà¤ĵà¤¢": 3938,
      "Ġà¤ĵà¤°à¤¸": 3939,
      "Ġà¤ĵà¤®à¤ª": 3940,
      "à¤¦à¤°à¤Ń": 3941,
      "Ġà¤¹à¤®à¤¸": 3942,
      "à¤§à¤¨à¤¤": 3943,
      "Ġà¤ĳà¤¬": 3944,
      "Ġà¤ĳà¤¥": 3945,
      "Ġà¤ĳà¤¨à¤°": 3946,
      "Ġà¤ĳà¤²à¤¸": 3947,
      "à¤ªà¤ķà¤¤": 3948,
      "à¤ķà¤²à¤µ": 3949,
      "à¤¸à¤ķà¤¤": 3950,
      "Ġà¤¸à¤°à¤Ĺà¤°": 3951,
      "Ġ26": 3952,
      "Ġ250": 3953,
      "Ġà¤ªà¤¦à¤Ń": 3954,
      "Ġà¤Ĩà¤Īà¤ıà¤¸à¤ª": 3955,
      "Ġà¤Ĩà¤Īà¤ĩà¤¡": 3956,
      "Ġà¤Ĩà¤Īà¤ıà¤¸à¤¡": 3957,
      "Ġà¤¬à¤ľà¤¤": 3958,
      "Ġà¤ıà¤¸à¤¯": 3959,
      "Ġà¤ıà¤¸à¤ıà¤¸": 3960,
      "Ġà¤ıà¤¸à¤ıà¤²à¤¸": 3961,
      "Ġà¤ħà¤ªà¤¡": 3962,
      "à¤°à¤Ńà¤¦": 3963,
      "à¥§à¥ª": 3964,
      "Ġà¤¹à¤°à¤¨": 3965,
      "Ġà¤¹à¤°à¤Ĺ": 3966,
      "à¤Łà¤²à¤¸": 3967,
      "à¤Łà¤²à¤®": 3968,
      "à¤Łà¤²à¤«": 3969,
      "Ġà¤łà¤£": 3970,
      "à¥Īà¤Ĥà¥¤âĢĿ": 3971,
      "à¥¨à¥¨": 3972,
      "à¤®à¤ķà¤¦": 3973,
      "à¤®à¤ķà¤¥": 3974,
      "Ġà¥©à¥¦à¥¦à¥¦": 3975,
      "à¤Łà¤ķà¤ķ": 3976,
      "à¤¨à¤µà¤¯": 3977,
      "âĢĻ": 3978,
      "âĢľ": 3979,
      "à¥ªà¥¦à¥¦": 3980,
      "à¥ªà¥©": 3981,
      "à¥ªà¥®": 3982,
      "à¥ªà¥Ń": 3983,
      "Ġà¤¬à¤°à¤ª": 3984,
      "Ġà¤īà¤¦à¤ĺ": 3985,
      "Ġà¤īà¤¦à¤¯à¤ª": 3986,
      "Ġà¤¬à¤¦à¤²à¤µ": 3987,
      "Ġà¤¬à¤¦à¤¤à¤®": 3988,
      "Ġà¤Ĩà¤¦à¤¤à¤¨": 3989,
      "à¥©à¥¦à¥¦": 3990,
      "à¥©à¥«": 3991,
      "à¥©à¥©": 3992,
      "à¥©à¥Ń": 3993,
      "à¥©à¥¯": 3994,
      "Ġà¤Ĩà¤ľà¤ķà¤²": 3995,
      "à¤¬à¤²à¤Ī": 3996,
      "Ġà¤Ĩà¤µà¤Ńà¤Ĺà¤¤": 3997,
      "Ġà¤ķà¤²à¤ķ": 3998,
      "Ġà¤ķà¤²à¤Ī": 3999,
      "Ġà¤ľà¤²à¤®": 4000,
      "Ġà¤ľà¤²à¤ķà¤°": 4001,
      "Ġà¤¸à¤ļà¤®": 4002,
      "Ġà¤Ĭà¤Ŀ": 4003,
      "à¤¦à¤¨à¤Ĺà¤°": 4004,
      "Ġ1930": 4005,
      "Ġ1916": 4006,
      "Ġ1913": 4007,
      "Ġ1912": 4008,
      "Ġ1937": 4009,
      "Ġ1958": 4010,
      "Ġà¤ıà¤¨à¤¬": 4011,
      "Ġà¤¬à¤²à¤°": 4012,
      "Ġà¤¬à¤²à¤¦": 4013,
      "Ġà¤¬à¤²à¤ľ": 4014,
      "à¤ľà¤¹à¤¦": 4015,
      "à¥¬à¥«": 4016,
      "à¥¬à¥®": 4017,
      "Ġà¤Īà¤¦": 4018,
      "Ġà¤Īà¤ľ": 4019,
      "Ġà¤Īà¤Ł": 4020,
      "Ġà¤Īà¤¯à¤°": 4021,
      "Ġà¤Īà¤¸à¤µ": 4022,
      "Ġà¤Īà¤ĳà¤¨": 4023,
      "Ġà¤®à¤¤à¤ª": 4024,
      "Ġà¤¸à¤®à¤Ŀà¤¦": 4025,
      "à¤Ĩà¤°à¤ĵ": 4026,
      "à¤Ĩà¤°à¤ıà¤¸à¤ª": 4027,
      "à¤²à¤ķà¤£": 4028,
      "Ġà¥«à¥«à¥¦": 4029,
      "Ġà¤¢à¤°": 4030,
      "Ġà¤¢à¤¸": 4031,
      "Ġà¤¢à¤ķà¤¨": 4032,
      "Ġà¥ªà¥¨à¥¦": 4033,
      "Ġà¥ªà¥«à¥¦": 4034,
      "Ġà¤®à¤¦à¤¦à¤Ĺ": 4035,
      "à¥®à¥¬": 4036,
      "Ġà¤®à¤¨à¤¸": 4037,
      "Ġà¤®à¤¨à¤ļ": 4038,
      "à¤¨à¤°à¤¬": 4039,
      "à¤ľà¤¯à¤µà¤°": 4040,
      "à¤Ńà¤Ĺà¤µ": 4041,
      "à¥Ńà¥¦": 4042,
      "à¥Ńà¥¨": 4043,
      "à¤ıà¤«à¤Ĩà¤Īà¤Ĩà¤°": 4044,
      "à¤¦à¤®à¤¯": 4045,
      "à¤°à¤¬à¤ļà¤¨": 4046,
      "Ġà¤ħà¤«à¤¶": 4047,
      "à¤¤à¤®à¤¯": 4048,
      "à¤ĩà¤Łà¤¹": 4049,
      "Ġà¤¤à¤¬à¤¤à¤ķ": 4050,
      "Ġ32": 4051,
      "Ġà¤¹à¤Łà¤¤": 4052,
      "Ġà¤¹à¤Łà¤ķà¤°": 4053,
      "Ġà¤ľà¤Ĺà¤®à¤Ĺ": 4054,
      "Ġà¤ıà¤®à¤ľ": 4055,
      "Ġà¤ıà¤®à¤ıà¤¸": 4056,
      "Ġà¤¦à¤¬à¤¦à¤¬": 4057,
      "à¤ķà¤Łà¤¤à¤®": 4058,
      "Ġà¥¬à¥§": 4059,
      "Ġà¥¬à¥¨": 4060,
      "Ġà¥¬à¥Ń": 4061,
      "Ġà¥¬à¥«à¥¦": 4062,
      "Ġà¥¬à¥ªà¥¦": 4063,
      "à¤ıà¤²à¤Ł": 4064,
      "à¤ıà¤²à¤Ĩà¤°": 4065,
      "à¤ıà¤²à¤Ĩà¤Īà¤¸": 4066,
      "à¤ıà¤²à¤ĵà¤¸": 4067,
      "Ġà¤ħà¤Ĺà¤ª": 4068,
      "à¤¥à¤²à¤¡à¤®à¤°": 4069,
      "Ġà¤īà¤²à¤Ŀ": 4070,
      "Ġà¤īà¤²à¤Łà¤«": 4071,
      "Ġà¤Ĩà¤¸à¤µà¤¨": 4072,
      "à¤Ĺà¤®à¤°à¤®à¤°": 4073,
      "à¤ıà¤¨à¤¯": 4074,
      "à¤ıà¤¨à¤¬": 4075,
      "à¤ıà¤¨à¤ıà¤ļà¤ıà¤¸": 4076,
      "Ġà¤¤à¤²à¤Ľà¤Ł": 4077,
      "Ġà¥Ńà¥§à¥¬": 4078,
      "à¤£à¤¨à¤ĸ": 4079,
      "à¤Ĺà¤¨à¤ľ": 4080,
      "Ġà¤¨à¤µà¤µà¤°": 4081,
      "Ġà¤¨à¤µà¤Ĺà¤ł": 4082,
      "à¥¯à¥¦": 4083,
      "à¤Ĭà¤¸": 4084,
      "à¤Ĭà¤¬": 4085,
      "à¤Ĭà¤ªà¤°": 4086,
      "Ġ2035": 4087,
      "Ġ52": 4088,
      "Ġ53": 4089,
      "Ġ56": 4090,
      "Ġ59": 4091,
      "Ġà¥®à¥§": 4092,
      "Ġà¥®à¥¨": 4093,
      "Ġà¥®à¥¬": 4094,
      "Ġà¥®à¥¯à¥§": 4095,
      "Ġà¥¨à¥¦à¥®à¥¦": 4096,
      "Ġà¥§à¥¦à¥§": 4097,
      "Ġà¥§à¥¦à¥¬": 4098,
      "Ġà¤Ĺà¤²à¤¤à¤«à¤¹à¤®": 4099,
      "Ġà¥§à¥«à¥¦à¥¦": 4100,
      "Ġà¥§à¥«à¥§": 4101,
      "à¤°à¤ľà¤ķ": 4102,
      "à¤°à¤ľà¤µ": 4103,
      "à¤ªà¤²à¤µà¤²": 4104,
      "à¤ļà¤°à¤°": 4105,
      "Ġà¤ıà¤²à¤Ĩà¤Īà¤¸": 4106,
      "Ġà¤ıà¤²à¤ıà¤²à¤¬": 4107,
      "Ġà¥§à¥¨à¥¦à¥¦": 4108,
      "Ġà¥§à¥¨à¥«": 4109,
      "Ġà¥§à¥¨à¥®": 4110,
      "Ġ42": 4111,
      "Ġ47": 4112,
      "Ġ48": 4113,
      "Ġ49": 4114,
      "Ġ4000": 4115,
      "Ġ420": 4116,
      "Ġà¥¦à¥¨": 4117,
      "Ġà¥¦à¥Ń": 4118,
      "Ġà¥§à¥§à¥¨": 4119,
      "Ġà¥§à¥§à¥®": 4120,
      "Ġà¤®à¤¸à¤²à¤¨": 4121,
      "Ġà¤¤à¤Łà¤¬": 4122,
      "Ġà¤®à¤°à¤¡": 4123,
      "Ġ73": 4124,
      "Ġ750": 4125,
      "Ġ760": 4126,
      "Ġà¤ıà¤¯à¤°à¤ľ": 4127,
      "Ġ63": 4128,
      "Ġ68": 4129,
      "Ġ600": 4130,
      "Ġà¤ļà¤°à¤£à¤¬à¤¦": 4131,
      "à¤ħà¤¨à¤ªà¤°": 4132,
      "Ġ1800": 4133,
      "Ġ1850": 4134,
      "Ġ1820": 4135,
      "Ġ1879": 4136,
      "Ġ1832": 4137,
      "Ġ1851": 4138,
      "Ġà¥§à¥ªà¥«": 4139,
      "Ġà¥§à¥ªà¥§": 4140,
      "Ġà¥§à¥ªà¥¨": 4141,
      "Ġà¥§à¥ªà¥®": 4142,
      "Ġà¤īà¤ľà¤¡": 4143,
      "Ġà¤Ĩà¤łà¤µ": 4144,
      "Ġà¤¬à¤®à¤¬": 4145,
      "à¤µà¤°à¤£à¤µ": 4146,
      "Ġà¤ıà¤ļà¤ª": 4147,
      "Ġà¤ıà¤ļà¤ıà¤®à¤ıà¤¸": 4148,
      "Ġ103": 4149,
      "à¤ħà¤¦à¤¬": 4150,
      "Ġà¥§à¥®à¥¦": 4151,
      "Ġà¥§à¥®à¥®à¥§": 4152,
      "Ġà¥§à¥®à¥«à¥Ń": 4153,
      "Ġ1519": 4154,
      "Ġ1530": 4155,
      "Ġ1565": 4156,
      "Ġ1528": 4157,
      "Ġ1564": 4158,
      "Ġ1563": 4159,
      "Ġ81": 4160,
      "Ġ84": 4161,
      "Ġ800": 4162,
      "à¤ıà¤ļà¤ıà¤«": 4163,
      "à¤ıà¤ļà¤ıà¤ıà¤²": 4164,
      "Ġà¤¶à¤¹à¤°à¤ķ": 4165,
      "Ġ125": 4166,
      "Ġ129": 4167,
      "Ġ1279": 4168,
      "Ġ1282": 4169,
      "Ġà¥§à¥©à¥¨": 4170,
      "Ġà¥§à¥©à¥ª": 4171,
      "Ġà¥§à¥¬à¥§": 4172,
      "à¤ħà¤°à¤°": 4173,
      "Ġà¥©à¥¦à¥Ń": 4174,
      "Ġ1770": 4175,
      "Ġ1777": 4176,
      "à¥¯à¥©": 4177,
      "à¥¯à¥ª": 4178,
      "Ġà¤¨à¤ľà¤«": 4179,
      "Ġà¥¨à¥§à¥¦": 4180,
      "1940": 4181,
      "1980": 4182,
      "à¤Ķà¤¦": 4183,
      "Ġ160": 4184,
      "Ġ168": 4185,
      "Ġ1654": 4186,
      "Ġ1665": 4187,
      "Ġà¥§à¥Ńà¥§": 4188,
      "à¤ıà¤¸à¤Ĩà¤Īà¤¡": 4189,
      "Ġ1974": 4190,
      "Ġ1976": 4191,
      "Ġ1977": 4192,
      "ĠâĢĺ": 4193,
      "Ġà¥§à¥¯à¥®à¥«": 4194,
      "Ġà¤ªà¤²à¤¡": 4195,
      "Ġà¤¬à¤°à¤¤à¤¤": 4196,
      "Ġ115": 4197,
      "Ġ117": 4198,
      "Ġ1100": 4199,
      "Ġ1156": 4200,
      "Ġà¥¯à¥¯à¥": 4201,
      "Ġà¤¤à¤¨à¤ĸ": 4202,
      "Ġà¥ªà¥¦à¥®": 4203,
      "à¤¯à¤£à¤Ĺà¤¢": 4204,
      "Ġà¤Ĺà¤£à¤¶": 4205,
      "Ġà¥¨à¥©à¥¦à¥¦": 4206,
      "Ġ1983": 4207,
      "Ġ1984": 4208,
      "Ġ1986": 4209,
      "Ġ1988": 4210,
      "Ġ1989": 4211,
      "Ġà¥¨à¥¨à¥¨": 4212,
      "....": 4213,
      "Ġà¤¹à¤¡à¤¸à¤¨": 4214,
      "Ġ1967": 4215,
      "ĠAD": 4216,
      "ĠAbil": 4217,
      "1857": 4218,
      "à¤¨à¤ķà¤°à¤¨": 4219,
      "Ġà¥©à¥«à¥¦": 4220,
      "Ġ136": 4221,
      "Ġ1350": 4222,
      "Ġ144": 4223,
      "Ġ2500": 4224,
      "à¤²à¤¦à¤¹": 4225,
      "Ġà¥§à¥¯à¥«à¥¦": 4226,
      "à¤²à¤Ńà¤¤à¤®": 4227,
      "Ġà¤ĺà¤¨à¤¶": 4228,
      "Ġà¥¨à¥¯à¥«": 4229,
      "à¤ħà¤ªà¤¹à¤°à¤£": 4230,
      "105": 4231,
      "ĠÂ°": 4232,
      "Ġà¤¦à¤®à¤ķà¤²": 4233,
      "à¤Ĩà¤Īà¤ıà¤²à¤ĵ": 4234,
      "Ġ280": 4235,
      "Ġà¥©à¥¬à¥§": 4236,
      "160": 4237,
      "Ġà¤°à¤£à¤¦": 4238,
      "Ġà¤°à¤£à¤ľ": 4239,
      "Ġà¤°à¤£à¤¥à¤®": 4240,
      "Ġà¤īà¤Ľà¤²à¤¤": 4241,
      "Ġà¤ļà¤Łà¤ĸ": 4242,
      "Ġ03": 4243,
      "Ġ04": 4244,
      "Ġ07": 4245,
      "ĠPP": 4246,
      "à¤¯à¤°à¤¸à¤¨": 4247,
      "Ġà¤ıà¤¨à¤ıà¤¸à¤¡": 4248,
      "Ġà¤¶à¤°à¤£à¤¸": 4249,
      "à¤ħà¤Ĺà¤ª": 4250,
      "Ġà¤Ĩà¤Īà¤ıà¤ıà¤¨à¤ıà¤¸": 4251,
      "Ġà¤Ĩà¤Īà¤ıà¤®à¤¡": 4252,
      "Ġà¥©à¥Ńà¥¦": 4253,
      "ĠDuran": 4254,
      "Ġà¥§à¥¯à¥Ńà¥¦": 4255,
      "Ġà¥§à¥¯à¥Ńà¥§": 4256,
      "Ġà¥§à¥¯à¥Ńà¥Ń": 4257,
      "à¤²à¤ļà¤Ł": 4258,
      "à¤ıà¤¯à¤°à¤²": 4259,
      "à¤ıà¤¯à¤°à¤ª": 4260,
      "à¤ıà¤¸à¤Īà¤ıà¤¸": 4261,
      "2001": 4262,
      "ĠNP": 4263,
      "ĠNFL": 4264,
      "à¤¬à¤ļà¤ªà¤¨": 4265,
      "Ġà¤Ĩà¤«à¤¤": 4266,
      "Ġà¥§à¥¯à¥¬à¥«": 4267,
      "ĠCE": 4268,
      "ĠMSP": 4269,
      "ĠMEP": 4270,
      "Ġà¤ħà¤¸à¤¹à¤¯": 4271,
      "Ġà¤ħà¤¸à¤¹à¤ľ": 4272,
      "Ġ1903": 4273,
      "Ġ1904": 4274,
      "Ġà¥ªà¥©à¥Ń": 4275,
      "Ġà¥ªà¥©à¥¯": 4276,
      "à¤Ĺà¤łà¤¬": 4277,
      "Ġà¤¬à¤¦à¤°à¤ª": 4278,
      "à¤ħà¤«à¤Ĺ": 4279,
      "à¤ıà¤¸à¤ıà¤Ĩà¤Īà¤¡": 4280,
      "Ġà¥©à¥®à¥ª": 4281,
      "Ġà¥©à¥¯à¥¦": 4282,
      "Ġà¥ªà¥Ńà¥¦": 4283,
      "ĠENR": 4284,
      "ĠLM": 4285,
      "Ġà¤ķà¤¤à¤°à¤¨": 4286,
      "à¥¨à¥¦à¥¦à¥¨": 4287,
      "à¥¨à¥¦à¥¦à¥©": 4288,
      "Ġà¥§à¥¯à¥ªà¥®": 4289,
      "Ġ390": 4290,
      "ene": 4291,
      "liae": 4292,
      "ĠQuat": 4293,
      "ĠSI": 4294,
      "ĠSpA": 4295,
      "ĠVW": 4296,
      "à¤ĵà¤²à¤¸à¤¨": 4297,
      "Ġ1943": 4298,
      "Ġ1945": 4299,
      "Ġà¥«à¥¦à¥¦à¥¦à¥¦": 4300,
      "Ġà¥«à¥©à¥«à¥©": 4301,
      "Ġ367": 4302,
      "Ġ3600": 4303,
      "Ġct": 4304,
      "à¤¹à¤ľà¤°à¤¤": 4305,
      "Ġà¤¦à¤¶à¤®à¤²à¤µ": 4306,
      "à¥Ĥà¤Ĥà¥¤\"": 4307,
      "Ġà¥§à¥¯à¥¨à¥¦": 4308,
      "Ġà¥§à¥¯à¥¨à¥©": 4309,
      "à¥§à¥¯à¥¯à¥Ń": 4310,
      "ernar": 4311,
      "ĠUK": 4312,
      "à¤ıà¤ıà¤²à¤ıà¤ļ": 4313,
      "Ġà¤Łà¤ļà¤¡": 4314,
      "à¥Ńà¥©à¥Ń": 4315,
      "Ġà¥§à¥¯à¥©à¥¯": 4316,
      "Ġ1882": 4317,
      "Ġ1886": 4318,
      "Ġ1348": 4319,
      "Ġ1349": 4320,
      "olog": 4321,
      "ĠFCC": 4322,
      "Ġgmina": 4323,
      "Ġto": 4324,
      "à¤²à¤µà¤²à¤ķà¤°": 4325,
      "Ġà¤¬à¤¹à¤°à¤¹": 4326,
      "Ġà¤ķà¤°à¤ľà¤Ī": 4327,
      "ĠDECnet": 4328,
      "à¥§à¥¯à¥®à¥¯": 4329,
      "NET": 4330,
      "adic": 4331,
      "ĠÃĹ": 4332,
      "Ġà¤ķà¤¨à¤ķà¤ª": 4333,
      "à¤ķà¤®à¤²à¤¨": 4334,
      "à¤ıà¤ıà¤«à¤ıà¤¸à¤ª": 4335,
      "à¤§à¤¶à¤¤à¤ķ": 4336,
      "Ġà¤Ĩà¤Īà¤Ĩà¤°à¤¬": 4337,
      "à¤ıà¤¨à¤ıà¤ļà¤Ĩà¤°à¤¸": 4338,
      "à¥§à¥¯à¥ªà¥Ń": 4339,
      "PZP": 4340,
      "PhC": 4341,
      "canolog": 4342,
      "ÎºÏĦÎµÎ": 4343,
      "à¤²à¤Ńà¤Ĺà¤¢": 4344,
      "Ġà¤¸à¤°à¤¹à¤¦": 4345,
      "Ġà¤®à¤Ĺà¤°à¤®à¤ļ": 4346,
      "Ġà¤ªà¤Łà¤ķà¤¥": 4347,
      "Ġà¤¨à¤¥à¤®à¤²": 4348,
      "Ġà¤ħà¤Ľà¤¬à¤²": 4349,
      "Ġà¤ħà¤ľà¤°à¤¬": 4350,
      "à¤Ĩà¤¯à¤°à¤¨": 4351,
      "ĠAbilene": 4352,
      "ĠQuaternar": 4353,
      "canology": 4354,
      "ĠQuaternary": 4355,
      "\"-": 4356,
      "\"),": 4357,
      "%,": 4358,
      "%),": 4359,
      "')": 4360,
      "))": 4361,
      ").": 4362,
      ",âĢĿ": 4363,
      "-)": 4364,
      "-Â": 4365,
      ".)": 4366,
      ".,": 4367,
      ".),": 4368,
      "01": 4369,
      "02": 4370,
      "07": 4371,
      "08": 4372,
      "018": 4373,
      "039": 4374,
      "064": 4375,
      "119": 4376,
      "150": 4377,
      "154": 4378,
      "113": 4379,
      "140": 4380,
      "219": 4381,
      "250": 4382,
      "221": 4383,
      "33": 4384,
      "360": 4385,
      "335": 4386,
      "365": 4387,
      "321": 4388,
      "328": 4389,
      "338": 4390,
      "46": 4391,
      "419": 4392,
      "435": 4393,
      "442": 4394,
      "490": 4395,
      "529": 4396,
      "68": 4397,
      "618": 4398,
      "78": 4399,
      "700": 4400,
      "754": 4401,
      "735": 4402,
      "818": 4403,
      "865": 4404,
      "843": 4405,
      "846": 4406,
      "93": 4407,
      "94": 4408,
      "96": 4409,
      "900": 4410,
      "915": 4411,
      "936": 4412,
      "988": 4413,
      "AB": 4414,
      "AI": 4415,
      "AT": 4416,
      "Ao": 4417,
      "As": 4418,
      "AMA": 4419,
      "ANET": 4420,
      "BM": 4421,
      "BQ": 4422,
      "CS": 4423,
      "Cs": 4424,
      "CAR": 4425,
      "DP": 4426,
      "DS": 4427,
      "Da": 4428,
      "DEC": 4429,
      "Div": 4430,
      "EG": 4431,
      "EL": 4432,
      "EMA": 4433,
      "Fran": 4434,
      "FCs": 4435,
      "GPhC": 4436,
      "Ha": 4437,
      "Hu": 4438,
      "IM": 4439,
      "IR": 4440,
      "IV": 4441,
      "IX": 4442,
      "IEG": 4443,
      "KS": 4444,
      "LN": 4445,
      "LU": 4446,
      "LOR": 4447,
      "LIX": 4448,
      "Ma": 4449,
      "Mo": 4450,
      "MAS": 4451,
      "NLR": 4452,
      "NSF": 4453,
      "NAT": 4454,
      "OP": 4455,
      "PANET": 4456,
      "REC": 4457,
      "SE": 4458,
      "SI": 4459,
      "SM": 4460,
      "TA": 4461,
      "TL": 4462,
      "TS": 4463,
      "TU": 4464,
      "TV": 4465,
      "TIM": 4466,
      "UK": 4467,
      "UR": 4468,
      "VLR": 4469,
      "Wh": 4470,
      "WSE": 4471,
      "XX": 4472,
      "].": 4473,
      "]à¥¤": 4474,
      "ais": 4475,
      "alis": 4476,
      "air": 4477,
      "awe": 4478,
      "bb": 4479,
      "bn": 4480,
      "bat": 4481,
      "cl": 4482,
      "con": 4483,
      "ces": 4484,
      "de": 4485,
      "ds": 4486,
      "dz": 4487,
      "div": 4488,
      "dux": 4489,
      "eg": 4490,
      "ev": 4491,
      "eri": 4492,
      "elli": 4493,
      "equ": 4494,
      "ebb": 4495,
      "fer": 4496,
      "ge": 4497,
      "gen": 4498,
      "gis": 4499,
      "gmina": 4500,
      "hT": 4501,
      "hebb": 4502,
      "ia": 4503,
      "io": 4504,
      "it": 4505,
      "ied": 4506,
      "ias": 4507,
      "iev": 4508,
      "jj": 4509,
      "ki": 4510,
      "kWh": 4511,
      "la": 4512,
      "lb": 4513,
      "le": 4514,
      "les": 4515,
      "lng": 4516,
      "lum": 4517,
      "lcanology": 4518,
      "med": 4519,
      "man": 4520,
      "mic": 4521,
      "mion": 4522,
      "no": 4523,
      "nor": 4524,
      "ox": 4525,
      "oMa": 4526,
      "pu": 4527,
      "pà¤¡": 4528,
      "pri": 4529,
      "pestis": 4530,
      "rog": 4531,
      "rais": 4532,
      "ss": 4533,
      "su": 4534,
      "sti": 4535,
      "sol": 4536,
      "sir": 4537,
      "sia": 4538,
      "ty": 4539,
      "ter": 4540,
      "telli": 4541,
      "un": 4542,
      "us": 4543,
      "ues": 4544,
      "ulli": 4545,
      "ulcanology": 4546,
      "van": 4547,
      "vol": 4548,
      "wes": 4549,
      "wjj": 4550,
      "xx": 4551,
      "})": 4552,
      "§à¥¯": 4553,
      "¨ŀ": 4554,
      "¬à¤ļ": 4555,
      "¯Ĩ": 4556,
      "¯ÏĤ": 4557,
      "±à¤¹à¤¤": 4558,
      "³ä": 4559,
      "º¬à¤ļ": 4560,
      "½Ģ": 4561,
      "½Î³": 4562,
      "¾Ï": 4563,
      "Î¾Ï": 4564,
      "Ïģ": 4565,
      "ÏĨ": 4566,
      "á½Ģ": 4567,
      "å¯Ĩ": 4568,
      "æ¨ŀ": 4569,
      "éĢ": 4570,
      "Ġ#": 4571,
      "Ġ;": 4572,
      "Ġ`": 4573,
      "Ġa": 4574,
      "Ġx": 4575,
      "Ġ{": 4576,
      "Ġ~": 4577,
      "ĠâĢį": 4578,
      "ĠBC": 4579,
      "Ġ)à¥¤": 4580,
      "Ġas": 4581,
      "Ġori": 4582,
      "Ġwe": 4583,
      "ĠÎºÏĦÎµÎ": 4584,
      "ĠBQ": 4585,
      "Ġdiv": 4586,
      "Ġhebb": 4587,
      "ĠkWh": 4588,
      "Ġlb": 4589,
      "Ġmed": 4590,
      "Ġrais": 4591,
      "Ġsir": 4592,
      "Ġwjj": 4593,
      "Ġá½Ģ": 4594,
      "ĠéĢ": 4595,
      "Ĥ¬": 4596,
      "ħĥ": 4597,
      "Ī¶": 4598,
      "įÏĤ": 4599,
      "İle": 4600,
      "Ġà¤±à¤¹à¤¤": 4601,
      "à¤¾!": 4602,
      "à¤¾]": 4603,
      "à¤¾\"à¥¤": 4604,
      "à¥ĩ/": 4605,
      "à¥ĩ:": 4606,
      "à¤°à¤ħ": 4607,
      "à¤°à¤¨à¤ķ": 4608,
      "à¤°à¤ĺ": 4609,
      "à¤°à¤Ŀ": 4610,
      "à¤°à¤Ĺà¤²": 4611,
      "à¤°à¤ľà¤°": 4612,
      "à¤°à¤ªà¤ķ": 4613,
      "à¤°à¤¨à¤µ": 4614,
      "à¤°à¤ĸà¤¨": 4615,
      "à¤°à¤ľà¤®": 4616,
      "à¤°à¤Ĺà¤®": 4617,
      "Ġà¤ķà¤ľ": 4618,
      "Ġà¤ķà¤²à¤¯": 4619,
      "Ġà¤ķà¤¸à¤¤": 4620,
      "Ġà¤ķà¤¨à¤¸": 4621,
      "Ġà¤ķà¤Łà¤°à¤¨": 4622,
      "Ġà¤ķà¤«à¤¨": 4623,
      "Ġà¤ķà¤¸à¤®à¤¸": 4624,
      "à¤¿\"": 4625,
      "à¤¿à¥ĩ": 4626,
      "à¤¿à¥¤": 4627,
      "à¤Ĥ'": 4628,
      "à¤Ĥ)": 4629,
      "à¤Ĥ?": 4630,
      "à¤Ĥ\")": 4631,
      "à¥Ģ!": 4632,
      "à¥Ģ/": 4633,
      "à¥Ģà¤ĥ": 4634,
      "à¤¨à¤¥": 4635,
      "à¤¨à¤ĸ": 4636,
      "à¤¨à¤¤à¤°": 4637,
      "à¤¨à¤Ŀ": 4638,
      "à¤¨à¤µà¤¨": 4639,
      "à¤¨à¤ķà¤°à¤£": 4640,
      "à¤¨à¤¹à¤®": 4641,
      "à¤¨à¤ĸà¤¨": 4642,
      "à¤¨à¤¦à¤µ": 4643,
      "à¤¨à¤¹à¤¸": 4644,
      "à¤¨à¤ĸà¤°": 4645,
      "à¤¨à¤Ĺà¤®": 4646,
      "à¤¨à¤Ńà¤¦": 4647,
      "à¥ĭ),": 4648,
      "à¥ĭ\")": 4649,
      "à¤¤à¤Ī": 4650,
      "à¤¤à¤¸à¤²": 4651,
      "à¤¤à¤¬à¤°": 4652,
      "à¤¤à¤¨à¤ķ": 4653,
      "à¤¤à¤®à¤¨": 4654,
      "à¤¤à¤®à¤¤": 4655,
      "à¤¤à¤Ĺà¤¤": 4656,
      "à¤¤à¤²à¤¬": 4657,
      "à¤¤à¤¬à¤²": 4658,
      "à¤¤à¤®à¤°": 4659,
      "à¤¤à¤Ĺà¤¢": 4660,
      "à¤¤à¤°à¤¤à¤®": 4661,
      "à¤ķà¤ªà¤¨": 4662,
      "à¤ķà¤ł": 4663,
      "à¤ķà¤Ŀ": 4664,
      "à¤ķà¤¹à¤®": 4665,
      "à¤ķà¤Łà¤µà¤°": 4666,
      "à¤ķà¤¹à¤²": 4667,
      "à¤ķà¤¯à¤Ł": 4668,
      "à¤ķà¤ĵà¤µà¤°": 4669,
      "à¤¯à¤ļ": 4670,
      "à¤¯à¤ľà¤¨": 4671,
      "à¤¯à¤°à¤µ": 4672,
      "à¤¯à¤ĺ": 4673,
      "à¤¯à¤¦à¤°": 4674,
      "à¤¯à¤¡à¤°": 4675,
      "à¤¯à¤«à¤²": 4676,
      "à¤¯à¤¶à¤µ": 4677,
      "à¤¯à¤Ĺà¤£": 4678,
      "à¤²à¤ĩà¤¸": 4679,
      "à¤²à¤¹à¤°": 4680,
      "à¤²à¤°à¤®": 4681,
      "à¤²à¤¸à¤°": 4682,
      "à¤²à¤¬à¤°": 4683,
      "à¤²à¤Łà¤¨": 4684,
      "à¤²à¤ªà¤°": 4685,
      "à¤²à¤ĺ": 4686,
      "à¤²à¤µà¤¨": 4687,
      "à¤²à¤Ĺà¤¤": 4688,
      "à¤²à¤®à¤°": 4689,
      "à¤²à¤¸à¤¤": 4690,
      "à¤²à¤ĸà¤°": 4691,
      "à¤²à¤Łà¤ķà¤°": 4692,
      "à¤²à¤Ĳà¤¨": 4693,
      "à¤²à¤ĵà¤µà¤°": 4694,
      "à¤¸à¤ĸ": 4695,
      "à¤¸à¤°à¤®": 4696,
      "à¤¸à¤¬à¤²": 4697,
      "à¤¸à¤¡à¤²": 4698,
      "à¤¸à¤¹à¤¸": 4699,
      "à¤¸à¤¹à¤ķ": 4700,
      "à¤¸à¤¶à¤¸": 4701,
      "à¤¸à¤¬à¤ķ": 4702,
      "Ġà¤¸à¤ķà¤°": 4703,
      "Ġà¤¸à¤ľà¤¨": 4704,
      "Ġà¤¸à¤µà¤°": 4705,
      "Ġà¤¸à¤°à¤®": 4706,
      "Ġà¤¸à¤¨à¤®": 4707,
      "Ġà¤¸à¤¬à¤°": 4708,
      "Ġà¤¸à¤ªà¤°": 4709,
      "Ġà¤¸à¤¸à¤®": 4710,
      "Ġà¤¸à¤ĺ": 4711,
      "Ġà¤¸à¤¤à¤¨": 4712,
      "Ġà¤¸à¤ľà¤Ĺ": 4713,
      "Ġà¤¸à¤¥à¤¨": 4714,
      "Ġà¤¸à¤²à¤µ": 4715,
      "Ġà¤¸à¤¶à¤°": 4716,
      "Ġà¤¸à¤¨à¤¸": 4717,
      "à¤¹à¤²à¤¨": 4718,
      "à¤¹à¤²à¤¯": 4719,
      "à¤¹à¤®à¤¤": 4720,
      "à¤¹à¤µà¤²": 4721,
      "à¤¹à¤¥à¤¨": 4722,
      "à¤¹à¤ĸà¤°": 4723,
      "à¤¹à¤Ĺà¤¢": 4724,
      "Ġà¤®à¤¯": 4725,
      "Ġà¤®à¤®": 4726,
      "Ġà¤®à¤ª": 4727,
      "Ġà¤®à¤ĸ": 4728,
      "Ġà¤®à¤ķà¤°": 4729,
      "Ġà¤®à¤Ŀ": 4730,
      "Ġà¤®à¤Łà¤ķ": 4731,
      "Ġà¤®à¤¨à¤µ": 4732,
      "Ġà¤®à¤¸à¤µ": 4733,
      "Ġà¤®à¤¶à¤°": 4734,
      "Ġà¤®à¤Ĺà¤¨": 4735,
      "Ġà¤®à¤°à¤¹à¤®": 4736,
      "Ġà¤®à¤ĺà¤¤": 4737,
      "Ġà¤®à¤Ĺà¤§": 4738,
      "à¤®à¤ķà¤°": 4739,
      "à¤®à¤ľà¤¨": 4740,
      "à¤®à¤µà¤°": 4741,
      "à¤®à¤¸à¤°": 4742,
      "à¤®à¤ªà¤¤": 4743,
      "à¤®à¤¸à¤®": 4744,
      "à¤®à¤®à¤¨": 4745,
      "à¤®à¤Ľà¤²": 4746,
      "à¤®à¤¥à¤²": 4747,
      "à¤®à¤¬à¤¤": 4748,
      "à¤®à¤Ĺà¤¢": 4749,
      "à¤®à¤¬à¤¦": 4750,
      "Ġà¤¹à¤¶": 4751,
      "Ġà¤¹à¤ļ": 4752,
      "Ġà¤¹à¤ł": 4753,
      "Ġà¤¹à¤Ĩ": 4754,
      "Ġà¤¹à¤°à¤¦": 4755,
      "Ġà¤¹à¤¨à¤ķ": 4756,
      "Ġà¤¹à¤µà¤¨": 4757,
      "Ġà¤¹à¤µà¤¸": 4758,
      "Ġà¤¹à¤²à¤µ": 4759,
      "Ġà¤¹à¤°à¤®à¤¨": 4760,
      "Ġà¤ªà¤Ľ": 4761,
      "Ġà¤ªà¤¨à¤®": 4762,
      "Ġà¤ªà¤¸à¤°": 4763,
      "Ġà¤ªà¤²à¤¤": 4764,
      "Ġà¤ªà¤¯à¤°": 4765,
      "Ġà¤ªà¤¨à¤µ": 4766,
      "Ġà¤ªà¤Łà¤µà¤°": 4767,
      "Ġà¤ªà¤²à¤¹": 4768,
      "Ġà¤ªà¤¨à¤ª": 4769,
      "à¥ģ'": 4770,
      "à¤µà¤°à¤¤": 4771,
      "à¤µà¤¹à¤°": 4772,
      "à¤µà¤²à¤¨": 4773,
      "à¤µà¤Ĺà¤°": 4774,
      "à¤µà¤Łà¤¨": 4775,
      "à¤µà¤¨à¤ķ": 4776,
      "à¤µà¤¯à¤¤": 4777,
      "à¤µà¤¦à¤°": 4778,
      "à¤µà¤¶à¤ķ": 4779,
      "à¤µà¤¤à¤¨": 4780,
      "à¤µà¤µà¤¤": 4781,
      "à¤µà¤¶à¤¤": 4782,
      "à¤µà¤°à¤ķà¤°": 4783,
      "à¤µà¤Ńà¤°": 4784,
      "à¥ĪâĢĶ": 4785,
      "à¥Ī]à¥¤": 4786,
      "à¤¦à¤Ī": 4787,
      "à¤¦à¤²à¤¯": 4788,
      "à¤¦à¤ĺ": 4789,
      "à¤¦à¤Ĺà¤²": 4790,
      "à¤¦à¤²à¤µ": 4791,
      "à¤¦à¤ħà¤ªà¤¨": 4792,
      "à¤¦à¤ĸà¤²": 4793,
      "à¤¦à¤ľà¤¨à¤ķ": 4794,
      "à¥ĩà¤Ĥ'": 4795,
      "à¥ĩà¤Ĥ;": 4796,
      "à¥ĩà¤Ĥ)à¥¤": 4797,
      "Ġà¤¨à¤¡": 4798,
      "Ġà¤¨à¤ļ": 4799,
      "Ġà¤¨à¤¸à¤°": 4800,
      "Ġà¤¨à¤¨à¤ķ": 4801,
      "Ġà¤¨à¤¦à¤µ": 4802,
      "Ġà¤¨à¤²à¤¸": 4803,
      "Ġà¤¨à¤Ĭ": 4804,
      "Ġà¥¤[": 4805,
      "à¤ªà¤ª": 4806,
      "à¤ªà¤ľ": 4807,
      "à¤ªà¤Ī": 4808,
      "à¤ªà¤«": 4809,
      "à¤ªà¤Ľ": 4810,
      "à¤ªà¤Łà¤°": 4811,
      "à¤ªà¤°à¤¹": 4812,
      "à¤ªà¤¸à¤²": 4813,
      "à¤ªà¤¬à¤°": 4814,
      "à¤ªà¤®à¤¤": 4815,
      "à¤ªà¤µà¤¨": 4816,
      "à¤ªà¤¦à¤®": 4817,
      "à¤ªà¤²à¤®": 4818,
      "à¤Ĺà¤¹": 4819,
      "à¤Ĺà¤Ĺ": 4820,
      "à¤Ĺà¤ļ": 4821,
      "à¤Ĺà¤¥": 4822,
      "à¤Ĺà¤«": 4823,
      "à¤Ĺà¤¤à¤°": 4824,
      "à¤Ĺà¤µà¤°": 4825,
      "à¤Ĺà¤°à¤¸": 4826,
      "à¤Ĺà¤²à¤¤": 4827,
      "à¤Ĺà¤Ŀ": 4828,
      "à¤Ĺà¤®à¤¤": 4829,
      "à¤Ĺà¤¨à¤°": 4830,
      "à¤Ĺà¤Ńà¤Ł": 4831,
      "Ġà¤¬à¤£": 4832,
      "Ġà¤¬à¤ľà¤¨": 4833,
      "Ġà¤¬à¤Łà¤°": 4834,
      "Ġà¤¬à¤°à¤µ": 4835,
      "Ġà¤¬à¤°à¤¹": 4836,
      "Ġà¤¬à¤¸à¤°": 4837,
      "Ġà¤¬à¤°à¤¦": 4838,
      "Ġà¤¬à¤²à¤¬": 4839,
      "Ġà¤¬à¤®à¤ķ": 4840,
      "Ġà¤¬à¤ĺà¤°": 4841,
      "Ġà¤¬à¤°à¤ķà¤¤": 4842,
      "Ġà¤¬à¤Łà¤²à¤°": 4843,
      "à¤ľà¤°à¤ķ": 4844,
      "à¤ľà¤¦à¤°": 4845,
      "à¤ľà¤¯à¤¨": 4846,
      "à¤ľà¤Ĺà¤¤": 4847,
      "à¤ľà¤²à¤¬": 4848,
      "à¤ľà¤¯à¤¦": 4849,
      "à¥ĭà¤Ĥ-": 4850,
      "à¥ĭà¤Ĥ]": 4851,
      "à¥ĭà¤Ĥ....": 4852,
      "à¤Łà¤¹": 4853,
      "à¤Łà¤Ĺ": 4854,
      "à¤Łà¤¶": 4855,
      "à¤Łà¤ĸ": 4856,
      "à¤Łà¤Ń": 4857,
      "à¤Łà¤ĩ": 4858,
      "à¤Łà¤®à¤²": 4859,
      "à¤Łà¤Ĺà¤²": 4860,
      "à¤Łà¤ľà¤°": 4861,
      "à¤Łà¤¤à¤®": 4862,
      "à¤Łà¤¬à¤¹": 4863,
      "Ġà¤¦à¤Ĺ": 4864,
      "Ġà¤¦à¤£": 4865,
      "Ġà¤¦à¤°à¤®": 4866,
      "Ġà¤¦à¤®à¤¨": 4867,
      "Ġà¤ľà¤«": 4868,
      "Ġà¤ľà¤ł": 4869,
      "Ġà¤ľà¤¶à¤¨": 4870,
      "Ġà¤ľà¤Ĺà¤²": 4871,
      "Ġà¤ľà¤ľà¤®": 4872,
      "Ġà¤ľà¤ķà¤¡": 4873,
      "Ġà¤ľà¤łà¤²": 4874,
      "Ġà¤ľà¤¶à¤ª": 4875,
      "Ġà¤µà¤²à¤¯": 4876,
      "Ġà¤µà¤¨à¤µ": 4877,
      "Ġà¤µà¤īà¤¨à¤ķ": 4878,
      "Ġà¤ħà¤¤à¤°": 4879,
      "Ġà¤ħà¤°à¤®": 4880,
      "Ġà¤ħà¤ªà¤¤": 4881,
      "Ġà¤ħà¤²à¤¤": 4882,
      "Ġà¤ħà¤ĺ": 4883,
      "Ġà¤ħà¤Ŀ": 4884,
      "Ġà¤ħà¤¸à¤¨": 4885,
      "Ġà¤ħà¤ķà¤²": 4886,
      "Ġà¤ħà¤ªà¤¸": 4887,
      "Ġà¤ħà¤¦à¤¨": 4888,
      "Ġà¤ħà¤¥à¤ķ": 4889,
      "Ġà¤ħà¤¸à¤²à¤®": 4890,
      "Ġà¤ħà¤¤à¤°à¤ľ": 4891,
      "à¥Ĥ\"": 4892,
      "à¥Ĥ;": 4893,
      "à¥Ĥà¥¤": 4894,
      "Ġà¤°à¤Ĺ": 4895,
      "Ġà¤°à¤Ł": 4896,
      "Ġà¤°à¤¬": 4897,
      "Ġà¤°à¤¡": 4898,
      "Ġà¤°à¤¸à¤¦": 4899,
      "Ġà¤°à¤µà¤¨": 4900,
      "Ġà¤°à¤¦à¤°": 4901,
      "Ġà¤°à¤¨à¤°": 4902,
      "Ġà¤°à¤ľà¤ķ": 4903,
      "Ġà¤°à¤®à¤£": 4904,
      "Ġà¤°à¤ļà¤¤": 4905,
      "Ġà¤°à¤µà¤²à¤ª": 4906,
      "à¤ıà¤°à¤¤": 4907,
      "à¤ıà¤ĵ": 4908,
      "à¤ıà¤µà¤°": 4909,
      "à¤ıà¤ħ": 4910,
      "à¤ıà¤®à¤¨": 4911,
      "à¤ıà¤¸à¤¨": 4912,
      "à¤ıà¤ķà¤²": 4913,
      "à¤ıà¤¬à¤²": 4914,
      "à¤ıà¤°à¤¨": 4915,
      "à¤ıà¤®à¤°": 4916,
      "à¤ıà¤ıà¤®": 4917,
      "à¤ıà¤¡à¤µ": 4918,
      "à¤ıà¤ħà¤°": 4919,
      "à¤ıà¤Ĩà¤Īà¤Ĩà¤°": 4920,
      "à¤ıà¤ıà¤¸à¤¯": 4921,
      "à¤ıà¤ıà¤¸à¤ľ": 4922,
      "à¤ıà¤ıà¤ª": 4923,
      "à¤ıà¤Ĩà¤Īà¤ıà¤®à¤ı": 4924,
      "Ġà¤²à¤¯": 4925,
      "Ġà¤²à¤¸": 4926,
      "Ġà¤²à¤ľ": 4927,
      "Ġà¤²à¤¬": 4928,
      "Ġà¤²à¤¥": 4929,
      "Ġà¤²à¤µà¤°": 4930,
      "Ġà¤²à¤¬à¤°": 4931,
      "Ġà¤²à¤¹à¤¤": 4932,
      "Ġà¤²à¤ĸà¤¨": 4933,
      "Ġà¤²à¤²à¤µ": 4934,
      "à¤¬à¤µ": 4935,
      "à¤¬à¤¬": 4936,
      "à¤¬à¤ĸ": 4937,
      "à¤¬à¤¸à¤°": 4938,
      "à¤¬à¤Ĺà¤²": 4939,
      "à¤¬à¤¹à¤¨": 4940,
      "à¤¬à¤¤à¤¨": 4941,
      "à¤¬à¤¦à¤¨": 4942,
      "à¤¬à¤ķà¤µ": 4943,
      "à¤¬à¤Łà¤®": 4944,
      "à¤¬à¤Ĺà¤¦": 4945,
      "à¤¬à¤Ľà¤°": 4946,
      "à¤¶à¤°à¤£": 4947,
      "à¤¶à¤ªà¤¤": 4948,
      "à¤¶à¤¬à¤°": 4949,
      "à¤¶à¤¯à¤²": 4950,
      "à¤¶à¤µà¤²": 4951,
      "à¤¶à¤µà¤µ": 4952,
      "à¤¶à¤²à¤°": 4953,
      "à¤¶à¤²à¤®": 4954,
      "à¤¶à¤Ńà¤ķ": 4955,
      "à¤¡à¤¹": 4956,
      "à¤¡à¤¦": 4957,
      "à¤¡à¤Ł": 4958,
      "à¤¡à¤ı": 4959,
      "à¤¡à¤§": 4960,
      "à¤¡à¤ļ": 4961,
      "à¤¡à¤µà¤°": 4962,
      "à¤¡à¤°à¤®": 4963,
      "à¤¡à¤°à¤¸": 4964,
      "à¤¡à¤¸à¤¨": 4965,
      "à¤¡à¤°à¤¶": 4966,
      "à¤¡à¤µà¤¤": 4967,
      "à¤¡à¤¨à¤°": 4968,
      "à¤§à¤®": 4969,
      "à¤§à¤§": 4970,
      "à¤§à¤Ń": 4971,
      "à¤§à¤µà¤°": 4972,
      "à¤§à¤®à¤ª": 4973,
      "à¤§à¤¬à¤ª": 4974,
      "Ġà¤Ĺà¤®": 4975,
      "Ġà¤Ĺà¤¬": 4976,
      "Ġà¤Ĺà¤ļ": 4977,
      "Ġà¤Ĺà¤«": 4978,
      "Ġà¤Ĺà¤²à¤¨": 4979,
      "Ġà¤Ĺà¤¦à¤°": 4980,
      "Ġà¤Ĺà¤ľà¤¬": 4981,
      "Ġà¤Ĺà¤®à¤°": 4982,
      "Ġà¤Ĺà¤ľà¤²": 4983,
      "Ġà¤Ĺà¤¤à¤ķ": 4984,
      "Ġà¤Ĺà¤Ĺà¤¨": 4985,
      "Ġà¤Ĺà¤¬à¤¨": 4986,
      "Ġà¤Ĺà¤«à¤²à¤¤": 4987,
      "à¤ļà¤Ł": 4988,
      "à¤ļà¤¤à¤°": 4989,
      "à¤ļà¤µà¤°": 4990,
      "à¤ļà¤¢": 4991,
      "à¤ļà¤°à¤¸": 4992,
      "à¤ļà¤ķà¤¤": 4993,
      "à¤ļà¤°à¤²": 4994,
      "à¤ļà¤²à¤ķ": 4995,
      "à¤ļà¤¤à¤¤": 4996,
      "à¤ļà¤¬à¤ļ": 4997,
      "à¤·à¤¡": 4998,
      "à¤·à¤ļ": 4999,
      "à¤·à¤Ń": 5000,
      "à¤·à¤°à¤¶": 5001,
      "à¤·à¤ļà¤²": 5002,
      "à¤·à¤¯à¤µ": 5003,
      "Ġà¤ķà¤°à¤¹": 5004,
      "Ġà¤ķà¤°à¤®": 5005,
      "Ġà¤ķà¤°à¤Ľà¤¨": 5006,
      "Ġà¤īà¤ªà¤¤": 5007,
      "Ġà¤īà¤ĺ": 5008,
      "Ġà¤īà¤Ŀ": 5009,
      "Ġà¤īà¤Ĺà¤¤": 5010,
      "Ġà¤īà¤ķà¤²": 5011,
      "Ġà¤īà¤Ĺà¤²à¤µ": 5012,
      "Ġà¤īà¤ĸà¤°": 5013,
      "Ġà¤¤à¤°à¤¸": 5014,
      "Ġà¤¤à¤ªà¤¤": 5015,
      "Ġà¤¤à¤®à¤¨": 5016,
      "Ġà¤¤à¤¸à¤¨": 5017,
      "Ġà¤¤à¤¦à¤°": 5018,
      "Ġà¤¤à¤¬à¤¸": 5019,
      "Ġà¤¤à¤ªà¤¸": 5020,
      "Ġà¤¤à¤¨à¤¨": 5021,
      "Ġà¤¤à¤¸à¤µ": 5022,
      "Ġà¤Ĩà¤µà¤°": 5023,
      "Ġà¤Ĩà¤°à¤¸": 5024,
      "Ġà¤Ĩà¤ķà¤²": 5025,
      "Ġà¤Ĩà¤¸à¤ķ": 5026,
      "Ġà¤Ĩà¤ĩà¤ľ": 5027,
      "Ġà¤Ĩà¤ĩà¤µà¤°": 5028,
      "Ġà¤Ńà¤¦": 5029,
      "Ġà¤Ńà¤ł": 5030,
      "à¤Īà¤¨": 5031,
      "à¤Īà¤Ĺ": 5032,
      "à¤Īà¤¬": 5033,
      "à¤Īà¤¶": 5034,
      "à¤Īà¤«": 5035,
      "à¤Īà¤ķà¤°": 5036,
      "à¤Īà¤ıà¤¸": 5037,
      "à¤Īà¤¨à¤²": 5038,
      "à¤Īà¤«à¤²": 5039,
      "à¤Īà¤Łà¤²à¤°": 5040,
      "à¤Īà¤ĳà¤ķ": 5041,
      "Ġà¤ªà¤°à¤¬": 5042,
      "Ġà¤ªà¤°à¤«": 5043,
      "Ġà¤ªà¤°à¤Ľ": 5044,
      "Ġà¤ªà¤°à¤¸à¤²": 5045,
      "Ġà¤ªà¤°à¤ļà¤®": 5046,
      "Ġà¤ĩà¤¡": 5047,
      "Ġà¤ĩà¤¬à¤°": 5048,
      "Ġà¤ĩà¤Ĺà¤²": 5049,
      "Ġà¤ĩà¤µà¤¨": 5050,
      "Ġà¤ĩà¤¦à¤°": 5051,
      "Ġà¤ĩà¤ľà¤°": 5052,
      "Ġà¤ĩà¤ķà¤¨": 5053,
      "Ġà¤ĩà¤ľà¤¹": 5054,
      "Ġà¤Ķà¤¸à¤ķà¤°": 5055,
      "Ġà¤Ķà¤ļà¤ķ": 5056,
      "à¤¼-": 5057,
      "à¤¼;": 5058,
      "à¤¼à¤¾à¤Ĥ": 5059,
      "à¤¼à¥Īà¤Ĥ": 5060,
      "à¤¼à¤¿à¤Ĥ": 5061,
      "à¤¼à¥ĩà¤Ĥ,": 5062,
      "à¤¼à¥īà¤Ĥ": 5063,
      "Ġà¤Ķà¤°à¤¤": 5064,
      "Ġà¤Ķà¤°à¤¬à¤°": 5065,
      "à¤¥à¤¯": 5066,
      "à¤¥à¤ľ": 5067,
      "à¤¥à¤¡": 5068,
      "à¤¥à¤°à¤¨": 5069,
      "à¤¥à¤µà¤¶": 5070,
      "à¤¾à¤Ĥ\"": 5071,
      "à¤¾à¤Ĥ)": 5072,
      "à¤¾à¤Ĥ.": 5073,
      "Ġà¤ıà¤¹": 5074,
      "Ġà¤ıà¤²à¤¨": 5075,
      "Ġà¤ıà¤Łà¤ķ": 5076,
      "Ġà¤ıà¤¹à¤®": 5077,
      "Ġà¤ıà¤¬à¤²": 5078,
      "Ġà¤ıà¤¥à¤¨": 5079,
      "Ġà¤ıà¤ıà¤®": 5080,
      "Ġà¤ıà¤²à¤µ": 5081,
      "Ġà¤ıà¤ıà¤ķ": 5082,
      "Ġà¤ıà¤ıà¤«": 5083,
      "Ġà¤ıà¤ıà¤²": 5084,
      "Ġà¤ıà¤ıà¤¨": 5085,
      "Ġà¤ıà¤ªà¤²": 5086,
      "Ġà¤ıà¤¦à¤¸": 5087,
      "Ġà¤ıà¤Ķ": 5088,
      "Ġà¤ıà¤Łà¤¸": 5089,
      "Ġà¤ıà¤¯à¤Ł": 5090,
      "Ġà¤ıà¤ıà¤¸à¤ı": 5091,
      "Ġà¤ıà¤ıà¤«à¤¸": 5092,
      "Ġà¤ıà¤Ĩà¤°à¤µ": 5093,
      "à¤£à¤²": 5094,
      "à¤£à¤ª": 5095,
      "à¤£à¤§": 5096,
      "à¤£à¤Ń": 5097,
      "à¤£à¤¯à¤¤": 5098,
      "à¤£à¤§à¤°": 5099,
      "Ġà¤ļà¤¸": 5100,
      "Ġà¤ļà¤µ": 5101,
      "Ġà¤ļà¤¡": 5102,
      "Ġà¤ļà¤ªà¤°": 5103,
      "Ġà¤ļà¤°à¤¨": 5104,
      "Ġà¤ļà¤¹à¤²": 5105,
      "Ġà¤ļà¤®à¤ķà¤¤": 5106,
      "Ġà¤¯à¤°": 5107,
      "Ġà¤¯à¤ľà¤¦": 5108,
      "à¤ĸà¤¸": 5109,
      "à¤ĸà¤ª": 5110,
      "à¤ĸà¤°à¤¤": 5111,
      "à¤ĸà¤ªà¤¤": 5112,
      "à¤Ńà¤²": 5113,
      "à¤Ńà¤ª": 5114,
      "à¤Ńà¤Łà¤¨": 5115,
      "à¤Ńà¤¨à¤ķ": 5116,
      "à¤Ńà¤µà¤¨": 5117,
      "à¤Ńà¤²à¤ķà¤°": 5118,
      "à¤Ńà¤°à¤ķà¤®": 5119,
      "Ġà¤¶à¤²": 5120,
      "Ġà¤¶à¤¤à¤°": 5121,
      "Ġà¤¶à¤¯à¤¨": 5122,
      "Ġà¤¶à¤µà¤¯": 5123,
      "Ġà¤¶à¤¹à¤¦": 5124,
      "Ġà¤¶à¤®à¤¶": 5125,
      "Ġà¤¶à¤Łà¤¡": 5126,
      "à¥Īà¤Ĥ\"": 5127,
      "à¥Īà¤ĤâĢĿ": 5128,
      "à¥Īà¤ĤâĢĶ": 5129,
      "à¤«à¤¸": 5130,
      "à¤«à¤Ĺ": 5131,
      "à¤«à¤ķà¤°": 5132,
      "à¤«à¤°à¤¹": 5133,
      "à¤«à¤Łà¤¨": 5134,
      "à¤«à¤ľà¤¦": 5135,
      "à¤«à¤¨à¤Ĺà¤°": 5136,
      "Ġà¤¥à¤ķà¤¤": 5137,
      "Ġà¤¥à¤®à¤°": 5138,
      "Ġà¤¥à¤ªà¤²": 5139,
      "Ġà¤¥à¤Łà¤®": 5140,
      "Ġà¤ĩà¤¸à¤°à¤¤": 5141,
      "à¤ĩà¤Ĺ": 5142,
      "à¤ĩà¤ķà¤°": 5143,
      "à¤ĩà¤ªà¤¸": 5144,
      "à¤ĩà¤µà¤²": 5145,
      "à¤ĩà¤¡à¤°": 5146,
      "à¤ĩà¤Ĺà¤¨": 5147,
      "à¤ĩà¤ľà¤¨à¤¹": 5148,
      "à¤ĩà¤ĳà¤¨": 5149,
      "à¤°à¤¤à¤¨": 5150,
      "à¤°à¤¤à¤¤": 5151,
      "à¤°à¤¤à¤²": 5152,
      "à¤°à¤¤à¤Ńà¤°": 5153,
      "à¤°à¤ķà¤¬": 5154,
      "à¤°à¤ķà¤ļà¤°": 5155,
      "à¥Ģà¤Ĥ-": 5156,
      "à¥Ģà¤Ĥ)à¥¤": 5157,
      "à¥Ģà¤Ĥ\")": 5158,
      "Ġà¤ĸà¤®": 5159,
      "Ġà¤ĸà¤²à¤¨": 5160,
      "Ġà¤ĸà¤²à¤¬": 5161,
      "Ġà¤ĸà¤ªà¤²": 5162,
      "Ġà¤°à¤¹à¤µ": 5163,
      "Ġà¤«à¤°à¤ķ": 5164,
      "Ġà¤«à¤¹à¤°": 5165,
      "Ġà¤«à¤²à¤¨": 5166,
      "Ġà¤«à¤°à¤¹": 5167,
      "Ġà¤«à¤°à¤¸": 5168,
      "Ġà¤«à¤¤à¤²": 5169,
      "Ġà¤«à¤¤à¤¹": 5170,
      "Ġà¤¸à¤®à¤¤": 5171,
      "Ġà¤¸à¤®à¤°à¤ķ": 5172,
      "Ġà¤¸à¤®à¤µà¤°": 5173,
      "Ġà¤¸à¤®à¤µà¤¨": 5174,
      "Ġà¤¸à¤®à¤¸à¤ª": 5175,
      "Ġà¤ıà¤ķà¤¸": 5176,
      "Ġà¤ıà¤ķà¤¬": 5177,
      "Ġà¤ıà¤ķà¤®à¤¤": 5178,
      "Ġà¤ıà¤ķà¤²à¤¸": 5179,
      "à¤ķà¤°à¤¯": 5180,
      "à¤ķà¤°à¤¬à¤°": 5181,
      "Ġà¤¨à¤¹à¤²": 5182,
      "Ġà¤¨à¤¹à¤¸": 5183,
      "à¤ªà¤¨à¤°": 5184,
      "à¥¤,": 5185,
      "à¤łà¤°": 5186,
      "à¤łà¤¹à¤°": 5187,
      "à¤łà¤¤à¤®": 5188,
      "à¤īà¤ķ": 5189,
      "à¤īà¤ı": 5190,
      "à¤īà¤µà¤°": 5191,
      "à¤īà¤ľà¤°": 5192,
      "à¤īà¤ªà¤ķ": 5193,
      "à¤īà¤¬à¤²": 5194,
      "à¤īà¤²à¤°": 5195,
      "à¤īà¤ªà¤®": 5196,
      "à¤īà¤ļà¤°": 5197,
      "Ġ-\"": 5198,
      "à¤Ľà¤µ": 5199,
      "à¤Ľà¤ł": 5200,
      "à¤Ľà¤łà¤µ": 5201,
      "à¤Ĩà¤ķ": 5202,
      "à¤Ĩà¤Ł": 5203,
      "à¤Ĩà¤Ń": 5204,
      "à¤Ĩà¤ķà¤°": 5205,
      "à¤Ĩà¤¸à¤®": 5206,
      "à¤Ĩà¤¬à¤¸": 5207,
      "à¤Ĩà¤ªà¤¦": 5208,
      "à¤Ĩà¤ĩà¤¨à¤°": 5209,
      "à¤Ĩà¤łà¤µ": 5210,
      "à¤Ĩà¤ĩà¤ľà¤¨à¤¹": 5211,
      "à¥ī,": 5212,
      "à¥¦à¥Ń": 5213,
      "à¥¦à¥¨à¥¬": 5214,
      "à¥¦à¥§à¥®": 5215,
      "à¥¦à¥¨à¥©": 5216,
      "à¥¦à¥«à¥©": 5217,
      "à¤¤à¤°à¤¬": 5218,
      "à¤¤à¤°à¤²à¤¬": 5219,
      "à¤¯à¤ķà¤²": 5220,
      "Ġà¤ªà¤¹à¤¦": 5221,
      "Ġà¤ªà¤¹à¤¨à¤¤": 5222,
      "à¤ĵà¤Ĺ": 5223,
      "à¤ĵà¤¬": 5224,
      "à¤ĵà¤¡": 5225,
      "à¤ĵà¤Ŀ": 5226,
      "à¤ĵà¤¬à¤°à¤®": 5227,
      "à¤ĵà¤Ĩà¤Īà¤¸": 5228,
      "à¤ĵà¤ħà¤®à¤°": 5229,
      "à¤ĵà¤ıà¤«à¤¬": 5230,
      "à¤ĵà¤ªà¤¨à¤°": 5231,
      "à¤ľà¤¨à¤°": 5232,
      "à¤ľà¤¨à¤¬": 5233,
      "à¤ľà¤¨à¤ªà¤¦": 5234,
      "Ġà¤ħà¤¨à¤²": 5235,
      "Ġà¤ħà¤¨à¤¹": 5236,
      "Ġà¤ħà¤¨à¤¬": 5237,
      "Ġà¤ħà¤¨à¤§": 5238,
      "Ġà¤ħà¤¨à¤Ń": 5239,
      "Ġà¤ħà¤¨à¤Ĺà¤¢": 5240,
      "Ġà¤ħà¤¨à¤ħà¤°": 5241,
      "Ġà¤Łà¤ª": 5242,
      "Ġà¤Łà¤²à¤¨": 5243,
      "Ġà¤Łà¤ĸà¤¨": 5244,
      "Ġà¤¸à¤°à¤ķà¤¤": 5245,
      "Ġà¤¡à¤®": 5246,
      "Ġà¤¡à¤«": 5247,
      "Ġà¤¡à¤Ĺà¤²": 5248,
      "Ġà¤¡à¤°à¤¨": 5249,
      "Ġà¤¡à¤²à¤®": 5250,
      "Ġà¤¡à¤°à¤ķà¤°": 5251,
      "Ġà¤¡à¤Łà¤ķà¤°": 5252,
      "Ġà¤¡à¤µà¤²à¤ªà¤®": 5253,
      "Ġà¤¡à¤°à¤¹à¤®": 5254,
      "Ġà¤ĺà¤Ī": 5255,
      "à¤īà¤¨à¤¶": 5256,
      "à¤µà¤°à¤¹": 5257,
      "à¤µà¤°à¤®": 5258,
      "à¤µà¤°à¤ª": 5259,
      "à¤µà¤°à¤ļ": 5260,
      "à¤µà¤°à¤¬à¤¦": 5261,
      "Ġà¤īà¤¸à¤ªà¤°": 5262,
      "à¤¼à¤¾\"": 5263,
      "à¤¼à¤¾'": 5264,
      "à¤¼à¤¾?": 5265,
      "à¤¼à¤¾à¤ģ": 5266,
      "à¤¼à¤¾),": 5267,
      "à¤¼à¤¾).": 5268,
      "Ġà¤®à¤¹à¤ķ": 5269,
      "Ġà¤®à¤¹à¤«": 5270,
      "Ġà¤®à¤¹à¤®à¤¦": 5271,
      "Ġà¤®à¤¹à¤ķà¤®": 5272,
      "à¤®à¤²à¤¤": 5273,
      "à¤®à¤²à¤¬": 5274,
      "à¤®à¤²à¤ĸà¤¨": 5275,
      "à¤®à¤²à¤Ĺà¤®": 5276,
      "à¤°à¤®à¤®": 5277,
      "à¤°à¤®à¤ľ": 5278,
      "à¤°à¤®à¤¶à¤ķ": 5279,
      "à¤°à¤®à¤¬à¤²": 5280,
      "à¤°à¤®à¤¬à¤¦": 5281,
      "à¤¢à¤²": 5282,
      "à¤ģ\"": 5283,
      "à¤ħà¤¶": 5284,
      "à¤ħà¤¤à¤°": 5285,
      "à¤ħà¤¸à¤°": 5286,
      "à¤ħà¤°à¤¸": 5287,
      "à¤ħà¤²à¤¤": 5288,
      "à¤ħà¤²à¤µ": 5289,
      "à¤ħà¤°à¤¬": 5290,
      "à¤ħà¤¨à¤²": 5291,
      "à¤ħà¤ļà¤²": 5292,
      "à¤ħà¤²à¤°": 5293,
      "à¤ħà¤µà¤ķ": 5294,
      "à¤ħà¤Łà¤µ": 5295,
      "à¤ħà¤µà¤¶": 5296,
      "à¤ħà¤¸à¤²à¤®": 5297,
      "à¤ħà¤ªà¤¶": 5298,
      "à¤ħà¤ľà¤¨à¤¬": 5299,
      "à¤ħà¤®à¤²à¤Ĺà¤®": 5300,
      "à¤°à¤£à¤¨": 5301,
      "à¤°à¤£à¤ľ": 5302,
      "à¤°à¤£à¤¥à¤®": 5303,
      "Ġà¤¬à¤¤à¤ĸ": 5304,
      "à¤²à¤¨à¤°": 5305,
      "à¤²à¤¨à¤ķ": 5306,
      "à¤²à¤¨à¤¸": 5307,
      "à¤²à¤¨à¤ķà¤°": 5308,
      "à¤Łà¤°à¤°": 5309,
      "à¤Łà¤°à¤¶": 5310,
      "à¤Łà¤°à¤ĳà¤«": 5311,
      "Ġ($": 5312,
      "Ġ('": 5313,
      "Ġ(~": 5314,
      "Ġà¤Ľà¤®": 5315,
      "Ġà¤Ľà¤¦": 5316,
      "Ġà¤Ľà¤ľ": 5317,
      "Ġà¤Ľà¤ªà¤¨": 5318,
      "Ġà¤Ľà¤Ĺà¤¨": 5319,
      "Ġà¤Ľà¤¤à¤µ": 5320,
      "Ġà¤Ľà¤Łà¤¤": 5321,
      "Ġà¤Ľà¤Ľà¤°": 5322,
      "Ġà¤Ľà¤¤à¤°à¤ª": 5323,
      "Ġà¤Ľà¤¨à¤ĸà¤¨": 5324,
      "Ġà¤§à¤ľ": 5325,
      "Ġà¤§à¤¨à¤µ": 5326,
      "à¤°à¤µà¤ª": 5327,
      "à¤°à¤µà¤¶": 5328,
      "à¤°à¤µà¤Ī": 5329,
      "à¤°à¤µà¤£": 5330,
      "à¤°à¤µà¤ļà¤¨": 5331,
      "Ġà¤µà¤°à¤²": 5332,
      "Ġà¤µà¤°à¤¨à¤¹": 5333,
      "à¤°à¤¹à¤¸à¤¨": 5334,
      "à¤¸à¤°à¤²": 5335,
      "à¤¸à¤°à¤ª": 5336,
      "à¤°à¤¦à¤ķ": 5337,
      "à¤¸à¤²à¤Ł": 5338,
      "à¤¸à¤²à¤ķà¤°": 5339,
      "à¤°à¤¸à¤¤": 5340,
      "à¤°à¤¸à¤¸": 5341,
      "à¤¯à¤®à¤ķ": 5342,
      "Ġà¤Ĩà¤¯à¤¤à¤¨": 5343,
      "à¤²à¤¤à¤®": 5344,
      "à¤²à¤¤à¤«": 5345,
      "Ġà¤ħà¤²à¤µ": 5346,
      "Ġà¤ħà¤²à¤«": 5347,
      "Ġà¤ħà¤²à¤ķà¤¨": 5348,
      "Ġà¤ħà¤²à¤«à¤°": 5349,
      "Ġà¤ħà¤²à¤®à¤Ĺ": 5350,
      "Ġà¤ħà¤²à¤¹à¤¦": 5351,
      "Ġà¤ħà¤²à¤¬à¤¦à¤°": 5352,
      "à¤¬à¤°à¤ª": 5353,
      "à¤¬à¤°à¤ĸ": 5354,
      "Ġà¤īà¤ªà¤¬": 5355,
      "Ġà¤īà¤ªà¤§": 5356,
      "Ġà¤īà¤ªà¤ĸ": 5357,
      "Ġà¤īà¤ªà¤²à¤ķ": 5358,
      "Ġà¥¨à¥¯à¥Ń": 5359,
      "Ġà¥¨à¥¯à¥¨": 5360,
      "Ġà¥¨à¥¯à¥®": 5361,
      "à¤¸à¤¦à¤°": 5362,
      "Ġ119": 5363,
      "à¤Ĺà¤°à¤ľ": 5364,
      "à¤Łà¤¨à¤Ĺ": 5365,
      "à¥Ī,\"": 5366,
      "à¤ªà¤°à¤¶": 5367,
      "Ġà¤Ĩà¤°à¤²": 5368,
      "Ġà¤Ĩà¤°à¤ıà¤¸": 5369,
      "Ġà¤Ĩà¤°à¤ıà¤¨": 5370,
      "Ġà¤Ĩà¤°à¤ıà¤¸à¤¸": 5371,
      "Ġà¤Ĩà¤°à¤ıà¤ļà¤ıà¤¸": 5372,
      "Ġà¤Ĩà¤°à¤ıà¤ıà¤«": 5373,
      "à¤¼à¥Ģ)": 5374,
      "à¤¼à¥Ģ-": 5375,
      "à¤¼à¥Ģ.": 5376,
      "à¤¼à¥Ģ),": 5377,
      "à¤¹à¤¤à¤¨": 5378,
      "à¤¨à¤ķà¤µ": 5379,
      "à¤¨à¤ķà¤²à¤ļ": 5380,
      "à¤¯à¤°à¤ª": 5381,
      "à¤¯à¤°à¤Ł": 5382,
      "à¤¯à¤°à¤§": 5383,
      "à¤¾à¥¤\"": 5384,
      "à¤¾à¥¤)": 5385,
      "à¤¾à¥¤[": 5386,
      "à¤¾à¥¤âĢĿ": 5387,
      "Ġà¤¸à¤¹à¤²": 5388,
      "Ġà¤¸à¤¹à¤®": 5389,
      "Ġà¤¸à¤¹à¤ª": 5390,
      "Ġà¤¸à¤¹à¤ľà¤¨": 5391,
      "Ġà¤¸à¤¹à¤ļà¤°": 5392,
      "à¥Īà¥¤)": 5393,
      "Ġà¤īà¤¤à¤ªà¤¨": 5394,
      "à¤¸à¤®à¤Ĺ": 5395,
      "à¤¸à¤®à¤Ł": 5396,
      "à¤¸à¤®à¤£": 5397,
      "à¤ĺà¤¶": 5398,
      "à¤ĺà¤¡": 5399,
      "à¤ĺà¤§": 5400,
      "à¤ĺà¤¨à¤¨": 5401,
      "Ġà¤ħà¤®à¤¤": 5402,
      "Ġà¤ħà¤®à¤°à¤¸": 5403,
      "Ġà¤ħà¤®à¤°à¤ľ": 5404,
      "Ġà¤ħà¤®à¤¨à¤¦": 5405,
      "Ġà¤ħà¤®à¤¨à¤ª": 5406,
      "à¤Ŀà¤°": 5407,
      "à¤Ŀà¤¬": 5408,
      "à¤Ŀà¤¡": 5409,
      "à¤Ŀà¤§": 5410,
      "à¤Ŀà¤²à¤ķ": 5411,
      "à¤Ŀà¤Ĺà¤¡": 5412,
      "à¤Ĺà¤²à¤¬": 5413,
      "à¤Ĺà¤²à¤ĸ": 5414,
      "à¤Ĺà¤²à¤ªà¤Ł": 5415,
      "Ġà¤ħà¤Ńà¤¯à¤®": 5416,
      "Ġà¤ħà¤Ńà¤¯à¤ª": 5417,
      "Ġà¤ħà¤Ńà¤¯à¤¸": 5418,
      "Ġà¤°à¤ĸà¤µ": 5419,
      "Ġà¤°à¤ĸà¤°à¤ĸ": 5420,
      "à¤ľà¤ªà¤¥": 5421,
      "à¤®à¤¨à¤°": 5422,
      "à¤®à¤¨à¤µ": 5423,
      "à¤®à¤¨à¤Ĺà¤°à¤®": 5424,
      "Ġà¤¦à¤°à¤ħà¤¸à¤²": 5425,
      "Ġà¤ªà¤¤à¤Ŀà¤¡": 5426,
      "à¥Ģ.)": 5427,
      "à¥Ģ.,": 5428,
      "à¥Ģ...": 5429,
      "à¥Ģ....": 5430,
      "à¤®à¤¤à¤Ĺà¤£à¤¨": 5431,
      "Ġà¤ħà¤¬à¤²": 5432,
      "Ġà¤ħà¤¬à¤¦": 5433,
      "Ġà¤ħà¤¬à¤ľ": 5434,
      "Ġà¤ħà¤¬à¤°à¤ķ": 5435,
      "Ġà¤ľà¤¨à¤¨": 5436,
      "Ġà¤ľà¤¨à¤µ": 5437,
      "Ġà¤ľà¤¨à¤ª": 5438,
      "Ġà¤ľà¤¨à¤¶": 5439,
      "Ġà¤ľà¤¨à¤Ĩ": 5440,
      "Ġà¤ľà¤¨à¤ªà¤¦": 5441,
      "à¤ıà¤¸à¤µ": 5442,
      "à¤ıà¤¸à¤Ł": 5443,
      "à¤ıà¤¸à¤«": 5444,
      "à¤ıà¤¸à¤Ĩà¤°": 5445,
      "à¤ıà¤¸à¤Ĩà¤°à¤ıà¤«": 5446,
      "Ġà¤ľà¤¬à¤²à¤¬": 5447,
      "Ġà¤ľà¤¬à¤¤à¤ķ": 5448,
      "Ġà¤ľà¤°à¤¨": 5449,
      "à¤Ĩà¤Īà¤ıà¤¸à¤ıà¤¸": 5450,
      "à¤Ĩà¤Īà¤ıà¤¸à¤¸": 5451,
      "à¤Ĩà¤Īà¤Ĩà¤Īà¤Ł": 5452,
      "à¤Ĩà¤Īà¤ıà¤¸à¤ı": 5453,
      "Ġà¤ĩà¤¨à¤°": 5454,
      "Ġà¤ĩà¤¨à¤¡": 5455,
      "à¤µà¤¨à¤¯": 5456,
      "à¤µà¤¨à¤¸": 5457,
      "à¤µà¤¨à¤¦": 5458,
      "à¤µà¤¨à¤¶": 5459,
      "à¤µà¤¨à¤ķà¤°": 5460,
      "Ġà¤ĵà¤¨": 5461,
      "Ġà¤ĵà¤¹": 5462,
      "Ġà¤ĵà¤µ": 5463,
      "Ġà¤ĵà¤Ĺ": 5464,
      "Ġà¤ĵà¤¶": 5465,
      "Ġà¤ĵà¤°à¤®": 5466,
      "Ġà¤ĵà¤®à¤¨": 5467,
      "Ġà¤ĵà¤®à¤µ": 5468,
      "Ġà¤ĵà¤¸à¤µ": 5469,
      "Ġà¤ĵà¤¹à¤¦": 5470,
      "Ġà¤ĵà¤Ĩà¤Īà¤¸": 5471,
      "Ġà¤ĵà¤Ĩà¤Īà¤ıà¤²": 5472,
      "Ġà¤ĵà¤µà¤°à¤ķ": 5473,
      "Ġà¤ĵà¤¤à¤ª": 5474,
      "à¤¦à¤°à¤°": 5475,
      "à¤¦à¤°à¤ħà¤¬": 5476,
      "à¤¯à¤¨à¤¤": 5477,
      "à¤¯à¤¨à¤¸": 5478,
      "à¤¯à¤¨à¤Ĺ": 5479,
      "Ġà¤ļà¤²à¤®": 5480,
      "à¤ļà¤¨à¤ľ": 5481,
      "à¤ļà¤¨à¤ªà¤Ł": 5482,
      "à¤ĩà¤¨à¤Ĺ": 5483,
      "à¤ĩà¤¨à¤¬": 5484,
      "Ġà¤Ĳà¤¯": 5485,
      "Ġà¤Ĳà¤ª": 5486,
      "Ġà¤Ĳà¤¡": 5487,
      "Ġà¤¹à¤®à¤ķ": 5488,
      "Ġà¤¹à¤®à¤®": 5489,
      "Ġà¤¹à¤®à¤¦": 5490,
      "Ġà¤¹à¤®à¤ľ": 5491,
      "Ġ'(": 5492,
      "à¤¹à¤¨à¤¬": 5493,
      "à¤¹à¤¨à¤«": 5494,
      "à¤¹à¤¨à¤Ĺà¤°": 5495,
      "Ġà¤¦à¤²à¤¬": 5496,
      "Ġà¤¦à¤²à¤Ĺà¤¤": 5497,
      "Ġà¤¦à¤²à¤¦à¤²": 5498,
      "001": 5499,
      "008": 5500,
      "à¤µà¤¸à¤¹à¤®à¤¤": 5501,
      "à¤§à¤¨à¤¬": 5502,
      "à¤§à¤¨à¤Ĺà¤°": 5503,
      "à¤§à¤¨à¤¤à¤®": 5504,
      "à¤ŀà¤¨": 5505,
      "à¤ŀà¤¤": 5506,
      "Ġà¤ľà¤®à¤¶": 5507,
      "Ġà¤ĳà¤Ĺ": 5508,
      "Ġà¤ĳà¤°à¤Ĺ": 5509,
      "Ġà¤ĳà¤ĩà¤¡à¤²": 5510,
      "à¥«à¥¬": 5511,
      "à¥«à¥¯": 5512,
      "à¥«à¥¨à¥§": 5513,
      "à¥«à¥§à¥§": 5514,
      "à¥«à¥Ńà¥©": 5515,
      "à¥«à¥¬à¥ª": 5516,
      "à¥«à¥¬à¥©": 5517,
      "Ġà¤¬à¤ļà¤ķ": 5518,
      "à¤ķà¤²à¤Ĺ": 5519,
      "Ġà¤¸à¤°à¤ľ": 5520,
      "Ġà¤¸à¤°à¤µà¤°": 5521,
      "Ġà¤¸à¤°à¤²à¤¤": 5522,
      "Ġ230": 5523,
      "Ġ220": 5524,
      "Ġ212": 5525,
      "Ġ225": 5526,
      "Ġ267": 5527,
      "à¤®à¤¦à¤¨à¤²": 5528,
      "Ġà¤īà¤®à¤¸": 5529,
      "Ġà¤īà¤®à¤°à¤ķ": 5530,
      "Ġà¤ªà¤¦à¤¨": 5531,
      "Ġà¤ªà¤¦à¤®": 5532,
      "Ġà¤ªà¤¦à¤ļ": 5533,
      "Ġà¤Ĩà¤Īà¤¨": 5534,
      "Ġà¤Ĩà¤Īà¤¯": 5535,
      "Ġà¤Ĩà¤Īà¤ıà¤«": 5536,
      "Ġà¤Ĩà¤Īà¤ıà¤¸à¤ıà¤¸": 5537,
      "Ġà¤Ĩà¤Īà¤ıà¤¨à¤ľ": 5538,
      "Ġà¤Ĩà¤Īà¤ıà¤¸à¤ıà¤®": 5539,
      "Ġà¤Ĩà¤Īà¤Ĩà¤Īà¤ıà¤¸à¤¸": 5540,
      "Ġà¤Ĩà¤Īà¤ķà¤²à¤Ĺ": 5541,
      "Ġà¤ıà¤¸à¤Ī": 5542,
      "Ġà¤ıà¤¸à¤ıà¤¸à¤Ĩà¤Ī": 5543,
      "Ġà¤ıà¤¸à¤Ĩà¤°à¤ª": 5544,
      "Ġà¤ıà¤¸à¤Īà¤ľ": 5545,
      "Ġà¤ıà¤¸à¤Ĩà¤°à¤ıà¤«": 5546,
      "Ġà¤ıà¤¸à¤ıà¤²à¤Ĩà¤°": 5547,
      "Ġà¤ıà¤¸à¤ĵà¤ħà¤®à¤°": 5548,
      "à¤¤à¤¨à¤Ń": 5549,
      "Ġà¤ĵà¤°à¤Ĺ": 5550,
      "Ġà¤ĵà¤°à¤Ľ": 5551,
      "à¤ķà¤¤à¤µà¤°": 5552,
      "à¤ľà¤¬à¤²": 5553,
      "Ġà¤ħà¤ªà¤²": 5554,
      "Ġà¤ħà¤ªà¤¶à¤¬": 5555,
      "à¥§à¥¦à¥¦": 5556,
      "à¥§à¥¨à¥¦": 5557,
      "à¤¨à¤¤à¤²": 5558,
      "à¤¨à¤¤à¤®à¤¤": 5559,
      "Ġà¤ħà¤µà¤²": 5560,
      "Ġà¤ħà¤µà¤¯à¤µ": 5561,
      "Ġà¤¹à¤°à¤ľ": 5562,
      "Ġà¤¹à¤°à¤ļ": 5563,
      "Ġà¤Ĩà¤Ĺà¤µ": 5564,
      "à¤Łà¤²à¤µ": 5565,
      "Ġà¤łà¤¨": 5566,
      "Ġà¤łà¤¹": 5567,
      "Ġà¤łà¤¸à¤ķ": 5568,
      "Ġà¤Ŀà¤²à¤ķà¤¤": 5569,
      "Ġà¤Ŀà¤²à¤ķà¤¨": 5570,
      "Ġà¤®à¤¦à¤¨à¤¦": 5571,
      "à¤°à¤¶à¤¤": 5572,
      "à¥Īà¤Ĥà¥¤)": 5573,
      "à¥¨à¥¯à¥©": 5574,
      "à¤µà¤¤à¤®": 5575,
      "Ġà¤ĸà¤°à¤Ĺ": 5576,
      "Ġà¤ĸà¤°à¤¬": 5577,
      "Ġà¥©à¥©à¥¦": 5578,
      "Ġà¥©à¥¯à¥ª": 5579,
      "à¤¯à¤²à¤°": 5580,
      "à¤¯à¤²à¤ķ": 5581,
      "à¤¯à¤²à¤¸": 5582,
      "à¤¯à¤²à¤®": 5583,
      "à¤Łà¤ķà¤ª": 5584,
      "à¤¨à¤µà¤µ": 5585,
      "à¤¨à¤µà¤°à¤¤": 5586,
      "à¤¨à¤µà¤µà¤°": 5587,
      "à¤¨à¤µà¤Ĺà¤ł": 5588,
      "Ġà¤ħà¤°à¤¨": 5589,
      "Ġà¤ħà¤°à¤¹à¤°": 5590,
      "à¥ªà¥«": 5591,
      "à¥ªà¥§": 5592,
      "à¥ªà¥¯": 5593,
      "à¥ªà¥®à¥¦": 5594,
      "à¥ªà¥«à¥«": 5595,
      "à¥ªà¥«à¥®": 5596,
      "Ġà¤¬à¤°à¤²": 5597,
      "Ġà¤¬à¤°à¤¬": 5598,
      "Ġà¤¬à¤°à¤Ľ": 5599,
      "Ġà¤¬à¤¦à¤Ĺ": 5600,
      "Ġà¤¬à¤¦à¤ĩ": 5601,
      "Ġà¤¬à¤¦à¤¸à¤²": 5602,
      "Ġà¤¬à¤¦à¤¶à¤ķ": 5603,
      "à¤¹à¤®à¤¸": 5604,
      "à¥©à¥ª": 5605,
      "à¥©à¥©à¥¬": 5606,
      "à¥©à¥«à¥Ń": 5607,
      "Ġà¥¨à¥¦à¥¦à¥¯": 5608,
      "à¤ĸà¤¨à¤¨": 5609,
      "à¤ĸà¤¨à¤²": 5610,
      "Ġà¤¸à¤¤à¤¤": 5611,
      "Ġà¤¸à¤¤à¤µ": 5612,
      "Ġà¤¸à¤¤à¤ª": 5613,
      "à¤¬à¤²à¤°": 5614,
      "Ġà¤ķà¤²à¤¶": 5615,
      "Ġà¤ķà¤²à¤Īà¤°": 5616,
      "Ġà¤ľà¤²à¤ķ": 5617,
      "Ġà¤ľà¤²à¤®à¤Ĺ": 5618,
      "Ġà¤ľà¤²à¤¡à¤®à¤°": 5619,
      "à¤µà¤²à¤ľ": 5620,
      "à¤µà¤²à¤ªà¤°": 5621,
      "Ġà¤¸à¤ļà¤¦": 5622,
      "à¤ľà¤Ĺà¤¹": 5623,
      "à¤¾...": 5624,
      "Ġà¤Ĭà¤¨": 5625,
      "Ġà¤Ĭà¤ĸ": 5626,
      "Ġà¤Ĭà¤¬à¤°": 5627,
      "Ġà¤Ĭà¤§à¤®à¤ª": 5628,
      "Ġà¤ħà¤¸à¤Ĺà¤°": 5629,
      "à¤°à¤¨à¤ĳà¤«": 5630,
      "à¤¦à¤¨à¤ª": 5631,
      "à¤¦à¤¨à¤¬": 5632,
      "Ġ1900": 5633,
      "Ġ1918": 5634,
      "Ġ1915": 5635,
      "Ġ1935": 5636,
      "Ġ1911": 5637,
      "Ġ1925": 5638,
      "Ġ1934": 5639,
      "Ġ1956": 5640,
      "Ġ1928": 5641,
      "Ġ1936": 5642,
      "Ġ1939": 5643,
      "Ġ1957": 5644,
      "Ġ1926": 5645,
      "Ġ1927": 5646,
      "Ġ1952": 5647,
      "Ġ1953": 5648,
      "Ġ1933": 5649,
      "à¤¡à¤²à¤°": 5650,
      "à¤¡à¤²à¤µ": 5651,
      "Ġà¤ħà¤¦à¤²": 5652,
      "Ġà¤ħà¤¦à¤®": 5653,
      "à¤¯à¤¦à¤²": 5654,
      "Ġà¤ıà¤¨à¤¯": 5655,
      "Ġà¤ıà¤¨à¤ª": 5656,
      "Ġà¤ıà¤¨à¤ľ": 5657,
      "Ġà¤ıà¤¨à¤«": 5658,
      "Ġà¤ıà¤¨à¤ıà¤¨": 5659,
      "Ġà¤ıà¤¨à¤ıà¤ļ": 5660,
      "Ġà¤ıà¤¨à¤ıà¤ļà¤ıà¤¸": 5661,
      "Ġà¤ıà¤¨à¤ıà¤µ": 5662,
      "Ġà¤ıà¤¨à¤Ĩà¤Īà¤ĵ": 5663,
      "Ġà¤ıà¤¨à¤Ĩà¤Īà¤ıà¤«": 5664,
      "Ġà¤ıà¤¨à¤ıà¤«à¤ıà¤²": 5665,
      "Ġà¤ıà¤¨à¤Ĩà¤Īà¤ıà¤¨": 5666,
      "Ġà¤ıà¤¨à¤ıà¤ıà¤¸à¤¯": 5667,
      "Ġà¤¹à¤ľà¤®": 5668,
      "Ġà¤¹à¤ľà¤°à¤¤": 5669,
      "à¥¬à¥¨": 5670,
      "à¥¬à¥§à¥«": 5671,
      "à¥¬à¥§à¥Ń": 5672,
      "à¥¬à¥©à¥¬": 5673,
      "à¤ľà¤²à¤®": 5674,
      "à¤ľà¤²à¤ª": 5675,
      "Ġà¤Īà¤¯": 5676,
      "Ġà¤Īà¤²": 5677,
      "Ġà¤Īà¤Ĺà¤²": 5678,
      "Ġà¤Īà¤Ĺà¤¨": 5679,
      "Ġà¤Īà¤¦à¤Ĺ": 5680,
      "Ġà¤Īà¤¶à¤ª": 5681,
      "Ġà¤Īà¤ıà¤®à¤ıà¤¸": 5682,
      "Ġà¤Īà¤Ĩà¤°à¤¡": 5683,
      "Ġà¤Īà¤ıà¤¨à¤Ł": 5684,
      "Ġà¤Īà¤¥à¤°à¤¨": 5685,
      "Ġà¤®à¤¤à¤²": 5686,
      "Ġà¤®à¤¤à¤Ĺà¤£à¤¨": 5687,
      "à¤ıà¤®à¤Ĩà¤Ī": 5688,
      "à¤ıà¤®à¤ıà¤®": 5689,
      "à¤ıà¤®à¤ıà¤«": 5690,
      "à¤ıà¤®à¤ıà¤ļ": 5691,
      "à¤ıà¤®à¤Ĩà¤°à¤ª": 5692,
      "à¤ıà¤®à¤ıà¤¸à¤ıà¤«": 5693,
      "Ġà¤¶à¤¹à¤°à¤µ": 5694,
      "Ġà¤¤à¤°à¤¨à¤¤": 5695,
      "à¤¹à¤¸à¤ļ": 5696,
      "à¤Ĩà¤°à¤¬": 5697,
      "à¤²à¤ķà¤¸": 5698,
      "à¤²à¤ķà¤®": 5699,
      "à¤²à¤ķà¤Ł": 5700,
      "à¤²à¤ķà¤¦à¤®": 5701,
      "Ġà¥«à¥©à¥¦": 5702,
      "Ġà¥«à¥¨à¥¦": 5703,
      "Ġà¥«à¥§à¥¬": 5704,
      "Ġà¥«à¥¯à¥§": 5705,
      "Ġà¥«à¥§à¥Ń": 5706,
      "Ġà¥«à¥¨à¥¦à¥¦": 5707,
      "Ġà¥«à¥ªà¥¦": 5708,
      "Ġà¥«à¥§à¥®": 5709,
      "Ġà¤¢à¤²à¤¤": 5710,
      "Ġà¤Ĩà¤ªà¤Ł": 5711,
      "à¥Ģà¥¤)": 5712,
      "à¥Ģà¥¤âĢĿ": 5713,
      "Ġà¥ªà¥¦à¥¦à¥¦": 5714,
      "Ġà¥ªà¥§à¥¬": 5715,
      "Ġà¥ªà¥¯à¥¬": 5716,
      "à¤¸à¤µà¤ª": 5717,
      "Ġ\",": 5718,
      "Ġ\"à¥¤": 5719,
      "Ġ\"),": 5720,
      "Ġ\",\"": 5721,
      "à¥®à¥©": 5722,
      "à¥®à¥Ń": 5723,
      "à¥®à¥¨à¥«": 5724,
      "à¥®à¥¨à¥ª": 5725,
      "à¥®à¥¨à¥®": 5726,
      "à¥®à¥®à¥§": 5727,
      "à¥®à¥¯à¥®": 5728,
      "Ġà¤«à¤°à¤ľ": 5729,
      "âĢįâĢį": 5730,
      "Ġà¤®à¤¨à¤¯": 5731,
      "Ġà¤®à¤¨à¤ľ": 5732,
      "Ġà¤®à¤¨à¤ªà¤¸": 5733,
      "Ġà¤®à¤¨à¤ļà¤²": 5734,
      "Ġà¤®à¤¨à¤Ĺà¤¢": 5735,
      "Ġà¤®à¤¨à¤¬à¤¢": 5736,
      "à¥Ńà¥¦à¥¦": 5737,
      "à¥Ńà¥§": 5738,
      "à¥Ńà¥ª": 5739,
      "à¥Ńà¥®": 5740,
      "à¥Ńà¥ªà¥¦": 5741,
      "à¥Ńà¥®à¥§": 5742,
      "à¥Ńà¥¬à¥Ń": 5743,
      "à¥Ńà¥¬à¥§à¥Ń": 5744,
      "à¤ıà¤ķà¤¡": 5745,
      "à¤ıà¤ķà¤¦à¤®": 5746,
      "à¤ıà¤ķà¤¤à¤°à¤«": 5747,
      "Ġà¥§à¥¯à¥§à¥¯": 5748,
      "à¤ķà¤ªà¤¡": 5749,
      "à¤¸à¤¤à¤¬": 5750,
      "Ġà¤ħà¤ļà¤°": 5751,
      "Ġà¤ħà¤ļà¤°à¤ľ": 5752,
      "à¤ıà¤«à¤¯": 5753,
      "à¤ıà¤«à¤Ł": 5754,
      "à¤ıà¤«à¤ıà¤®": 5755,
      "à¤ıà¤«à¤Ĩà¤Īà¤ı": 5756,
      "à¤ıà¤«à¤ıà¤¸à¤ıà¤²": 5757,
      "à¤ıà¤«à¤Ĩà¤Īà¤ª": 5758,
      "à¤ıà¤«à¤Ĩà¤Īà¤Ĩà¤Ī": 5759,
      "à¤ıà¤«à¤Ĩà¤°à¤¬": 5760,
      "à¤¦à¤®à¤£": 5761,
      "à¤ķà¤¸à¤¯": 5762,
      "à¤°à¤¬à¤¦": 5763,
      "à¤°à¤¬à¤Ł": 5764,
      "à¤°à¤¬à¤°à¤µ": 5765,
      "Ġà¤ħà¤«à¤ľ": 5766,
      "à¤ĩà¤Łà¤«": 5767,
      "à¤¤à¤ķà¤£": 5768,
      "à¤ĩà¤²à¤®": 5769,
      "à¤ĩà¤²à¤§": 5770,
      "Ġà¤¨à¤Īà¤¸": 5771,
      "Ġà¤¨à¤Īà¤®": 5772,
      "Ġ350": 5773,
      "Ġ340": 5774,
      "Ġ335": 5775,
      "Ġ337": 5776,
      "Ġ374": 5777,
      "Ġ323": 5778,
      "Ġ331": 5779,
      "Ġ380": 5780,
      "Ġà¤¬à¤¸à¤ĸ": 5781,
      "Ġà¤ľà¤Ĺà¤¨": 5782,
      "Ġà¤ıà¤®à¤Ł": 5783,
      "Ġà¤ıà¤®à¤ıà¤«": 5784,
      "Ġà¤ıà¤®à¤Ĩà¤Īà¤ıà¤®": 5785,
      "Ġà¤ıà¤®à¤ıà¤²à¤¬": 5786,
      "Ġà¤ıà¤®à¤ĵà¤ª": 5787,
      "Ġà¤ıà¤®à¤ıà¤ıà¤®": 5788,
      "Ġà¤Ĩà¤®à¤¸à¤¹à¤®à¤¤": 5789,
      "à¤ľà¤®à¤ľà¤¹": 5790,
      "à¤¨à¤²à¤¸": 5791,
      "Ġà¥¬à¥¦à¥¦à¥¦": 5792,
      "Ġà¥¬à¥§à¥¬": 5793,
      "Ġà¥¬à¥¯à¥§": 5794,
      "Ġà¥¬à¥§à¥«": 5795,
      "Ġà¥¬à¥®à¥¦": 5796,
      "Ġà¥¬à¥§à¥©": 5797,
      "Ġà¥¬à¥¨à¥ª": 5798,
      "Ġà¥¬à¥©à¥¬": 5799,
      "Ġà¥¬à¥¨à¥©": 5800,
      "Ġà¥¬à¥Ńà¥«": 5801,
      "Ġà¥¬à¥¯à¥ª": 5802,
      "à¤ıà¤²à¤ı": 5803,
      "à¤ıà¤²à¤¸à¤¨": 5804,
      "à¤ıà¤²à¤ıà¤®à¤ª": 5805,
      "Ġà¤ªà¤°à¤®à¤¹": 5806,
      "Ġà¤ªà¤°à¤®à¤ª": 5807,
      "à¤¥à¤²à¤¸": 5808,
      "à¥Ģ)à¥¤": 5809,
      "Ġà¤īà¤²à¤°": 5810,
      "Ġà¤®à¤¸à¤²à¤ķ": 5811,
      "Ġà¤ĩà¤¨à¤ķà¤®": 5812,
      "Ġà¤¸à¤¬à¤®": 5813,
      "Ġà¤¸à¤¬à¤°à¤µ": 5814,
      "à¤Ĺà¤®à¤ª": 5815,
      "à¤Ĺà¤®à¤Ĺ": 5816,
      "à¤ıà¤¨à¤ª": 5817,
      "à¤ıà¤¨à¤ĵà¤¸": 5818,
      "à¤ıà¤¨à¤Ĩà¤Īà¤ľ": 5819,
      "à¤ıà¤¨à¤ıà¤¸à¤ľ": 5820,
      "à¤ıà¤¨à¤Ĩà¤°à¤Ĩà¤Ī": 5821,
      "à¤ıà¤¨à¤Ĩà¤Īà¤ĵ": 5822,
      "à¤ıà¤¨à¤Ĩà¤Īà¤ıà¤«": 5823,
      "à¤ıà¤¨à¤ıà¤«à¤ª": 5824,
      "à¤ıà¤¨à¤Ĩà¤Īà¤ıà¤¨": 5825,
      "à¤ıà¤¨à¤ıà¤«à¤¯": 5826,
      "à¤ļà¤²à¤°": 5827,
      "à¤ļà¤²à¤Ĺ": 5828,
      "à¤ļà¤²à¤ķà¤°": 5829,
      "Ġà¤¤à¤¯à¤¶": 5830,
      "à¤ĥ,": 5831,
      "Ġà¤¹à¤²à¤¦à¤°": 5832,
      "Ġà¤¹à¤²à¤§à¤°": 5833,
      "Ġà¥Ńà¥¯": 5834,
      "Ġà¥Ńà¥¦à¥¦à¥¦": 5835,
      "Ġà¥Ńà¥¨à¥¦": 5836,
      "Ġà¥Ńà¥§à¥¦": 5837,
      "Ġà¥Ńà¥¯à¥§": 5838,
      "Ġà¥Ńà¥§à¥«": 5839,
      "Ġà¥Ńà¥§à¥Ń": 5840,
      "Ġà¥Ńà¥¬à¥¦": 5841,
      "Ġà¥Ńà¥¯à¥Ń": 5842,
      "à¤µà¤ķà¤ħà¤§": 5843,
      "à¤£à¤¨à¤«à¤²": 5844,
      "à¤Ĺà¤¨à¤¬": 5845,
      "à¤®à¤ļà¤¤": 5846,
      "Ġà¤¨à¤µà¤ļ": 5847,
      "Ġà¤¨à¤µà¤ĺà¤°": 5848,
      "Ġà¤ħà¤Ĺà¤°à¤¬à¤¤": 5849,
      "à¤ħà¤®à¤°à¤¦": 5850,
      "à¤ħà¤®à¤°à¤®à¤£": 5851,
      "à¥¯à¥¦à¥¬": 5852,
      "à¥¯à¥«à¥«": 5853,
      "à¤¹à¤²à¤«à¤¨": 5854,
      "à¤¹à¤°à¤£à¤¸": 5855,
      "à¤Ĭà¤¥": 5856,
      "Ġ209": 5857,
      "Ġ2050": 5858,
      "Ġ2020": 5859,
      "Ġ57": 5860,
      "Ġ512": 5861,
      "Ġ515": 5862,
      "Ġ565": 5863,
      "Ġ5Â½": 5864,
      "Ġà¥®à¥©": 5865,
      "Ġà¥®à¥¦à¥¦à¥¦": 5866,
      "Ġà¥®à¥©à¥¦": 5867,
      "Ġà¥®à¥¨à¥®": 5868,
      "Ġà¥®à¥®à¥§": 5869,
      "Ġà¥®à¥¬à¥ª": 5870,
      "Ġà¥®à¥¯à¥¯": 5871,
      "Ġà¥¨à¥¦à¥§": 5872,
      "Ġà¥¨à¥¦à¥ª": 5873,
      "Ġà¥¨à¥¦à¥©": 5874,
      "Ġà¥¨à¥¦à¥Ń": 5875,
      "Ġà¥¨à¥¦à¥©à¥¦": 5876,
      "Ġà¥¨à¥¦à¥©à¥¯": 5877,
      "Ġà¥¨à¥¦à¥®à¥©": 5878,
      "Ġà¥§à¥¦à¥®": 5879,
      "Ġà¥§à¥¦à¥«à¥¦": 5880,
      "Ġà¥§à¥¦à¥§à¥¬": 5881,
      "Ġà¥§à¥¦à¥¨à¥®": 5882,
      "Ġà¥§à¥¦à¥¬à¥§": 5883,
      "Ġà¤ķà¤Łà¤µ": 5884,
      "Ġà¤ķà¤Łà¤¹à¤²": 5885,
      "Ġà¤®à¤ķà¤Ī": 5886,
      "Ġà¥§à¥«à¥©": 5887,
      "Ġà¥§à¥«à¥¦à¥¦à¥¦": 5888,
      "Ġà¥§à¥«à¥®à¥§": 5889,
      "à¤°à¤ľà¤¤": 5890,
      "à¤ªà¤²à¤¶à¤¨": 5891,
      "Ġà¤ıà¤²à¤Ł": 5892,
      "Ġà¤ıà¤²à¤ı": 5893,
      "Ġà¤ıà¤²à¤¡": 5894,
      "Ġà¤ıà¤²à¤ĵà¤¸": 5895,
      "à¤°à¤ĸà¤§": 5896,
      "à¤°à¤ĸà¤£": 5897,
      "à¤¦à¤²à¤ª": 5898,
      "Ġà¤ħà¤¸à¤®à¤¯": 5899,
      "Ġà¤ħà¤¸à¤®à¤¤à¤²": 5900,
      "Ġà¥§à¥¨à¥§": 5901,
      "Ġà¥§à¥¨à¥¨": 5902,
      "Ġà¥§à¥¨à¥ª": 5903,
      "Ġà¥§à¥¨à¥©": 5904,
      "Ġà¥§à¥¨à¥Ń": 5905,
      "Ġà¥§à¥¨à¥¯": 5906,
      "Ġà¥§à¥¨à¥¬à¥Ń": 5907,
      "Ġà¥§à¥¨à¥¨à¥¨": 5908,
      "Ġ44": 5909,
      "Ġ440": 5910,
      "Ġ415": 5911,
      "Ġ465": 5912,
      "Ġ470": 5913,
      "Ġ467": 5914,
      "Ġ483": 5915,
      "Ġ445": 5916,
      "Ġà¤ħà¤ľà¤µ": 5917,
      "Ġà¤ħà¤ľà¤¹à¤°": 5918,
      "Ġà¤µà¤¸à¤Ī": 5919,
      "Ġà¥¦à¥§": 5920,
      "Ġà¥¦à¥¯": 5921,
      "Ġà¥¦à¥¦à¥¨à¥¬": 5922,
      "Ġà¤ħà¤¹à¤¦": 5923,
      "Ġà¥§à¥§à¥¦": 5924,
      "Ġà¥§à¥§à¥«": 5925,
      "Ġà¥§à¥§à¥ª": 5926,
      "Ġà¥§à¥§à¥©": 5927,
      "Ġà¥§à¥§à¥¬": 5928,
      "Ġà¥§à¥§à¥¦à¥¦à¥¦": 5929,
      "Ġà¥§à¥§à¥¨à¥ª": 5930,
      "Ġà¥§à¥§à¥¯à¥¨": 5931,
      "Ġà¥§à¥§à¥¦à¥ª": 5932,
      "Ġà¥§à¥§à¥Ńà¥§": 5933,
      "à¤®à¤¹à¤ľ": 5934,
      "à¤°à¤ļà¤²à¤¨": 5935,
      "Ġà¤®à¤²à¤ĸ": 5936,
      "Ġà¤®à¤²à¤«": 5937,
      "Ġ2018": 5938,
      "Ġ2019": 5939,
      "Ġà¥¯à¥¦à¥¦": 5940,
      "Ġà¥¯à¥«à¥¦à¥¦": 5941,
      "Ġà¥¯à¥«à¥ª": 5942,
      "Ġà¥¨à¥«à¥¦à¥¦": 5943,
      "Ġà¥¨à¥«à¥ª": 5944,
      "Ġà¥¨à¥«à¥¬à¥«": 5945,
      "à¤¡à¤¨à¤¬à¤°": 5946,
      "à¤ħà¤§à¤¤à¤¨": 5947,
      "Ġ74": 5948,
      "Ġ711": 5949,
      "Ġ734": 5950,
      "Ġ767": 5951,
      "Ġ747": 5952,
      "à¤¬à¤¦à¤¤": 5953,
      "à¤¬à¤¦à¤¹": 5954,
      "à¤¬à¤¦à¤²à¤¨": 5955,
      "à¤¬à¤¦à¤²à¤¤": 5956,
      "Ġà¤ıà¤¯à¤°à¤¬": 5957,
      "Ġà¤ıà¤¯à¤°à¤¡": 5958,
      "Ġà¤ıà¤¯à¤°à¤¬à¤¸": 5959,
      "Ġ61": 5960,
      "Ġ62": 5961,
      "Ġ69": 5962,
      "Ġ616": 5963,
      "Ġ660": 5964,
      "Ġ674": 5965,
      "Ġ6Â½": 5966,
      "à¤ħà¤¨à¤¬": 5967,
      "Ġ184": 5968,
      "Ġ185": 5969,
      "Ġ1854": 5970,
      "Ġ1860": 5971,
      "Ġ1835": 5972,
      "Ġ1834": 5973,
      "Ġ1821": 5974,
      "Ġ1870": 5975,
      "Ġ1839": 5976,
      "Ġ1857": 5977,
      "Ġ1822": 5978,
      "Ġ1858": 5979,
      "Ġ1862": 5980,
      "Ġ1895": 5981,
      "Ġ1817": 5982,
      "Ġ1842": 5983,
      "Ġ1847": 5984,
      "Ġ1852": 5985,
      "Ġ1871": 5986,
      "Ġ1875": 5987,
      "Ġ1891": 5988,
      "Ġ1896": 5989,
      "à¤°à¤Ĺà¤®à¤°": 5990,
      "à¤¨à¤¦à¤¯": 5991,
      "à¤¯à¤¯à¤¨à¤ķà¤°": 5992,
      "Ġà¥§à¥ªà¥¬": 5993,
      "Ġà¥§à¥ªà¥Ń": 5994,
      "Ġà¥§à¥ªà¥¯": 5995,
      "Ġà¥§à¥ªà¥§à¥«": 5996,
      "Ġà¤ķà¤¨à¤ªà¤Ł": 5997,
      "Ġà¤®à¤ľà¤¹à¤°": 5998,
      "Ġà¤ıà¤ļà¤¸": 5999,
      "Ġà¤ıà¤ļà¤ıà¤ıà¤²": 6000,
      "Ġà¤ıà¤ļà¤ıà¤®à¤ı": 6001,
      "Ġà¤ıà¤ļà¤ıà¤¸à¤Ĩà¤Īà¤¡": 6002,
      "Ġà¤¨à¤°à¤¹à¤°": 6003,
      "à¤·à¤®à¤£": 6004,
      "Ġ1030": 6005,
      "Ġ1011": 6006,
      "Ġ1038": 6007,
      "Ġ1074": 6008,
      "Ġ1073": 6009,
      "Ġ1047": 6010,
      "Ġ1072": 6011,
      "Ġ1075": 6012,
      "Ġà¤Ĺà¤µà¤¡": 6013,
      "à¤°à¤®à¤£à¤ķ": 6014,
      "à¤¨à¤ľà¤°à¤¬": 6015,
      "à¤¾'à¥¤": 6016,
      "Ġà¥§à¥®à¥«": 6017,
      "Ġà¥§à¥®à¥®": 6018,
      "Ġà¥§à¥®à¥¯": 6019,
      "Ġà¥§à¥®à¥¯à¥§": 6020,
      "Ġà¥§à¥®à¥®à¥¦": 6021,
      "Ġà¥§à¥®à¥¬à¥Ń": 6022,
      "Ġà¥§à¥®à¥Ńà¥¬à¥Ń": 6023,
      "Ġà¥«à¥¦à¥®": 6024,
      "Ġà¥«à¥¦à¥¬à¥ª": 6025,
      "Ġ153": 6026,
      "Ġ157": 6027,
      "Ġ1550": 6028,
      "Ġ1520": 6029,
      "Ġ1538": 6030,
      "Ġ1523": 6031,
      "Ġ1562": 6032,
      "Ġ1580": 6033,
      "Ġ1559": 6034,
      "Ġ1566": 6035,
      "Ġ1593": 6036,
      "à¤¤à¤²à¤Ľà¤Ł": 6037,
      "Ġ83": 6038,
      "Ġ86": 6039,
      "Ġ88": 6040,
      "Ġ8000": 6041,
      "Ġ830": 6042,
      "Ġ810": 6043,
      "Ġ834": 6044,
      "Ġ880": 6045,
      "Ġ853": 6046,
      "Ġ869": 6047,
      "à¤ıà¤ļà¤ķ": 6048,
      "à¤ıà¤ļà¤ª": 6049,
      "à¤ıà¤ļà¤Ĩà¤°à¤¸": 6050,
      "à¤ıà¤ļà¤ıà¤¸à¤Ĩà¤Īà¤¡": 6051,
      "Ġà¤¶à¤¹à¤¬": 6052,
      "Ġà¤¶à¤¹à¤¡": 6053,
      "Ġ1200": 6054,
      "Ġ1237": 6055,
      "Ġ1263": 6056,
      "Ġ1227": 6057,
      "Ġ1281": 6058,
      "Ġ1290": 6059,
      "Ġà¥§à¥©à¥«": 6060,
      "Ġà¥§à¥©à¥¬": 6061,
      "Ġà¥§à¥©à¥§à¥©": 6062,
      "Ġà¥§à¥©à¥¬à¥ª": 6063,
      "Ġà¥§à¥¬à¥«": 6064,
      "Ġà¥§à¥¬à¥ª": 6065,
      "Ġà¥§à¥¬à¥Ń": 6066,
      "Ġà¥§à¥¬à¥§à¥©": 6067,
      "Ġà¥§à¥¬à¥«à¥ª": 6068,
      "Ġà¥§à¥¬à¥©à¥¨": 6069,
      "Ġà¤Ŀà¤Łà¤ķà¤¨": 6070,
      "à¤¥à¤µà¤¯à¤µà¤¸": 6071,
      "Ġ176": 6072,
      "Ġ1700": 6073,
      "Ġ1750": 6074,
      "Ġ1713": 6075,
      "Ġ1740": 6076,
      "Ġ1760": 6077,
      "Ġ1774": 6078,
      "Ġ1773": 6079,
      "Ġ1795": 6080,
      "Ġ1751": 6081,
      "Ġ1763": 6082,
      "Ġ1785": 6083,
      "Ġ1705": 6084,
      "Ġ1701": 6085,
      "Ġ1794": 6086,
      "à¤ªà¤¦à¤¯": 6087,
      "à¤ªà¤¦à¤Ń": 6088,
      "Ġà¤īà¤Ĺà¤²à¤¨": 6089,
      "à¤ĳà¤ª": 6090,
      "à¤ĳà¤¨à¤²": 6091,
      "à¤Ĩà¤ľà¤ķà¤²": 6092,
      "Ġà¥¨à¥§à¥¦à¥¦": 6093,
      "Ġà¥¨à¥§à¥¨": 6094,
      "Ġà¥¨à¥§à¥¨à¥¯": 6095,
      "Ġà¥¨à¥§à¥©à¥§": 6096,
      "à¤ķà¤®à¤¬": 6097,
      "à¤²à¤Ŀà¤¤": 6098,
      "1900": 6099,
      "1950": 6100,
      "1918": 6101,
      "1954": 6102,
      "1911": 6103,
      "1939": 6104,
      "1964": 6105,
      "1979": 6106,
      "1922": 6107,
      "1962": 6108,
      "1967": 6109,
      "1973": 6110,
      "1917": 6111,
      "1929": 6112,
      "1948": 6113,
      "1981": 6114,
      "1982": 6115,
      "1971": 6116,
      "1968": 6117,
      "Ġà¤ħà¤Łà¤ļ": 6118,
      "à¤Ķà¤²": 6119,
      "à¤Ķà¤ªà¤ļ": 6120,
      "à¤µà¤Łà¤¤": 6121,
      "Ġà¤ľà¤¯à¤ķà¤°à¤£": 6122,
      "Ġà¤ľà¤¯à¤¸à¤µ": 6123,
      "Ġ162": 6124,
      "Ġ1620": 6125,
      "Ġ1610": 6126,
      "Ġ1635": 6127,
      "Ġ1625": 6128,
      "Ġ1655": 6129,
      "Ġ1636": 6130,
      "Ġ1664": 6131,
      "Ġ1679": 6132,
      "Ġ1623": 6133,
      "Ġ1629": 6134,
      "Ġ1632": 6135,
      "Ġ1648": 6136,
      "Ġ1691": 6137,
      "Ġà¤ĭà¤¤": 6138,
      "Ġà¤¬à¤Ĺà¤¹": 6139,
      "Ġà¥§à¥Ńà¥¦": 6140,
      "Ġà¥§à¥Ńà¥¨": 6141,
      "Ġà¥§à¥Ńà¥©": 6142,
      "Ġà¥§à¥Ńà¥©à¥¬": 6143,
      "Ġà¥§à¥Ńà¥¦à¥®": 6144,
      "Ġà¥§à¥Ńà¥©à¥Ń": 6145,
      "à¤Ĩà¤Īà¤ıà¤®à¤¸": 6146,
      "Ġ91": 6147,
      "Ġ92": 6148,
      "Ġ96": 6149,
      "Ġ97": 6150,
      "Ġ900": 6151,
      "Ġ9000": 6152,
      "Ġ930": 6153,
      "Ġ920": 6154,
      "Ġ940": 6155,
      "Ġ957": 6156,
      "Ġ981": 6157,
      "à¤ªà¤¹à¤²à¤Ĺ": 6158,
      "Ġà¥©à¥§à¥«": 6159,
      "Ġà¥©à¥§à¥Ń": 6160,
      "Ġ1971": 6161,
      "Ġ1978": 6162,
      "ĠâĢ¦": 6163,
      "Ġà¥§à¥¯à¥®à¥¨": 6164,
      "Ġà¥§à¥¯à¥®à¥©": 6165,
      "Ġà¥§à¥¯à¥®à¥¬": 6166,
      "Ġà¥¨à¥ªà¥¦à¥¦": 6167,
      "Ġà¥¨à¥ªà¥«": 6168,
      "Ġà¥¨à¥ªà¥ªà¥ª": 6169,
      "à¥Ĥà¤ģ,": 6170,
      "Ġà¤Ĩà¤¯à¤ķà¤°à¤¦": 6171,
      "Ġà¥¨à¥®à¥§": 6172,
      "Ġà¥¨à¥®à¥Ń": 6173,
      "Ġà¥¨à¥®à¥¯": 6174,
      "Ġà¥¨à¥®à¥®à¥¯": 6175,
      "Ġà¤ªà¤²à¤Łà¤¨": 6176,
      "Ġà¤ªà¤²à¤Łà¤µ": 6177,
      "Ġà¤ªà¤²à¤Łà¤ķà¤°": 6178,
      "à¤ļà¤ķà¤¶": 6179,
      "Ġà¤¶à¤ªà¤¥à¤Ĺ": 6180,
      "Ġ110": 6181,
      "Ġ111": 6182,
      "Ġ11000": 6183,
      "à¥Ģ',": 6184,
      "à¤¨à¤Īà¤Ĺà¤²": 6185,
      "Ġà¥¯à¥§": 6186,
      "Ġà¥¯à¥§à¥ª": 6187,
      "Ġà¤Ĩà¤īà¤Łà¤°": 6188,
      "Ġà¤Ńà¤Łà¤ķà¤¤": 6189,
      "Ġà¤ļà¤¯à¤¨à¤¸à¤®": 6190,
      "Ġà¥ªà¥¦à¥¯à¥§": 6191,
      "Ġà¥ªà¥¦à¥¯à¥¬": 6192,
      "à¤¯à¤£à¤¤": 6193,
      "Ġà¥¨à¥©à¥¦": 6194,
      "Ġà¥¨à¥©à¥«": 6195,
      "Ġà¥¨à¥©à¥¨": 6196,
      "Ġà¥¨à¥©à¥©": 6197,
      "Ġà¥¨à¥©à¥®": 6198,
      "Ġà¥¨à¥©à¥¯": 6199,
      "Ġà¥¨à¥©à¥ªà¥©": 6200,
      "Ġà¥¨à¥©à¥Ńà¥¬à¥§à¥Ń": 6201,
      "Ġ1982": 6202,
      "à¥ĩ);": 6203,
      "Ġà¥¨à¥¨à¥¦à¥¦": 6204,
      "Ġà¥¨à¥¨à¥ª": 6205,
      "Ġà¥¨à¥¨à¥Ń": 6206,
      "Ġà¥¨à¥¨à¥¨à¥©": 6207,
      "..'": 6208,
      "Ġ304": 6209,
      "Ġ307": 6210,
      "Ġ308": 6211,
      "Ġ3010": 6212,
      "Ġà¤ķà¤łà¤ª": 6213,
      "Ġà¤ķà¤łà¤ĺà¤°": 6214,
      "Ġà¥¨à¥¬à¥¦à¥¦": 6215,
      "Ġà¥¨à¥¬à¥¨à¥¬": 6216,
      "Ġà¥¨à¥¬à¥¯à¥¯": 6217,
      "Ġà¤ĳà¤¸à¤¬": 6218,
      "Ġà¥¬à¥¦à¥¨": 6219,
      "à¤ķà¤¶à¤¨à¤®": 6220,
      "à¤¶à¤¹à¤°à¤¯": 6221,
      "Ġ1963": 6222,
      "Ġ1966": 6223,
      "ĠAB": 6224,
      "ĠAC": 6225,
      "ĠAKS": 6226,
      "ĠApu": 6227,
      "Ġà¤ªà¤ļà¤¡": 6228,
      "Ġà¤ªà¤ļà¤®à¤¢": 6229,
      "à¤īà¤¦à¤¯": 6230,
      "à¤īà¤¦à¤¯à¤ª": 6231,
      "180": 6232,
      "189": 6233,
      "1800": 6234,
      "1819": 6235,
      "1830": 6236,
      "1835": 6237,
      "1856": 6238,
      "1858": 6239,
      "1876": 6240,
      "1883": 6241,
      "1872": 6242,
      "à¤ľà¤«à¤°à¤ª": 6243,
      "Ġà¤Ĩà¤¹à¤Ł": 6244,
      "Ġà¥§à¥¦à¥¦à¥¦à¥¦": 6245,
      "Ġà¤Ĺà¤¨à¤ª": 6246,
      "Ġà¥©à¥«à¥¦à¥¦": 6247,
      "Ġà¥©à¥«à¥ª": 6248,
      "Ġà¥©à¥«à¥¬": 6249,
      "Ġà¥©à¥«à¥¯": 6250,
      "Ġà¤ľà¤Ĺà¤¤à¤¸": 6251,
      "Ġ139": 6252,
      "Ġ1340": 6253,
      "Ġ1321": 6254,
      "Ġ1399": 6255,
      "Ġ1323": 6256,
      "Ġ140": 6257,
      "Ġ142": 6258,
      "Ġ145": 6259,
      "Ġ148": 6260,
      "Ġ1415": 6261,
      "Ġ1455": 6262,
      "Ġ1405": 6263,
      "à¥©à¥¦à¥©": 6264,
      "Ġà¤Ĩà¤īà¤Łà¤¸": 6265,
      "Ġà¤Ĩà¤īà¤Łà¤¡": 6266,
      "Ġà¥¨à¥Ńà¥§à¥¬": 6267,
      "Ġà¥§à¥¯à¥¦": 6268,
      "Ġà¥§à¥¯à¥¦à¥¬": 6269,
      "Ġà¥§à¥¯à¥«à¥Ń": 6270,
      "Ġà¥§à¥¯à¥«à¥§": 6271,
      "Ġà¥§à¥¯à¥«à¥®": 6272,
      "Ġà¥§à¥¯à¥¦à¥ª": 6273,
      "Ġ501": 6274,
      "Ġ505": 6275,
      "206": 6276,
      "207": 6277,
      "208": 6278,
      "2019": 6279,
      "2010": 6280,
      "2016": 6281,
      "2014": 6282,
      "Ġà¤¨à¤°à¤®à¤¦": 6283,
      "Ġà¥¨à¥¯à¥«à¥ª": 6284,
      "Ġà¤¬à¤°à¤¸à¤¤": 6285,
      "à¤ħà¤ªà¤¹": 6286,
      "Ġ401": 6287,
      "Ġ402": 6288,
      "103": 6289,
      "1050": 6290,
      "1013": 6291,
      "1037": 6292,
      "1074": 6293,
      "1031": 6294,
      "1095": 6295,
      "1048": 6296,
      "ĠÂ±": 6297,
      "ĠÂ½": 6298,
      "Ġà¤ªà¤¨à¤ªà¤¤": 6299,
      "Ġà¤¦à¤®à¤ĺ": 6300,
      "Ġà¤¦à¤®à¤ķà¤²à¤ķà¤°": 6301,
      "Ġà¤ĵà¤²à¤¸à¤¨": 6302,
      "Ġ281": 6303,
      "Ġ288": 6304,
      "Ġà¥©à¥¨à¥«": 6305,
      "Ġà¥©à¥¨à¥¯à¥©": 6306,
      "Ġà¥©à¥¬à¥¦": 6307,
      "Ġà¥©à¥¬à¥¦à¥¦": 6308,
      "Ġà¥©à¥¬à¥«": 6309,
      "Ġà¥©à¥¬à¥¯à¥«à¥«": 6310,
      "165": 6311,
      "1620": 6312,
      "1631": 6313,
      "1685": 6314,
      "à¤¨à¤µà¤°à¤¹": 6315,
      "Ġà¤°à¤£à¤§": 6316,
      "Ġà¤ļà¤Łà¤Ĺ": 6317,
      "Ġà¥¯à¥¦à¥®": 6318,
      "Ġà¥¯à¥¦à¥«à¥¦": 6319,
      "Ġà¥¯à¥¦à¥®à¥«": 6320,
      "à¤¶à¤®à¤¹à¤²": 6321,
      "à¤ļà¤®à¤¡": 6322,
      "onMo": 6323,
      "Ġ06": 6324,
      "ĠIT": 6325,
      "ĠIta": 6326,
      "ĠInt": 6327,
      "ĠIBM": 6328,
      "ĠPH": 6329,
      "ĠPer": 6330,
      "ĠPDP": 6331,
      "ĠPhT": 6332,
      "ĠPit": 6333,
      "à¤°à¤¥à¤®à¤¦": 6334,
      "Ġà¤ĸà¤Łà¤ķà¤¤": 6335,
      "Ġà¤Ľà¤ªà¤ķà¤°": 6336,
      "Ġ1008": 6337,
      "Ġ10000": 6338,
      "Ġà¤ıà¤¨à¤ıà¤¸à¤ľ": 6339,
      "Ġà¥®à¥¦à¥©": 6340,
      "547": 6341,
      "esh": 6342,
      "esqu": 6343,
      "esla": 6344,
      "à¤¾?'": 6345,
      "Ġà¤īà¤¬à¤°à¤¤": 6346,
      "Ġà¤īà¤¬à¤°à¤ķà¤°": 6347,
      "Ġà¤ļà¤°à¤®à¤ª": 6348,
      "Ġà¤¶à¤°à¤£à¤Ĺ": 6349,
      "à¤ĩà¤µà¤°à¤Ł": 6350,
      "à¤ħà¤Ĺà¤¸": 6351,
      "à¤ħà¤Ĺà¤°à¤ķà¤°": 6352,
      "Ġà¤Ĩà¤Īà¤ıà¤ľ": 6353,
      "Ġà¤Ĩà¤Īà¤ıà¤®à¤¸": 6354,
      "Ġà¤Ĩà¤Īà¤ıà¤®à¤Ł": 6355,
      "Ġà¤Ĩà¤Īà¤ıà¤®à¤ıà¤«": 6356,
      "Ġà¥©à¥ªà¥ª": 6357,
      "Ġà¥©à¥ªà¥®à¥¦": 6358,
      "Ġà¥©à¥ªà¥ªà¥ª": 6359,
      "Ġà¥©à¥©à¥ª": 6360,
      "Ġà¥©à¥©à¥©à¥¬": 6361,
      "Ġà¥©à¥©à¥¬à¥§à¥«": 6362,
      "Ġà¥©à¥Ńà¥§": 6363,
      "Ġà¥©à¥Ńà¥¬": 6364,
      "Ġà¥©à¥Ńà¥Ń": 6365,
      "Ġà¥©à¥Ńà¥ªà¥¦": 6366,
      "Ġà¥ªà¥¨à¥ª": 6367,
      "Ġà¥ªà¥¨à¥®": 6368,
      "Ġà¥ªà¥¨à¥¯": 6369,
      "Ġà¥ªà¥¨à¥¦à¥¦à¥¦": 6370,
      "ĠDB": 6371,
      "ĠDTIM": 6372,
      "ĠDrog": 6373,
      "Ġà¤Ńà¤ľà¤¨à¤²": 6374,
      "Ġà¥§à¥¯à¥Ńà¥©": 6375,
      "Ġà¥§à¥¯à¥Ńà¥®": 6376,
      "Ġ3124": 6377,
      "Ġà¤ľà¤¨à¤®à¤¤à¤¸": 6378,
      "133": 6379,
      "134": 6380,
      "137": 6381,
      "1316": 6382,
      "401": 6383,
      "4095": 6384,
      "6034": 6385,
      "tius": 6386,
      "Ġà¤Ĺà¤°à¤®à¤ª": 6387,
      "Ġà¤Ĺà¤¹à¤¨à¤¤": 6388,
      "à¤īà¤ªà¤Ĺ": 6389,
      "à¤ıà¤¸à¤Īà¤ľ": 6390,
      "121": 6391,
      "124": 6392,
      "125": 6393,
      "1250": 6394,
      "1226": 6395,
      "1288": 6396,
      "158": 6397,
      "1525": 6398,
      "1521": 6399,
      "1536": 6400,
      "1576": 6401,
      "2002": 6402,
      "2003": 6403,
      "2006": 6404,
      "2007": 6405,
      "2008": 6406,
      "2009": 6407,
      "BSE": 6408,
      "ĠNAS": 6409,
      "ĠNEN": 6410,
      "ĠNor": 6411,
      "ĠNSF": 6412,
      "ĠNoMa": 6413,
      "Ġnm": 6414,
      "Ġà¤ĸà¤²à¤²": 6415,
      "à¤īà¤¥à¤¸": 6416,
      "à¤Ĩà¤Īà¤ıà¤Ĩà¤Ī": 6417,
      "à¤Ĩà¤Īà¤ıà¤ļà¤²": 6418,
      "Ġà¤ĵà¤µà¤°à¤¹": 6419,
      "Ġà¤ĵà¤µà¤°à¤¬": 6420,
      "à¤Ĩà¤°à¤ıà¤¸à¤¬": 6421,
      "Ġà¥ªà¥«à¥¦à¥¦": 6422,
      "Ġà¥§à¥¯à¥¬à¥§": 6423,
      "Ġà¥§à¥¯à¥¬à¥®": 6424,
      "Ġà¥§à¥¯à¥¬à¥Ń": 6425,
      "Ġà¤īà¤²à¤Łà¤ª": 6426,
      "...'": 6427,
      "117": 6428,
      "343": 6429,
      "344": 6430,
      "345": 6431,
      "349": 6432,
      "ĠCal": 6433,
      "ĠCDC": 6434,
      "ĠCIS": 6435,
      "ĠCSM": 6436,
      "ĠCTL": 6437,
      "ĠMA": 6438,
      "ĠMar": 6439,
      "ĠMias": 6440,
      "à¤®à¤¬à¤ļà¤¨": 6441,
      "à¥ĩà¤Ĥà¥¤âĢĿ": 6442,
      "Ġ271": 6443,
      "Ġ2700": 6444,
      "à¥§à¥¦à¥§": 6445,
      "à¥§à¥¨à¥¨": 6446,
      "Ġà¤Ĩà¤ľà¤®à¤Ĺà¤¢": 6447,
      "Ġ1908": 6448,
      "Ġ1909": 6449,
      "à¤Ĩà¤°à¤Ĩà¤Īà¤¡": 6450,
      "Ġà¥ªà¥©à¥©": 6451,
      "Ġà¥ªà¥®à¥¨": 6452,
      "Ġà¥ªà¥®à¥¯": 6453,
      "and": 6454,
      "Ġà¤¨à¤ķà¤²à¤ļ": 6455,
      "Ġà¤īà¤§à¤®": 6456,
      "Ġà¤Ńà¤°à¤¤à¤ª": 6457,
      "à¤ĩà¤«à¤¸": 6458,
      "à¤ĩà¤«à¤Ł": 6459,
      "à¤ħà¤«à¤ľà¤²": 6460,
      "Ġ223": 6461,
      "Ġ227": 6462,
      "Ġà¥©à¥®à¥«": 6463,
      "Ġà¥©à¥®à¥©": 6464,
      "Ġà¥«à¥Ńà¥ª": 6465,
      "Ġà¥ªà¥Ńà¥§": 6466,
      "Ġ5500": 6467,
      "à¥¯à¥§à¥¦": 6468,
      "inux": 6469,
      "inds": 6470,
      "inox": 6471,
      "talis": 6472,
      "tard": 6473,
      "tage": 6474,
      "ĠEin": 6475,
      "ĠEOR": 6476,
      "ĠENE": 6477,
      "ĠEng": 6478,
      "ĠEUR": 6479,
      "ĠEmic": 6480,
      "ĠExx": 6481,
      "ĠLC": 6482,
      "ĠLab": 6483,
      "ĠLied": 6484,
      "ĠLinux": 6485,
      "Ġà¤Ńà¤Ĺà¤µà¤¤": 6486,
      "à¤ıà¤¸à¤ıà¤²à¤¸": 6487,
      "Ġà¤ĵà¤ªà¤¨à¤°": 6488,
      "Ġà¤ĵà¤ªà¤¨à¤Ł": 6489,
      "à¥§à¥Ńà¥®à¥¯": 6490,
      "Ġà¥«à¥¬à¥¦": 6491,
      "Ġà¥«à¥¬à¥§": 6492,
      "Ġà¥«à¥¬à¥®": 6493,
      "Ġà¥ªà¥¬à¥¦": 6494,
      "Ġà¥ªà¥¬à¥ª": 6495,
      "Ġà¥ªà¥¬à¥®": 6496,
      "à¥®à¥¦à¥Ńà¥¨": 6497,
      "Ġà¥§à¥¯à¥ªà¥¦": 6498,
      "Ġ352": 6499,
      "Ġ358": 6500,
      "Ġ392": 6501,
      "Ġ393": 6502,
      "Ġà¥®à¥«à¥ª": 6503,
      "Ġà¥®à¥«à¥¬": 6504,
      "Ġ458": 6505,
      "enom": 6506,
      "enues": 6507,
      "entalis": 6508,
      "kycl": 6509,
      "lity": 6510,
      "riri": 6511,
      "riae": 6512,
      "rial": 6513,
      "ĠQwes": 6514,
      "ĠSR": 6515,
      "ĠSab": 6516,
      "ĠSulli": 6517,
      "ĠSkycl": 6518,
      "ĠVI": 6519,
      "ĠVal": 6520,
      "ĠVenom": 6521,
      "à¤ĭà¤£": 6522,
      "Ġà¤ķà¤£à¤ª": 6523,
      "Ġà¤¹à¤°à¤ķà¤¨": 6524,
      "Ġà¤Ĺà¤ľà¤Ł": 6525,
      "Ġà¤ļà¤®à¤ķà¤¨": 6526,
      "Ġà¤ļà¤®à¤ķà¤¦": 6527,
      "à¥§à¥©à¥ª": 6528,
      "à¥©à¥¬à¥¯": 6529,
      "Ġ1944": 6530,
      "Ġ1946": 6531,
      "Ġ1947": 6532,
      "Ġ1949": 6533,
      "Ġ363": 6534,
      "à¤ĳà¤«à¤¸": 6535,
      "Ġà¥¯à¥¨à¥¨": 6536,
      "145": 6537,
      "1466": 6538,
      "284": 6539,
      "382": 6540,
      "388": 6541,
      "999": 6542,
      "SPIEG": 6543,
      "ĠTEU": 6544,
      "ĠTsu": 6545,
      "Ġcitation": 6546,
      "Ġcom": 6547,
      "Ġcpà¤¡": 6548,
      "à¥ĩ\"à¥¤": 6549,
      "à¥ĭ',": 6550,
      "à¤¸à¤¹à¤¯": 6551,
      "Ġà¤°à¤¤à¤¨à¤ª": 6552,
      "Ġà¤īà¤Ńà¤°à¤¨": 6553,
      "Ġà¤ıà¤ħà¤°à¤µ": 6554,
      "Ġà¤ıà¤ħà¤°à¤²": 6555,
      "Ġà¤ªà¤¤à¤¨à¤¶": 6556,
      "Ġ233": 6557,
      "Ġà¥«à¥¯à¥¦": 6558,
      "Ġà¥«à¥¯à¥¦à¥¨": 6559,
      "Ġà¥ªà¥ªà¥¯": 6560,
      "Ġà¥ªà¥ªà¥¬à¥¦": 6561,
      "Ġà¥§à¥¯à¥¨à¥«": 6562,
      "Ġà¥§à¥¯à¥¨à¥§": 6563,
      "Ġà¥¬à¥«à¥¦à¥¦": 6564,
      "Ġà¥¬à¥¬à¥®": 6565,
      "Ġ994": 6566,
      "à¥§à¥¯à¥¯à¥§": 6567,
      "à¥§à¥¯à¥¯à¥©": 6568,
      "à¥§à¥¯à¥¯à¥ª": 6569,
      "à¥§à¥¯à¥¯à¥¬": 6570,
      "à¥§à¥¯à¥¯à¥¯": 6571,
      "390": 6572,
      "392": 6573,
      "646": 6574,
      "ernet": 6575,
      "ĠHeed": 6576,
      "ĠHFCs": 6577,
      "ĠHIV": 6578,
      "ĠHLN": 6579,
      "ĠHeri": 6580,
      "ĠXLIX": 6581,
      "ĠXXX": 6582,
      "Ġflng": 6583,
      "Ġà¤·à¤¡à¤¯": 6584,
      "à¤ıà¤ıà¤²à¤ª": 6585,
      "à¤¬à¤Ĺà¤¹": 6586,
      "à¤¡à¤ķà¤°à¤µ": 6587,
      "Ġà¤ĵà¤Ŀà¤²": 6588,
      "à¥§à¥®à¥®à¥§": 6589,
      "à¥¨à¥Ńà¥¬": 6590,
      "Ġà¥«à¥ªà¥©": 6591,
      "Ġà¥§à¥¯à¥©à¥«": 6592,
      "Ġà¥§à¥¯à¥©à¥§": 6593,
      "Ġà¥§à¥¯à¥©à¥®": 6594,
      "Ġà¥§à¥¯à¥©à¥Ń": 6595,
      "Ġà¥¬à¥©à¥©à¥¦": 6596,
      "Ġà¥¬à¥©à¥¨à¥«": 6597,
      "Ġà¥¬à¥©à¥¨à¥®": 6598,
      "Ġà¥Ńà¥©à¥Ń": 6599,
      "Ġà¥Ńà¥®à¥ªà¥Ń": 6600,
      "Ġà¥Ńà¥Ńà¥®": 6601,
      "Ġà¥Ńà¥Ńà¥¬à¥©": 6602,
      "Ġà¥®à¥ªà¥¬à¥®": 6603,
      "Ġ1887": 6604,
      "Ġ1888": 6605,
      "Ġ1345": 6606,
      "Ġ1347": 6607,
      "Ġ1490": 6608,
      "1008": 6609,
      "ĠGR": 6610,
      "ĠGPhC": 6611,
      "ĠGCS": 6612,
      "ĠGEMA": 6613,
      "ĠGOP": 6614,
      "ĠOSI": 6615,
      "à¤ķà¤ļà¤Ĺà¤°": 6616,
      "Ġà¤²à¤ĸà¤ªà¤¤": 6617,
      "à¤ħà¤¸à¤µà¤¤": 6618,
      "Ġ1301": 6619,
      "à¤Ĩà¤Īà¤ıà¤¸à¤Ł": 6620,
      "à¤Ĩà¤Īà¤ıà¤¸à¤ĵà¤¸": 6621,
      "Ġ2900": 6622,
      "à¥¬à¥ªà¥§": 6623,
      "Ġà¥ªà¥¯à¥¦": 6624,
      "Ġ342": 6625,
      "Ġà¥¬à¥®à¥¬": 6626,
      "Ġà¥¬à¥®à¥Ń": 6627,
      "Ġ1803": 6628,
      "Ġ1808": 6629,
      "Ġ1504": 6630,
      "Ġà¥§à¥©à¥¦à¥¨à¥Ń": 6631,
      "1991": 6632,
      "1992": 6633,
      "1993": 6634,
      "1994": 6635,
      "1998": 6636,
      "Ġà¥¯à¥®à¥¯": 6637,
      "Ġà¥©à¥ªà¥¦à¥§": 6638,
      "1788": 6639,
      "atori": 6640,
      "mality": 6641,
      "ĠWABC": 6642,
      "ĠWnt": 6643,
      "ĠWAB": 6644,
      "ĠWinds": 6645,
      "Ġgiv": 6646,
      "Ġgro": 6647,
      "Ġtesla": 6648,
      "Ġtrial": 6649,
      "ĠâĤ¬": 6650,
      "à¤°à¤¬à¤°à¤ª": 6651,
      "à¤²à¤Łà¤ªà¤Ł": 6652,
      "Ġà¤¸à¤°à¤«à¤°": 6653,
      "à¤ªà¤¹à¤ļ": 6654,
      "Ġà¤ħà¤Łà¤ķà¤¨": 6655,
      "à¤¶à¤µà¤°à¤¨": 6656,
      "à¤¡à¤°à¤µà¤²": 6657,
      "à¤¡à¤°à¤µà¤¡": 6658,
      "à¤ļà¤ªà¤¦à¤¸": 6659,
      "à¤ĩà¤ªà¤°à¤Ĺ": 6660,
      "à¤ĩà¤ªà¤°à¤¬": 6661,
      "Ġà¥«à¥¨à¥¨à¥©": 6662,
      "Ġà¥Ńà¥§à¥©à¥¦": 6663,
      "Ġ584": 6664,
      "Ġ587": 6665,
      "Ġà¥®à¥®à¥«à¥©": 6666,
      "Ġà¥®à¥®à¥®à¥¯": 6667,
      "Ġà¥®à¥®à¥ªà¥®": 6668,
      "Ġ468": 6669,
      "à¥§à¥¯à¥®à¥«": 6670,
      "à¥§à¥¯à¥®à¥ª": 6671,
      "ĠCBSE": 6672,
      "278": 6673,
      "768": 6674,
      "833": 6675,
      "ARPANET": 6676,
      "ARTS": 6677,
      "ASL": 6678,
      "ENA": 6679,
      "ENR": 6680,
      "abriae": 6681,
      "ision": 6682,
      "oratori": 6683,
      "Ġvulcanology": 6684,
      "Ġvenues": 6685,
      "ĠÃİle": 6686,
      "à¤®à¤Łà¤¹à¤²": 6687,
      "à¤¦à¤¹à¤¶à¤¤": 6688,
      "Ġà¤¨à¤Ĺà¤°à¤µ": 6689,
      "à¤ľà¤¬à¤°à¤¨": 6690,
      "Ġà¤ħà¤ľà¤¨à¤¬": 6691,
      "Ġà¤ħà¤µà¤¨à¤¤": 6692,
      "à¤ļà¤¯à¤¨à¤¸à¤®": 6693,
      "Ġà¤ļà¤¹à¤ķà¤¤": 6694,
      "Ġà¤ļà¤¹à¤²à¤ķà¤¦à¤®": 6695,
      "à¤ĩà¤°à¤ķà¤ķ": 6696,
      "à¤ıà¤¸à¤ıà¤®à¤µ": 6697,
      "à¥«à¥®à¥Ń": 6698,
      "à¤ıà¤®à¤ĵà¤Ĩà¤Īà¤ı": 6699,
      "à¤Ĩà¤°à¤ıà¤«à¤Ĩà¤Ī": 6700,
      "Ġ3300": 6701,
      "Ġà¤ıà¤®à¤ıà¤ļà¤¸": 6702,
      "Ġà¤ıà¤®à¤ıà¤ļà¤ıà¤¨": 6703,
      "à¤ıà¤¨à¤ıà¤ļà¤Ĩà¤°à¤ıà¤®": 6704,
      "Ġà¥®à¥¦à¥¦à¥¦à¥¦": 6705,
      "Ġà¤ıà¤«à¤ıà¤¸à¤ıà¤²à¤ıà¤¨": 6706,
      "à¥¯à¥¬à¥¬": 6707,
      "Ġ1186": 6708,
      "Ġ1187": 6709,
      "Ġà¥¯à¥Ńà¥®": 6710,
      "Ġà¥¯à¥Ńà¥«à¥§": 6711,
      "à¥§à¥¯à¥ªà¥¦": 6712,
      "lish": 6713,
      "ÎµÎ½Î³": 6714,
      "1185": 6715,
      "596": 6716,
      "698": 6717,
      "III": 6718,
      "ISS": 6719,
      "Î³ÎµÎ½Î³": 6720,
      "Î¿ÏĤ": 6721,
      "Î¿Ïģ": 6722,
      "éĻ¢": 6723,
      "éĻ³ä": 6724,
      "Ġ:-": 6725,
      "ĠRP": 6726,
      "ĠReg": 6727,
      "Ġåħĥ": 6728,
      "ĠåĪ¶": 6729,
      "Ġand": 6730,
      "Ġintelli": 6731,
      "Ġmagis": 6732,
      "Ġmass": 6733,
      "ĠBPP": 6734,
      "Ġà¤©à¤¯": 6735,
      "à¤®à¤°à¤¨à¤ľ": 6736,
      "Ġà¤¨à¤µà¤²à¤ķà¤°": 6737,
      "Ġà¤µà¤ļà¤¨à¤¬à¤¦": 6738,
      "Ġà¤°à¤¥à¤¯": 6739,
      "à¤ıà¤Ĩà¤Īà¤ıà¤®à¤Ĩà¤Īà¤ıà¤®": 6740,
      "à¤¬à¤¶à¤°à¤¤": 6741,
      "à¤¬à¤²à¤¬à¤®": 6742,
      "à¤§à¤Ĺà¤¯": 6743,
      "Ġà¤īà¤Ľà¤²à¤ķà¤°": 6744,
      "Ġà¤ļà¤®à¤ļà¤®": 6745,
      "à¤ĸà¤¤à¤°à¤¨": 6746,
      "à¤īà¤ªà¤¨à¤Ĺà¤°": 6747,
      "à¤Ĩà¤īà¤Łà¤°": 6748,
      "à¤Ĩà¤īà¤Łà¤²": 6749,
      "Ġà¤ħà¤²à¤¬à¤°à¤¦": 6750,
      "à¥ªà¥®à¥¨": 6751,
      "à¥Ńà¥¦à¥§": 6752,
      "Ġà¥¬à¥Ńà¥®à¥«": 6753,
      "Ġ5914": 6754,
      "Ġà¥®à¥¯à¥§à¥¨": 6755,
      "Ġ4800": 6756,
      "Ġ4813": 6757,
      "Ġà¥§à¥§à¥¨à¥¨à¥¦": 6758,
      "Ġ687": 6759,
      "Ġ1603": 6760,
      "Ġà¥¯à¥¯à¥ª": 6761,
      "Ġà¥¯à¥¯à¥¯": 6762,
      "Ġ1361": 6763,
      "ĠCEO": 6764,
      "ĠMEPs": 6765,
      "ĠSITA": 6766,
      "Ġctà¤¡": 6767,
      "Ġtotius": 6768,
      "PZPN": 6769,
      "PZPR": 6770,
      "ÎºÏĦÎµÎ½": 6771,
      "-Â£": 6772,
      "1402": 6773,
      "786": 6774,
      "AIDS": 6775,
      "Aoun": 6776,
      "Daesh": 6777,
      "DECnet": 6778,
      "France": 6779,
      "Hariri": 6780,
      "Huawe": 6781,
      "IRENA": 6782,
      "LUISS": 6783,
      "NATO": 6784,
      "RECO": 6785,
      "TUMAS": 6786,
      "VLRs": 6787,
      "coni": 6788,
      "dzki": 6789,
      "equinox": 6790,
      "fermion": 6791,
      "gence": 6792,
      "ievalis": 6793,
      "less": 6794,
      "mannor": 6795,
      "not": 6796,
      "primality": 6797,
      "stices": 6798,
      "solstices": 6799,
      "volcanology": 6800,
      "Î¾ÏįÏĤ": 6801,
      "ÏĨÎ¿Ïģ": 6802,
      "å¯ĨéĻ¢": 6803,
      "æ¨ŀå¯ĨéĻ¢": 6804,
      "Ġorientalis": 6805,
      "ĠÎºÏĦÎµÎ¯ÏĤ": 6806,
      "ĠBQP": 6807,
      "Ġdivision": 6808,
      "Ġhebben": 6809,
      "Ġmedievalis": 6810,
      "Ġraise": 6811,
      "Ġwjjt": 6812,
      "Ġá½ĢÎ¾ÏįÏĤ": 6813,
      "ĠéĢļ": 6814,
      "à¤°à¤ĺà¤£": 6815,
      "à¤ķà¤łà¤ª": 6816,
      "à¤ķà¤¹à¤²à¤Ĺ": 6817,
      "Ġà¤¸à¤ĺà¤¨à¤¤": 6818,
      "à¤¹à¤µà¤²à¤¦": 6819,
      "Ġà¤®à¤Ŀà¤Ĺ": 6820,
      "Ġà¤®à¤¶à¤°à¤ĸ": 6821,
      "Ġà¤ªà¤¨à¤µà¤²à¤ķà¤°": 6822,
      "à¤µà¤²à¤¨à¤¶": 6823,
      "à¥Ī]à¥¤)": 6824,
      "Ġà¤¬à¤£à¤Ĺ": 6825,
      "Ġà¤¬à¤°à¤¦à¤¹": 6826,
      "à¤ľà¤¦à¤°à¤¬": 6827,
      "à¥ĭà¤Ĥ......'": 6828,
      "à¤Łà¤¬à¤¹à¤¬": 6829,
      "Ġà¤ħà¤°à¤®à¤¬": 6830,
      "Ġà¤ħà¤ªà¤¤à¤Ł": 6831,
      "Ġà¤°à¤¦à¤°à¤«": 6832,
      "à¤ıà¤ĵà¤¨": 6833,
      "à¤ıà¤ħà¤°à¤ª": 6834,
      "Ġà¤²à¤¥à¤ªà¤¥": 6835,
      "Ġà¤²à¤¹à¤¤à¤²": 6836,
      "Ġà¤Ĺà¤Ĺà¤¨à¤¦": 6837,
      "à¤·à¤ļà¤²à¤ªà¤¤": 6838,
      "Ġà¤īà¤Ŀà¤µ": 6839,
      "Ġà¤ªà¤°à¤¸à¤²à¤Ĺ": 6840,
      "Ġà¤ıà¤ıà¤«à¤ıà¤¸à¤ª": 6841,
      "Ġà¤ıà¤ıà¤²à¤ıà¤ļ": 6842,
      "Ġà¤ıà¤Ķà¤¨": 6843,
      "Ġà¤¶à¤¯à¤¨à¤¯": 6844,
      "Ġà¤ĩà¤¸à¤°à¤¤à¤ľà¤¹": 6845,
      "Ġà¤ĸà¤²à¤¬à¤²": 6846,
      "Ġà¤«à¤°à¤¹à¤¤": 6847,
      "à¤łà¤¹à¤°à¤¨": 6848,
      "à¥¦à¥¨à¥©à¥©à¥©à¥¬": 6849,
      "Ġà¤¡à¤Ĺà¤²à¤¸": 6850,
      "Ġà¤¡à¤²à¤®à¤Ĭ": 6851,
      "Ġ1192": 6852,
      "à¤ıà¤¸à¤Ĩà¤°à¤Ī": 6853,
      "à¤Ĩà¤Īà¤ıà¤¸à¤ıà¤ª": 6854,
      "Ġà¤Ĩà¤Īà¤ıà¤«à¤ıà¤¸": 6855,
      "Ġà¤ıà¤¨à¤ıà¤ļà¤ıà¤²": 6856,
      "à¤ıà¤®à¤ıà¤«à¤ıà¤¨": 6857,
      "à¤ıà¤®à¤ıà¤ļà¤¸": 6858,
      "Ġà¥«à¥¯à¥§à¥¯": 6859,
      "Ġà¥«à¥§à¥Ńà¥ª": 6860,
      "à¥®à¥¨à¥®à¥¯à¥¯": 6861,
      "à¥Ńà¥®à¥§à¥ª": 6862,
      "Ġà¥¬à¥§à¥¬à¥®": 6863,
      "Ġà¥¬à¥®à¥¦à¥®à¥¦à¥Ńà¥¨": 6864,
      "Ġà¥¬à¥©à¥¬à¥«": 6865,
      "Ġà¥Ńà¥¯à¥§à¥§": 6866,
      "Ġà¥Ńà¥¯à¥Ńà¥«": 6867,
      "Ġà¥®à¥¨à¥®à¥Ńà¥®à¥§à¥ª": 6868,
      "Ġà¥®à¥¯à¥¯à¥«": 6869,
      "Ġ4657": 6870,
      "Ġà¥¯à¥«à¥ªà¥§": 6871,
      "Ġà¥§à¥Ńà¥¦à¥®à¥Ń": 6872,
      "Ġ9571": 6873,
      "Ġà¥¯à¥§à¥ªà¥«": 6874,
      "ĠApuliae": 6875,
      "Ġà¥©à¥¨à¥¯à¥©à¥¨à¥¯": 6876,
      "onMobil": 6877,
      "ĠItaliae": 6878,
      "ĠInternet": 6879,
      "ĠPersia": 6880,
      "ĠPittard": 6881,
      "esque": 6882,
      "Ġà¥©à¥©à¥©à¥¬à¥¦à¥¨à¥©à¥©à¥©à¥¬": 6883,
      "Ġà¥©à¥©à¥¬à¥§à¥«à¥¨": 6884,
      "ĠDTIME": 6885,
      "ĠDrogo": 6886,
      "ĠNASCAR": 6887,
      "ĠNENBSE": 6888,
      "ĠNormannor": 6889,
      "ĠNSFNET": 6890,
      "ĠCalabriae": 6891,
      "ĠCISCE": 6892,
      "ĠMarconi": 6893,
      "ĠMiasma": 6894,
      "ĠENEL": 6895,
      "ĠEnglish": 6896,
      "ĠEmicro": 6897,
      "ĠExxonMobil": 6898,
      "ĠLaboratori": 6899,
      "ĠQwest": 6900,
      "ĠSabbat": 6901,
      "ĠSullivan": 6902,
      "ĠSkyclad": 6903,
      "ĠVallum": 6904,
      "SPIEGEL": 6905,
      "ĠTsui": 6906,
      "Ġcomesque": 6907,
      "ĠHeedless": 6908,
      "ĠHeritage": 6909,
      "ĠXXXIII": 6910,
      "ĠGCSB": 6911,
      "ĠWABD": 6912,
      "Ġgiven": 6913,
      "Ġgrodzki": 6914,
      "Î³ÎµÎ½Î³Îµ": 6915,
      "éĻ³äº¬à¤ļ": 6916,
      "ĠRegio": 6917,
      "Ġintelligence": 6918,
      "Ġmagister": 6919,
      "Huawei": 6920,
      "equinoxes": 6921,
      "fermions": 6922,
      "ÏĨÎ¿ÏģÎ¿ÏĤ": 6923,
      "Ġà¥©à¥©à¥©à¥¬à¥¦à¥¨à¥©à¥©à¥©à¥¬à¥¦à¥¨": 6924,
      "ĠNormannorum": 6925,
      "ĠLaboratories": 6926
    },
    "merges": [
      [
        "à",
        "¤"
      ],
      [
        "Ġ",
        "à¤"
      ],
      [
        "à",
        "¥"
      ],
      [
        "à¤",
        "¾"
      ],
      [
        "à¥",
        "ĩ"
      ],
      [
        "à¤",
        "°"
      ],
      [
        "Ġà¤",
        "ķ"
      ],
      [
        "à¥",
        "į"
      ],
      [
        "à¤",
        "¿"
      ],
      [
        "à¤",
        "Ĥ"
      ],
      [
        "à¥",
        "Ģ"
      ],
      [
        "à¤",
        "¨"
      ],
      [
        "à¥",
        "ĭ"
      ],
      [
        "à¤",
        "¤"
      ],
      [
        "à¤",
        "ķ"
      ],
      [
        "à¤",
        "¯"
      ],
      [
        "à¤",
        "²"
      ],
      [
        "à¤",
        "¸"
      ],
      [
        "Ġà¤",
        "¸"
      ],
      [
        "à¤",
        "¹"
      ],
      [
        "Ġà¤",
        "®"
      ],
      [
        "à¤",
        "®"
      ],
      [
        "Ġà¤",
        "¹"
      ],
      [
        "Ġà¤",
        "ª"
      ],
      [
        "à¥",
        "ģ"
      ],
      [
        "à¤",
        "µ"
      ],
      [
        "à¥",
        "Ī"
      ],
      [
        "Ġ",
        "à¥"
      ],
      [
        "à¤",
        "¦"
      ],
      [
        "à¥ĩ",
        "à¤Ĥ"
      ],
      [
        "Ġà¤",
        "¨"
      ],
      [
        "Ġà¥",
        "¤"
      ],
      [
        "à¤",
        "ª"
      ],
      [
        "à¤",
        "Ĺ"
      ],
      [
        "Ġà¤",
        "¬"
      ],
      [
        "à¤",
        "ľ"
      ],
      [
        "à¥ĭ",
        "à¤Ĥ"
      ],
      [
        "à¤",
        "Ł"
      ],
      [
        "Ġà¤",
        "¦"
      ],
      [
        "Ġà¤",
        "ľ"
      ],
      [
        "Ġà¤",
        "µ"
      ],
      [
        "Ġà¤",
        "ħ"
      ],
      [
        "à¥",
        "Ĥ"
      ],
      [
        "Ġà¤",
        "°"
      ],
      [
        "à¤",
        "ı"
      ],
      [
        "Ġà¤",
        "²"
      ],
      [
        "à¤",
        "¬"
      ],
      [
        "à¤",
        "¶"
      ],
      [
        "à¤",
        "¡"
      ],
      [
        "à¤",
        "§"
      ],
      [
        "Ġà¤",
        "Ĺ"
      ],
      [
        "à¤",
        "ļ"
      ],
      [
        "à¤",
        "·"
      ],
      [
        "Ġà¤ķ",
        "à¤°"
      ],
      [
        "Ġà¤",
        "ī"
      ],
      [
        "Ġà¤",
        "¤"
      ],
      [
        "Ġà¤",
        "Ĩ"
      ],
      [
        "Ġà¤",
        "Ń"
      ],
      [
        "à¤",
        "Ī"
      ],
      [
        "Ġà¤ª",
        "à¤°"
      ],
      [
        "Ġà¤",
        "ĩ"
      ],
      [
        "Ġà¤",
        "Ķ"
      ],
      [
        "à¤",
        "¼"
      ],
      [
        "Ġà¤Ķ",
        "à¤°"
      ],
      [
        "à¤",
        "¥"
      ],
      [
        "à¤¾",
        "à¤Ĥ"
      ],
      [
        "Ġà¤",
        "ı"
      ],
      [
        "à¤",
        "£"
      ],
      [
        "Ġà¤",
        "ļ"
      ],
      [
        "Ġà¤",
        "¯"
      ],
      [
        "à¤",
        "ĸ"
      ],
      [
        "à¤",
        "Ń"
      ],
      [
        "Ġà¤",
        "¶"
      ],
      [
        "à¥Ī",
        "à¤Ĥ"
      ],
      [
        "à¤",
        "«"
      ],
      [
        "Ġà¤",
        "¥"
      ],
      [
        "Ġà¤ĩ",
        "à¤¸"
      ],
      [
        "à¤",
        "ĩ"
      ],
      [
        "Ġà¤ķ",
        "à¤¹"
      ],
      [
        "à¥",
        "Į"
      ],
      [
        "à¤°",
        "à¤¤"
      ],
      [
        "à¤°",
        "à¤ķ"
      ],
      [
        "à¥Ģ",
        "à¤Ĥ"
      ],
      [
        "Ġà¤",
        "ĸ"
      ],
      [
        "Ġà¤°",
        "à¤¹"
      ],
      [
        "Ġà¤",
        "«"
      ],
      [
        "Ġà¤¸",
        "à¤®"
      ],
      [
        "Ġà¤ı",
        "à¤ķ"
      ],
      [
        "à¤ķ",
        "à¤°"
      ],
      [
        "Ġà¤¨",
        "à¤¹"
      ],
      [
        "Ġà¤ī",
        "à¤¨"
      ],
      [
        "à¤ª",
        "à¤¨"
      ],
      [
        "Ġà¤ķà¤°",
        "à¤¨"
      ],
      [
        "à¥",
        "¤"
      ],
      [
        "à¤¿",
        "à¤Ĥ"
      ],
      [
        "Ġà¤Ĺ",
        "à¤¯"
      ],
      [
        "à¤",
        "ł"
      ],
      [
        "à¤",
        "ī"
      ],
      [
        "à¤ĩ",
        "à¤¸"
      ],
      [
        "Ġ",
        "-"
      ],
      [
        "Ġà¤¯",
        "à¤¹"
      ],
      [
        "à¤",
        "Ľ"
      ],
      [
        "à¤",
        "Ĩ"
      ],
      [
        "à¥",
        "ī"
      ],
      [
        "à¥",
        "¦"
      ],
      [
        "à¤¤",
        "à¤°"
      ],
      [
        "à¤¯",
        "à¤ķ"
      ],
      [
        "Ġà¤ª",
        "à¤¹"
      ],
      [
        "Ġà¤ħ",
        "à¤§"
      ],
      [
        "à¥",
        "ĥ"
      ],
      [
        "à¤",
        "ĵ"
      ],
      [
        "Ġà¤ħ",
        "à¤ªà¤¨"
      ],
      [
        "à¤ľ",
        "à¤¨"
      ],
      [
        "Ġà¤ħ",
        "à¤¨"
      ],
      [
        "Ġà¤",
        "Ł"
      ],
      [
        "Ġà¤¸",
        "à¤°à¤ķ"
      ],
      [
        "Ġà¤",
        "¡"
      ],
      [
        "Ġà¤",
        "ĺ"
      ],
      [
        "à¤ī",
        "à¤¨"
      ],
      [
        "à¤µ",
        "à¤°"
      ],
      [
        "Ġà¤²",
        "à¤Ĺ"
      ],
      [
        "Ġà¤ī",
        "à¤¸"
      ],
      [
        "à¤¼",
        "à¤¾"
      ],
      [
        "Ġà¤®",
        "à¤¹"
      ],
      [
        "Ġà¤¸",
        "à¤ķ"
      ],
      [
        "à¤¹",
        "à¤°"
      ],
      [
        "à¤®",
        "à¤²"
      ],
      [
        "Ġà¤¤",
        "à¤ķ"
      ],
      [
        "à¤°",
        "à¤®"
      ],
      [
        "Ġà¤¬",
        "à¤¨"
      ],
      [
        "à¤",
        "¢"
      ],
      [
        "à¤",
        "ģ"
      ],
      [
        "à¤",
        "ħ"
      ],
      [
        "Ġà¤Ĺ",
        "à¤Ī"
      ],
      [
        "à¤°",
        "à¤£"
      ],
      [
        "à¤¨",
        "à¤®"
      ],
      [
        "Ġà¤Ĺ",
        "à¤ı"
      ],
      [
        "Ġà¤¬",
        "à¤¤"
      ],
      [
        "Ġà¤īà¤¨",
        "à¤ķ"
      ],
      [
        "à¤²",
        "à¤¨"
      ],
      [
        "à¤¾",
        ","
      ],
      [
        "à¤Ł",
        "à¤°"
      ],
      [
        "Ġ",
        "("
      ],
      [
        "Ġà¤µ",
        "à¤¹"
      ],
      [
        "Ġà¤",
        "Ľ"
      ],
      [
        "Ġà¥",
        "§"
      ],
      [
        "à¤¶",
        "à¤¨"
      ],
      [
        "Ġà¤",
        "§"
      ],
      [
        "à¤°",
        "à¤µ"
      ],
      [
        "Ġà¤µ",
        "à¤°"
      ],
      [
        "Ġà¤ªà¤¹",
        "à¤²"
      ],
      [
        "à¤°",
        "à¤¹"
      ],
      [
        "à¤¸",
        "à¤°"
      ],
      [
        "à¤°",
        "à¤¦"
      ],
      [
        "à¤¸",
        "à¤²"
      ],
      [
        "à¤°",
        "à¤¸"
      ],
      [
        "à¥ģ",
        "à¤Ĥ"
      ],
      [
        "Ġà¤ķà¤°",
        "à¤¤"
      ],
      [
        "Ġà¤¸à¤ķ",
        "à¤¤"
      ],
      [
        "à¤ª",
        "à¤¤"
      ],
      [
        "à¤¯",
        "à¤®"
      ],
      [
        "à¤¾",
        "à¤ģ"
      ],
      [
        "Ġà¤Ĩ",
        "à¤¯"
      ],
      [
        "à¤²",
        "à¤¤"
      ],
      [
        "Ġà¤ħ",
        "à¤²"
      ],
      [
        "Ġà¤ķ",
        "à¤®"
      ],
      [
        "à¤¬",
        "à¤°"
      ],
      [
        "Ġà¤ī",
        "à¤ª"
      ],
      [
        "Ġà¥",
        "¨"
      ],
      [
        "à¤²",
        "à¤¯"
      ],
      [
        "à¤¸",
        "à¤¦"
      ],
      [
        "Ġ",
        "1"
      ],
      [
        "Ġà¥§",
        "à¥"
      ],
      [
        "à¤Ĺ",
        "à¤°"
      ],
      [
        "à¤Ł",
        "à¤¨"
      ],
      [
        "à¥Ī",
        ","
      ],
      [
        "à¤ª",
        "à¤°"
      ],
      [
        "Ġà¤Ĩ",
        "à¤°"
      ],
      [
        "à¤¼",
        "à¥Ģ"
      ],
      [
        "à¤¹",
        "à¤¤"
      ],
      [
        "à¤ı",
        "à¤Ĺ"
      ],
      [
        "à¤¨",
        "à¤ķ"
      ],
      [
        "à¤¯",
        "à¤°"
      ],
      [
        "à¤¾",
        "à¥¤"
      ],
      [
        "Ġà¤¬",
        "à¤¢"
      ],
      [
        "Ġà¤¸",
        "à¤¹"
      ],
      [
        "à¥Ī",
        "à¥¤"
      ],
      [
        "à¤ĩà¤¸",
        "à¤ķ"
      ],
      [
        "à¤°",
        "à¤§"
      ],
      [
        "Ġà¤ī",
        "à¤¤"
      ],
      [
        "à¤¸",
        "à¤®"
      ],
      [
        "à¤",
        "ĺ"
      ],
      [
        "Ġà¤ħ",
        "à¤®"
      ],
      [
        "à¤",
        "Ŀ"
      ],
      [
        "Ġà¤ĩà¤¸",
        "à¤ķ"
      ],
      [
        "à¤Ĺ",
        "à¤²"
      ],
      [
        "Ġà¤ħ",
        "à¤Ń"
      ],
      [
        "Ġà¤°",
        "à¤ĸ"
      ],
      [
        "à¤ľ",
        "à¤ª"
      ],
      [
        "à¤®",
        "à¤¨"
      ],
      [
        "Ġà¤Ĩ",
        "à¤¤"
      ],
      [
        "à¤·",
        "à¤£"
      ],
      [
        "Ġà¤¦",
        "à¤°"
      ],
      [
        "à¤¯",
        "à¤¹"
      ],
      [
        "Ġà¤¸à¤®",
        "à¤¯"
      ],
      [
        "à¤¼",
        "à¥ĩ"
      ],
      [
        "Ġà¤ª",
        "à¤¤"
      ],
      [
        "à¥Ģ",
        ","
      ],
      [
        "à¥Ģ",
        "."
      ],
      [
        "à¤®",
        "à¤¤"
      ],
      [
        "à¥¦",
        "à¥¦"
      ],
      [
        "Ġà¤¤",
        "à¤°à¤¹"
      ],
      [
        "à¤¸",
        "à¤¨"
      ],
      [
        "à¤¯",
        "à¤¤"
      ],
      [
        "Ġà¤ħ",
        "à¤¬"
      ],
      [
        "Ġà¤ľ",
        "à¤¨"
      ],
      [
        "à¤ı",
        "à¤¸"
      ],
      [
        "Ġà¤ľ",
        "à¤¬"
      ],
      [
        "Ġà¤¸",
        "à¤¦"
      ],
      [
        "Ġà¤ľ",
        "à¤°"
      ],
      [
        "à¤Ĩ",
        "à¤Ī"
      ],
      [
        "Ġà¤ĩ",
        "à¤¨"
      ],
      [
        "Ġà¤¬",
        "à¤¹"
      ],
      [
        "Ġà¤¸",
        "à¤Ń"
      ],
      [
        "à¤µ",
        "à¤¨"
      ],
      [
        "Ġà¤",
        "ĵ"
      ],
      [
        "à¤¦",
        "à¤°"
      ],
      [
        "Ġà¤īà¤¸",
        "à¤ķ"
      ],
      [
        "Ġà¤ķ",
        "à¤Ī"
      ],
      [
        "à¤¯",
        "à¤¨"
      ],
      [
        "à¤¬",
        "à¤¸"
      ],
      [
        "Ġà¤ļ",
        "à¤²"
      ],
      [
        "à¤ļ",
        "à¤¨"
      ],
      [
        "à¤ĩ",
        "à¤¨"
      ],
      [
        "Ġà¤ª",
        "à¤¡"
      ],
      [
        "Ġà¤",
        "Ĳ"
      ],
      [
        "Ġà¤¹",
        "à¤®"
      ],
      [
        "Ġ",
        "'"
      ],
      [
        "à¤¹",
        "à¤¨"
      ],
      [
        "à¤¸",
        "à¤Ń"
      ],
      [
        "à¤ľ",
        "à¤°"
      ],
      [
        "à¤ł",
        "à¤ķ"
      ],
      [
        "à¤°",
        "à¤«"
      ],
      [
        "Ġà¤¦",
        "à¤²"
      ],
      [
        "0",
        "0"
      ],
      [
        "à¤µ",
        "à¤¸"
      ],
      [
        "à¤Ĺ",
        "à¤¤"
      ],
      [
        "à¤§",
        "à¤¨"
      ],
      [
        "à¤",
        "ŀ"
      ],
      [
        "Ġà¤ľ",
        "à¤®"
      ],
      [
        "Ġà¤",
        "ĳ"
      ],
      [
        "à¤ª",
        "à¤ķ"
      ],
      [
        "Ġà¤ķà¤¹",
        "à¤¨"
      ],
      [
        "à¥",
        "«"
      ],
      [
        "Ġà¤¬",
        "à¤ļ"
      ],
      [
        "à¤ķ",
        "à¤²"
      ],
      [
        "à¤¸",
        "à¤ķ"
      ],
      [
        "à¤Ľ",
        "à¤²"
      ],
      [
        "à¤¶",
        "à¤ķ"
      ],
      [
        "à¤²",
        "à¤¬"
      ],
      [
        "à¤ª",
        "à¤¯"
      ],
      [
        "à¥Ī",
        "."
      ],
      [
        "Ġà¤¬",
        "à¤¡"
      ],
      [
        "à¥ĩ",
        "."
      ],
      [
        "Ġà¤¸",
        "à¤°"
      ],
      [
        "Ġà¤Ĳ",
        "à¤¸"
      ],
      [
        "Ġ",
        "2"
      ],
      [
        "à¤®",
        "à¤¦"
      ],
      [
        "Ġà¤ī",
        "à¤®"
      ],
      [
        "¯",
        "à¥"
      ],
      [
        "Ġà¤ª",
        "à¤¦"
      ],
      [
        "Ġà¤Ĩ",
        "à¤Ī"
      ],
      [
        "Ġà¤¬",
        "à¤ľ"
      ],
      [
        "Ġà¤ı",
        "à¤¸"
      ],
      [
        "Ġà¤¸à¤¦",
        "à¤¸"
      ],
      [
        "à¤¤",
        "à¤¨"
      ],
      [
        "Ġà¤ĵ",
        "à¤°"
      ],
      [
        "à¥ĩ",
        ","
      ],
      [
        "à¤ª",
        "à¤¸"
      ],
      [
        "à¤ķ",
        "à¤¤"
      ],
      [
        "à¤ľ",
        "à¤¬"
      ],
      [
        "Ġà¤ħ",
        "à¤ª"
      ],
      [
        "à¤°",
        "à¤Ń"
      ],
      [
        "Ġà¤Ĩ",
        "à¤§"
      ],
      [
        "à¥",
        "§"
      ],
      [
        "Ġà¤¸",
        "à¤¬à¤¸"
      ],
      [
        "à¤¨",
        "à¤¤"
      ],
      [
        "Ġà¤ħ",
        "à¤µ"
      ],
      [
        "Ġà¤¹",
        "à¤°"
      ],
      [
        "Ġà¤Ĩ",
        "à¤Ĺ"
      ],
      [
        "à¤µ",
        "à¤¹"
      ],
      [
        "à¤ł",
        "à¤¨"
      ],
      [
        "à¤Ł",
        "à¤²"
      ],
      [
        "Ġà¤ķ",
        "à¤¶"
      ],
      [
        "Ġà¤",
        "ł"
      ],
      [
        "Ġà¤",
        "Ŀ"
      ],
      [
        "Ġà¤®",
        "à¤¦"
      ],
      [
        "Ġà¤Ń",
        "à¤°"
      ],
      [
        "à¤°",
        "à¤¶"
      ],
      [
        "Ġà¤ĩ",
        "à¤²"
      ],
      [
        "à¥Īà¤Ĥ",
        ","
      ],
      [
        "à¥Īà¤Ĥ",
        "à¥¤"
      ],
      [
        "à¥",
        "¨"
      ],
      [
        "à¤®",
        "à¤ķ"
      ],
      [
        "à¤µ",
        "à¤¤"
      ],
      [
        "Ġà¤¤",
        "à¤¥"
      ],
      [
        "Ġà¤ľ",
        "à¤µ"
      ],
      [
        "Ġà¤ĸ",
        "à¤°"
      ],
      [
        "Ġà¥",
        "©"
      ],
      [
        "Ġà¤¸à¤®",
        "à¤°"
      ],
      [
        "à¤¯",
        "à¤²"
      ],
      [
        "Ġà¤ī",
        "à¤ł"
      ],
      [
        "à¤Ł",
        "à¤ķ"
      ],
      [
        "à¤¨",
        "à¤µ"
      ],
      [
        "Ġà¤ħ",
        "à¤°"
      ],
      [
        "à¤ķà¤°",
        "à¤£"
      ],
      [
        "â",
        "Ģ"
      ],
      [
        "à¥",
        "ª"
      ],
      [
        "Ġà¤¬",
        "à¤°"
      ],
      [
        "Ġà¤ī",
        "à¤¦"
      ],
      [
        "Ġà¤¬",
        "à¤¦"
      ],
      [
        "à¤¤",
        "à¤ļ"
      ],
      [
        "à¤¹",
        "à¤®"
      ],
      [
        "à¤°",
        "à¤ªà¤¤"
      ],
      [
        "Ġà¤Ĩ",
        "à¤¦"
      ],
      [
        "à¥",
        "©"
      ],
      [
        "Ġà¥¨",
        "à¥¦à¥¦"
      ],
      [
        "Ġà¤Ĩ",
        "à¤¨"
      ],
      [
        "à¤ĸ",
        "à¤¨"
      ],
      [
        "Ġà¤Ĩ",
        "à¤ľ"
      ],
      [
        "Ġà¤ª",
        "à¤ķ"
      ],
      [
        "Ġà¤¸",
        "à¤¤"
      ],
      [
        "à¤¬",
        "à¤²"
      ],
      [
        "Ġà¤Ĩ",
        "à¤µ"
      ],
      [
        "Ġà¤ķ",
        "à¤²"
      ],
      [
        "Ġà¤ľ",
        "à¤²"
      ],
      [
        "à¤µ",
        "à¤²"
      ],
      [
        "Ġà¤ħà¤²",
        "à¤Ĺ"
      ],
      [
        "à¤ķ",
        "à¤¨"
      ],
      [
        "Ġà¤¸",
        "à¤ļ"
      ],
      [
        "à¤ľ",
        "à¤Ĺ"
      ],
      [
        "Ġà¤µ",
        "à¤ķ"
      ],
      [
        "à¤¾",
        "."
      ],
      [
        "Ġà¤",
        "Ĭ"
      ],
      [
        "à¤°",
        "à¤¯"
      ],
      [
        "Ġà¤ħ",
        "à¤¸"
      ],
      [
        "à¤°",
        "à¤¨"
      ],
      [
        "à¤¯",
        "à¤ª"
      ],
      [
        "à¤¨",
        "à¤¨"
      ],
      [
        "à¤¦",
        "à¤¨"
      ],
      [
        "Ġ1",
        "9"
      ],
      [
        "Ġà¤¹",
        "à¤µ"
      ],
      [
        "Ġà¤¤",
        "à¤¹à¤¤"
      ],
      [
        "à¤¥",
        "à¤¨"
      ],
      [
        "Ġà¤ħ",
        "à¤ķ"
      ],
      [
        "à¥Ĥ",
        "à¤Ĥ"
      ],
      [
        "à¤¡",
        "à¤²"
      ],
      [
        "Ġà¤ħ",
        "à¤¦"
      ],
      [
        "à¤¯",
        "à¤¦"
      ],
      [
        "Ġà¤¹",
        "à¤®à¤²"
      ],
      [
        "Ġà¤ı",
        "à¤¨"
      ],
      [
        "à¤¼",
        "à¤¿"
      ],
      [
        "Ġà¤¬",
        "à¤¯"
      ],
      [
        "Ġà¤¬",
        "à¤²"
      ],
      [
        "à¤ľ",
        "à¤¹"
      ],
      [
        "à¤ľ",
        "à¤¦"
      ],
      [
        "Ġà¤²",
        "à¤¡"
      ],
      [
        "à¤®",
        "à¤°"
      ],
      [
        "Ġà¤ĺ",
        "à¤Łà¤¨"
      ],
      [
        "Ġà¤¸",
        "à¤µ"
      ],
      [
        "à¤°",
        "à¤²"
      ],
      [
        "à¤¸",
        "à¤ª"
      ],
      [
        "à¤§",
        "à¤µ"
      ],
      [
        "Ġà¤¹",
        "à¤ľ"
      ],
      [
        "à¥",
        "¬"
      ],
      [
        "à¥ĩà¤Ĥ",
        ","
      ],
      [
        "à¤¦",
        "à¤µ"
      ],
      [
        "à¤ľ",
        "à¤²"
      ],
      [
        "Ġà¤",
        "Ī"
      ],
      [
        "Ġà¤®",
        "à¤¤"
      ],
      [
        "à¤ı",
        "à¤®"
      ],
      [
        "Ġà¤¶",
        "à¤¹à¤°"
      ],
      [
        "Ġà¤ĺ",
        "à¤°"
      ],
      [
        "Ġà¤¤",
        "à¤°"
      ],
      [
        "à¤¯",
        "à¤µà¤¸"
      ],
      [
        "Ġà¤®",
        "à¤¨à¤®"
      ],
      [
        "Ġà¤¸à¤®",
        "à¤Ŀ"
      ],
      [
        "à¤¹",
        "à¤¸"
      ],
      [
        "à¤Ĩ",
        "à¤°"
      ],
      [
        "à¤ķ",
        "à¤µ"
      ],
      [
        "à¤²",
        "à¤ķ"
      ],
      [
        "à¤²",
        "à¤µ"
      ],
      [
        "Ġà¤Ĩ",
        "à¤¶"
      ],
      [
        "Ġà¤ļ",
        "à¤°"
      ],
      [
        "à¥Į",
        "à¤Ĥ"
      ],
      [
        "Ġà¥",
        "«"
      ],
      [
        "Ġà¤",
        "¢"
      ],
      [
        "à¤Ĺ",
        "à¤łà¤¨"
      ],
      [
        "Ġà¤Ĩ",
        "à¤ª"
      ],
      [
        "à¥Ģ",
        "à¥¤"
      ],
      [
        "Ġà¥",
        "ª"
      ],
      [
        "à¤®",
        "à¤µ"
      ],
      [
        "Ġà¤ľ",
        "à¤¹"
      ],
      [
        "à¤īà¤¨",
        "à¤ķ"
      ],
      [
        "à¤¸",
        "à¤µ"
      ],
      [
        "Ġà¤°",
        "à¤µ"
      ],
      [
        "à¤¬",
        "à¤Ī"
      ],
      [
        "à¤¡",
        "à¤°"
      ],
      [
        "Ġà¤®à¤¦",
        "à¤¦"
      ],
      [
        "à¤¡",
        "à¤µ"
      ],
      [
        "Ġ",
        "\""
      ],
      [
        "Ġà¤¸",
        "à¤²"
      ],
      [
        "à¥",
        "®"
      ],
      [
        "Ġà¤«",
        "à¤°"
      ],
      [
        "Ġà¤¶",
        "à¤°"
      ],
      [
        "âĢ",
        "į"
      ],
      [
        "Ġà¤®",
        "à¤¨"
      ],
      [
        "à¤¨",
        "à¤°"
      ],
      [
        "à¤ľ",
        "à¤¯"
      ],
      [
        "Ġà¤ľ",
        "à¤¤"
      ],
      [
        "à¤Ń",
        "à¤Ĺ"
      ],
      [
        "à¥",
        "Ń"
      ],
      [
        "Ġà¤¸à¤®",
        "à¤¸"
      ],
      [
        "à¤ĩà¤¸",
        "à¤¸"
      ],
      [
        "Ġà¤°à¤ĸ",
        "à¤¨"
      ],
      [
        "à¤ı",
        "à¤ķ"
      ],
      [
        "Ġà¥§à¥",
        "¯à¥"
      ],
      [
        "Ġà¤®à¤¹",
        "à¤¤"
      ],
      [
        "à¤Ĺà¤²",
        "à¤µ"
      ],
      [
        "Ġà¤ħ",
        "à¤¤"
      ],
      [
        "à¤¶",
        "à¤°"
      ],
      [
        "Ġà¤ī",
        "à¤ļ"
      ],
      [
        "à¥į",
        "âĢį"
      ],
      [
        "à¤ķ",
        "à¤ª"
      ],
      [
        "à¤¸",
        "à¤¤"
      ],
      [
        "Ġà¤ħ",
        "à¤ļ"
      ],
      [
        "à¤ı",
        "à¤«"
      ],
      [
        "à¤µ",
        "à¤ľ"
      ],
      [
        "à¤¦",
        "à¤®"
      ],
      [
        "à¤¨",
        "à¤¸à¤Ń"
      ],
      [
        "Ġà¤ª",
        "à¤¶"
      ],
      [
        "Ġà¤¦",
        "à¤¸"
      ],
      [
        "Ġà¤ĳ",
        "à¤«"
      ],
      [
        "à¤ķ",
        "à¤¸"
      ],
      [
        "à¤°",
        "à¤¬"
      ],
      [
        "Ġà¤ħ",
        "à¤«"
      ],
      [
        "à¤¤",
        "à¤®"
      ],
      [
        "à¤ĩ",
        "à¤Ł"
      ],
      [
        "à¥ĩ",
        "à¥¤"
      ],
      [
        "à¤¤",
        "à¤ķ"
      ],
      [
        "à¤°à¤¦",
        "à¤°"
      ],
      [
        "Ġà¤ı",
        "à¤ľ"
      ],
      [
        "Ġà¤Ĩ",
        "à¤ı"
      ],
      [
        "Ġà¤¹",
        "à¤¤"
      ],
      [
        "Ġà¤°",
        "à¤ķ"
      ],
      [
        "Ġà¤²à¤Ĺ",
        "à¤Ńà¤Ĺ"
      ],
      [
        "Ġà¤µ",
        "à¤ľà¤¹"
      ],
      [
        "Ġà¤ı",
        "à¤µ"
      ],
      [
        "Ġà¤¬à¤¦",
        "à¤²"
      ],
      [
        "Ġà¤¸à¤¹",
        "à¤¯"
      ],
      [
        "à¤¬",
        "à¤¹"
      ],
      [
        "à¤ĩ",
        "à¤²"
      ],
      [
        "Ġà¤°à¤¹",
        "à¤¨"
      ],
      [
        "Ġà¤ľà¤¬",
        "à¤ķ"
      ],
      [
        "Ġà¤¨",
        "à¤Ī"
      ],
      [
        "Ġà¤¤",
        "à¤¬"
      ],
      [
        "Ġà¤¨",
        "à¤ķ"
      ],
      [
        "Ġ",
        "3"
      ],
      [
        "à¤ĸ",
        "à¤°"
      ],
      [
        "à¤µ",
        "à¤ª"
      ],
      [
        "Ġà¤¬",
        "à¤¸"
      ],
      [
        "Ġà¤¦",
        "à¤ķ"
      ],
      [
        "à¤Ł",
        "à¤µà¤°"
      ],
      [
        "à¤Ĩ",
        "à¤¤"
      ],
      [
        "Ġà¤¹",
        "à¤Ł"
      ],
      [
        "Ġà¤ľ",
        "à¤Ĺ"
      ],
      [
        "Ġà¤ı",
        "à¤®"
      ],
      [
        "Ġà¤°à¤¹",
        "à¤¤"
      ],
      [
        "Ġà¤¦",
        "à¤¬"
      ],
      [
        "Ġà¤Ĺ",
        "à¤ł"
      ],
      [
        "Ġà¤Ĩ",
        "à¤®"
      ],
      [
        "Ġà¤¶",
        "à¤¨"
      ],
      [
        "Ġà¤ħ",
        "à¤Ĺà¤²"
      ],
      [
        "à¤ķ",
        "à¤Ł"
      ],
      [
        "Ġà¤®",
        "à¤§"
      ],
      [
        "Ġà¤Ĺ",
        "à¤°"
      ],
      [
        "à¤·",
        "à¤ķ"
      ],
      [
        "à¤ľà¤¬",
        "à¤ķ"
      ],
      [
        "à¤ľ",
        "à¤®"
      ],
      [
        "Ġà¤ľà¤¨",
        "à¤¤"
      ],
      [
        "à¤¨",
        "à¤²"
      ],
      [
        "Ġà¥",
        "¬"
      ],
      [
        "à¤¼",
        "à¥ĭà¤Ĥ"
      ],
      [
        "Ġà¤§",
        "à¤°"
      ],
      [
        "à¤§",
        "à¤°"
      ],
      [
        "Ġà¤¸",
        "à¤ª"
      ],
      [
        "Ġà¤¨",
        "à¤ı"
      ],
      [
        "à¤ı",
        "à¤²"
      ],
      [
        "à¤¨",
        "à¤¸"
      ],
      [
        "Ġà¤ħ",
        "à¤Ĺ"
      ],
      [
        "Ġà¤ªà¤°",
        "à¤®"
      ],
      [
        "à¤¥",
        "à¤²"
      ],
      [
        "Ġà¤īà¤ª",
        "à¤¯"
      ],
      [
        "Ġà¤īà¤¸",
        "à¤¨"
      ],
      [
        "à¤¿",
        ","
      ],
      [
        "à¥Ģ",
        ")"
      ],
      [
        "à¤ķ",
        "à¤¡"
      ],
      [
        "Ġà¤ī",
        "à¤¡"
      ],
      [
        "Ġà¤īà¤ª",
        "à¤²à¤¬"
      ],
      [
        "Ġà¤ī",
        "à¤²"
      ],
      [
        "Ġà¤Ĩ",
        "à¤¡à¤µ"
      ],
      [
        "Ġà¤®",
        "à¤¸à¤²"
      ],
      [
        "Ġà¤ĩ",
        "à¤¨à¤ķ"
      ],
      [
        "à¤µ",
        "à¤µ"
      ],
      [
        "Ġà¤Ĩ",
        "à¤¸"
      ],
      [
        "à¥Īà¤Ĥ",
        "."
      ],
      [
        "Ġà¤ĩà¤¸",
        "à¤¸"
      ],
      [
        "Ġà¤¸",
        "à¤«"
      ],
      [
        "à¤°à¤¤",
        "à¤²à¤¬"
      ],
      [
        "à¤ķ",
        "à¤¸à¤Ń"
      ],
      [
        "Ġà¤¸",
        "à¤¬"
      ],
      [
        "à¤Ĺ",
        "à¤®"
      ],
      [
        "à¤ı",
        "à¤¨"
      ],
      [
        "à¤ļ",
        "à¤²"
      ],
      [
        "Ġà¤¤",
        "à¤¯"
      ],
      [
        "à¤ĸ",
        "à¤¤"
      ],
      [
        "à¤¯",
        "à¤µ"
      ],
      [
        "à¤²",
        "à¤°"
      ],
      [
        "à¤",
        "ĥ"
      ],
      [
        "Ġà¤¤",
        "à¤²"
      ],
      [
        "à¤²",
        "à¤ķà¤°"
      ],
      [
        "Ġà¤Ľ",
        "à¤¹"
      ],
      [
        "à¤°",
        "à¤ª"
      ],
      [
        "Ġà¤ĩà¤¸",
        "à¤®"
      ],
      [
        "Ġà¤¹",
        "à¤²"
      ],
      [
        "Ġà¥",
        "Ń"
      ],
      [
        "Ġà¤ĩ",
        "à¤°"
      ],
      [
        "à¤ª",
        "à¤·"
      ],
      [
        "Ġà¤ļ",
        "à¤²à¤¤"
      ],
      [
        "à¤µ",
        "à¤ķ"
      ],
      [
        "à¤¼",
        "à¥ĭ"
      ],
      [
        "à¤£",
        "à¤¨"
      ],
      [
        "à¤¸",
        "à¤¸"
      ],
      [
        "à¤Ĺ",
        "à¤¨"
      ],
      [
        "à¤Ī",
        "à¤ķ"
      ],
      [
        "Ġà¤ľà¤Ĺ",
        "à¤¹"
      ],
      [
        "Ġà¤ķ",
        "à¤ª"
      ],
      [
        "à¤®",
        "à¤ļ"
      ],
      [
        "Ġà¤¨",
        "à¤µ"
      ],
      [
        "à¤°à¤µ",
        "à¤ķ"
      ],
      [
        "Ġà¤¬à¤ľ",
        "à¤Ł"
      ],
      [
        "Ġà¤ħ",
        "à¤Ĺà¤°"
      ],
      [
        "Ġà¤¯",
        "à¤¦"
      ],
      [
        "à¤¸",
        "à¤ļ"
      ],
      [
        "à¤ħ",
        "à¤®"
      ],
      [
        "à¤¸",
        "à¤°à¤ķ"
      ],
      [
        "Ġ2",
        "00"
      ],
      [
        "à¤²",
        "à¤¸"
      ],
      [
        "à¥",
        "¯"
      ],
      [
        "Ġà¤¸à¤¹",
        "à¤®à¤¤"
      ],
      [
        "à¤¹",
        "à¤ķ"
      ],
      [
        "Ġà¤¹",
        "à¤¥"
      ],
      [
        "à¤ĩà¤¸",
        "à¤²"
      ],
      [
        "Ġà¤¹",
        "à¤¸"
      ],
      [
        "à¤ľ",
        "à¤¸"
      ],
      [
        "à¤·",
        "à¤¤"
      ],
      [
        "à¤¯",
        "à¤¸"
      ],
      [
        "à¤¹",
        "à¤²"
      ],
      [
        "à¤ľ",
        "à¤§"
      ],
      [
        "Ġà¤¸à¤¦",
        "à¤¨"
      ],
      [
        "Ġà¤¨",
        "à¤ľà¤°"
      ],
      [
        "à¤¬",
        "à¤¤"
      ],
      [
        "à¤ĩà¤¸",
        "à¤®"
      ],
      [
        "à¤¹à¤°",
        "à¤£"
      ],
      [
        "à¤",
        "Ĭ"
      ],
      [
        "Ġà¤ķ",
        "à¤¬"
      ],
      [
        "Ġà¤ħ",
        "à¤ªà¤°"
      ],
      [
        "Ġà¤¤",
        "à¤¤"
      ],
      [
        "à¤ī",
        "à¤¸"
      ],
      [
        "Ġ2",
        "0"
      ],
      [
        "Ġà¤¤",
        "à¤¸"
      ],
      [
        "Ġà¤Ĩà¤µ",
        "à¤¶"
      ],
      [
        "Ġ",
        "5"
      ],
      [
        "à¤¥",
        "à¤°"
      ],
      [
        "Ġà¤ĸ",
        "à¤¬à¤°"
      ],
      [
        "à¤ħ",
        "à¤¬"
      ],
      [
        "Ġà¤®",
        "à¤ľà¤¬"
      ],
      [
        "à¤µ",
        "à¤§"
      ],
      [
        "Ġà¥",
        "®"
      ],
      [
        "à¤Ĺ",
        "à¤¢"
      ],
      [
        "Ġà¥¨",
        "à¥¦"
      ],
      [
        "I",
        "N"
      ],
      [
        "J",
        "O"
      ],
      [
        "à¤ª",
        "à¤®"
      ],
      [
        "à¤¡",
        "à¤®"
      ],
      [
        "Ġà¥§",
        "à¥¦"
      ],
      [
        "JO",
        "IN"
      ],
      [
        "à¤²",
        "à¤®"
      ],
      [
        "Ġà¤®à¤¤",
        "à¤¦"
      ],
      [
        "à¥ģ",
        "à¤ģ"
      ],
      [
        "à¤·",
        "à¤¦"
      ],
      [
        "Ġà¤ķ",
        "à¤Ł"
      ],
      [
        "Ġà¤¨",
        "à¤¯"
      ],
      [
        "Ġà¤Ĺ",
        "à¤¤"
      ],
      [
        "Ġà¤ķà¤°",
        "à¤ķ"
      ],
      [
        "à¤Ń",
        "à¤µ"
      ],
      [
        "à¤¶à¤¨",
        "à¤²"
      ],
      [
        "Ġà¤ķ",
        "à¤¦à¤®"
      ],
      [
        "Ġà¤ħ",
        "à¤¡"
      ],
      [
        "Ġà¤¤à¤ķ",
        "à¤¨"
      ],
      [
        "Ġà¤®",
        "à¤ķ"
      ],
      [
        "Ġà¤Ĺà¤ł",
        "à¤¬"
      ],
      [
        "à¤¨",
        "à¤Ĺà¤°"
      ],
      [
        "à¤²",
        "à¤¹"
      ],
      [
        "Ġà¤Ĺ",
        "à¤łà¤¨"
      ],
      [
        "à¤ĺ",
        "à¤°"
      ],
      [
        "Ġà¤ħ",
        "à¤¯"
      ],
      [
        "Ġà¤Ĺ",
        "à¤²à¤¤"
      ],
      [
        "à¤¥",
        "à¤®"
      ],
      [
        "à¤¤",
        "à¤µ"
      ],
      [
        "Ġà¤¸",
        "à¤¡"
      ],
      [
        "Ġà¤Ĩ",
        "à¤ķ"
      ],
      [
        "Ġà¥§à¥",
        "«"
      ],
      [
        "à¤°",
        "à¤ľ"
      ],
      [
        "à¤ª",
        "à¤²"
      ],
      [
        "à¤§",
        "à¤ķ"
      ],
      [
        "à¤ļ",
        "à¤°"
      ],
      [
        "Ġà¤ı",
        "à¤²"
      ],
      [
        "à¤",
        "Ĳ"
      ],
      [
        "à¤°",
        "à¤ĸ"
      ],
      [
        "à¤¦",
        "à¤²"
      ],
      [
        "à¥ĭà¤Ĥ",
        ","
      ],
      [
        "Ġà¤ħ",
        "à¤¸à¤®"
      ],
      [
        "Ġà¤ĸ",
        "à¤¡"
      ],
      [
        "Ġà¥§à¥",
        "¨"
      ],
      [
        "à¤Ł",
        "à¤®"
      ],
      [
        "Ġà¤ĸ",
        "à¤¤"
      ],
      [
        "Ġà¤ķ",
        "à¤¡"
      ],
      [
        "Ġà¤¶",
        "à¤ķ"
      ],
      [
        "à¤«",
        "à¤°"
      ],
      [
        "Ġà¤ªà¤¹",
        "à¤ļ"
      ],
      [
        "à¤µ",
        "à¤¯"
      ],
      [
        "Ġà¤¦",
        "à¤¶à¤ķ"
      ],
      [
        "à¤ī",
        "à¤¤"
      ],
      [
        "Ġà¤ķ",
        "à¤Ń"
      ],
      [
        "à¤£",
        "à¤¯"
      ],
      [
        "Ġ",
        "4"
      ],
      [
        "Ġà¤ħ",
        "à¤ľ"
      ],
      [
        "Ġà¤Ĩ",
        "à¤²"
      ],
      [
        "Ġà¤®",
        "à¤Ī"
      ],
      [
        "Ġà¤ĸ",
        "à¤¤à¤°"
      ],
      [
        "Ġà¤µ",
        "à¤¸"
      ],
      [
        "à¤·",
        "à¤ľ"
      ],
      [
        "Ġà¤ĩ",
        "à¤¤"
      ],
      [
        "Ġà¤ı",
        "à¤«"
      ],
      [
        "à¤ī",
        "à¤²"
      ],
      [
        "00",
        "0"
      ],
      [
        "Ġà¤Ĭ",
        "à¤ªà¤°"
      ],
      [
        "Ġà¤¤",
        "à¤®"
      ],
      [
        "Ġà¤ľà¤¨",
        "à¤µà¤°"
      ],
      [
        "à¤¹",
        "à¤¤à¤°"
      ],
      [
        "Ġà¤ħà¤®",
        "à¤°"
      ],
      [
        "à¤Ĳ",
        "à¤¸"
      ],
      [
        "à¤¤",
        "à¤¤"
      ],
      [
        "Ġà¤¸",
        "à¤ľ"
      ],
      [
        "Ġà¤²",
        "à¤ķ"
      ],
      [
        "à¤µ",
        "à¤ľà¤¨"
      ],
      [
        "Ġà¤¨",
        "à¤¦"
      ],
      [
        "à¤¡",
        "à¤ª"
      ],
      [
        "à¤Ľ",
        "à¤¤"
      ],
      [
        "Ġà¥",
        "¦"
      ],
      [
        "Ġà¤§",
        "à¤¨"
      ],
      [
        "Ġà¤ħ",
        "à¤¹"
      ],
      [
        "Ġà¤ĩ",
        "à¤ľ"
      ],
      [
        "Ġà¤ĩà¤¸",
        "à¤²"
      ],
      [
        "à¤ĩ",
        "à¤¨à¤®"
      ],
      [
        "Ġà¥§à¥",
        "§"
      ],
      [
        "à¤²",
        "à¤Ĺ"
      ],
      [
        "à¤®",
        "à¤¹"
      ],
      [
        "à¤¦",
        "à¤ķ"
      ],
      [
        "à¤¦",
        "à¤¸"
      ],
      [
        "à¤¬",
        "à¤¨"
      ],
      [
        "à¥ī",
        "."
      ],
      [
        "à¤°",
        "à¤ļ"
      ],
      [
        "Ġà¤®",
        "à¤²"
      ],
      [
        "Ġà¤ħ",
        "à¤ĸ"
      ],
      [
        "Ġà¤Ĩ",
        "à¤ķà¤°"
      ],
      [
        "Ġà¤īà¤ª",
        "à¤ķà¤°à¤£"
      ],
      [
        "Ġà¤ł",
        "à¤¹à¤°"
      ],
      [
        "Ġà¤Ĭ",
        "à¤°"
      ],
      [
        "Ġ20",
        "1"
      ],
      [
        "Ġà¤®",
        "à¤¸"
      ],
      [
        "Ġà¥",
        "¯"
      ],
      [
        "à¤ľ",
        "à¤µ"
      ],
      [
        "à¤¬",
        "à¤°à¤®"
      ],
      [
        "à¤¶",
        "à¤¤"
      ],
      [
        "Ġà¤Ń",
        "à¤µ"
      ],
      [
        "Ġà¥¨",
        "à¥«"
      ],
      [
        "à¤¤",
        "à¤ľ"
      ],
      [
        "à¤ª",
        "à¤Ł"
      ],
      [
        "Ġà¤¤",
        "à¤Ł"
      ],
      [
        "Ġà¤ķà¤¹",
        "à¤¤"
      ],
      [
        "à¤ī",
        "à¤¸à¤ķ"
      ],
      [
        "Ġà¤²à¤Ĺ",
        "à¤¤"
      ],
      [
        "Ġà¥§à¥¯à¥",
        "¯à¥"
      ],
      [
        ")",
        ","
      ],
      [
        "Ġà¤®",
        "à¤°"
      ],
      [
        "à¤®",
        "à¤Ĺ"
      ],
      [
        "à¤ª",
        "à¤£"
      ],
      [
        "Ġà¤¦",
        "à¤µ"
      ],
      [
        "Ġà¤ľ",
        "à¤¸"
      ],
      [
        "à¤¡",
        "à¤¨"
      ],
      [
        "Ġà¤Ĩ",
        "à¤°à¤ķ"
      ],
      [
        "à¤°à¤ķ",
        "à¤°"
      ],
      [
        "à¤ħ",
        "à¤§"
      ],
      [
        "Ġà¤ľà¤¨",
        "à¤°à¤²"
      ],
      [
        "Ġ",
        "7"
      ],
      [
        "Ġà¤¨",
        "à¤Łà¤µà¤°"
      ],
      [
        "à¤¬",
        "à¤¦"
      ],
      [
        "Ġà¤ĩ",
        "à¤¤à¤¨"
      ],
      [
        "Ġà¤ı",
        "à¤¯à¤°"
      ],
      [
        "à¥¦à¥¦",
        "à¥¦"
      ],
      [
        "à¤¨à¤¤",
        "à¤®"
      ],
      [
        "à¤¨",
        "à¤Ł"
      ],
      [
        "à¤¦",
        "à¤¦"
      ],
      [
        "à¤¦",
        "à¤Ĺ"
      ],
      [
        "à¤Ĺ",
        "à¤µ"
      ],
      [
        "à¤§",
        "à¤¤"
      ],
      [
        "à¤¥",
        "à¤ķ"
      ],
      [
        "à¤ĵ",
        "à¤µ"
      ],
      [
        "Ġ",
        "6"
      ],
      [
        "à¤¯",
        "à¤ķà¤°"
      ],
      [
        "Ġà¤Ĩ",
        "à¤¬"
      ],
      [
        "Ġà¤ļ",
        "à¤°à¤£"
      ],
      [
        "à¤ħ",
        "à¤¨"
      ],
      [
        "Ġ1",
        "8"
      ],
      [
        "Ġà¤ħà¤µ",
        "à¤§"
      ],
      [
        "à¤°",
        "à¤Ĺ"
      ],
      [
        "à¤¨",
        "à¤¦"
      ],
      [
        "Ġà¤ħ",
        "à¤¸à¤°"
      ],
      [
        "à¤¬",
        "à¤¹à¤°"
      ],
      [
        "Ġà¤ĩ",
        "à¤®"
      ],
      [
        "Ġà¤ħà¤¹",
        "à¤®à¤¦"
      ],
      [
        "à¤¯",
        "à¤¯à¤¨"
      ],
      [
        "Ġà¤¸à¤®",
        "à¤ķ"
      ],
      [
        "Ġà¤īà¤¸",
        "à¤¸"
      ],
      [
        "Ġà¥§à¥",
        "ª"
      ],
      [
        "Ġà¤ªà¤ķ",
        "à¤¡"
      ],
      [
        "à¤ª",
        "à¤¹à¤°"
      ],
      [
        "à¤·",
        "à¤®à¤¤"
      ],
      [
        "Ġà¤ķ",
        "à¤¨"
      ],
      [
        "à¤¯",
        "à¤¸à¤Ń"
      ],
      [
        "Ġà¤®",
        "à¤¶"
      ],
      [
        "à¤·",
        "à¤¯"
      ],
      [
        "Ġà¤ī",
        "à¤°"
      ],
      [
        "Ġà¤ī",
[...]
